Ġ Ð
Ð ¾
Ð µ
Ð °
Ð ¸
Ð ½
Ñ Ĥ
Ñ ģ
Ñ Ģ
Ð¾ Ð
Ð »
Ð º
Ñ ĥ
Ð ²
Ñ ı
Ð ¼
Ñ ĭ
Ñģ ÑĤ
Ð ´
ĠÐ ¿
Ñ Į
ĠÐ ²
Ðµ Ð½
ÑĢ Ð°
Ñ ĩ
Ð¾Ð ²
Ð ·
Ġ Ñģ
ĠÐ ¸
Ñ ħ
Ð ¹
Ð ¿
Ñģ Ðº
ĠÐ ¾
ĠÐ ½
ÑĢ Ðµ
Ð° Ð½
Ð ±
Ð ³
Ð¾Ð ´
ÑĢ Ð¸
Ð¾Ð »
ĠÐ º
Ð½ Ñĭ
Ñ Ĩ
Ð° Ð»
Ð¾Ð ¼
Ñ İ
Ð¾ ÑĢ
Ð¾Ð ³
Ðµ ÑĢ
Ðµ Ð»
ĠÐ ´
Ðµ ÑĤ
Ð¾Ð ¹
ĠÐ ³
Ð ¶
ÐµÐ½ Ð¸
Ð¾ Ð½
Ñ Ī
ĠÐ½ Ð°
Ġ ÑĤ
ĠÐ ¼
Ð½ Ð¾
Ð° ÑĤ
Ð¸ ÑĤ
â Ģ
Ñ Ħ
Ð¸ Ð½
âĢ Ķ
ĠÐ ±
Ð» Ð¸
Ð¾ ÑĤ
ÑģÑĤ Ð²
Ð¾ Ñģ
Ġ 1
Ġ (
Ġ âĢĶ
Ð¾Ð³ Ð¾
Ñ ī
Ð½ Ð¸
Ðµ Ð¼
Ð» Ð°
ĠÐ Ĵ
ÑģÐº Ð¸
Ð° Ðº
ĠÐ ¡
ÑĨ Ð¸
Ñģ Ñı
Ð° ÑĢ
ĠÐ °
ĠÐ ·
Ñ ĳ
Ð¼ Ð¸
Ġ Ñĥ
Ðµ Ð¹
ĠÐ Ł
Ð°Ð½ Ð¸
Ñĩ Ðµ
Ð° Ñı
Ñ į
Ðº Ð°
ÑĢ Ñĥ
Â «
Â »
Ġ ÑĢÐ°
Ġ Ñĩ
Ġ Â«
Ðµ Ð´
ÑĤ Ð¸
ĠÐ¿ ÑĢ
Ð¾ ÑģÑĤ
ĠÐ ļ
Ð¾Ð ±
Ð» Ñı
Ð° Ð²
ÐµÐ» ÑĮ
ĠÐ¾ Ð±
Ðµ Ðº
ĠÐ³ Ð¾Ð´
ĠÐ¾ ÑĤ
Ð¸ Ð»
Ð¸ Ñģ
Ð¾Ð º
Ġ Ñį
ĠÐ Ĳ
Ġ ÑģÑĤ
ĠÐ¿ ÑĢÐ¸
ÐµÐ½Ð¸ Ñı
Ðµ Ð²
ĠÐ ľ
Ð½Ñĭ Ñħ
Ðº Ð¸
Ð¾Ð» ÑĮ
ÑĢÐµ Ð´
Ð¾Ð ·
ĠÐ½ Ðµ
Ġ1 9
Ð½ Ð¾Ð¹
ĠÐ »
Ð¾Ð ¶
ÑĤ Ð¾
Ġ 2
ĠÐ¸ Ð·
Ġ ÑĦ
Ð° Ð¼
ÑģÑĤ Ð¸
ĠÐ± Ñĭ
Ð°Ð» ÑĮ
ÑģÐºÐ¸ Ð¹
Ñģ Ð¸
Ð¾Ð ¿
ĠÐ ł
ĠÐ¿ Ð¾
Ð½Ñĭ Ðµ
ĠÐ Ŀ
Ð½Ñĭ Ð¹
Ð½ Ð°
Ð³ Ð¾
Ñģ Ð¿
Ð¸ Ð¼
Ð½ Ð¾Ð³Ð¾
ĠÐ µ
ÑĢ Ð¾Ð²
ĠÐ ĵ
ÐµÐ½Ð¸ Ðµ
ĠÐ ĳ
Ñĥ Ñİ
Ð¸ Ð·
ĠÐ ŀ
Ð¸ Ð²
ÐµÐ½ ÑĤ
Ġ ÑĢÐµ
ĠÐ Ķ
ĠÐ² Ñĭ
ÑģÐº Ð¾Ð¹
Ð´ Ð°
ĠÐ ĺ
Ð» ÑĮ
ĠÐ ¢
ÑģÑĤ ÑĮ
ĠÐ· Ð°
ÑģÐº Ð¾Ð³Ð¾
Ð¸ Ñħ
Ðµ ÑĢÐ°
ĠÑģ Ð²
ÑĢÐ° Ð²
Ñİ ÑĤ
Ðµ ÑĢÐµ
Ðº Ð¾Ð²
Ñĥ ÑĢ
Ð ¡
ĠÐ ¶
ĠÐ¿ Ð¾Ð»
Ð² Ð°
Ð¸ ÑĩÐµ
Ð¼ Ðµ
ĠÐ³Ð¾Ð´ Ð°
) ,
ÑĤ Ð°
ÑĢÐ° Ð½
ĠÐ Ľ
ÐµÑĤ ÑģÑı
Ð¾ÑĤ Ð¾ÑĢ
Ġ Ñı
ĠÑĢÐ° Ð·
Ñĥ Ð´
) .
Ġ2 0
ÑĨÐ¸ Ð¸
Ð¶ Ðµ
Ñī Ðµ
Ð¸ Ðµ
Ð¸ Ð´
Ð½ Ð°Ñı
Ðµ Ñģ
Ñı ÑĤ
Ð°Ð½Ð¸ Ñı
Ñĥ ÑĤ
Ð¾ Ñĩ
Ð¸ Ð¸
Ñħ Ð¾Ð´
Ð¸ Ðº
Ð¸ Ñı
ĠÑĤ Ð°Ðº
Ð¸ ÑģÑĤ
ĠÐ¿ÑĢ Ð¾
Ð° Ñģ
Ð°ÑĤ ÑĮ
Ð¸ Ð¹
Ð· Ñĭ
ĠÐ¿ Ð¾Ð´
Ð» Ðµ
Ð¾ Ðµ
Ð° Ð´
Ñĥ Ñĩ
Ð½ Ð¾Ð²
ÑģÑĤÐ² ÐµÐ½
ĠÐº Ð¾ÑĤÐ¾ÑĢ
Ð¸ÑĤ ÐµÐ»ÑĮ
Ġ Ñħ
Ð½ Ðµ
ÑĢÐµ Ð¼
Ð¶ Ð´
ĠÐ ¤
Ñĭ Ñħ
Ð½Ñĭ Ð¼
Ġ ÑĢ
ĠÐ³Ð¾Ð´ Ñĥ
Ð½Ð¾ Ðµ
Ð¾ÑĢ Ð¾Ð´
ĠÐ±Ñĭ Ð»
Ðµ ÑĢÐ¸
ĠÐ¿ ÑĢÐµÐ´
ÑģÑĤÐ² Ð°
Ñĭ Ðµ
Ð¼ Ð°
ĠÐ¾ Ñģ
ĠÑĩ ÑĤÐ¾
ÑģÐºÐ¸ Ñħ
ÑĢ Ð¾
Ð° Ð·
ÑģÐº Ð°Ñı
Ð» ÐµÐ½
ĠÑģ Ð¾
Ðµ ÑģÑĤ
Ð¾ ÑĢÐ¸
Ġ ÑĨ
Ð½ Ð¾Ð¼
ÑĢÐ° Ð·
ĠÐº Ð°Ðº
Ðº ÑĤ
Ñĳ Ð½
ÐµÑĢ Ð²
Ðµ Ð·
Ð°Ð» Ð¸
ĠÑģ Ð»
Ð° Ñħ
ĠÐ´ Ð»Ñı
Ð½ Ñı
ÑģÑĤÐ² Ð¾
Ð½Ð¾ ÑģÑĤÐ¸
ĠÐ¿ Ð¾Ñģ
Ñĥ Ð±
Ð½Ð¾ ÑģÑĤÑĮ
Ñĭ Ð¹
Ð° Ð¹
ĠÐº Ð¾Ð½
Ð°Ð½Ð¸ Ðµ
Ñĥ Ñģ
ĠÐ¿ ÑĢÐµ
Ð¸ Ñĩ
ĠÐ¸ Ð¼
ÑĢ Ñı
ĠÐ¾ Ð´
ĠÐ Ń
Ðº Ð¾
ÑĢ Ñĭ
Ð° Ð¼Ð¸
ÑĢÑĥ Ð³
Ġ ÑĪ
ÑĤ Ð¾ÑĢ
ĠÐ¾ Ð¿
Ñĥ Ð¼
Ñģ Ðµ
Ð¸ Ð»Ð¸
1 9
Â» ,
Ð°Ð½ Ð´
Ð¾ Ñı
ĠÐ £
ÑģÐºÐ¸ Ðµ
Â» .
ĠÐº Ð¾Ð¼
ĠÐ¸ Ð½
0 0
Ð¾Ñģ ÑģÐ¸
Ñĥ Ð½
ĠÐ² Ð¾
Ñĩ Ð°
ĠÐ³ Ð¾ÑĢÐ¾Ð´
Ð°ÑĤ ÐµÐ»ÑĮ
ĠÑģ Ð¿
Ð» ÐµÐº
ĠÐ ķ
ĠÐµ Ð³Ð¾
ĠÐ Ĺ
ĠÐ¿ ÐµÑĢÐµ
Ð» ÐµÐ´
Ð ł
ĠÑģ Ð¾ÑģÑĤ
Ð¸Ð½ Ð°
ĠÐ´ Ð¾
Ð Ĳ
Ñİ Ñī
Ð· Ð°
Ġ1 8
Ñĥ Ð¿
Ð¸ ÑĢ
Ðµ Ðµ
Ð¼ ÐµÑĢ
ĠÑį ÑĤ
ÑĨÐ¸ Ñı
Ð»Ð° Ð²
Ñĥ Ð»ÑĮ
Ð» Ñİ
ĠÑĩ Ð°
ĠÑĤ Ðµ
Ð¸ÑĤ ÑĮ
Ðº Ðµ
ÑĨÐ¸ Ð¾Ð½
ĠÑĤÐ°Ðº Ð¶Ðµ
ĠÐ² Ð¾Ð·
ĠÑģ Ð¾Ð²
Ð° ÑĢÐ°
Ð° Ð³
ĠÐ ¥
Ð¾ ÑĢÐ°
Ð¸ Ð±
Ñģ ÑĮ
Ð ļ
Ð¾Ð»ÑĮ ÑĪ
Ð°Ð» Ð°
Ð Ł
ĠÐ² ÑĢÐµÐ¼
Ð¾Ð½ Ð°
Ð¸Ð» ÑĮ
Ġ 3
Ð½Ð¸ Ðº
Ñ Ĭ
Ð¼ ÐµÐ½
ĠÐ´ Ðµ
Ð°Ð½ Ð¾Ð²
ÑģÐº Ð¾Ð¼
Ġ ÑĢÑĥ
ĠÐ¸ ÑģÐ¿
ĠÐĿ Ð°
ĠÐ¿ ÑĢÐ°Ð²
Ð± Ð¾ÑĤ
Ġ I
Ð² Ð¸
Ð° ÑĢÐ¸
ÑĤ Ñĥ
Ð» Ð¾
Ð² Ð»Ñı
Ð´ Ðµ
Ð¾Ð» Ð¾Ð³
ĠÐ¸ Ð»Ð¸
Ð² ÐµÑĢ
ÑģÑĤ Ð°Ð²
Ñĥ Ð¶
Ñģ Ð°
ÐµÐ½Ð¸ Ð¸
Ð» Ð¾Ð²
ĠÐ¼ Ðµ
Ð´ Ð¸
Ð½Ñĭ Ð¼Ð¸
Ñĳ ÑĤ
Ð½Ð° Ñĩ
ĠÐ½Ð° Ñĩ
ĠÐ §
ÑĨ Ð°
Ð°Ð½ Ð°
ÑİÑĤ ÑģÑı
ĠÐ¾ Ðº
Ð½ ÑĥÑİ
Ð³ Ð¸
Ð² Ð¾Ð´
ÐµÐ» Ñı
ĠÐ´ ÑĢÑĥÐ³
Ðº Ñĥ
ĠÐ¿ ÐµÑĢÐ²
Ð¾Ð»ÑĮ Ð·
ÑĤ ÑĮ
Ð¾Ð³ ÑĢÐ°
ĠÑģÐ² Ð¾
Ñģ Ñģ
Ġ20 0
ĠÐł Ð¾ÑģÑģÐ¸
ÑĢ Ð¾Ð¼
ĠÐ¾Ñģ Ð½Ð¾Ð²
Ð ŀ
ÑĢ Ð¾Ð´
ÐµÐ½ Ð°
Ñĥ ÑīÐµ
ĠÐ° Ð²
ÐµÐ» Ð¸
ĠÐ° ÑĢ
Ñĭ Ð¼
ÑĢÑĥ Ð¿
ÐµÐ½Ð¸ Ð¹
ÐµÐ½ ÑĮ
Ðµ Ñĩ
ĠÑı Ð²Ð»Ñı
Ð± ÑĢÑı
ĠÐŁ ÑĢÐ¸
Ð³ Ð°
ĠÑģ Ð°Ð¼
Ð¸Ñģ ÑĮ
ĠÐ ¨
ĠÐ² ÑģÐµ
Ġ20 1
ÑĤÐ¸ Ð²
Ð¾Ñģ ÑĥÐ´
ĠÐ² Ð¾Ð¹
Ð¿ ÑĢÐ¸
Ð°Ð½Ð¸ Ð¸
ĠÐ¾ ÑĢ
Ð¾Ñģ ÑĮ
ĠÑģ Ð¾Ð±
ÑģÐº Ð¾Ðµ
Ð¾ÑģÑĥÐ´ Ð°ÑĢ
e r
ÑĤ Ðµ
ÑĪ Ðµ
ĠÐ¾ Ð½
Ð¸ ÑĢÐ¾Ð²
Ð³ Ñĥ
Ð³ ÑĢÐ°
ÐµÑĤ Ð°
ĠÐ° Ð½
ĠÐ¸ ÑģÑĤ
ĠÑģÐ¾ÑģÑĤ Ð°Ð²
ĠÐ¾Ð± ÑĢÐ°Ð·
Ġ 4
ĠÑį Ðº
ĠÐ¿ Ð¾ÑģÑĤ
Ð½ ÐµÐ¹
Ġ X
Ð¾Ð»ÑĮ ÐºÐ¾
Ð¾Ð» ÐµÐµ
Ð» ÐµÐ½Ð¸Ñı
Ñĥ Ñħ
ÑĦ Ð¸
Ñı Ð·
Ðµ ÐºÐ°
ĠÐ¾Ð± Ð»Ð°
ÐµÑĢ Ð¶
Ġ 5
ÑĤ Ð¾Ð²
ĠÐº Ð°
Ñı Ð½
Ð¸ Ð¼Ð¸
ÑĢ Ð¾Ð¿
Ð· Ð²
Ð¸ Ð¿
Ð¾Ð· Ð´
Ġ19 9
Ð Ĵ
Ðµ ÑĨ
Ñĥ Ð»
ĠÐ±Ñĭ Ð»Ð¸
ĠÐ¿ÑĢ Ð¾ÑĤ
Ð¾ÑģÑĤ Ð¸
Ð¿ ÑĢÐ°Ð²
ĠÐ¿ÑĢÐ¾ Ð¸Ð·
ĠÐ¸ÑģÐ¿ Ð¾Ð»ÑĮÐ·
ÐµÐ» Ð¾Ð²
Ð ľ
ĠÐ²ÑĢÐµÐ¼ Ñı
ÑĨ Ñĭ
Ð¼ Ñĭ
ĠÑĢÐ° ÑģÐ¿
ĠÐ±ÑĭÐ» Ð¾
Ð¸ Ð»Ð°
Ñĳ ÑĢ
Ð Ŀ
Ñĥ Ð·
ĠÐĲ Ð½
ĠÑı Ð·Ñĭ
ĠÐ´ Ð²
ĠÑĤ ÐµÑĢ
ĠÐ± Ð¾Ð»ÑĮÑĪ
ÐºÐ° Ð·
ĠÐº Ð¾ÑĢ
Ġ %
Ñĳ Ð¼
Ð´ ÐµÐ»
ĠÐ· Ð°Ðº
ÑĥÐ»ÑĮ ÑĤ
ÐµÐ½Ð¸ Ñİ
ĠÐ½ Ð¾
ÐµÐ½ Ñĭ
ÑĤ Ð¾Ð¼
ĠÐ¼ ÐµÑģÑĤ
ĠÐ ¦
Ðµ Ð¿
ÑĢÐ° Ð¶
ÐµÐ¹ ÑģÑĤÐ²
ĠÐ¾Ð± ÑĬ
ÐµÐ½Ð¸ ÐµÐ¼
ĠÐºÐ¾Ð¼ Ð¿
Ðº Ð°Ð½
ÑĢ Ð¾Ð½
Ð² ÐµÑĤ
ĠÑģ ÑĢÐµÐ´
Ð½ Ð°Ðº
I I
ĠÑĩ Ð¸Ñģ
ĠÑĢÐ° Ð±Ð¾ÑĤ
ÑĤÐ¾ ÑĢÐ¸
ĠÐ¼ Ð½
ÑģÐºÐ¸ Ð¼
Ð¼ Ñĥ
ĠÐ·Ð° Ð¿
ĠÐ¿ Ð°ÑĢ
ĠÐ½Ð° Ñģ
ĠÐ±Ñĭ Ð»Ð°
Ð¸ÑģÑĤ ÐµÐ¼
Ð° Ð±
ĠÐº Ð¾Ð»
ĠÐ³ Ð¾ÑģÑĥÐ´Ð°ÑĢ
ĠÐ¼ Ð¾Ð¶
Ð¡ Ðł
Ð² ÐµÐ´
Ñĥ Ðº
Ð½Ð¸ ÐºÐ°
ÑĥÑīÐµ ÑģÑĤÐ²
Ð¼ Ð°ÑĤ
ĠÐ² ÐµÑĢ
ÑĦ Ð¾ÑĢ
Ñģ Ð¾Ð²
Ð¾Ð» Ð¶
ĠÑĩ ÐµÐ»Ð¾Ð²
Ðµ Ð±
Ð¸ ÑĢÐ°
ÑĤ Ñĭ
ĠÐ¿Ð¾Ð» ÑĥÑĩ
ÑĥÐ± Ð»Ð¸
Ð°Ð» Ð¾
ĠÐŁ Ð¾
ĠÐ¿ Ð»
Ð° ÐµÑĤ
Ñĭ ÑĪ
Ð¿ Ð¾Ð»
Ð¾Ð³ Ð´Ð°
a n
i n
ĠÐ¸ Ñħ
ĠÑģ Ðº
Ð»Ð° Ñģ
ĠÐ³ ÑĢÐ°
ĠÑģ Ð¸ÑģÑĤÐµÐ¼
ĠÑĤ Ð¾
ĠÐ¼Ðµ Ð¶Ð´
ÑĥÑİ Ñī
ĠÑĦ Ð¾ÑĢ
Ð² Ð¾Ð»
ÑĨÐ¸ Ð°Ð»ÑĮ
ĠÐ ®
ÑĢ Ð¾Ñģ
ĠÐ ¯
ĠÑĥ Ñĩ
Ð Ķ
ĠÐ· Ð°Ð²
Ð° Ð¿
Ġ ÑĩÐµ
Ð¾ ÑĢÐµ
ĠÐ¾ ÑģÑĤ
Ġ 6
Ð¸ ÑĨ
ĠÐ¿ÑĢ Ð¾Ð²
ÑģÑĤÐ² Ðµ
ĠÐ½ Ð¾Ð²
Ð´ Ð¸Ð½
Ð·Ñĭ Ð²Ð°
Ðº ÑĢÐ°
o n
ĠÐ¾ÑĢ Ð³
2 0
1 8
Ð¾Ð¶ Ð´
Ġ1 7
ÐµÐ½ Ð½Ð¾
ĠÐ¶ Ðµ
ÑģÑĤ ÑĥÐ¿
Ð³ Ð¾Ð²
Ð°ÑĢ Ñı
ĠÐ¿ Ð¾Ð²
Ð ¢
ĠÐ¿ÑĢÐµÐ´ ÑģÑĤÐ°Ð²
ĠÐ¾ÑĤ Ð½Ð¾
Ð¾Ð½ Ð¾Ð¼
Ð» ÐµÐ½Ð¸Ðµ
Ð»Ñİ Ñĩ
ĠÑıÐ²Ð»Ñı ÐµÑĤÑģÑı
Ðµ ÑĢÐµÐ´
Ð ĺ
ĠÐ¿ÑĢ Ð¾Ð´
Ñĳ Ð»
ĠÑĢÐ° Ð¹
ĠÐłÐ¾ÑģÑģÐ¸ Ð¸
Ñı ÑĤÐ¸
Ð½Ð¸ ÐºÐ¾Ð²
Ð¼ Ð¸Ð½
ĠÐ¸ÑģÑĤ Ð¾ÑĢÐ¸
Ð¾ ÑģÐº
Ð¾Ð² Ð°
Ð ĵ
Ð»Ð¸ Ñĩ
Ð»Ð° Ð´
Ð»ÐµÐ´ Ð¾Ð²
ĠÐ¿ Ð¾Ðº
Ð² Ðµ
ĠÐ² Ð¸Ð´
ÑĮ Ñİ
ÐµÐ» ÐµÐ¹
ĠÐ¡ ÑĤ
Ġ S
ÑĤÐ¸ ÑĩÐµ
Ð°Ð» ÑģÑı
ĠÐ± Ð¾Ð»ÐµÐµ
ÑĢÑĥÐ¿ Ð¿
Ð¸ÑĤ ÑģÑı
e n
ĠÑĢÑĥ Ñģ
Ð°Ð» Ð¸ÑģÑĮ
ĠÐ¼ ÐµÑĤ
Ð° ÑĪ
ÑĢÐµ Ð·
ÑģÐº Ð°
ĠÑį ÑĤÐ¾
Ð¾Ð± Ñĭ
ĠÐ¸ Ñİ
ĠÐ¿Ð¾Ñģ Ð»Ðµ
ĠÐ²Ñĭ Ñģ
Ð»ÐµÐº Ñģ
ĠÑĤ Ð¾Ð¼
ÑĢÐ¸ ÑĤÐ¾ÑĢÐ¸
Ñĥ ÑĪ
ÑĪ Ð¸Ð¹
Ð¸ÑĤ Ð°
ĠÑģÑĤ ÑĢÐ°
Ð¿ Ð¸
ĠÑģ Ð¾Ð·Ð´
ĠÑģÐ¾Ð² ÐµÑĤ
ĠÐ¸Ð¼ Ð¿
ĠÑĥ ÑģÑĤ
ÑĢÐµ Ð²
ĠÑĢÐ° Ñģ
Ð¾ ÑĦ
ĠÑģÐ² ÑıÐ·
Ġ 7
Ð¡ Ð¡Ðł
ÑĢÐ¸ ÑĤ
ĠÐ¸ Ð¼Ðµ
ĠÐ» ÐµÑĤ
Ġ19 8
ĠÐ» Ñİ
ĠÐ´ Ð¸
ĠÑĩÐ° ÑģÑĤ
Ñĥ ÐµÑĤ
Ġ19 4
Ðµ ÑģÐ¿
ĠÐ² Ñģ
Ð¸ ÐºÐ°
Ð ĳ
ÑĨÐ¸ Ð¹
Ð¸ Ð½Ñĭ
Ð» Ð¸Ð½
Ð» ÐµÐ¼
ĠÑĢÐ°Ð· Ð²
ĠÐ¼ Ð°ÑĤ
ÐµÐ´ Ð¸Ð½
ÑĪ Ð¸Ñħ
Ð½Ð¸ Ðµ
Ð¸ ÑĪ
Ð¾Ð³ÑĢÐ° ÑĦ
Ðº ÑĢÑĭ
Ð¿ Ð¸Ñģ
ĠÑĢÐµ Ð·
ĠÐ² ÐµÐºÐ°
Ðµ Ð¶
Ñģ Ñĭ
ĠÐ½Ð° Ð·Ð²
ĠÐ¿ÑĢÐ¾ÑĤ Ð¸Ð²
ÑĢÐµ Ð±
Ð°Ð½ Ñĭ
ĠÐ· Ð½Ð°Ñĩ
Ñĭ Ñģ
Ġ C
ÑģÑĤ Ð°
ĠÐ³Ð¾ÑĢÐ¾Ð´ Ð°
Ð¼Ðµ ÑĢÐ¸
Ñı Ñī
Ð¸ÑĤ ÐµÑĢÐ°
Ð½Ð¸ Ð¼
ĠÐ¼ Ð°ÑĢ
Ġ 8
ÐµÑĢ Ð³
Ð»ÐµÐº ÑĤ
Ð ¤
ÑıÑĤ ÑĮ
ĠÐ² Ð¾Ñģ
Ðº Ð¾Ð¼
Ð¿ ÑĢÐµ
Ð¾ ÑĪ
Ì ģ
Ġ19 7
Ġ 9
ĠÑĤ Ð¾Ð»ÑĮÐºÐ¾
Ġ19 6
ĠÐµ Ñĳ
Ðµ Ð³
Ð ¨
Ð¾ÑĢ ÑĤ
ÐµÑĢ Ð¼
Ð± Ñĭ
ĠÐ´ ÐµÐ¹ÑģÑĤÐ²
ĠÑĨ ÐµÐ½ÑĤ
ĠÑģ Ñĩ
Ġ Ñİ
Ð¸ ÐºÐ¸
ÐµÐ² ÐµÑĢ
ĠÐ¡ Ð¡Ð¡Ðł
ÑĨÐ¸ Ñİ
ĠÐ¾Ð± ÑīÐµ
Ñı Ð²
ĠÐ¿ Ð¾Ð¼
ĠÑĤÐµÑĢ ÑĢÐ¸ÑĤÐ¾ÑĢÐ¸
ĠÐ¿ Ð¾ÑĤ
ĠÐ¢ Ð°Ðº
ĠÐ¿ Ð¾Ð·
o r
Ð°Ð» Ð¸Ð·
ÑıÑĤ ÐµÐ»ÑĮ
ĠÐĲ ÑĢ
ĠÐ³ ÑĢÑĥÐ¿Ð¿
ĠÑĤ ÐµÐ¼
Ð°ÑĤ Ð°
ĠÐ¼ÐµÐ¶Ð´ Ñĥ
ÑĢÐ° ÑĤ
Ð¾ Ñħ
ĠÑĩ ÐµÐ¼
Ðº Ð¾Ð¹
Ġ1 5
Ñĥ Ñī
Ġ A
Ñı Ð±ÑĢÑı
Ð¾ Ð½Ñĭ
e s
Ð½ Ñĥ
Ð½Ð°Ðº Ð¾
ĠÑĥ ÑĩÐ°
ĠÐ ĸ
ÑĨ ÐµÐ²
Ð½Ð¸ ÐºÐ¸
Ð² ÐµÑģÑĤ
Ð°ÑĤ Ñĭ
ÐµÐ½ Ð¾
ĠÐ´ ÐµÐ»
ĠÐ¾ÑĢÐ³ Ð°Ð½Ð¸
Ġ1 0
ĠÐ¸ ÑģÐº
ÐµÑĢ Ð±
ĠÐ² Ð¾Ð´
ĠÑĤ ÐµÐ»
ĠÐķ Ð²
a r
Ð°ÑĤ Ðµ
ĠÐ¾Ð±Ð»Ð° ÑģÑĤÐ¸
ĠÐºÐ¾ÑĤÐ¾ÑĢ ÑĭÐµ
ĠÑįÑĤ Ð¾Ð¼
Ġ19 3
ĠÐ´ Ð°Ð½
ÑĢÐµÐ¼ ÐµÐ½
Ġ /
Ð¼ ÐµÐ½ÑĤ
Ñı Ð´
ĠÐļ Ð¾Ð½
Ðµ Ñħ
ĠÐ¸ÑģÐ¿Ð¾Ð»ÑĮÐ· Ð¾Ð²
ÑĢÐ° Ñģ
ÑĤ ÑĥÑĢ
ÑģÐº ÑĥÑİ
Ð¾Ð¶ Ðµ
Ð¸ Ð½Ð¾
Ð¸Ð» ÑģÑı
Ġ M
ĠÐ¼ Ð¾Ð³
Ð¼ Ð¾Ð¶
Ð¾Ð½ Ðµ
Ð¾ÑģÑĤ ÑĮ
ĠÐ¡ Ð¾Ð²
Ð°Ð» Ð¾ÑģÑĮ
ĠÐĶ Ð¶
Ð¾ÑģÑģÐ¸ Ð¹
ÑĨÐ¸Ð¾Ð½ Ð°Ð»ÑĮ
ĠÐ½Ð°Ñģ ÐµÐ»
ĠÐºÐ¾ÑĤÐ¾ÑĢ ÑĭÐ¹
ÑĮ Ñı
ĠÐ¾Ð¿ ÑĢÐµÐ´
Ð¾ Ñī
ĠÐ¿ Ð¾Ð¿
ÐµÐº Ð¾ÑĤÐ¾ÑĢ
ĠÑį ÑĤÐ¸
ÑĥÑĢ Ð³
ĠÐ½Ð° ÑħÐ¾Ð´
ÑĤÑĥ ÑĢÐ°
Ð°Ð½ ÑĤ
Ð¸Ð² Ð°
ÑĪ Ð¸Ðµ
ÑĥÑİ ÑĤ
Ġ P
Ð» ÐµÑĤ
ĠÐĲ Ð»ÐµÐºÑģ
ĠÐŁ Ð¾Ñģ
Ð°ÑĢ ÑĤ
ĠÑģÐ¾ÑģÑĤ Ð¾Ñı
ĠÐ½ ÐµÐ¼
Ð¾Ð½ Ð¾Ð²
ĠÐ¿Ð¾Ð» Ð¸ÑĤ
ĠÐ± ÐµÐ·
ĠÑģÐ» ÐµÐ´
ĠÐ¼Ð¾Ð¶ ÐµÑĤ
Ð½Ð¾Ð¼ Ñĥ
ĠÐŀ Ð±
ĠÐľ Ð¾ÑģÐº
ĠÐ¾ÑĤ ÐºÑĢÑĭ
Ġ1 6
a l
Ð½ ÑĥÑĤ
ĠÐ¾Ð±ÑĢÐ°Ð· Ð¾Ð²
Ð¾ÑĢ Ð¾Ð²
ÑĢÐ° Ñī
ÑĤÐ¾ ÑĢÐ°
Ð¾ÑģÑĤ ÑĢÐ°Ð½
Ð¸Ð½ Ðµ
ĠÐºÐ¾Ð½ ÑĨ
ĠÐ³ Ð»Ð°Ð²
ĠÐ¿ Ð¸Ñģ
ĠÐ¿ ÐµÑĢÐµÐ´
ĠÐ² Ð»Ð°
Ð¸ÑĤ Ñĥ
ĠÐŀ Ð´
Ð°ÑĤÑĮ ÑģÑı
Ð¾Ð» Ð¾
Ð´ Ð¾Ð²
Ð°Ð½ Ð¾
Ð°ÑĢ Ð¾Ð´
Ð´ Ñĭ
ÐºÐ¸ Ð¹
ĠÐĺ Ð½
Ð £
Ð» Ð¾Ð¶
ĠÑĥ Ð½Ð¸
ÑģÑĤ Ðµ
ĠÐ¿ Ð¾ÑĢ
ĠÑģ ÑĥÑīÐµÑģÑĤÐ²
Ð½Ðµ Ðµ
ĠÐ³ Ð´Ðµ
ĠÐ¿ ÐµÑĢÐ¸
ÑĢÐ° Ðº
Ð¸ Ð³
Ð¾Ð» Ð½
ÐµÑĤ Ñĭ
Ð¼ÐµÑĢÐ¸ ÐºÐ°Ð½
Ð¼Ðµ Ñĩ
a t
ĠÐ½Ð° ÑĢÐ¾Ð´
Ð»Ð° Ð³
Ġ19 5
ÑĢÐ° Ð»ÑĮ
ĠÑĩÐµÐ»Ð¾Ð² ÐµÐº
Ð½Ð¾ÑģÑĤÑĮ Ñİ
Ð°Ð» Ðµ
Ð Ĺ
Ð² Ð¾ÑĢ
ÑĤÐ¸ Ñı
ĠÐ¼ Ñĥ
Ð»Ð¸ Ñı
Ġ T
ĠÐ² ÐµÐº
ÑģÑĤÐ² Ð¾Ð¼
ĠÐŀ Ñģ
ĠÑį Ð»ÐµÐºÑĤ
ÑĤ ÐµÑĢ
ĠÑĩÐ° ÑģÑĤÐ¸
ĠÑĢ Ð¾Ð´
Ġ â
Ð¸ ÑĢÑĥ
Ð´ ÐµÑĢÐ¶
Ð¸ÑĩÐµ ÑģÐºÐ¸Ñħ
ĠÑĥ Ð¿
Ð¿ÑĢÐ¸ Ð¼ÐµÑĢ
ÐµÐ» Ð¸Ðº
ĠÐ¿ÑĢÐ¾Ð¸Ð· Ð²Ð¾Ð´
ĠÐ± ÑĥÐ´
ĠÐĺ Ð·
) ;
. ,
ĠÑĤ Ð¾Ð³Ð¾
Ð¨ ÐĲ
ĠÐ² Ðº
Ġ ,
ĠÐ¶ Ð¸Ð·
Ð½Ð¾ ÑģÑĤ
ĠÐ· ÐµÐ¼
Ð¸Ð´ ÐµÐ½ÑĤ
ÑĢÐ° Ð±Ð¾ÑĤ
Ð°Ñģ ÑĮ
ĠÑĥ Ñģ
ĠÐ· Ð°Ð¼
Ð°Ð½Ð¸ Ð¹
Ð¾Ð» Ð¾Ð¶
ĠÐ¼Ð½ Ð¾Ð³
ĠÑĢÐµ ÑĪ
ÐµÑģ Ñģ
ĠÑĤÐµ Ñħ
ĠÐ° Ðº
1 7
ĠÐ¡ Ð¼
ĠÐĲÐ»ÐµÐºÑģ Ð°Ð½Ð´
Ð¾ÑĢ Ð¾Ð½
Ð»Ð¸ Ð¹
ĠÐ½Ð° Ð´
i s
ĠÐ¸Ð· Ð²ÐµÑģÑĤ
ÑĢ ÐµÐ½
ĠÐ¿Ð¾ Ñį
ĠÐ¿ÐµÑĢÐ¸ Ð¾Ð´
Ð²Ð¸ Ð¶
ÑĢ Ð¾Ðº
ĠÐ½Ðµ ÑģÐº
ĠÐ° Ð¼ÐµÑĢÐ¸ÐºÐ°Ð½
Ġ19 2
Ð¾Ð½ Ñĩ
Ð¾Ð³ÑĢÐ° Ð¼
Ð½Ð¸ Ð¹
ÐµÑĢ ÑĪ
ĠÐ´ Ð¾Ð»Ð¶
ĠÑĢ Ð¾ÑģÑģÐ¸Ð¹
ĠÑģÐ» ÑĥÑĩ
ÑĢÑĥ Ð¶
Ð°Ð½Ð¸ ÐµÐ¼
Ð¾ÑĤ Ð¾Ð²
ÐµÐº ÑĤ
Ð¾Ñģ Ð¾Ð±
Ð¼ ÐµÑĤ
ĠÑĩÐ° ÑģÑĤÑĮ
Ġ1 2
ĠÑĢÐ°Ð·Ð² Ð¸ÑĤ
ÑĢ Ð¾Ð¹
ÑģÑģ Ð»ÐµÐ´Ð¾Ð²
Ñĩ Ð¸
ĠÐ¼ Ð¸Ð½
ÑĢÐµ ÑĤ
ĠÐ¼ Ð°Ñģ
Ð Ľ
Ñģ Ð»Ð¸
ĠÐ¡ Ð¨ÐĲ
i c
ĠÐ½ ÐµÐºÐ¾ÑĤÐ¾ÑĢ
ĠÐ° ÐºÑĤ
ĠÐĿ Ð¾Ð²
ĠÐ³Ð¾ÑģÑĥÐ´Ð°ÑĢ ÑģÑĤÐ²ÐµÐ½
Ð¸ÑĤÐµÐ»ÑĮ Ð½Ð¾
ĠÑįÑĤ Ð¾Ð³Ð¾
Ð± Ð¾ÑĢ
Ð´ Ñĥ
Ġ B
Ð¾Ð¼ Ñĥ
Ð°Ð» Ð°ÑģÑĮ
Ð¸ÑĩÐµ ÑģÐºÐ¸Ðµ
ĠÑĤ ÑĢÐ°
ÑģÑĤÐ² Ð¾Ð²
Ñģ Ð¸ÑĤ
ĠÐºÐ¾ÑĤÐ¾ÑĢ ÑĭÑħ
ÑģÑĤÐ¸ ÑĩÐµ
Ð¸ÑĩÐµ ÑģÐºÐ¾Ð¹
Ðº Ð¾Ð»
Ð¾Ð± ÑĢÐ°Ð·
Ð» Ð¾ÑĤ
Ð° Ð¶
Ð°ÑĢ ÑĮ
ÑĥÐ½ Ðº
ÐµÑĢ Ñħ
ĠÐ· Ð²
ÑĢÐ¸ Ð¹
ĠÐ¿Ð¾Ñģ Ð»ÐµÐ´
h e
ĠÐ¾Ð± Ñī
ĠÐ´ Ð¾Ð¼
ĠÐ¿ÑĢÐ¾ ÑĨ
ĠÑģÐ¾ Ð¾ÑĤ
ĠÐ² Ð¿
Ð° ÑģÑĤ
Ñī Ñĳ
ĠÐµ Ð´Ð¸Ð½
ĠÑĢÐµÐ· ÑĥÐ»ÑĮÑĤ
ĠÑģÑĤ Ð°Ð»
ĠÐµ ÑģÑĤÑĮ
ĠÐºÐ¾Ð½ ÑĤ
ĠÐ¾ Ð½Ð¸
ĠÐ² ÑĤÐ¾ÑĢ
Ð² Ñĭ
ÑĢÐµ Ð¹
ĠÐ² Ð·
Ð°ÑĢÐ° ÐºÑĤ
ÐºÐ° Ñħ
ĠÐ²Ð¾ ÐµÐ½
ĠÐŁ ÐµÑĢÐ²
Ð»Ñı ÐµÑĤ
ĠÐ´ÑĢÑĥÐ³ Ð¸Ñħ
ĠÑĥ Ð´
ĠÐ¼ Ð¸
ĠÐ¡ Ð¾
ĠÐ¤ ÑĢÐ°Ð½
ÑİÑī Ð¸Ñħ
ÑĦ ÑĦ
ÑīÐµ Ðµ
Ð·Ñĭ Ð²
ÐµÐ´ ÐµÑĢÐ°
Ñĥ Ð³
ĠÐ¿ÑĢÐ¸ Ð½
Ðµ Ñī
Ð¼ Ð°Ð½
ĠÐ· Ð´
Ñı Ð¼
ÑĨ ÐµÐ½
Ġ D
ÑĢÐµ Ð¿
ÑģÐºÐ¸ Ð¼Ð¸
ĠÐ´Ðµ ÑıÑĤÐµÐ»ÑĮ
Ð´ Ð¶
Ð¸Ð» Ð¾
ĠÐ½Ð° Ð·ÑĭÐ²Ð°
Ð¸ÑģÑĤ ÑĢÐ°
ĠÐ¶ ÐµÐ»
ĠÐ²Ð¾Ð¹ Ð½Ñĭ
Ð¸Ð»Ð¸ ÑģÑĮ
Ġ1 4
Ð¸ Ñİ
1 0
Ñĭ ÑĤ
Ð¿ Ñĥ
ĠÑı Ð½
ĠÐº ÑĢÑĥÐ¿
Ð»Ð¸ Ð·
ĠÐ²Ð¾Ð· Ð¼Ð¾Ð¶
ĠÑįÐº ÑģÐ¿
ĠÐ¿Ð¾ Ñĩ
ÑĢÐ° Ð½Ð¸
ĠÐ¾Ð´ Ð¸Ð½
ÑģÑĤ ÑĢÐµ
ĠÑģÑĤ ÑĢÐ¾
ĠÐ´ Ð¾Ð»
ĠÐĲ Ð²
ĠÑĢÐ°Ð· Ð»Ð¸Ñĩ
ĠÐĿ Ð¸Ðº
Ð» ÑģÑı
ÑĢÑĥ Ð´
ĠÐ´ Ð¾Ðº
ĠÑģ Ñĭ
Ġ V
ĠÐ¾Ð¿ÑĢÐµÐ´ ÐµÐ»
ĠÑģÐ» Ð¾Ð²
ĠÑĥ Ð³
Ð¸ÑĩÐµ ÑģÐºÐ¸Ð¹
ĠÑĤÐµÑĢÑĢÐ¸ÑĤÐ¾ÑĢÐ¸ Ð¸
Ħ ĸ
ĠÑģ ÐµÐ¼
Ð´ ÐµÐ½
ĠÑģ ÐµÐ±
ĠÐ´Ðµ ÐºÐ°
ĠÑĩÐµ ÑĢÐµÐ·
ĠÐ±Ñĭ ÑĤÑĮ
ÑħÐ¾Ð´ Ð¸ÑĤ
ĠÐ¿ ÐµÑĢ
ĠÐº Ð¼
ÑĪ ÐµÐ¹
ĠÐ¿ÑĢÐµ Ð·
Ð¾Ð³ Ð»Ð°Ñģ
ĠÐ¸ ÑģÑģÐ»ÐµÐ´Ð¾Ð²
ĠÐ°ÑĢ Ñħ
ĠÐ° Ð´
ĠÐ´ Ð¾ÑģÑĤ
ÑĤÐ¸ Ð¹
ÑģÑĤ ÑĢÑĥ
ĠÐŀ ÑĤ
ĠÐ¶ Ð¸Ð²
ÑģÑĤÐ²ÐµÐ½ Ð½Ð¾
ĠÐ¾Ñģ Ð¾Ð±
Ð¸Ñģ Ñģ
Ð²ÐµÑĢ ÑģÐ¸ÑĤ
Ð»Ð¸ ÑģÑĮ
ĠÐ´ Ð°
ĠÐº ÑĢÐ¸
ĠÐ¿ÑĢÐ¸ Ð·
Ġ1 3
ĠÐ¿ÑĢÐ¾ Ð¸Ñģ
ĠÐ¿ÑĢ Ð¾Ð³ÑĢÐ°Ð¼
Ñĥ Ð»Ñı
Ð± Ð°
ĠÐ¼ Ð¾Ð»
Ġ L
ĠÑģÐ¾Ð² ÑĢÐµÐ¼ÐµÐ½
Ñĭ Ð¼Ð¸
ĠÐ¿ Ð°Ð¼
Ġ R
ĠÑĥ ÑĤ
ĠÐ´ ÐµÑĤ
ÐµÐ½ ÐµÑĢÐ°
Ð½Ð¸ ÑĩÐµ
i t
ĠÑħ Ð°ÑĢÐ°ÐºÑĤ
Ð¸Ð» Ð¾Ñģ
ĠÐ¿ Ð¾Ð±
Ð² Ð°Ð½
ĠÐ¾ÑĤÐ½Ð¾ ÑĪ
Ð¾Ð³ Ð¾Ð²
ÑģÐ¸ Ð¸
ĠÐ¾ ÐºÑĤ
ĠÑģÐ¾Ð¾ÑĤ Ð²ÐµÑĤ
Ġâ Ħĸ
Ð½Ð¸ Ñĩ
ÑģÑĤ ÑĢÐ¾
ĠÐŁÐ¾Ñģ Ð»Ðµ
ĠÐºÐ° ÑĩÐµ
Ð¸Ñģ Ð¸Ð¼
ÑĨ ÑĥÐ·
Ð°Ð½Ð¸ Ñİ
ĠÐ¾Ðº Ð¾Ð»Ð¾
Ñĩ Ð¸Ð½
ĠÑĦ ÑĢÐ°Ð½
Ð¼Ð¸ ÑĢÐ¾Ð²
Ð¾Ð´ ÐµÑĢÐ¶
Ð¾Ð» Ð¾Ð²
ÑģÑĤ Ð¾Ñı
ĠÑģ Ð¸Ð»
Ð¸ÑĤ Ñĭ
ÑĥÐ»ÑĮÑĤ ÑĥÑĢ
ĠÑģ ÐµÐ½ÑĤ
Ġ ÑĢÐ¸
ĠÑĤ ÑĢÐ¸
ĠÐ¼ ÐµÐ´
Ð Ń
ÐµÐ² Ð°
ĠÑĤ Ð¾Ñĩ
ÑĢ Ñĳ
1 2
Ð´ ÐµÐ¼
Ð¼ Ð¾ÑĤ
ÐµÑĢÐ¸ Ð¸
ÐµÑĢ ÑĤ
ÑİÑī Ð¸Ðµ
ÑĢÐ¸ Ñı
Ð½Ð¸ Ñħ
Ð· Ð¾Ð²
Ð¾ÑĢÐ¸ Ñı
ĠÑĤ Ð¸Ð¿
Ġ .
ĠÐ°Ð½ Ð³
ĠÐ½ Ð¸Ñħ
ĠÐº Ð½Ð¸
ĠÐŁ ÐµÑĤ
ĠÐ²ÑģÐµ Ñħ
ĠÐľ Ð°ÑĢ
1 5
ĠÐº Ð¾Ð³Ð´Ð°
ÑĥÐ½ Ð°ÑĢÐ¾Ð´
ĠÐ¿ÑĢÐµÐ· Ð¸Ð´ÐµÐ½ÑĤ
Ð» Ð¾Ð¼
ÑĪÐµ Ð³Ð¾
Ð¸Ð½ Ð³
ĠÐ¿ Ð¾Ð½
1 6
ĠÐ°ÑĢ Ð¼Ð¸
Ð¸ÑĤ ÐµÐ»ÐµÐ¹
Ð¾ÑģÑĤ Ð¾Ñĩ
ĠÐ» Ð¸ÑĤÐµÑĢÐ°
ĠÑģ ÑĥÐ´
ĠÐŁÑĢÐ¸ Ð¼ÐµÑĩ
ĠÐ¼Ð¾Ð¶ Ð½Ð¾
Ð½Ð¸ ÑĨ
Ð»Ð¾ Ñī
Ð° ÐµÑĤÑģÑı
ĠÐ°Ð² Ð³Ñĥ
Ð¿ ÐµÑĢÐ°
e l
ĠÑĦ ÑĥÐ½Ðº
Ð¾Ð± Ð¾Ð´
ĠÐºÐ¾ÑĤÐ¾ÑĢ Ð¾Ð¹
ÐµÐ» Ð¸Ñĩ
Ð¾Ð» Ñı
ÑģÐºÐ¾Ð¼ Ñĥ
ĠÐ° Ð»
ĠÐ° Ð¿ÑĢÐµ
ĠÐ· Ð°ÑĤ
ĠÑĨ ÐµÑĢ
Ñģ Ð»
Ð°ÑĢ Ð´
ĠÑĩ ÑĤ
Ġ( Â«
ĠÐ¡ Ð²
ÐµÐ¼ Ñĥ
ĠÑĤ ÑĢÐ°Ð½
ĠÐº ÑĢÐ°
Ð» ÑĥÐ±
ĠÑģÐ¿ Ð¾ÑģÐ¾Ð±
ĠÑģÐ¿ Ðµ
Ð° ÑĨÐ¸Ð¸
ĠÐ¿ÑĢÐ¸ Ð¼ÐµÐ½
Ġ F
Ð»Ð° ÑģÑĮ
ÐºÐ¸ Ñħ
ÑĨÐ¸ Ð¿
Ð¸Ð»Ð¾Ñģ Ð¾ÑĦ
Ñį Ð½
ÑĢ Ð¾ÑĤ
ĠÐ½Ð° Ð¿ÑĢÐ°Ð²
Ð½Ðµ Ð³Ð¾
ĠÑĪ ÐºÐ¾Ð»
ĠÐ½ ÐµÐ´
Ð· Ð½Ð°Ñĩ
ĠÐ²ÑĭÑģ Ð¾Ðº
ĠÐ½Ð°ÑģÐµÐ» ÐµÐ½Ð¸Ñı
ĠÐ¿ÑĢ Ð¾Ð¼
Ð½ ÐµÐ²
ĠÐŁÑĢÐ¸Ð¼ÐµÑĩ Ð°Ð½Ð¸Ñı
ĠÐµ ÑīÑĳ
ĠÐ»Ñİ Ð±
ÐµÑĢ Ñĭ
ÐµÑĢ Ð¾Ð²
ĠÐ¸ Ð³
Ð°Ð»ÑĮ Ð½ÑĭÑħ
ĠÐº Ð½Ñı
ÐºÐ¾Ð² Ð¾Ð´
ĠÐ¿ÑĢÐ°Ð² Ð¸ÑĤÐµÐ»ÑĮ
Ð¸ ÑĢÐ¸
Ġ G
ĠÐ¾ÑĤ Ð´
Ð° Ð´Ð°
Ð¸ÑĩÐµ ÑģÐºÐ¾Ð³Ð¾
ĠÐº Ð¾ÑĤ
ĠÐº Ð¸Ð½Ð¾
ĠÑįÐº Ð¾Ð½Ð¾Ð¼
ĠÐ¸Ð· Ð´
ĠÑĢÐ° Ð²
ĠÑĦ Ð¸Ð·
ĠÐ¼ Ð¾Ð½
ĠÐĴ Ð¾
ĠÑģÑĤ ÑĢÐ°Ð½
ĠÑĥÐ½Ð¸ Ð²ÐµÑĢÑģÐ¸ÑĤ
ĠÐ²ÑĢÐµÐ¼ ÐµÐ½Ð¸
ĠÑį Ð½
ĠÐłÐ¾ÑģÑģÐ¸ Ð¹
ĠÐ´ Ð²Ð°
ĠÐĺ ÑģÑĤ
Ñĭ Ñĩ
ÑĨÐ¸ ÐµÐ¹
ĠI I
ĠÑĥ Ð¶Ðµ
Ð»ÐµÐ¼ ÐµÐ½ÑĤ
ĠÐ¸Ð½ ÑĤ
ĠÐ¿ÑĢÐ¸ Ñģ
ĠÐĴ ÐµÐ»Ð¸Ðº
ĠÐ¼ Ð¾ÑĢ
Ð¾Ð» Ð¸
ĠÐ³ Ð°Ð·
ĠÐ¼ Ð»
Ð¶Ð´ Ð°Ð½
ĠÐ½ Ð¾Ñı
Ñı Ð¶
ĠÐ¿ÑĢÐ¸ Ð½Ñı
ĠÑģ Ð¾Ð´ÐµÑĢÐ¶
ĠÐ½ Ð¸
Ðº Ð»
ĠÑıÐ½ Ð²
ÑĢÐ¾Ð² Ð°Ð½
ĠÐ» Ð¸ÑĪ
ÑĢ ÑĮ
Ñİ Ð·
ĠÐºÐ¾Ð¼ Ð°Ð½Ð´
ÑĢ Ð¾ÑģÑĤÑĢÐ°Ð½
Ñı Ñħ
ĠÐ¼ ÐµÐ½
Ð¿ Ð¾Ð´
ÑģÐº Ð¾
ĠÑĤ Ñĭ
ĠÐ¼ Ð¸ÑĢÐ°
Ġ H
ÐµÐ² Ð¸Ñĩ
ÑĤÐ¸ Ð¸
ĠÐ´ Ð²Ð¸Ð¶
ÑĮ Ðµ
ĠÑĩ Ð»ÐµÐ½
ĠÐ¼ Ð¾Ð´
ĠÐ£ ÐºÑĢÐ°
Ð¾Ð»Ð¾Ð³ Ð¸Ð¸
ĠÐºÐ¾Ð» Ð¸ÑĩÐµ
ĠÐ½ÐµÑģÐº Ð¾Ð»ÑĮÐºÐ¾
o l
ÑģÑĤÐ²ÐµÐ½ Ð½Ð¾Ð¹
ÑĳÐ½ Ð½ÑĭÑħ
ĠÑĥÑģÑĤ Ð°Ð½Ð¾Ð²
ĠÐ¿Ð¾Ð¼ Ð¾Ñī
ĠÐ³Ð¾Ð´ Ñĭ
2 00
ĠÐ¾ÑĢÐ³Ð°Ð½Ð¸ Ð·Ð°
ĠÐ¾ÑģÑĤ ÑĢÐ¾Ð²
Ġ N
ĠÐº ÑĥÐ»ÑĮÑĤÑĥÑĢ
ĠÐ¿Ð¾Ð´ Ð´ÐµÑĢÐ¶
ÑĭÑĪ Ð»ÐµÐ½
ĠÐķÐ² ÑĢÐ¾Ð¿
Ð¿ Ð¾Ð½
Ñĥ ÑģÑĤ
ĠÐĵ ÐµÑĢÐ¼
ĠÐ¼ Ð°Ñı
ĠÑħ ÑĥÐ´
ĠÐµ Ð²
Ð¸Ð½ Ñĥ
Ð°Ð»ÑĮ Ð½Ð¾Ð¹
ĠÐ¡Ð¾Ð² ÐµÑĤ
Ð¾Ð± Ñī
ĠÐŀÐ´ Ð½Ð°ÐºÐ¾
ĠÐ´ ÑĢÐµÐ²
ĠÐ½ÐµÐ¼ ÐµÑĨ
Ð» ÐµÐ¹
ĠÐ¶Ð¸Ð· Ð½Ð¸
Ð¾ÑĢ Ñĭ
ĠÐ¡ ÑĢÐµÐ´
Ñĥ ÐµÑĤÑģÑı
ĠÐ´Ð² ÑĥÑħ
ĠÑĦ Ð°Ðº
ĠÑĦÑĢÐ°Ð½ ÑĨÑĥÐ·
ĠÐ¸Ð¼Ð¿ ÐµÑĢÐ°
ÐµÑģ ÑĮ
Ñģ Ñĥ
Ð¾Ð» ÐµÐ²
ĠÑĥ Ð²
ĠÑĢÐ°ÑģÐ¿ Ð¾Ð»Ð¾Ð¶
ĠÐ¼Ð°ÑĤ ÐµÑĢÐ¸
ĠX I
ĠÐļ Ð°ÑĢ
Ð¾Ð³Ð»Ð°Ñģ Ð½Ð¾
ĠÑĤ Ð¾ÑĢ
ÐºÐ° Ð¼Ð¸
Ð°Ð»ÑĮ Ð½ÑĭÐµ
ĠÑıÐ½Ð² Ð°ÑĢÑı
ĠÐ¸ÑģÐº ÑĥÑģ
Ð¼ Ð¾Ð½
ĠÑĦ ÐµÐ²
Ð¾ÑĢÐ° Ñı
ÑĢÐ° Ð±
ÑĢÑĳ Ñħ
ÑĩÐµ ÑģÐºÐ¸Ñħ
ĠÐ¼Ñĥ Ð·Ñĭ
1 4
Ð°Ð»ÑĮ Ð½ÑĭÐ¹
Ġ E
Ġ19 0
Ð¾Ð» Ð°
ÑĦÐ¸ ÑĨÐ¸Ð°Ð»ÑĮ
ÐµÐ½ Ð½ÑĭÑħ
ÑĦÐ¾ÑĢ Ð¼Ð°
Ð² Ð°ÑĤ
ĠÐ· Ð°Ð½Ð¸
Ð² Ð¾
ÑĪ Ð°Ñı
ĠÐº Ð¾Ñģ
ĠÑĤÐµ Ð°ÑĤ
ÑĢÐ¸ ÑģÑĤ
ĠÐ³Ð¾Ð´Ð° Ñħ
ĠÐ´ÐµÐºÐ° Ð±ÑĢÑı
ĠÑĩÑĤ Ð¾Ð±Ñĭ
e t
Ð° ÑİÑĤ
ĠÐ¸Ñİ Ð»Ñı
Ð°Ð»ÑĮ Ð½Ð¾
ĠÐ¿ Ð¾Ð³
ĠÑĩÐ¸Ñģ Ð»Ðµ
Ñģ Ð¾Ð½
Ð¾Ð² Ð¾Ð¹
Ð¸ÑĤ ÐµÐ»Ñı
ĠÐ½Ð° Ð±
Ð¼Ð¸Ð½ Ð¸ÑģÑĤÑĢÐ°
ĠÐ² Ð¼Ðµ
ĠÐ» Ð¸Ð½
ÑİÑī Ð¸Ð¹
ÐµÐ½ Ð½ÑĭÐ¹
ĠÑģÑĤÑĢÐ° Ð½Ñĭ
ĠÑį Ð»ÐµÐ¼ÐµÐ½ÑĤ
Ġ 0
ĠÐºÐ¾ÑĤ Ð¾ÑĢÐ°Ñı
ĠÐ¿ÑĢÐ¾Ð´ Ð¾Ð»Ð¶
ĠÐ¸Ð· Ð±
ĠÐ¼Ð°ÑĢ ÑĤÐ°
ĠÑĥ Ð±
ĠÑģÐ¾ Ñħ
Ð½ ÑĮ
ĠÑģÐ² Ð¾Ð¹
ĠÑģÐµÐ½ÑĤ ÑıÐ±ÑĢÑı
ĠÑģÐ» ÑĥÐ¶
Ð°ÑĢ Ñħ
ĠÑģ Ð¸Ð¼
Ð¾Ðº Ð°
ÑĩÐµ ÑģÐºÐ¾Ð¹
ÑĢÐ¸ Ð¸
ĠÑĦÐµÐ² ÑĢÐ°
ÑīÐµ Ð³Ð¾
ĠÐ¼Ð¾Ð³ ÑĥÑĤ
ĠÐļ Ð¾Ð¼
Ð¾ ÐµÐ²
ÐºÐ° Ð´ÐµÐ¼
ÑĦ Ð°
Ð°ÑĤ ÐµÐ»Ñı
ĠÐ¿ ÑĥÑĤ
Ð¾Ð» Ð¾ÑĤ
ÑģÑĤ ÑĢÐ°
ĠÐ¾ Ñĩ
ĠÐ¾Ð¿ ÐµÑĢÐ°
ĠÐ¾ÐºÑĤ ÑıÐ±ÑĢÑı
ĠÑĢÐ° ÑģÑģ
Ð¾Ð¶Ð´ ÐµÐ½Ð¸Ñı
u s
Ð¸Ð± Ð¾Ð»ÐµÐµ
ĠÑĥ Ð¿ÑĢÐ°Ð²
ĠX V
ĠÐ½Ð° ÑĥÑĩ
Ðµ ÑģÑĤÐ¸
Ðµ ÑĪ
ÑĢÐ¾Ð¼ Ðµ
1 3
Ġ ÑĨÐ¸
ĠÐĴ Ð»Ð°
ĠÐŀ Ð½
Ð¾Ð¿ ÑĢÐ¾Ñģ
ĠÑģÐ¾Ð²ÐµÑĤ ÑģÐºÐ¸Ð¹
ÑĢÑĥ ÑĪ
ĠX X
ĠÐ½Ð° Ð¿
ÐµÐ» ÐµÐ¼
ĠÐºÐ¾ÑĤÐ¾ÑĢ Ð¾Ð³Ð¾
ĠÐ¸Ñİ Ð½Ñı
Ġ2 5
Ð» Ñĥ
ĠÐ´ÑĢÑĥÐ³ Ð¸Ðµ
ÑģÑı Ñĩ
Ð¾Ð± ÑĢÐ°Ð¶
c h
ÑĢÑĥ Ð·
Ð»Ð¾Ñī Ð°Ð´
ÐµÐ½ Ð½ÑĭÐµ
r o
ĠÑĢÐ°ÑģÐ¿ ÑĢÐ¾ÑģÑĤÑĢÐ°Ð½
Ð² Ð¸Ð½
Ġ |
Ð» Ð°Ð½
ĠÐŁ Ð¾Ð»
Ð²Ð¾Ð» Ñİ
Ðº Ð¾Ð½
ĠÑģÐ»ÑĥÑĩ Ð°
Ð¾ÑĢ Ð¾Ð½Ñĭ
ĠÐ¶ ÐµÐ½
Ñĩ Ð¸Ñģ
ĠÐ¿Ð¾Ð» Ð¾Ð¶
ĠÐ´ ÐµÐ½ÑĮ
ĠÐĶ Ð»Ñı
ĠÐ²ÑģÐµ Ð³Ð¾
ĠÑģÐ¸ÑģÑĤÐµÐ¼ Ñĭ
ĠÐ°Ð¿ÑĢÐµ Ð»Ñı
Ð½ Ð°Ð»
ĠÑģ Ð¼ÐµÑĢ
ĠÐŃ ÑĤÐ¾
ĠÑıÐ²Ð»Ñı ÑİÑĤÑģÑı
Ð°Ð»ÑĮ Ð½Ð¾Ð³Ð¾
. :
ĠÐ² Ð½ÑĥÑĤ
ĠÑĥ ÑĢÐ¾Ð²
ĠÐ¾Ð±ÑĢÐ°Ð· Ð¾Ð¼
Ð¸Ð½ ÑģÐºÐ¸Ð¹
ĠÐ¸Ð¼Ðµ ÐµÑĤ
Ð± Ñĥ
ĠÑģÐ¾Ð¾ÑĤÐ²ÐµÑĤ ÑģÑĤÐ²
ĠÐºÐ°ÑĩÐµ ÑģÑĤÐ²Ðµ
Ð½Ð° Ð´
Ð» Ð°Ð½Ð´
ĠÑĥÑģ Ð»Ð¾Ð²
ĠÐ± Ð¾Ð³
Ð³ Ð¾ÑĢÐ¾Ð´
ĠÐ³Ð¾Ð´ Ð¾Ð²
Ð°Ð½ Ð½ÑĭÐµ
ÑģÑĭ Ð»
ÑĪ Ð¸Ð¼
Ñı Ð¼Ð¸
Ġ W
ĠÐ°Ð²Ð³Ñĥ ÑģÑĤÐ°
ĠÑĦ Ð¸Ð»Ð¾ÑģÐ¾ÑĦ
Ġ d
ĠÐ¡ ÐµÐ²ÐµÑĢ
i on
ÐµÐ¼ Ð°ÑĤ
Ð± ÑĢÐµ
ĠÐ¼ÐµÑģÑĤ Ð¾
ĠÐ¾ Ð½Ð°
ĠÐ¡ Ð°Ð¼
ÑĢÐµ Ñģ
Ð³ Ðµ
ĠÐ¾Ð´ Ð½Ð°ÐºÐ¾
Ñĭ Ð²Ð°
ĠÐ¿ÑĢÐ¸ Ð²
a s
ĠÑģÑĤ Ð°ÑĢ
Ġ/ /
ĠÐ¼ Ð½Ð¾Ð³Ð¾
ĠÐ½Ðµ Ð·
Ð»Ð¸ Ð²
ĠÑģ ÐµÐ²ÐµÑĢ
Ð¿ Ð¿
ÐµÑĢ Ð½
Ð¸Ð± Ð»Ð¸
ĠÐ¾Ð¿ Ð¸Ñģ
00 0
ĠÐºÐ° Ð¶Ð´
ĠÑįÑĤ Ð¾Ð¹
Ð¾ÑĢ Ð¾Ð³
Ð¾ÑĢ Ð¾Ð¶
Ð¾Ð² Ð°Ð½Ð¸Ñı
ĠÑģÑĩ Ð¸ÑĤ
Ġ âĢ
ĠÑĦ Ð¸Ð»ÑĮ
Ð½Ð¸ Ñı
ĠÐ½Ð¾Ñı Ð±ÑĢÑı
ĠÑģÐ²ÑıÐ· Ð¸
ĠÐ³Ð¾ÑĢÐ¾Ð´ Ðµ
ĠÐļ Ð¾ÑĢ
ĠÐ´ Ð¾Ð±
ĠÑĥ Ð»Ð¸
ĠÑģÐ²Ð¾ ÐµÐ¹
ÑĢÐ°Ð· Ð´
ÑĢÐ¸ ÑģÑĤÐ¸
Ð¾ÑĢ ÑĮ
Ð° Ñĥ
ĠÐ¶ÐµÐ» ÐµÐ·
Ð¸ÑĩÐµ ÑģÐºÐ°Ñı
ĠÐ²Ð¾Ñģ ÑģÑĤ
ĠÑĢÑĥ ÐºÐ¾Ð²Ð¾Ð´
ĠÐ³ÑĢÐ° Ð¶Ð´Ð°Ð½
Ġ3 0
ĠÑĩÐµÐ¼ Ð¿Ð¸
ĠÑģ ÐµÐº
ĠÐ¸ÑģÑĤÐ¾ÑĢÐ¸ Ð¸
ĠÑģÑĤ Ð°ÑĤ
ÐµÑģÐ¿ ÑĥÐ±Ð»Ð¸
ÑģÐ¸ Ñı
ÑĩÐµ ÑģÐºÐ¸Ð¹
ĠÐ²Ð¾Ð· Ð´
ĠÐº Ð»Ð°Ñģ
ĠÑĤ ÑĢÐµ
ĠÑģÐµÐ± Ñı
Ð³ Ð¾ÑĤÐ¾Ð²
ĠÑĤ ÑĭÑģ
ÑģÑĤÐ² Ñĥ
ĠÐ³ ÐµÐ½ÐµÑĢÐ°
ĠÐĴÐ»Ð° Ð´Ð¸
Ð¾ÑĢ ÑĥÐ¶
ĠÐ¸Ð· Ð¼ÐµÐ½
ÑģÑĤ Ð¸ÑĤÑĥ
ĠÑĢÐ°Ð¹ Ð¾Ð½
Ð°ÑĤ Ð¾Ð²
ÑĳÐ½ Ð½ÑĭÐµ
Ð¸ Ñī
Ðµ Ð¶Ð´
Ñģ ÐµÐ´
ĠÐ²Ñĭ Ð±
Ñĭ Ð²
ĠÐŀ ÑĢ
ĠÑį Ð¿
Ñı Ñģ
ĠÐ¿Ð¾Ð· Ð²Ð¾Ð»
ĠÐ¿ÑĢÐµÐ´ Ð¿ÑĢÐ¸
Ð¸Ð½ Ð¾Ð²
Ð´ ÐµÐ¹
ÑĢÐ°Ð² Ð½
ĠÐłÐ¾ÑģÑģÐ¸Ð¹ ÑģÐºÐ¾Ð¹
Ð½ ÐµÐ¼
Ġ( )
ĠÐ² Ð¾Ð»
19 9
Ð¼ Ð¿
ĠÐ¿ ÑĢÐ°Ðº
ĠÑĢÐµÐ·ÑĥÐ»ÑĮÑĤ Ð°ÑĤÐµ
ĠÐł ÐµÑģÐ¿ÑĥÐ±Ð»Ð¸
ÑĢÐµ ÑģÑĤ
ĠÐľ Ð°Ðº
Ġ18 9
ĠÐ´ Ð¾ÑģÑĤÐ¸
ĠÐº Ð°Ð½
ĠÐ¿ÑĢÐ¾Ð¼ ÑĭÑĪÐ»ÐµÐ½
Ð¾Ð»Ð¾Ð³ Ð¸Ñı
ĠÐ¸ ÑĤ
Ñĥ Ð´Ð°
ĠÐ²Ñĭ ÑģÑĤÑĥÐ¿
ĠÐº Ð°ÑĢ
ĠÑĢÐµ Ð¶
ĠÐ³ÑĢÑĥÐ¿Ð¿ Ñĭ
Ġ :
Ð»ÐµÐ½ Ñĭ
ĠÐ°Ðº ÑĤÐ¸Ð²
ĠÐ¾Ð± ÑĭÑĩ
ĠÐ¿Ð¾ÑģÑĤ ÑĢÐ¾
r e
Ñĥ ÑĢÐ°
II I
ĠÑĢ ÑıÐ´
Ð°Ð» Ð¾Ð³
ÐµÐ½ Ð½Ð¾Ð¹
ĠÐ² Ð¾Ð¿ÑĢÐ¾Ñģ
ĠÐµ Ð¼Ñĥ
ĠÐ½Ðµ Ð¾Ð±
ĠÐ²Ðº Ð»ÑİÑĩ
ÑħÐ¾Ð´ Ð¸Ð¼
ĠÑĤ ÐµÐº
Ð°Ð½ Ð½ÑĭÑħ
ĠÐ»Ð¸ÑĪ ÑĮ
Ð½Ñı Ñı
ĠÑĢÐµ Ð³Ð¸
ĠÐ° Ð»ÑĮ
ÑĩÐµ ÑģÐºÐ¾Ð³Ð¾
Ġ20 2
ĠÑĢ Ñĭ
ĠÑĥÑĤ Ð²ÐµÑĢ
ĠÑĪ Ð¸ÑĢ
ĠÐŀÑģ Ð½Ð¾Ð²
Ð ķ
Ðµ ÑĦ
Ð¾Ð² Ð°Ð½Ð¸Ðµ
Ñĳ Ð²
ĠÐľ Ð¸Ñħ
ÐµÐ½ Ð´
ĠÐ´ Ð¾Ð¿
ĠÐł Ð¸Ð¼
ĠÐĳ ÐµÐ»
ĠÐº Ð°Ð¼
ĠÑĩÐµÐ»Ð¾Ð² ÐµÐºÐ°
ĠÑĦÐµÐ²ÑĢÐ° Ð»Ñı
ĠÐ¤ ÐµÐ´ÐµÑĢÐ°
ĠÐ¾Ðº ÑĢÑĥÐ³
ĠÐ² ÑģÑĤÑĢÐµ
ĠÐ¸ Ñģ
Ð» Ñĭ
ÑĥÑĤ ÑģÑĤÐ²
ĠÐ¿ÑĢÐ¾Ð¸Ð· Ð²ÐµÐ´
Ð°Ð½ Ðµ
ĠÑĢÐ° Ð´Ð¸
i l
ĠÑĥÑĩÐ° ÑģÑĤ
ĠÐ½ ÐµÐ¹
ĠÐ¾ÑĤÐ½Ð¾ Ñģ
Ð· Ð¼
Ð» Ð¾ÑģÑĮ
ĠÑģ Ð¾Ð·
Ð¾Ð´ Ð°
Ð¾Ð· Ñı
ĠÐ¸ Ð´Ðµ
ĠÑĢÐµ Ð»Ð¸
Ð°ÑĤ Ð¸Ð²
ÑģÐ¸ Ñħ
Ð½ Ð°Ð¼
ĠÑģÐ² Ð¾Ðµ
Ð ¥
ĠÑģ Ð¼
Ðº Ð¾Ð³Ð¾
Ð¾Ñģ Ð»Ð°Ð²
Ġ ÑĢÐµÐ´
ĠÑģÐ¾Ð± Ð¾Ð¹
ÑģÑĤÐ²ÐµÐ½ Ð½ÑĭÐ¹
Ð½ ÐµÑģ
Â» )
ĠÐ²Ð¸Ð´ Ðµ
Ð¸ÑĤ ÐµÐ»Ð¸
Ġ1 1
ĠÐµ ÑģÐ»Ð¸
ĠÐ³ Ð¾Ð»
ĠÐ¿ÑĢ Ð¾Ð±
ĠÐ¿ÑĢ Ð¾ÑģÑĤ
ÑĦ ÐµÑĢ
ĠÐ¿ÐµÑĢÐ² ÑĭÐ¹
ĠÐ¿ Ð»Ð¾ÑīÐ°Ð´
ĠÐ°Ð½ ÑĤÐ¸
Ð± Ð¾
ÐµÑģÐ¿ ÐµÑĩ
ĠÐ½Ð° ÑĨÐ¸Ð¾Ð½Ð°Ð»ÑĮ
Ġ ÑħÐ¾Ð´
Ð¾ÑĤ Ð°
ĠÐ½Ð° Ð¿ÑĢÐ¸Ð¼ÐµÑĢ
ĠÐ° ÑĤ
ĠÐ¿Ð¾ ÑıÐ²
ĠÑģÑĤ Ð¾Ð»
ÑıÑĤ ÑģÑı
ĠÑģÑĤ ÐµÐ¿
Ð°Ð» Ð¾Ð²
ĠÑģÐ¾Ð² ÐµÑĢÑĪ
Ñĥ Ð²
ĠÐ°Ð² ÑĤ
Ð°ÑĢ Ð¾Ð²
ĠÐ°Ð½Ð³ Ð»Ð¸Ð¹
ĠÐĲ Ð»
Ġ t
Ð¾ÑĤ Ñı
Ð¸ÑĤÑĮ ÑģÑı
ĠÑģÑĤÑĢÐ¾ Ð¸ÑĤÐµÐ»ÑĮ
ĠÑĨ ÐµÐ»
ĠÐ½Ð°Ð·Ð² Ð°Ð½Ð¸Ðµ
u n
ĠÐ°Ð² ÑĤÐ¾ÑĢ
ĠÑģ Ð¾Ð¿
ÑĥÐ¼ ÐµÐ½ÑĤ
ĠÐ³ Ð¾ÑĢ
ĠÑĤÑĭ ÑģÑıÑĩ
ÑĩÐ° ÐµÑĤ
ĠÐĽ Ð¸ÑĤÐµÑĢÐ°
ĠÐ² Ð½Ðµ
ĠÑģÐ»ÐµÐ´ ÑĥÑİÑī
ÑĩÐµ ÑģÐºÐ¸Ðµ
ĠÐ¿ Ð°ÑĢÐ°
Ð°Ð² Ð¸ÑģÐ¸Ð¼
ĠÐ¾ Ð·
ĠÐļ Ð°
ÐµÐº ÑĤÐ¸Ð²
ĠÐ² Ð»Ð¸Ñı
ĠÐ·Ð°Ðº Ð¾Ð½
ÑĢÐ° Ð¼
ĠÐº Ð¾
Ð»Ð° ÑĪ
Ð°Ð½ Ð³
ĠÐ¿ ÐµÑģ
ĠÐ³ ÐµÑĢ
ÑģÑĭÐ» ÐºÐ¸
ĠÐ¼ Ð¸ÑĢÐ¾Ð²
ÐµÑĢÐµ Ð²
Ð¿ Ð¾Ñģ
ĠÑĤÐµ Ñĩ
ÐµÐ» Ð°
ĠÑĦ Ð¸Ð½
ĠÑĢÐ°Ð· ÑĢÐ°Ð±Ð¾ÑĤ
ÑģÐº Ð¾Ð¿
ĠÐ¿Ð¸Ñģ Ð°ÑĤÐµÐ»ÑĮ
ĠÑįÑĤ Ð¾ÑĤ
ĠÐ· Ð°Ð½
ĠÐ¾Ð± ÐµÑģÐ¿ÐµÑĩ
ĠÐĲÐ½ Ð´
ĠÐ¿ÑĢÐ¾ ÑĦ
ÑģÑı ÑĤ
ĠÑĩÐµÐ¼Ð¿Ð¸ Ð¾Ð½
ĠÐĳ Ð¾Ð»ÑĮÑĪ
ĠÐ² ÐµÐ´
Ñĥ Ð¼Ð°
o f
ĠÑħ Ð¸Ð¼Ð¸
ĠÐ²Ð»Ð° ÑģÑĤÐ¸
ĠÐ¸Ð¼ ÐµÐ½Ð¸
ĠXI X
ÑģÑĤÐ²ÐµÐ½ Ð½ÑĭÑħ
ĠÐŁ Ð¾Ð´
ĠÐ½Ðµ Ð±
Ð»Ðµ Ð¶
ĠÐ´Ð° Ð¶Ðµ
ĠÐĽ Ñĥ
ĠÐ¾Ð´ Ð½Ð¾Ð¹
ĠÑģÐ²Ð¾ Ñİ
ĠÐĲ Ð±
Ġ -
ĠÐ¼ Ð°Ð³
ĠÑıÐ·Ñĭ ÐºÐ°
ĠÑģÐ» Ð¾Ð¶
ĠÐ¼Ð½ Ð¾Ð¶Ðµ
ĠÐ¡ Ð°Ð½
Ð½Ð¸Ðº Ð¾Ð¼
ĠÐł ÑĥÑģ
ĠÑĤ ÑĢÐµÐ±
ÑģÐº Ðµ
ĠÐ³ Ð¾Ð²
ÑĢÐ¸ Ð´
ĠÐĲ ÑĦ
ĠÑģ Ð¸Ð½
ÑĢÐ¸ÑģÑĤÐ¸ Ð°Ð½
ÐµÐ½ ÐºÐ¾
ĠÑģÑĤ Ð°Ð½
ĠÐ² Ðµ
ÑģÑĤÐ²ÐµÐ½ Ð½Ð¾Ð³Ð¾
ĠÐ½ÐµÐ¾Ð± ÑħÐ¾Ð´Ð¸Ð¼
ĠÐ¿ÑĢÐµ Ð²
ĠÑģÐ² Ð¾Ð±Ð¾Ð´
ĠÐº Ð°Ð·
o m
ĠÐ¿ÑĢÐ¸ ÑĢÐ¾Ð´
ĠÐ± ÐµÐ»
ĠÐļ ÑĢÐ°Ñģ
l e
an d
Ð¾Ð¼ Ð¸Ð½
ĠÑĤÑĢÐ° Ð´Ð¸
ÐµÐ· Ð´
ĠÐºÐ½Ñı Ð·
u r
ÑĢÑĥ ÐºÑĤ
Ð¾Ð·Ñı Ð¹
1 1
Ð¸ÑĤ Ð¾Ð²
ĠÐ´ ÑĢ
ĠÐ¡ Ðº
Ð¾Ðº ÑĢÐ°
Ð¸ ÑĨÐ°
ĠÐ¶ ÑĥÑĢ
ĠÐĹ Ð°Ð¿
ÑĢ Ð¾Ð»
ĠÑģÑĤ Ð°Ð»Ð¸
ĠÑıÐ·Ñĭ Ðº
ĠÐ·Ð°Ð¿ Ð°Ð´
ĠÐ½Ð°Ñĩ Ð°Ð»Ðµ
Ġ2 4
ĠÐĴ Ñĭ
ÐµÑĤ ÑĮ
ĠÐ± Ð»Ð°Ð³
ÐµÐº ÑĤÐ°
ĠÑģ ÐµÐ»ÑĮ
ĠÑĤÐµ Ð¾ÑĢÐ¸
ĠÑĢÐ°Ð±Ð¾ÑĤ Ñĭ
ĠÑĢÐ° Ð½
ĠÐ¾Ð±ÑĬ ÐµÐ´Ð¸Ð½
ĠÑĥÑĩ Ñĳ
ĠÐ¿ÑĢÐ¾Ð² Ð¾Ð´
Ð½Ð¸ ÑĨÐ°
ÑĥÐ»Ñı ÑĢ
Ð°ÑĤ ÐµÐ»ÐµÐ¹
ĠÐļ Ð¾Ð»
Ð» ÐµÐ½Ð¸Ð¸
ĠÑģ ÐµÑĢ
Ð°Ð½ Ð½ÑĭÐ¹
Ð¸ÑĤ ÐµÐº
ĠÐ¼ÐµÑĤ Ð¾Ð´
ÑĢÐ¸ ÑģÐ°
ĠÐ²Ð¾Ð¹ ÑģÐº
ĠÐ½Ð° ÑģÑĤÐ¾Ñı
ĠÐ¡ ÑģÑĭÐ»ÐºÐ¸
ĠÐ³Ð¾ÑģÑĥÐ´Ð°ÑĢ ÑģÑĤÐ²Ð°
Ð± Ð¾Ð»
ĠÐĴ Ñģ
ĠÑģ Ð¸Ð»ÑĮ
ĠÐ¸ÑģÑĤ Ð¾Ñĩ
ĠÐĴÐ»Ð°Ð´Ð¸ Ð¼Ð¸
Ð° Ñī
ĠÐ´ Ð¾ÑĢÐ¾Ð³
ĠÑĪÐ¸ÑĢ Ð¾Ðº
ÑĤ Ð¾Ð½
ĠÐ¢Ð°Ðº Ð¶Ðµ
ĠÐ¼ÐµÐ¶Ð´ ÑĥÐ½Ð°ÑĢÐ¾Ð´
ĠÐ¾Ñģ ÑĥÑīÐµÑģÑĤÐ²
ĠÐ²Ñĭ Ð¿Ð¾Ð»
ĠÐ·Ð° Ñī
ÑĢÐµ Ð¶Ð´
ĠÑģÐ¾ÑģÑĤÐ°Ð² Ð»Ñı
Ġ18 8
a m
ĠÐ¿Ð¾Ð± ÐµÐ´
Ð¾Ñı Ð½
ÑģÑĤ Ñĭ
ĠÑįÑĤÐ¸ Ñħ
ÑĤÐ¸ÑĩÐµ ÑģÐºÐ¸
ĠÐ½Ð° Ð¿Ð¸Ñģ
ĠÑģÑĢÐµÐ´ Ð¸
ĠÑģÐ²Ð¾ Ð¸Ñħ
ĠÐ¼Ð» Ð½
ĠÑĤÐ¾ÑĢ Ð³Ð¾Ð²
Ð¾ÑģÑĤ Ð¾Ðº
ĠÐĽÐ¸ÑĤÐµÑĢÐ° ÑĤÑĥÑĢÐ°
Ð°Ðº Ð¾Ð²
ĠÑģÐ²Ð¾Ðµ Ð³Ð¾
ĠÐ¾ ÑģÑĤÐ°Ð²
ĠÐ¾ ÑĦÐ¸ÑĨÐ¸Ð°Ð»ÑĮ
ĠÐ³ Ðµ
ĠÐĵ ÐµÑĢ
ĠÐ°Ð² ÑĤÐ¾Ð¼
ĠÐ² Ð°Ð¶
Ð°ÑĤ Ð¾ÑĢ
ĠÑģÐ¾ Ð¾Ð±Ñī
ĠÐ¿Ð¾Ðº Ð°Ð·
ÑĢÑĭ Ð²
Â °
ĠÑĢÐµ ÑģÐ¿
5 0
ĠÐ¾ÑĤ Ð»Ð¸Ñĩ
ĠÑĩ ÐµÑĤÑĭ
ÐµÑĢÐ² ÑĭÐµ
ĠÐ³ ÑĥÐ±
Ð°Ð½ ÑģÐºÐ¸Ð¹
ĠÐ¾ÑĤÐ´ ÐµÐ»ÑĮ
ĠÑĤÐµÐ¼ Ð¿ÐµÑĢÐ°
Ð½Ð¸ Ð¸
ÑĦÐ¸ ÐºÐ°
ÐµÐ» Ð¾
ĠÑģ Ð´ÐµÐ»
ÑĨ Ðµ
ĠÐŁ ÐµÑĢ
ĠÑģÐº Ð¾ÑĢ
ĠÐ¼ Ð¸ÑĢ
ÑĤÑĥÑĢ Ñĭ
Ð°Ð»ÑĮ Ð½Ð°Ñı
ĠÐ¡ Ð¿
âĢ ¦
ĠÐºÐ¾Ð½ÑĨ Ðµ
ĠÐ¸Ð½ ÑĦÐ¾ÑĢÐ¼Ð°
Ð §
Ð¸ ÐµÐ¼
ĠÐŁ ÑĢÐ¾
s t
Ñĳ Ð·
ĠÐ¿ÐµÑĢÐµ Ð²Ð¾Ð´
ĠÑĢÐ¾ÑģÑģÐ¸Ð¹ ÑģÐºÐ¸Ð¹
ĠÑĤ ÑĢÑĥ
ÐµÐ½ÑĤ Ð°
Ð»ÐµÐ½ Ð°
ÐµÐ¼ ÑĭÑħ
Ð¾ÑģÑĤ Ð°Ð²
Ð¸ Ð´Ð°
Ð» ÐµÑĢ
Ð³ÑĢÐ° Ð½Ð¸Ñĩ
ĠÐĽ ÐµÐ½Ð¸
ĠÐ±Ð¾Ð»ÑĮÑĪ Ð¸Ð½
ĠÐĲ Ð·
Ð¾Ð½ Ð´
ĠÐ¾ÑĤ Ñģ
Ġ2 3
ĠÐ¿Ð¾Ð» Ð¾Ð²
ĠÐ¼ Ð°Ð»
ĠÐ°Ð¼ÐµÑĢÐ¸ÐºÐ°Ð½ ÑģÐºÐ¸Ð¹
ĠÑģ Ð¾Ð»
ĠÐľ Ð¸Ð½
ÑĢÐ¸ Ñħ
ĠÐ° ÐºÐ°Ð´ÐµÐ¼
ĠÐ¿ÑĢÐµÐ´ Ð»Ð¾Ð¶
Ð¸Ð» Ð¾ÑģÑĮ
ĠÐ¿ÑĢÐµ Ð¼Ð¸
ĠÐĲ Ð»ÑĮ
ÑĪ ÐµÐµ
ÑİÑī ÐµÐ¹
Ðµ Ñı
ĠÑģÑĤ Ð¾ÑĢÐ¾Ð½
Ð·Ð° Ð¸Ð¼
ĠÑĢÐµÑģÐ¿ ÑĥÐ±Ð»Ð¸
ĠÐ± ÑĢÐ°
ĠÐ°Ð´ Ð¼Ð¸Ð½Ð¸ÑģÑĤÑĢÐ°
ÑĤÐ¾Ð¼ Ñĥ
ĠÐ¾Ñĩ ÐµÐ½ÑĮ
ĠÑģÐ¾ÑģÑĤÐ°Ð² Ð»ÑıÐµÑĤ
ĠÐ½ÐµÐ· Ð°Ð²Ð¸ÑģÐ¸Ð¼
ĠÐ¿ Ð¾Ð»ÑĮÐ·
Ð»Ð¸ Ð¸
ĠÐĺÑģÑĤ Ð¾ÑĢÐ¸Ñı
Ð¿ Ð¸ÑĤ
ĠÐ¾ Ñħ
ĠÐ² ÑħÐ¾Ð´
ĠÑĢ Ð¾Ð¼
ĠÑģÐ»ÑĥÑĩÐ° Ðµ
Ð¾ÑĢ ÑĤÐ°
ĠÐ²Ñĭ Ð´
ĠÑĥÑĩÐ° ÑģÑĤÐ¸
ĠÐĵ Ð¾ÑģÑĥÐ´Ð°ÑĢ
Ð¸Ð»Ð° ÑģÑĮ
ĠÐĳ Ð¾Ð³
ĠÐ¼ÐµÐ½ ÐµÐµ
Ð¼Ð°ÑĤ ÑĢÐ¸
Ð°ÑĤ ÐµÐ»Ð¸
. )
ĠÐ¿ÑĢÐ¾ ÑĪ
Ð°Ð½ ÑĮ
ĠÐ¸Ð· ÑĥÑĩ
Ð¶ ÐµÐ½
Ð´ Ð¾
ĠÐ° Ð±
ĠÐ¾Ðº Ð¾Ð½Ñĩ
ĠÐºÐ¾ÑĤÐ¾ÑĢ Ð¾Ð¼
ĠÐ¸Ð¼Ð¿ ÐµÑĢÐ¸Ð¸
ÐµÐ½ Ð¾Ð²
ĠÐ¼ Ð¾Ð¼
ÑģÐ¸ Ð²
Ñħ Ð°Ð½Ð¸
Ġ2 2
ĠÐ± ÐµÑĢÐµ
ĠÐ·Ð°ÑĤ ÐµÐ¼
ÑģÑĤ Ð¾
Ð¸ ÑĦ
Ð°ÑĤÐµ Ð³Ð¾
Ð°Ñģ Ñģ
ĠÐŁ ÑĢÐ°Ð²
ĠÑģÐ¾ ÐµÐ´Ð¸Ð½
ÑĮ ÑİÑĤ
ĠÐ¼ÐµÑĤ Ð°Ð»
ĠÐ²Ðµ ÑīÐµ
ĠÐ¿ Ð¸ÑģÑĮ
ĠÐĺ ÑģÐ¿
ÑĢ Ð¾Ð·
ĠÐ½Ð° Ð·Ð½Ð°Ñĩ
ÑģÐ¸ Ð¼
ĠÐ¼ ÑĥÐ·
Ð²Ð¸ Ð³
ĠÑĢÑĥÑģ ÑģÐºÐ¸Ð¹
ĠÐŁ ÑĢÐµÐ´
ĠÐº Ð°ÑĤ
ĠÐ» Ð¸Ð±
ĠÑĩÐ°ÑģÑĤ Ð¾
ĠÐ´ Ð°Ð²
ĠÐ½Ð° Ð¸Ð±Ð¾Ð»ÐµÐµ
ĠÑĤÑĢÐ°Ð½ ÑģÐ¿
ĠÐ¿ ÑģÐ¸Ñħ
Ð» Ð¾Ð½
ĠÐ¾ ÐºÐ°Ð·
Ð°Ð½ ÑĤÐ°
ĠÑģ Ð¾Ñĩ
Ġ O
ĠÑį ÑĦÑĦ
ĠÐĲÐ»ÐµÐºÑģÐ°Ð½Ð´ ÑĢ
Ð½ Ð¸ÑĤ
ĠÑģÑĤ Ð¾ÑĢÐ¾Ð½Ñĭ
ĠÑģÐ² ÐµÑĤ
ĠÑĢÐµ Ð²Ð¾Ð»Ñİ
Ð»ÐµÐ´ ÑģÑĤÐ²
ĠÑĢÐ°Ð¹ Ð¾Ð½Ð°
ĠÐ¿ÑĢÐ¸Ð· Ð½
ĠÐ¿ÑĢ Ð¾ÑģÑĤÑĢÐ°Ð½
ĠÑģ Ð¾ÑĤ
Ñİ Ð·Ð°
ĠÐĲ Ð´
Ð³ Ð¾Ð´
ĠÐ¸Ð· Ð¾Ð±ÑĢÐ°Ð¶
ĠÐł Ð°Ð·
ĠÐ½Ðµ Ð³Ð¾
Ð¾Ð³ÑĢÐ°ÑĦ Ð¸Ñı
ĠÐĽ Ñİ
Ð°Ð»ÑĮ Ð½Ð¾Ðµ
ĠÐ» Ð¸Ñĩ
Ð¸ÑĩÐµ ÑģÐºÐ¾Ðµ
Ð¸Ð· Ð¼
Ġ18 7
Ð¸Ðº Ðµ
Ð» ÐµÐ½Ð¸ÐµÐ¼
Ð½ Ð°ÑĢ
ĠÑĥÐ² ÐµÐ»Ð¸Ñĩ
ĠÐĲÐ½ Ð³
Ġ p
3 0
ÑĥÑģ Ð°
ĠÑĢÐ°Ð· Ð´ÐµÐ»
ĠÐ´Ðµ Ð¿
ĠÑģÐ¾ ÑĨÐ¸Ð°Ð»ÑĮ
Ð¸ÑĤ Ð°Ð¹
ÑĩÐ° ÐµÑĤÑģÑı
ÑİÑī Ð°Ñı
Ð² Ð¸Ð´
ĠÐ± Ð°Ð·
e d
ĠÐ· Ð°Ñı
Ð± Ðµ
Ðº Ð²Ð¸
ĠÐĺ Ð²
ĠÐ·Ð° Ñħ
ĠÐ± Ð¸
ĠÐ¦ ÐµÐ½ÑĤ
19 8
Ġ18 6
Ð°Ð» Ñĭ
ĠÑħÑĥÐ´ Ð¾Ð¶
ĠÐ¾ Ð³
ĠÑĤ ÑĢÑĳÑħ
ĠÑģÑĤ Ð°Ð½Ð¾Ð²
ĠÑĥ ÑģÐ¿
Ð» Ð°ÑĤ
ÑĳÐ½ Ð½ÑĭÐ¹
ĠÑħÐ°ÑĢÐ°ÐºÑĤ ÐµÑĢ
ĠÐ½Ð°Ð± Ð»Ñİ
ÑĨ Ð¾Ð²
ĠÐ¾Ð± Ð¾Ð·
ĠÐ°ÑĢ ÑĤÐ¸
Ñĥ ÐºÐ°
Â» ).
ĠÐ¼Ð¸ ÑĢÐµ
ĠÐ¿Ð¾Ð»ÑĥÑĩ Ð¸Ð»
ĠÐºÐ»Ð°Ñģ ÑģÐ¸
ĠÑģÐ¿Ðµ ÑĨÐ¸Ð°Ð»ÑĮ
ÑģÐ¸ Ð¾Ð½
ĠÑį ÑĤÐ°
ĠÐł Ð¾Ð´
ĠÐ±ÑĥÐ´ ÐµÑĤ
Ðº Ð¸Ð½
ĠÑĢÐ° Ð±
ĠÐ¿ÑĢÐ¾Ð± Ð»ÐµÐ¼
ĠÐ·Ð°Ð² Ð¾Ð´
ĠÐĴ ÐµÑĢÑħ
Ð¸ ÐºÐ¾Ð²
Ð½ Ð¾Ð´
Ġ2 8
Ġ2 6
Ñı ÐµÑĤ
ĠÑĥ ÐºÐ°Ð·
Ð· Ð¼Ð°
ĠÐ½ ÐµÐ²
ĠÑģÑĤ ÑĢÑĥÐºÑĤ
Ð³Ð¸ Ð¿
ĠÑıÐ·Ñĭ ÐºÐµ
ĠÐ² Ð·Ð°Ð¸Ð¼
ĠÐ²Ñĭ Ð¿Ñĥ
ÐºÐ¸ Ðµ
ĠÐ¿Ð°Ð¼ ÑıÑĤ
Ð²Ð° ÐµÑĤ
ĠÐ²Ð¾Ð· Ð²
ĠÐ¿ ÑĥÐ±Ð»Ð¸
Ð ¦
ĠÐ» Ð¸ÑĨ
ĠÑĦ Ð¾ÑĤ
Ð°ÑĤ Ð¾Ñĩ
ĠÐ¿ÑĢ Ð¾Ñģ
ÑģÐº Ð¾Ð»ÑĮ
ÑĥÐ½ Ð´
ÐµÑĢÐ± ÑĥÑĢÐ³
ĠÐľ Ð°ÑĢÐ¸
ĠÐ°ÐºÑĤ ÑĢÐ¸ÑģÐ°
ÑģÑĤÐ²ÐµÐ½ Ð½ÑĭÐµ
ĠÐ·Ð°Ðº Ð»ÑİÑĩ
ĠÐ¿ÑĢÐ¸ Ð¼ÐµÑĢ
ÑĤÑĥ ÑĢÐµ
ÐµÐ½Ð¸Ñı Ñħ
19 4
ĠÐ²Ñĭ ÑĢÐ°Ð¶
Ð¸ ÐµÐ²
ÐµÐ½ Ð³
ĠÐ½Ð°Ñĩ Ð°Ð»
ĠÐ» ÐµÑģ
ĠÐ°ÑĢÐ¼Ð¸ Ð¸
in g
Ð» Ð¾Ðº
ÐµÐ¹ Ð½
ĠÐ¸Ð½ Ð´
ÑĢÐ¸ Ð½
ĠÐ¾ÑĤÐºÑĢÑĭ ÑĤ
Ð¾Ð¿ Ð¸Ñģ
ĠÐĿÐ¸Ðº Ð¾Ð»
ĠÑģÑĤ Ð°ÑĤÑĮ
ĠÐº ÑĥÑĢ
ĠÐļ Ð°Ð·
Ð¸ Ð¾Ð½
Ð¸ ÑĨÐ¸Ð¸
r a
ĠÐ¿Ð°ÑĢ ÑĤÐ¸Ð¸
ĠÑģÑĤ Ð°Ð»Ð°
ĠÑĤ Ñĥ
ĠÐĵ Ðµ
ĠÐĵÐµÑĢÐ¼ Ð°Ð½Ð¸Ð¸
ÑĢÐ¾Ð¿ ÐµÐ¹
ĠÑģÐ¸Ð¼ Ð²Ð¾Ð»
ÑĮ ÐµÑĢ
Ġ [
Ġ2 7
ÑĢ Ð¾Ð±
ĠÐ´ ÐµÑĢÐµÐ²
ĠÐ½Ð°ÑħÐ¾Ð´ Ð¸ÑĤÑģÑı
ÑıÑĤÐ¸ Ñı
Ġ201 0
ĠÐº Ð¾ÑĢÐ°
ĠÐ°ÑĢÑħ Ð¸ÑĤÐµÐº
ĠÑĢÐ° ÑģÑĤ
ĠÐ¾ ÑĩÐµ
ÑĢ Ð¾ÑģÑĤ
ĠÐ½ Ð¸Ðº
Ð°Ð¼ Ð±
Ġ of
ĠÐ·Ð½Ð°Ñĩ Ð¸ÑĤÐµÐ»ÑĮ
ĠÐ½ÐµÐºÐ¾ÑĤÐ¾ÑĢ ÑĭÑħ
Ġ K
ĠÑĩÐ°ÑģÑĤ Ð½Ð¾ÑģÑĤÐ¸
ĠÐĵ Ð¾ÑĢÐ¾Ð´
ĠÐ» ÐµÐ³
ĠÑĨ Ð°ÑĢ
ĠÑı Ð²
ĠÐ²ÐµÐº Ðµ
en t
ĠÐ¸ Ð³ÑĢÐ°
ĠÐ¾Ðº ÑĢÑĥÐ¶
ĠÐ¤ÐµÐ´ÐµÑĢÐ° ÑĨÐ¸Ð¸
ĠÐºÐ¾Ð¼Ð¿ Ð¾Ð·
Ð¸Ð½ ÑģÐºÐ¾Ð¹
ĠÐ²Ð¼Ðµ ÑģÑĤÐµ
ĠÐºÐ¾ÑĤÐ¾ÑĢ Ð¾Ðµ
ĠÐľÐ¾ÑģÐº Ð¾Ð²
ĠÑĩÐ¸Ñģ Ð»Ð¾
ĠÐĿ Ðµ
ĠÐ¼Ð°ÑĤ ÐµÐ¼Ð°ÑĤ
ĠÐ³ ÑĢÐµ
ĠÐ¸Ð¼Ð¿ÐµÑĢÐ° ÑĤÐ¾ÑĢ
Ñĩ Ð¸Ð²
ĠÐ²ÑĤÐ¾ÑĢ Ð¾Ð¹
ĠÐ½ Ð¾ÑĢ
ĠÐ® Ð¶
ĠÐ¾ Ð³ÑĢÐ°Ð½Ð¸Ñĩ
u m
ĠÐ´ Ð°Ð»ÑĮ
ĠÐĹ ÐµÐ¼
Ñı Ð²Ð»Ñı
ĠÐļ ÑĢÐ¾Ð¼Ðµ
Ð¼Ðµ ÑģÑĤ
ĠÐ²Ñģ Ñĳ
ĠÐ¼Ðµ ÑħÐ°Ð½Ð¸
ĠI II
ĠÐ¿ÑĢÐ¾Ð² ÐµÐ´
Ð² Ð°Ð»
ĠÑĦÐ¾ÑĢ Ð¼
ĠÑĦ Ð¾Ð½
ĠÐ¿Ð¾ÑģÑĤ Ð¾ÑıÐ½
ÐµÐ½ Ð½Ð¾Ð³Ð¾
ĠÑģÑĩ Ð¸ÑĤÐ°
ÑģÑĤ Ð¸ÑĤ
ĠÐºÐ¾Ð»Ð¸ÑĩÐµ ÑģÑĤÐ²Ð¾
ĠÐ¡ Ð¾Ð³Ð»Ð°ÑģÐ½Ð¾
Ð² Ð°ÑĢ
ĠÑĩ Ð°Ñģ
Ġ U
ĠÑĦ ÑĥÑĤ
ĠÐł Ð°
ĠÐĽ Ðµ
ĠÐº Ð¸Ñģ
Ð¼ Ð¸ÑĤ
ĠÐ´ Ð¾Ð³Ð¾Ð²
ĠÐ»Ñİ Ð´ÐµÐ¹
Ð½Ð¾ÑģÑĤ ÐµÐ¹
Ð¼ ÐµÐ½Ð¸
ĠÐ» ÑĥÑĩ
ĠÐ´ ÐµÐ¼
ĠÐ½Ðµ Ñģ
Ð» ÑĥÑĩ
ÑģÐºÐ¾Ð»ÑĮ ÐºÑĥ
Ð½ Ð¾Ðº
ĠÐ²Ñĭ ÑħÐ¾Ð´
ĠÐ½Ð°Ñĩ Ð°Ð»Ð°
ĠÐ½ Ð¸Ð·
Ð°ÑĤÐµÐ»ÑĮ Ð½Ð¾
ĠÐ¿ÑĢÐ¾ÑĨ ÐµÑģ
Ð¸Ð» Ð»Ð¸
Ġ J
ÐµÐ½ Ð·
ĠÑĢÐ¸ Ð¼
Ð°ÑĤ ÐµÑĢÐ¸
ĠÑįÐ½ ÐµÑĢÐ³
ĠÑģ Ð¾Ñģ
ĠÑĢÐ°Ð·Ð²Ð¸ÑĤ Ð¸Ñı
ĠÑĥÐ½Ð¸Ð²ÐµÑĢÑģÐ¸ÑĤ ÐµÑĤ
Ð½ Ñİ
ĠÐ¿ÑĢ ÑıÐ¼
ĠÐ¼ ÑĥÐ¶
ĠÑĢÐ°Ð¹ Ð¾Ð½Ðµ
ĠÐ¸Ð¼Ðµ ÑİÑĤ
Ð»Ð° Ð¼ÐµÐ½ÑĤ
Ð¾Ð¼ ÐµÑĤ
ĠÐ¡ ÐµÑĢÐ³
Ð°Ð½ Ð½Ð¾Ð¹
ĠÑĥÑģÐ»Ð¾Ð² Ð¸Ñı
ĠÐ¾ÑĤ Ð¿ÑĢÐ°Ð²
ĠÐ²Ð¾Ð· Ð½Ð¸Ðº
Ð¾ÑĢ Ð³
ÑĳÑĤ ÑģÑı
ÑģÑĤÐ¸ÑĤ ÑĥÑĤ
Ð²Ð° ÐµÑĤÑģÑı
ĠÑģ Ð¾Ð³
ĠÐ²Ñĭ ÑĪ
ĠÑĥ Ð·
ÐµÐ½ÑĤ Ð¾Ð²
Ð°Ð» Ð¸ÑģÑĤ
ĠÑı Ð´
19 7
ĠÐ½ Ð¾Ñģ
ĠÑĨÐµÑĢ ÐºÐ¾Ð²
ĠÐ±Ñĭ Ð²
Ð¾Ð² ÑĭÑħ
Ð° ÑĨÐ¸Ñı
ĠÐľ ÐµÐ¶Ð´
ĠÐ¤ÑĢÐ°Ð½ ÑĨÐ¸Ð¸
Ð¸ÑģÑģ ÑĳÑĢ
ĠÑħ ÑĢÐ¸ÑģÑĤÐ¸Ð°Ð½
ĠÐºÑĥÐ»ÑĮÑĤÑĥÑĢ Ñĭ
ĠÐ¸ÑģÐº Ð»ÑİÑĩ
ÑĥÑİÑĤ ÑģÑı
ĠÐ£ÐºÑĢÐ° Ð¸Ð½Ñĭ
Ð°ÑĤ ÑĢÐ¸
ĠÐ¿Ð¾Ñĩ ÑĤÐ¸
ÐµÑĩ Ð°ÑĤ
ĠÑģÐ¾Ñħ ÑĢÐ°Ð½
ĠÑģÐ¼ÐµÑĢ ÑĤÐ¸
ÑģÑĤÑĢÑĥ Ðº
ĠÐ¾Ð´ Ð½Ð¸Ð¼
ĠÐ· Ð°Ð»
Ñı ÐµÑĤÑģÑı
ÑģÐº Ð°Ð·
ĠÑĢ Ð¾Ð»ÑĮ
ĠÐ¿ÑĢÐ¾ÑĨ ÐµÑģÑģ
ÑĥÑĢ Ñĭ
ĠÐ¿ÑĢ Ð¾Ð¿
Ð¸Ð½ ÑģÐºÐ¾Ð³Ð¾
ĠÑĥ ÐºÑĢÐ°
ĠÐ° Ð²Ð¸
ĠÐ²Ð¿ ÐµÑĢÐ²ÑĭÐµ
ĠÐ· Ð½Ð°Ðº
Ð¾Ð»Ð½ Ð¸ÑĤÐµÐ»ÑĮ
ĠÐ±Ð¾Ð»ÑĮÑĪ Ðµ
Ð¼Ðµ Ñī
ĠÐ¾Ð± ÑıÐ·
ĠI S
ĠÐºÐ¾ÑĢÐ° Ð±
Ð¾Ð² ÐµÐ´
Ġ199 0
Ð° Ñĩ
Ð¾ÑĤ Ñĭ
ĠÐĵ ÐµÐ½
ÑģÑĤ Ð°Ð½
ÑĢ Ðº
ĠÐĺ ÑĤ
19 6
ĠÐŁ Ð°Ð²
Ġ20 00
ĠÑģ Ñĥ
ĠÑģÐ¾Ð± Ñĭ
Ð°Ð² ÑĪÐ¸Ð¹
ÑĢÐ° ÑĤÐ¸
Ð³Ð¸ Ð¾Ð·
ĠÐ¿ÑĢÐµÐ´ Ð¿Ð¾Ð»
ÑģÐ» ÑĥÐ¶
ÑĢÐ¸ Ð³
ÑĤÐ¸ ÑĢÐ¾Ð²
Ġ2 1
ÐµÐ½ Ð½Ð°Ñı
ĠÑĤÐµÑĩ ÐµÐ½Ð¸Ðµ
Ð½Ð°ÑĢ ÑĥÐ¶
Ð¶ ÐµÐ½Ð¸Ñı
ĠÐ² ÑĢÐ°
Ð»Ñı Ð½
Ñĩ Ð½Ð¾
ÐŁ ÐµÑĤ
ĠÐĹ Ð°
ĠÐ¿Ð¾Ð´ Ð¿Ð¸Ñģ
ĠÐĴ Ð¾Ð»
ĠÑĢÐµ ÐºÐ¸
ĠÐ¸ÑģÐ¿Ð¾Ð»ÑĮÐ· ÑĥÐµÑĤÑģÑı
Ð¸Ð½ Ð°Ð¼Ð¸
ĠÑĥÑĤÐ²ÐµÑĢ Ð¶Ð´
ĠÐ²Ð½ÑĥÑĤ ÑĢÐµÐ½
ÐµÑĢÐ¸ Ñı
ĠÑĩÐ¸Ñģ Ð»Ð°
Ð½Ð°Ð´ Ð»ÐµÐ¶
ĠÐ± Ð»Ð¸Ð·
ĠÑĤÐµ Ð¿
ĠÐ°ÐºÑĤ ÑĳÑĢ
Ð°Ð½ ÑģÐºÐ¾Ð¹
Ð¾ ÑıÑĤ
a c
ÐµÐ» ÐµÐ½Ð¸Ðµ
ĠÐ²Ñĭ Ð¿
Ð¼ Ð¾Ñģ
ĠÑħ Ð¾ÑĤÑı
Ð³ÑĢÐ° Ð´
ĠÐ¶ÐµÐ½ Ñī
ĠÐľÐ¸Ñħ Ð°
ÐµÐ¼ ÑĭÐµ
2 5
ĠÐļ Ð°Ð»
Ð¾Ð´ ÐµÐ¹ÑģÑĤÐ²
Ð°Ð» Ð¸Ð¸
ÐµÐ½ Ðµ
ÐºÐ° Ð·ÑĭÐ²Ð°
ĠÐ¾Ð±ÑĭÑĩ Ð½Ð¾
ĠÐļ Ð°Ðº
Ð± Ð¸Ð½
ÑĩÐµ Ð±
ĠÑģÐ» Ð¾Ð²Ð°
Ð¸ ÐµÐ¹
ÑģÑĤ Ð°Ð½ÑĤ
ÐµÑĢ Ð¾Ð¼
ĠÑĤÐµÐ¾ÑĢÐ¸ Ð¸
Ġ2 9
Ð¾Ð¶Ð´ ÐµÐ½Ð¸Ðµ
ĠÑĢÑĥ Ð±
ĠÐ¿Ð» Ð°Ð½
ĠÑĨÐµÐ½ÑĤ ÑĢ
ĠÑģÐ¸ÑģÑĤÐµÐ¼ Ð°
Ð½ Ð¾Ð³
Ġ c
Ġ200 8
Ð¾ÑĢÐ¸ ÑĤ
ĠÐ²Ð½Ðµ ÑĪ
ĠÑģÑĤÑĢÐ° Ð½Ð°
ĠÐ¾Ð´ Ð½Ð¾
ĠÐ´ ÑĥÑħ
ÑĢ ÐµÐ½Ð¸Ñı
ĠÐ·Ð°Ð½Ð¸ Ð¼Ð°
ĠÑĤÐ°Ðº Ð¸Ñħ
ĠÐ¿Ð¾ÑĢ ÑıÐ´
ĠÑĥÐ½Ð¸Ð²ÐµÑĢÑģÐ¸ÑĤ ÐµÑĤÐ°
Ðº Ð°Ñı
Ð» ÐµÐ½Ð¸Ð¹
ĠÐ¼Ðµ ÑģÑı
ĠÐ¿ÑĢÐ¸ Ð½Ð°Ð´Ð»ÐµÐ¶
Ð°Ðº ÑĤ
Ġ +
ÐµÐ· Ð´Ð°
Ð°ÑĢ Ñĭ
ĠÑģ ÑĥÐ±
Ð°Ð½ Ðº
ĠÐŃ Ðº
Ġ s
ĠÐ¾Ð¿ÑĢÐµÐ´ ÐµÐ»Ñı
ÑĦÐ¸ ÑĨÐ¸
ĠÐ² ÐµÑĤ
ĠÑĢÐ°Ð·Ð»Ð¸Ñĩ Ð½ÑĭÑħ
ĠÐ¾ÑģÐ½Ð¾Ð² Ðµ
ĠÐ¾ÑĤ Ð²ÐµÑĤ
ĠÑĤ Ð¾Ð½
ĠÐ¸Ð¼ Ñı
Ð½Ð¸ ÑĨÑĭ
ĠÐ·Ð°Ð¿ Ð¸Ñģ
ĠÐ¿Ð¾Ñį ÑĤ
ĠÐķ ÑģÐ»Ð¸
Ð¸Ð±Ð»Ð¸ Ð¾ÑĤ
Ġ1 00
Ð¾ÑĢ Ð´
Ð± ÑĢÑĮ
ĠÐ± ÑĢÐ¸ÑĤ
ĠÐ¸Ð½ ÑĤÐµÑĢ
ĠÑĤ Ð²Ð¾ÑĢ
ĠÑİ Ð¶
i g
ĠÑģÐ²Ð¾ Ð¸
ÑĢÐµ ÑĪ
ĠÐ½Ð° ÑĥÐº
ĠÐ»Ð¸Ð± Ð¾
ĠÐ¾Ð±ÑĬ ÑıÐ²
ĠÐĹÐ°Ð¿ Ð°Ð´
Ð¶ Ð°
ĠÑģÐ¾ ÑİÐ·
Ð² ÑıÑī
ĠÐ¾ÑĤ Ð´ÐµÐ»
ĠÐ¾Ð´ Ð½Ð¾Ð³Ð¾
ĠÐ´ÐµÐ¹ÑģÑĤÐ² Ð¸Ñı
ĠÐ± Ð¾ÑĢÑĮ
ĠÐ¶Ð¸Ð² Ð¾ÑĤ
ĠÑĤ Ð¾ÑĤ
ĠÐĿ Ð¾
ĠÐ¾Ð±Ð»Ð° ÑģÑĤÑĮ
ĠÑħ Ð¾ÑĢ
ĠÐº ÑĢÐµ
ĠÐ´ ÑĢÐ°
ĠÐ¢ Ðµ
ĠÐ² Ð¾Ðº
ĠÐ¿ÑĢÐ¸ Ð²Ð¾Ð´
ĠÑħ Ð¾Ð·ÑıÐ¹
ĠÑĢÐµ Ð°Ðº
ĠÐº Ð»ÑĥÐ±
Ð»Ð¸ Ð¼Ð¿
ĠÐ° Ð³
ĠÐ²Ð¾Ð¹ ÑģÐºÐ°
ĠÐ·Ð° Ð±
ĠÐ¿ÐµÑĢÐ² Ð¾Ð¹
ĠÐ¼ Ð°ÑĪ
B N
Ð¶ Ð¸
ÑĩÐµ ÑģÐºÐ°Ñı
ĠÐ¿ Ð»Ð°
ĠÐ¿ÑĢÐµÐ´ÑģÑĤÐ°Ð² Ð»Ñı
ĠÐĴ Ð°Ð»
ĠÐ¾Ð± Ð½Ð°ÑĢÑĥÐ¶
Ñĳ ÑĤÐ°
Ð°Ð½ Ð½Ð°Ñı
ĠÐ± Ð¾Ð»
ĠÐ¿ Ñĥ
ÐµÐ» ÐµÐ²
ĠÐ²Ð¾Ð· ÑĢÐ°
ĠÐ¿Ð¾Ð¼Ð¾Ñī ÑĮÑİ
ĠÐ¿ÑĢÐ¾Ð¸Ñģ Ñħ
ĠÐ²Ð»Ð° ÑģÑĤÑĮ
ĠÐĴ ÑģÐµ
ĠÐ¼Ð¾Ð¼ ÐµÐ½ÑĤ
ĠÐ¿ÑĢÐ¾Ð¸Ð· Ð¾ÑĪ
ÑĨ Ð°Ð¼Ð¸
Ġ5 0
Ð»ÐµÐ½ Ð¾
ÑĢÐ¾ÑĤ Ð¸Ð²
ÑĢÑĥ Ñģ
ÐµÐ½Ð¸Ñı Ð¼Ð¸
ĠÑĥ Ð¼ÐµÑĢ
ÑĪ ÑĳÐ»
Ġ201 1
ÑĥÐ±Ð»Ð¸ ÐºÐ¾Ð²
ĠÐ¼Ð½Ð¾Ð³ Ð¸Ñħ
ĠÐ¿ Ð¾Ð·Ð´
ĠÑģÐ¿Ðµ ÑĨÐ¸
ĠÐ² Ð²ÐµÐ´
ĠÐ¾ÑģÐ½Ð¾Ð² Ð½Ð¾Ð¼
t er
ĠÐ¾ÑĩÐµ ÑĢÐµÐ´
ĠÐ¼ Ð°Ðº
Ð¾Ð½ ÑĤ
ĠÑĨÐµÑĢ ÐºÐ²Ð¸
Ð± ÑĥÑĢÐ³
ĠÐ´Ð¾Ðº ÑĥÐ¼ÐµÐ½ÑĤ
ĠÑħÐ°ÑĢÐ°ÐºÑĤ ÐµÑĢÐ¸
ĠÐ½ ÐµÑĤ
ÐµÑĢÐµ Ð¶
ĠÑĥÑĩ ÑĢÐµÐ¶Ð´
Ð½ ÐµÑĤ
ĠÐĶ Ð¾
ĠIS BN
ĠÐ·Ð°Ñı Ð²
Ð¸ ÑģÐº
2 2
Ġ200 7
ĠÐ¿ÐµÑĢÐµ ÑħÐ¾Ð´
ĠÐ² ÑģÑĤÑĥÐ¿
ĠÐ¾Ð±Ð»Ð° ÑģÑĤ
ĠÐłÐµÑģÐ¿ÑĥÐ±Ð»Ð¸ ÐºÐ¸
ĠÐ¼ ÐµÐ½ÑĮ
ĠÐº ÑĢÐ°Ñģ
i d
ÐºÐ¸ Ð¼
Ð¸Ð² Ð°ÐµÑĤ
ĠÑģ ÑĥÐ¼
ĠÐķ Ð³Ð¾
ĠÐ¾ÑģÐ¾Ð± ÐµÐ½Ð½Ð¾
ĠÐļÐ¾Ð½ ÑģÑĤÐ°Ð½ÑĤ
Ð½Ð¸ Ð¼Ð°
ĠÐ¿Ð¾Ñģ Ð»ÐµÐ´Ð¾Ð²
ÐµÐº ÑĤÐ¾Ð²
ĠÐ¾ÑĢÐ³Ð°Ð½Ð¸Ð·Ð° ÑĨÐ¸Ð¸
Ð°Ð»ÑĮ ÑıÐ½
ĠÐ·Ð°Ð½Ð¸ Ð¼
ĠÐ½Ð°ÑģÑĤÐ¾Ñı ÑīÐµÐµ
ÑĥÑİÑī Ð¸Ñħ
Ñģ Ð¾
ĠÐ½Ð° Ð·ÑĭÐ²
Ð¿ Ð¾
Ð½Ð¸ ÑĨÐ¸Ð¿
Ð¾Ð± ÑĢÐ¸ÑĤ
Ð¾Ð´ Ð°ÑĢÑı
ĠÑĤ ÑĥÑĢ
ĠÐ½ÐµÐºÐ¾ÑĤÐ¾ÑĢ ÑĭÐµ
Ð¸Ð· Ð¼Ð°
Ð² ÑĳÑĢ
ÑĳÐ½ Ð½Ð¾Ð¹
ĠÐ¾Ð±ÑĢÐ°Ð·Ð¾Ð² Ð°Ð½Ð¸Ñı
Ð± Ð¸
Ð·Ð° ÑĨÐ¸Ð¸
ĠÐ·Ð° Ð´Ð°
âĢ Ļ
ĠÐ° ÑģÑĤ
ÐºÐ° Ð¼
ĠÐ· Ð½
ĠÐ½Ðµ ÑĦ
ĠÐº ÑĢÐµÐ¿
ĠÐ¿Ð¾Ð² ÐµÑĢÑħ
Ð°ÑĤ Ð¾Ð¼
ĠÑĤÐµÐ°ÑĤ ÑĢÐ°
ÑĩÐµ Ð²
ĠÐ¿ÑĢÐ¸ Ñĩ
Ġ200 9
ĠÐĴÐ»Ð°Ð´Ð¸Ð¼Ð¸ ÑĢ
Ġ200 5
Ð¾Ñģ Ð¾Ð²
ĠÐ½Ð° Ñĥ
ĠT he
ĠÑĤÐ°Ðº Ð¸Ðµ
Ð¾Ð¿ Ð°Ñģ
ĠÑģÑĤ Ð°Ð»Ð¾
ĠÐ½ÐµÐ± Ð¾Ð»ÑĮÑĪ
Ð¾ÑģÑĤ Ð¾
ĠÑģ ÐµÑĤ
ĠÐł Ð¡
ĠÐ´Ð² Ðµ
Ð² ÐµÐ¹
ĠÐ´ÐµÐ¿ ÑĥÑĤ
Ð» ÐµÐ²
Ð¸Ð²Ð° ÐµÑĤÑģÑı
ĠÑģÑĤÐµÐ¿ ÐµÐ½Ð¸
Ð½Ð¸ÐºÐ° Ð¼Ð¸
e m
ĠÐ¢ Ð¾Ð¼
ĠÐ° ÑĤÐ¾Ð¼
ĠÐ² Ð°ÑĢÐ¸
ĠÑĢÐ°ÑģÑģ Ð¼Ð°ÑĤÑĢÐ¸
Ð»Ð° Ð²Ð°
Ñĥ Ñį
ĠÑģÑĥÑīÐµÑģÑĤÐ² Ð¾Ð²
âĢ ľ
Ġ18 4
ĠÐ¼Ð¾Ð» Ð¾Ð´
i a
Ñĩ Ð½Ð¾Ð¹
ĠÐ²Ð¾Ð¹ Ð½Ð°
ÑıÑĤÐ¸ Ðµ
ĠÐ³ Ð³
ÑĪ Ð¸ÑĢ
ĠÐ³ Ð¸Ð¿
ĠÑĤÐµÑħ Ð½
Ð¼Ð¾ÑĤ ÑĢÑı
ĠÐºÑĢÐ¸ ÑĤÐ¸
ÑĪ ÐµÐ¼
ĠÑħÐ¾Ð´ Ðµ
ĠÐ¼Ð½Ð¾Ð³ Ð¸Ðµ
ÑģÑĤÐ²ÐµÐ½ Ð½Ð¾Ðµ
ĠÑĦ ÐµÐ´ÐµÑĢÐ°
Ð¸ÑĩÐµ ÑģÐºÐ¸Ð¼
ĠÐ´Ð°Ð½ Ð½ÑĭÐ¼
ĠÐ¶ÑĥÑĢ Ð½Ð°Ð»
ĠÐ¿ÑĢÐµ ÐºÑĢÐ°
ĠÑĤÐµÑĢ Ð¼Ð¸Ð½
ĠÐľ Ð°Ð»
ÑĪ Ð»Ð¸
Ġ Â°
ĠÐ¿Ð¾Ð¿ ÑĥÐ»ÑıÑĢ
ĠÐŀ Ðŀ
Ð½Ð¾ Ñģ
Ġ201 2
ĠÑģÑĤ Ð°Ð²
ĠÐ¾ÑĤÑģ ÑĥÑĤÑģÑĤÐ²
Ñģ Ð¾Ð½Ð°
Ġ200 4
Â» ),
ĠÐĿ Ð¸
ĠÐ¿Ð» Ð°ÑĤ
ĠÐ½ÐµÑģÐº Ð¾Ð»ÑĮ
ĠÐ·Ð½Ð°Ñĩ ÐµÐ½Ð¸Ðµ
Ð°ÑĢ Ðº
u t
ÑģÑĤ Ð¾Ð²
ĠÑĢÐ°Ð± Ð¾Ñĩ
ĠÐº ÑĥÐ»ÑĮ
Ġ200 6
ĠÐ´Ð²Ð¸Ð¶ ÐµÐ½Ð¸Ñı
ĠÑģ ÐµÑĢÐµÐ´
ĠÐºÐ¾Ð½ Ðº
Ð»Ð¸Ð¼Ð¿ Ð¸Ð¹
ĠÐ¿Ð¾Ð» Ñı
Ñĩ Ð¸Ðº
Ġ =
ÑĢÐ° Ð³
ĠÐ·Ð° Ð´
ĠÐ¿ÑĢÐ¾ ÑħÐ¾Ð´
ĠÐł Ñĥ
Ð¿ Ð°Ð´
ĠÐ¾Ð¿ ÑĥÐ±Ð»Ð¸ÐºÐ¾Ð²
ĠÑģÐ¾ÑģÑĤÐ°Ð² Ðµ
Ñİ ÑīÐµÐµ
ĠÑĪ ÑĤ
ĠÐ¼ Ð¸Ð»Ð»Ð¸
ÐµÐ¼ ÑĭÐ¹
Ð´Ð° ÐµÑĤ
7 8
ĠÑĥÐ»Ð¸ ÑĨÐ°
Ñģ Ð¾Ð¼
Ð½Ð¾ ÑĪ
Ð°Ð»Ð¸ ÑģÑĤÐ¸ÑĩÐµ
ĠÐĿÐ° ÑĨÐ¸Ð¾Ð½Ð°Ð»ÑĮ
ĠÐ¡Ð¾Ð² ÐµÑĤÐ°
ÑĪÐ¸Ðµ ÑģÑı
Ð¾ Ð¸ÑĤ
Ð³ Ð¸Ð¸
ĠÑĤ ÑĢÑĥÐ´
ÑĢÐ° Ñħ
Ñı Ð»
ĠÐ¿Ð°ÑĢ Ð»Ð°Ð¼ÐµÐ½ÑĤ
ĠÐ¾ÑĤ ÐºÐ°Ð·
Ð¾Ð¿ ÑĢÐ¸
ĠÐ² ÐµÑģ
ĠÐ¿Ð¾Ð´ Ð³Ð¾ÑĤÐ¾Ð²
ĠÐ¼Ð¸Ð½ Ð¸ÑģÑĤ
ĠÐ¿ÑĢÐ°Ð² Ð°
ĠÐ¿Ð¾Ð» Ð½Ð¾ÑģÑĤÑĮÑİ
Ñĥ ÐºÐ¾Ð²
ĠÐ¯ Ð¿Ð¾Ð½
ĠÑĩÐµ Ð³Ð¾
ĠÐĳ ÐµÑĢ
ĠÐ· Ð¾Ð»Ð¾ÑĤ
ĠÑģ Ð»Ð°Ð²
19 3
ĠÑįÐ»ÐµÐºÑĤ ÑĢÐ¾Ð½
Ð° ÑİÑĤÑģÑı
ĠÐºÑĢÑĥÐ¿ Ð½ÐµÐ¹
Ð¸ÑĩÐµ ÑģÐºÐ¸
ĠÐĴÐµÑĢÑħ Ð¾Ð²
ĠÑĢÐµ Ðº
ĠÑĢÐµ Ð°Ð»Ð¸Ð·
Ð¾Ð³ÑĢÐ°ÑĦ Ð¸Ð¸
Ð¸Ñĩ Ð°
Ð¾Ð¼ Ð¸Ð½Ð°
ĠâĢ ŀ
ĠÐ³ÑĢÐ° ÑĦ
ĠÐĺÐ² Ð°Ð½Ð¾Ð²
2 4
ĠÑĤ Ð¾Ð³Ð´Ð°
Ġ201 4
Ð¾ÑĤ ÑĢÐµÐ±
Ð°Ñģ ÑģÐ°
ĠÐ¿Ð¾Ð¿ ÑĭÑĤ
Ð¼ Ð¾
ĠÐ± ÑĥÐº
2 3
Ð¾ÑĢ ÑĥÑģ
ĠÐ´Ð² Ð¾ÑĢ
ĠÑģ ÐºÐ°Ð·
ĠÐĴÐµÐ»Ð¸Ðº Ð¾Ð±ÑĢÐ¸ÑĤ
Ñħ Ð°
ĠÐ¡Ð°Ð½ ÐºÑĤ
Ñĳ Ð´
Ð¾Ð» Ð¾Ð´
a d
ÐµÑĢÐ¸ Ð¹
ĠÐ¡Ð¾ ÑİÐ·Ð°
ĠÑģ ÑĢÐ°Ð²Ð½
ĠÐ²ÐµÑĢ Ñħ
ĠÑĦÑĢÐ°Ð½ÑĨÑĥÐ· ÑģÐºÐ¸Ð¹
Ð°Ð¹ ÑĤ
Ð¾Ð½Ð° Ñĩ
ÑĳÐ½ Ð½Ð¾Ð³Ð¾
Ð¿Ð¸ ÑģÐºÐ¾Ð¿
ĠÑĨÐµÐ½ÑĤ ÑĢÐ°Ð»ÑĮ
ĠÐ´ÑĢÑĥÐ³ Ð¾Ð¹
ĠÑĤÐ¸Ð¿ Ð°
ÑĢ Ð¾Ð³
ĠÐ¿ ÐµÐ²
ÑĢÐ¸ ÑĨ
ĠÐºÐ¾Ð½ ÑĦ
ĠÐ²Ðº Ð»Ñİ
Ð½Ð¾Ð´ Ð¾ÑĢÐ¾Ð¶
ĠÑĤÐµÐ» ÐµÐ²
ĠÑĦÐ¸Ð»ÑĮ Ð¼
ÑĥÐ³ Ð¾Ð»ÑĮ
ĠÐ³ÐµÐ½ÐµÑĢÐ° Ð»
ĠÐº ÑĢÐ¾Ð²
ĠÐ¼ Ð¸Ðº
ĠÐ¸Ð½ÑĤ ÐµÑĢÐµ
ĠÐŀ Ðº
ĠÑįÐ¿ Ð¾Ñħ
ĠÑģ ÑĨÐµÐ½
ĠÐŁ ÑĢÐµÐ·
ĠÐ¿ÑĢÐ¸ Ð±
Ð²Ðµ ÑģÑĤÐ¸
i r
ĠÑģ Ð±Ð¾ÑĢ
ĠÐ³Ð¾ÑģÑĥÐ´Ð°ÑĢÑģÑĤÐ²ÐµÐ½ Ð½ÑĭÐ¹
Ð¶ ÐµÐ½Ð¸Ðµ
ĠÐ± Ð¾Ð»ÑĮ
ĠÐ´ Ð°Ð»
ÑĢ Ð¾Ñĩ
ĠÐĺ Ð¼
ĠÐºÐ¾Ð¼Ð¿Ð¾Ð· Ð¸ÑĤ
ÑĥÐ½ ÐºÑĤ
Ð¸Ð¼ Ð°
ĠÐ²Ð¾ÑģÑģÑĤ Ð°Ð½Ð¾Ð²
Ð°Ð½ ÑģÐºÐ¾Ð³Ð¾
Â Ń
Ð¿ Ð°ÑĢÐ°
ĠÐ¼ Ð¾Ñī
ĠÑĢÐµÐ»Ð¸ Ð³Ð¸Ð¾Ð·
ĠÐ·Ð°Ð² Ð¸ÑģÐ¸Ð¼
Ð ¯
ĠÐ³ Ð»ÑĥÐ±
Ð¾ÑĢÐ° Ñħ
Ð¤ Ð¡Ðł
ĠÑģ Ð½Ð¸
i v
ĠÐŃ ÑĤ
ĠÐ¿Ð¾ÑģÑĤ Ð°Ð²
Ð³ Ð»Ð°Ð²
Ð± Ð¾Ð¼
ĠÐ¿Ð» ÐµÐ¼
ĠÑģÐ¾ÑĤ ÑĢÑĥÐ´
ĠÐ² Ð¾ÑģÑĤÐ¾Ñĩ
ÑĩÐ¸Ñģ Ð»ÐµÐ½
ÑĪ ÑĤ
ÑĢÑı Ð´
ĠÐľÐ¾ÑģÐº Ð²Ðµ
at ion
ĠÐ¿ÑĢÐ¾Ð¸Ñģ ÑħÐ¾Ð´Ð¸ÑĤ
Â» ;
ĠÐĽÐµÐ½Ð¸ Ð½
Ð°Ð´ Ñĭ
ĠÐ¿Ð¾ ÑģÐºÐ¾Ð»ÑĮÐºÑĥ
ÐµÐ½Ð¸ ÑĤ
ĠÑĦÐ¸Ð½ Ð°Ð½
ĠÐľÐµÐ¶Ð´ ÑĥÐ½Ð°ÑĢÐ¾Ð´
ĠÑĨ ÐµÐ»ÑĮ
ĠÐ¾Ð± Ð¾ÑĢ
ĠÐĺÐ½ Ð´
ĠÐ´ÐµÑıÑĤÐµÐ»ÑĮ Ð½Ð¾ÑģÑĤÐ¸
ĠÐ½Ð°Ñĩ Ð¸Ð½Ð°
Ð»Ð° ÑģÑģ
Ð» Ð¸ÑĤÐµÐ»ÑĮ
ĠÑģ Ð¼Ðµ
ĠÐ¡Ð² ÑıÑĤ
ĠÐ¿ÑĢÐµÐ¼Ð¸ Ð¸
Ð± Ð¸ÑĤ
ĠÐ´Ð¾ÑģÑĤÐ¸ Ð³
ĠÐ¿ÑĢÐ¸Ð½ ÑĨÐ¸Ð¿
ÑĢ Ð´
ÐµÐ½ Ð½Ð¾Ðµ
ÑİÑī Ð¸Ð¼
ĠÐ²Ð¾ Ð¾ÑĢÑĥÐ¶
ĠÐ¿Ð¾ÑĤ ÑĢÐµÐ±
ĠÑģÐ²Ð¾ Ñĳ
ÑģÑĤÐ²ÐµÐ½ Ð½ÑĭÐ¼
Ð° ÑģÐ¸
ĠÐ°Ð´Ð¼Ð¸Ð½Ð¸ÑģÑĤÑĢÐ° ÑĤÐ¸Ð²
ĠÐ¿ÑĢÐ¸ ÑħÐ¾Ð´
ĠÑĨ Ð²ÐµÑĤ
Ð»ÐµÐ´ÑģÑĤÐ² Ð¸Ð¸
ĠÐºÐ¾Ð¼Ð¿ ÑĮÑİÑĤ
ĠÐ·Ð°Ð² ÐµÑĢÑĪ
ĠÑģ ÑĬ
Ð°Ð² ÑĪÐ¸Ñħ
Ð»Ñı ÐµÑĤÑģÑı
ĠÐ¿ÑĢÐµÐ´ ÑģÐµÐ´
ĠÐ¿Ð¾Ñģ ÑĳÐ»
ĠÑģÐ¾ ÑĨÐ¸
ĠI n
ĠÑģÐ¾Ñħ ÑĢÐ°Ð½Ð¸
ĠÑĤ ÑıÐ¶
ĠÑĢ Ñı
Ð¾Ð· Ð¼Ð¾Ð¶
Ð½Ð¾ÑģÑĤ ÑĢÐ°Ð½
ĠÐµÐ² ÑĢÐ¾Ð¿ÐµÐ¹
ÑĤÐ¸ Ðµ
ĠÑģÐ² ÑıÑĤ
Ð¸Ð± Ð¸ÑĢ
ĠÐ² ÐµÐ»Ð¸Ñĩ
Ð»Ð° Ð¼
ĠÐ¿Ð¾Ð´ Ð¾Ð±
Ð»Ð¸ ÑĢÐ¾Ð²
ĠÐŃ ÑĤÐ¸
ĠÐŃ Ð½
ĠÑĢÐµ Ð³Ñĥ
ĠÑģÑĤ ÑĢÐµ
ĠÐ± Ð¸Ð±Ð»Ð¸Ð¾ÑĤ
ĠÐ³ÑĢÐ° Ð½Ð¸ÑĨ
ĠÐ° Ñį
ĠÐ²Ð¾Ð´ Ñĭ
ĠÐłÐ¡ Ð¤Ð¡Ðł
ĠÐ½Ð°Ñĩ Ð°Ð»Ð¾
ĠÐ± Ð°Ð»
ĠÐºÑĢÐ° Ð¹
Ð» Ð»
ĠÐ¸ÑģÑģÐ»ÐµÐ´Ð¾Ð² Ð°Ð½Ð¸Ñı
ĠÐĵ Ð°Ð»
Ð°ÑĢÐ¸ Ð¸
ĠÐŀ ÑĤÐµ
ÑĤÐ¾ÑĢ Ð¾Ð²
ĠÐŁ ÐµÑĢÐµ
Ð¸Ð´ ÐµÑĢ
ĠÐĹ Ð°Ðº
ĠÐ± Ð¸ÑĤ
ĠÑĥÑģÑĤ ÑĢÐ¾Ð¹
Ð°Ñĥ ÑĢÐµ
ĠÐĵ Ð»Ð°Ð²
ĠÐ¾Ñģ Ð²
ÑĢÐ° Ð»
ĠÐ¸Ð½ ÑģÑĤÐ¸ÑĤÑĥÑĤ
ÑĥÑİÑī Ð¸Ðµ
ĠÐ½Ð°Ð±Ð»Ñİ Ð´
e c
ĠÐ¸ÑĤ Ð°Ð»ÑĮÑıÐ½
ĠÐ½Ð°Ñģ Ð»ÐµÐ´
ĠÐĴ ÑĤÐ¾ÑĢ
ÐµÐ² Ð¾Ð¹
Ġ201 3
Ñİ ÑīÐµÐ³Ð¾
Ð¸ Ð»Ñı
ĠÑģÐµÐ± Ðµ
Ð¸ÑĤ ÐµÐ»ÐµÐ¼
ĠÑĢÐ° Ð¼
ĠÑĩÐµ ÑģÑĤÑĮ
ĠÐ¾Ð± ÑĢÐ°Ñī
Ð¾Ð² ÑĭÐµ
ĠÐºÐ¾Ð» Ð¾Ð½
ĠÐĴ Ð¾ÑģÑĤÐ¾Ñĩ
ĠÐ¿ÑĢÐ°Ð² Ð¾
ĠÐĴ Ð¸Ðº
ĠÐ¼Ð½ ÐµÐ½Ð¸Ñİ
ĠÑģÑĩ ÑĳÑĤ
ĠÑĢÐ°Ð·Ð²Ð¸ÑĤ Ð¸Ðµ
ĠÐ½ÐµÐ¼ÐµÑĨ ÐºÐ¸Ð¹
ÑĨÐ¸Ð¾Ð½ Ð½ÑĭÑħ
ĠÑĤ Ð¾Ð¿
Ġ4 0
i m
ĠÑģÐ¸Ð» Ñĭ
ĠÐ¿Ð¾Ð² ÑĭÑĪ
Ð¸Ð¼ Ð¾
ĠÐ¿ ÑĥÐ½ÐºÑĤ
Ð¿ ÑĢÐ¾
Ð½Ð° Ð¿ÑĢÐ¸Ð¼ÐµÑĢ
ĠÐ¿Ð¾Ñį ÑĤÐ¾Ð¼Ñĥ
Ð¾Ñģ Ð»Ð¾Ð²
Ð¾Ñĩ ÑĮ
ĠÑĥ Ð¼
Ð¼ ÑıÐ½
ĠÐ¼Ð°Ñģ ÑģÐ¾Ð²
ĠÐ° Ð¿
ĠÐºÐ¾ÑĢ Ð¾Ð»ÑĮ
ÑģÑĤÐ²ÐµÐ½ Ð½Ð°Ñı
ĠÐºÐ¾Ð½ Ñģ
Ð°Ð´ Ð¸
Ð¾Ð± ÑīÐµ
ĠÑıÐ·Ñĭ ÐºÐ¾Ð²
Ġ18 5
ÑĦÐ¾ÑĢ Ð¼Ð¸ÑĢÐ¾Ð²
ÑĢÐ¸ ÑĢÐ¾Ð²
ÑĮ Ð¸
Ġ199 1
ĠÐ» Ð¸
ĠÐķÐ²ÑĢÐ¾Ð¿ Ñĭ
Ð¾Ð· Ð³
ĠÐ¦ÐµÐ½ÑĤ ÑĢÐ°Ð»ÑĮ
ĠÐ¢ ÑĥÑĢ
o s
Ð»Ð° Ð±
ĠÐºÐ¾ÑĢ Ð¾Ð»ÐµÐ²
ĠÐŁ Ð°Ð¼
ÑĥÐ¼ Ñĭ
ÑģÑĤ ÑĢÐ¾Ð¹
Ð¾Ð² Ð¾Ð»ÑĮ
ĠÑģÑĤ Ð°Ð½Ð´
ÑĤ ÐµÐ½
l a
ĠÑĤ Ð°Ð¼
ĠÐ²Ñĭ Ð·Ð²
ĠÐ° Ð¿Ð¿
ĠÐ³ Ð¾Ð»Ð¾Ð²
ĠÐ²ÑĭÐ¿Ð¾Ð» Ð½
Ñĩ Ð½ÑĭÑħ
ĠÐ°ÑĢÑĤÐ¸ ÑģÑĤ
Ġ m
Ġ% ,
ĠÑģÐ°Ð¼ Ð¾
ĠÐ¼Ð¸ÑĢÐ¾Ð² Ð¾Ð¹
Ġ20 20
ĠÐĳ Ñĭ
ĠÐ²Ð¸Ð´ Ð¾Ð²
ĠÐł Ð¤
ĠÐ½ Ð¸Ð¼
Ð°Ðº Ð°
ĠÑģÑĤ Ð¸Ñħ
ĠÐº Ð»Ð¸
Ð»Ðµ Ñĩ
Ġ200 3
ĠÐ²Ñģ ÐµÐ¼
Ð· ÐµÐ¼
ĠÐ´Ð°Ð½ Ð½ÑĭÑħ
ĠÐ¿ ÑĢÐµÐ¼
ĠÐ¾Ð±ÑīÐµ ÑģÑĤÐ²Ð°
Ð¼ÐµÐ½ ÑĮ
Ð» ÐµÐ½Ð¸Ñİ
Ð¾Ð± ÑĢÐµÑĤ
ÐµÐº ÑĤÑĭ
ĠÐºÐ¾Ð½ÑĤ ÑĢ
ĠÑĪ Ð°Ñħ
Ð° ÑĦ
ĠÐłÐ¾ÑģÑģÐ¸ Ñı
ĠÐ¼Ð°ÑĢ ÑĪ
ÐµÐ» Ðµ
ĠÐ²Ð¾Ð·Ð´ ÑĥÑħ
ÑģÐº Ð¾Ð²
ĠÐŁ Ð¾Ñĩ
Ð³ Ð¾Ñģ
ĠÑģÑĤÑĢÐ°Ð½ Ðµ
ĠÐ¿Ð¾Ñģ Ð²ÑıÑī
ĠÐ¼Ñĥ Ð½Ð¸ÑĨÐ¸Ð¿
ĠÐ´ Ð½ÐµÐ¹
Ġ f
ĠÐľ Ð¾Ð½
ÑĩÐ° ÑİÑĤÑģÑı
ĠÐ»Ð¸ÑĤÐµÑĢÐ° ÑĤÑĥÑĢ
2 1
ĠÑģ Ð¾Ð³Ð»Ð°ÑģÐ½Ð¾
ĠÐ§ ÐµÑĢ
Ġ201 5
ĠÐ´ Ð»Ð¸Ð½
ĠÐ¢ ÐµÐ¼
Ð°ÑĤ ÐµÐ»ÐµÐ¼
ĠÐºÐ¾ÑĢ Ð¿
ĠÐ¿Ð°Ð¼ ÑıÑĤÑĮ
ĠÐ¼Ð¾ÑĢ Ñı
ĠÑĦ Ð»Ð¾ÑĤ
ĠÑģÑĭ Ð½
Ñį Ðº
19 5
Ð¾Ð» Ð°Ð³
ĠÐ¾Ð´ Ð½Ð°
ĠÐļ Ð°Ð½
ÐµÐ½ ÐµÐ¼
o t
ĠÑĥ Ðº
Ñį Ð¹
4 0
ÑĤÐ¾ÑĢ Ñĭ
ĠÐ¿Ð¾Ð³ Ð¸Ð±
ĠÐ¼Ð¸ ÑĦ
Ð°ÑĤ Ð¸
ĠÐ¾ÑĤÐ½Ð¾ÑĪ ÐµÐ½Ð¸Ñı
Ð¸Ð´ ÐµÑĤ
ÑĢ Ñİ
ĠÐľ ÐµÐ´
ĠÐºÐ¸Ñģ Ð»Ð¾ÑĤ
ĠÑģ Ð¾Ðº
ĠÐºÐ¾Ð¼Ð¿ Ð»ÐµÐºÑģ
ĠÐ¡ ÐµÐ¼
ĠÑģÑĥÑīÐµÑģÑĤÐ² ÑĥÐµÑĤ
ĠÑħÑĥÐ´ Ð¾Ð¶Ðµ
ĠÐ°Ð²ÑĤÐ¾Ð¼ Ð¾Ð±
Ð»Ð¸ Ð¶
ĠÐº Ð¾Ð´
ĠÐ¿ÐµÑĢÐ² Ð¾Ð³Ð¾
Ġ( ),
ĠÑĦ ÑĢÐ¾Ð½
ĠÐĶ Ð¾Ð½
ĠÐ² Ð»Ð°Ð´
Ð³ Ð»Ñı
ĠÑĩÐµÐ»Ð¾Ð² Ðµ
ĠÐ¼ Ð°ÑģÑĤ
Ð°Ð½ Ð½Ð¾Ð³Ð¾
ĠÐ¿ÑĢÐ¸ Ð±Ñĭ
ÑĢÐµ Ð¶
ĠÐ¿ÑĢÐµÐ´ ÐµÐ»
Ð³ Ð´Ð°
ĠÑĤÐ¾Ñĩ ÐºÐ¸
ĠÐ¿ Ð¾Ð»ÑĮ
2 8
. ).
ĠÐ¼ÐµÐ´ Ð¸ÑĨ
ÑĢÐ° Ð¹
) :
ĠÐ´Ð°Ð»ÑĮ Ð½ÐµÐ¹
Ġ 000
ÑĢÐµÐ¼ ÐµÐ½Ð½Ð¾
ĠÐ´ÐµÑĤ ÐµÐ¹
ĠÐ¸Ð¼ ÐµÐ½Ð½Ð¾
ÐµÐ½ Ð½Ð¾ÑģÑĤÐ¸
Ð¾Ð» Ð¸ÑĤ
ĠÐ» ÐµÐº
ĠÐ¾ ÑĢÑĥÐ¶
Ð¸Ð½ Ð¾Ð¹
ĠÐĴ ÑĭÑģ
ĠÑĢ Ð¾ÑģÑĤ
ĠÑĪÐºÐ¾Ð» Ñĭ
ĠÐ²Ñĭ Ð´ÐµÐ»
ĠÐŁ Ð°ÑĢÐ¸
i e
ÑĨÐ¸Ð¾Ð½ Ð½Ð¾Ð¹
Ġ201 6
ĠÐºÐ¾Ñģ Ð¼Ð¸
ĠÑģ Ð¼Ñĭ
Ñĩ ÑĳÑĤ
ĠÐ°Ð¼ÐµÑĢÐ¸ÐºÐ°Ð½ ÑģÐºÐ°Ñı
ÑĩÐµ ÑģÑĤÐ²Ð°
Ñı Ð³
ĠÐ± ÐµÑģÐ¿
ĠÐ½ ÑĳÐ¼
ÑģÐ¸ Ð´
ĠÑįÑĤÐ¸ Ð¼
ĠÐ·ÐµÐ¼ Ð»Ð¸
ĠÐĶ Ð¼Ð¸ÑĤ
2 7
ÐµÐ½ Ð½ÑĭÐ¼
ĠÐ» Ð°ÑĤ
Ġ201 8
Ġt he
ĠÑģÑĤ ÑĥÐ´
Ð¸Ð² ÑĪÐ¸Ð¹
ĠÐ¿Ð¾Ð»ÑĮÐ· Ð¾Ð²
Ñĥ Ð¶Ð´
ĠÐ¸ Ð½Ð¾ÑģÑĤÑĢÐ°Ð½
Ð± ÐµÑĢ
Ð¸ ÑĨÑĭ
ĠÐ¼ Ð¾ÑĢÐµ
ĠÐ¿ÑĢÐ°Ð²Ð¸ÑĤÐµÐ»ÑĮ ÑģÑĤÐ²Ð°
ĠÐĿÐ¸ÐºÐ¾Ð» Ð°Ð¹
ĠÑĦÑĥÐ½Ðº ÑĨÐ¸Ð¸
ĠÐļ Ð¸ÐµÐ²
ĠÐº ÑĢÑĥÐ³
Ð°Ð»ÑĮ Ð½ÑĭÐ¼
Ð¾Ð· Ð°
ĠÐ³Ð¾ÑĢÐ¾Ð´ Ð¾Ð²
ĠÐĿ Ð°Ñģ
ĠÑĥÑĩÐ°ÑģÑĤÐ¸ Ðµ
ÑĥÑīÐµ ÑģÑĤÐ²ÐµÐ½Ð½Ð¾
Ð°ÑĤÐµÐ³Ð¾ ÑĢÐ¸Ñı
Ð°Ðº Ñĥ
ĠÐ¼ÑĥÐ·Ñĭ Ðº
ĠÐ´Ð¾ÑģÑĤ Ð°ÑĤÐ¾Ñĩ
ĠÐĲ Ð¼
ÐŁÐµÑĤ ÐµÑĢÐ±ÑĥÑĢÐ³
ĠÑĩ ÐµÑĢ
ĠÐ²Ñĭ ÑĪÐµ
Ñģ Ð¼
ĠÐĵ ÑĢÐ°
ĠÐ´ Ð°ÑĤ
ĠI V
ĠÑĢÐµÐ³Ð¸ Ð¾Ð½
Ñģ ÐµÑĢ
ÐµÑĢÐ¸ Ð¼ÐµÐ½ÑĤ
ĠÐ¿ÑĢÐ¾Ð¸Ð·Ð²Ð¾Ð´ ÑģÑĤÐ²Ð°
ĠÑĤÑĢÐµ ÑĤÑĮ
Ð¾Ð» ÑĳÑĤ
ĠÐ¼ÐµÑģÑĤ Ðµ
ĠÐ¾ÐºÑĢÑĥÐ³ Ð°
8 0
Ð°Ð½ Ð¾Ð¼
ĠÑĤ Ð°Ð½
ÑĨ Ñĥ
6 0
ĠÐ¶Ð¸Ð· Ð½ÑĮ
ÐµÑĤ Ðµ
ĠÐ¿Ð¾Ñģ ÐµÐ»
ĠÐº Ð°Ð»
ĠÐ¿ÑĢ Ð¾Ð¶
ĠÐ½ÐµÑģÐºÐ¾Ð»ÑĮ ÐºÐ¸Ñħ
ÑĤ Ð°Ðº
ÐºÑĤ Ð¾ÑĢ
Ġ200 2
ĠÑĤÑĢÐ°Ð½ÑģÐ¿ Ð¾ÑĢÑĤ
Ð¸Ðº Ñĥ
ĠÑĥÐ¿ÑĢÐ°Ð² Ð»ÐµÐ½Ð¸Ñı
ĠÐ¿ÑĢÐµ Ð¾Ð±ÑĢÐ°Ð·
ĠÑĢÐµÑĪ ÐµÐ½Ð¸Ðµ
ĠÐĲ Ð¼ÐµÑĢÐ¸
ÑĥÐ» Ñĭ
Ġ201 7
ĠÐĳ Ð¾ÑĢÐ¸
Ð²ÐµÑĢ Ð³
ĠÑĢÐ°Ð· Ð½ÑĭÑħ
Ñı Ð±ÑĢÐµ
ÐĲ Ðŀ
Ð¾ÑģÑĤ ÑĮÑİ
o w
ĠÐ¿ÑĢÐµÐ·Ð¸Ð´ÐµÐ½ÑĤ Ð°
ĠÐ¿Ð¾ Ñħ
ĠÑĦÐ¾ÑĢ Ð¼Ð¸ÑĢÐ¾Ð²
Ġ198 0
Ñĳ Ð³
ĠÐ°Ð½ Ð°Ð»Ð¸Ð·
Ð¾Ð±Ñĭ ÑĤÐ¸Ñı
Ñĩ ÑĤ
ĠÐ¿ÑĢ Ð¾Ñĩ
Ġ200 1
ĠÐ¿ÑĢÐ°Ð² Ð¾ÑģÐ»Ð°Ð²
ĠÐ²Ð¾Ð·Ð² ÑĢÐ°Ñī
ĠÐ¿ÐµÑĢ ÐµÐ½
ĠÐ³ÑĢÑĥÐ¿Ð¿ Ð°
ĠÐ¾Ð±ÑĬ ÑıÑģ
ĠÑģ Ñħ
Ð²Ð° ÑİÑĤ
ĠÐĿÐ° Ð¿ÑĢÐ¸Ð¼ÐµÑĢ
ĠÐ·Ð´ ÐµÑģÑĮ
ĠÐ´Ð¾ÑģÑĤ ÑĥÐ¿
ĠÐ¿ÑĢÐ°Ðº ÑĤÐ¸ÑĩÐµÑģÐºÐ¸
ĠÐļ Ð°Ð¼
ĠÐĶ Ð¸
ĠÑģÑĤÐ°Ð½Ð¾Ð² Ð¸ÑĤÑģÑı
Ð ĸ
ĠÐ·Ð°Ð¿ ÑĢÐµ
Ġ20 19
Ñĩ Ð°ÑĤ
Ð¾ÑĢ ÑĤÑĥ
ĠÐ¿Ð¾ ÑħÐ¾Ð´
ĠÑĩÐ¸Ñģ Ð»ÐµÐ½
ĠÐ°Ð¿Ð¿ Ð°ÑĢÐ°
ĠÑĢÐµ Ð¹
ĠÐ¿Ð¾Ðº Ð°
ĠÐ¾Ð±Ð¾Ð· Ð½Ð°Ñĩ
Ġ b
ĠÐ¾Ð± ÑĥÑĩ
ĠÐ´ ÐµÐ²
ĠÐ¿ÑĢÐ¾Ð² Ð¸Ð½
ĠÐºÐ¾Ð» Ð»ÐµÐº
ĠÐ²Ñģ ÐµÐ¹
ĠÐ³ Ð¸Ð´
ĠÐ¿ÑĢÐµ Ð¿Ð¾Ð´
Ñĥ Ñı
ĠÐľÐ¸ÑħÐ° Ð¸Ð»
ĠÐ¼ Ð¾Ð½Ð°
Ð½Ð¾Ð² Ð°
ÑĤ Ð²ÐµÑĢ
ĠÐ½Ð° ÑĢÑĥÑĪ
ĠÑĢÐ°Ð· ÑĢÑĥÑĪ
ĠÑģÐ² Ð¸Ð´ÐµÑĤ
Ġ( ).
ĠÑĦÑĥÑĤ Ð±Ð¾Ð»
ĠÐ¿ÑĢÐ°Ð²Ð¸ÑĤÐµÐ»ÑĮ ÑģÑĤÐ²Ð¾
ĠÐ²Ð»Ð¸Ñı Ð½Ð¸Ðµ
ĠÑĩ ÐµÑĤ
ĠÐľ Ñĥ
Ġ18 3
ĠÐ±ÐµÐ· Ð¾Ð¿Ð°Ñģ
ĠÐ¿ÑĢÐ°Ð² Ð¸Ð»Ð¾
ĠÐºÐ¾Ð¼Ð¿ Ð°Ð½Ð¸Ð¸
ÑĢÐ°Ð± Ð°ÑĤÑĭ
ĠÐ¿Ð¾ ÑĢÐ°Ð¶
ĠÑģ ÑĦ
ÑĤÐ¸ ÐºÐ¸
ÑĨ ÐµÐ½ÑĤ
ĠÑĤ Ð°Ð±
ÐºÐ¾Ð² Ð°
2 9
Ñģ Ð¾Ð»
ĠÐ¿ÑĢÐµÐ´ Ð¾ÑģÑĤÐ°Ð²
ÑĩÐ° ÑģÑĤ
ĠÐĶÐ¶ Ð¾Ð½
ÐµÐ½ ÑĨÐ¸Ð¸
ĠÐ²Ð·Ð°Ð¸Ð¼ Ð¾Ð´ÐµÐ¹ÑģÑĤÐ²
ĠÐº Ð°ÑĢÑĤ
ĠÐ¿ÑĢÐ¸ ÑĩÐ¸Ð½
ĠÐ¿ Ð¾Ð¶
ĠÑĥ ÑĩÐµÐ±
ÐµÐ¼ Ð¾Ð¹
ĠÐ¿Ð¾ÑģÑĤ ÑĥÐ¿
ĠÐ± Ð°Ð½
ĠÑĢÐ°Ð¼ ÐºÐ°Ñħ
ĠÐ¿Ð¾Ð» Ñĥ
ĠÐ¿ÐµÑĢÐ² ÑĭÐ¼
ĠÐĺ Ð²Ð°Ð½
ĠÐºÐ¾ÑĢ Ð¾Ð»Ñı
ĠÐ²Ð¾Ð·Ð¼Ð¾Ð¶ Ð½Ð¾ÑģÑĤÑĮ
Ð² Ð¾Ð·
Ð¾Ð² Ð°Ñı
o p
Ñģ ÐµÐ½
ĠÐ Ļ
ĠÐ¿ ÑĢÐ°Ð·Ð´
ĠÐ± Ð¾ÐµÐ²
Ð»Ñı ÑĢ
ÑĤÐ° Ð¼Ð¸
ĠÐĲÐ»ÐµÐºÑģÐ°Ð½Ð´ ÑĢÐ°
ĠÐ¿ÑĢÐ¾Ð³ÑĢÐ°Ð¼ Ð¼
Ð¾ ÑĨÐ¸
ĠÐ¿ÐµÑĢÐ² ÑĭÑħ
ĠÐ² ÐµÑģÑĮ
Ð¸Ñģ Ð¿
ĠÐ³ Ð°
ĠÐ» Ð¾Ð³
Ð°ÑĢÐ¸ ÑģÑĤ
ĠÐĳ Ð¾Ð»
ÑģÐ¸ Ð¹
ĠÑĦÐ¾ÑĢ Ð¼Ñĥ
ĠÐ³Ð»Ð°Ð² Ðµ
ÐµÐ´ ÐµÐ½Ð¸Ñı
ĠÐĳ Ð°Ð»
ĠÐ¼Ð½Ð¾Ð¶Ðµ ÑģÑĤÐ²Ð¾
ĠÐķ Ð³Ð¸Ð¿
2 6
Ð²Ð° Ð´
ĠÐļ ÑĥÑĢ
Ð³ ÑĢÐµ
ĠÐ±Ð¾Ð»ÑĮÑĪ Ð¾Ð¹
ĠÑģÑĤÐ°ÑĤ ÑĥÑģ
ĠÐ·Ð½Ð°Ñĩ ÐµÐ½Ð¸Ñı
Ġ and
ĠS t
ĠÐŀ Ð½Ð¸
ĠÐ¾ ÑĨÐµÐ½
Ð¸Ð· Ð°Ð½
ĠÑģÐ²Ð¾ Ð¸Ð¼
ÐµÐ» Ñİ
ĠÐ¿ÑĢ Ð¾Ð³
ÐµÑģ ÑģÐ¸Ð¾Ð½
ĠÐ½Ð°Ð·ÑĭÐ²Ð° ÐµÑĤÑģÑı
ĠÐ¿ Ð°Ð»
ĠÑħÐ¾ÑĢ Ð¾ÑĪ
ÑĤ ÐµÐ»ÑĮ
ĠÑĢÐ°ÑģÐ¿ Ð¾Ð»Ð°Ð³
ĠÐĲÑĢ Ñħ
ĠÐ¿Ð¾Ð´ ÑĩÐ¸Ð½
Ñĥ ÑĢÐ¸
ĠÐ¢ ÐµÑĢ
ĠÐ¿ÐµÑĢÐµÐ´ Ð°
Ġ197 0
ĠÐ¿Ð¾ÑĤ ÐµÑĢ
ĠÑĤ Ð¾Ð²
Ð½Ð¾Ð² ÑĢÐµÐ¼ÐµÐ½Ð½Ð¾
. ),
ĠÐ´ÑĢÑĥÐ³ Ð¸Ð¼Ð¸
ĠÑħÑĥÐ´Ð¾Ð¶ Ð½Ð¸Ðº
Ðº Ð°ÑĤÐµÑĢÐ¸
19 0
ĠÐ´ Ð½Ñı
Ð½Ð¸ Ñİ
Ð¾Ñģ Ð°
Ð½Ð¾Ð² ÑĮ
Ð¾ Ð°Ð½
ÐµÐ´ Ð¸
ĠÐ¤ Ð¸Ð½
ÑıÑĤÐ¸ Ð¹
ĠÐ¸Ð½ ÑĦ
ĠÐ² Ð´
Ð°Ð»Ð¸ Ñĩ
ÑĪÐµ ÑģÑĤÐ²
ĠÑģÐ°Ð¼ ÑĭÑħ
ĠÑı Ð¿Ð¾Ð½
ĠÐ° ÑĢÐ°Ð±
ÑĢÐ¾Ð½ Ð¾Ð¼
o g
ĠÐ¸Ð½ Ð¾Ð³Ð´Ð°
Ġ194 1
ĠÐ¿ Ð»Ð¾
ÐµÑĤ Ð¾Ð²
ĠÐ¾ÑĩÐµÑĢÐµÐ´ ÑĮ
Ñİ ÑĢ
ĠÐ´Ðµ ÑģÑı
ÑĤÐ° Ð±
ÑĦÐ¸ ÑĨ
ÐµÐ´ Ð°Ð³
ĠÐŁ Ð¾Ð¼
ĠÐ´ Ð¸Ð¿
ÑĪ Ð¸
ĠÐĲ Ðº
ĠÐ´ Ð²Ð¸Ð³
ĠÑĤÐ¾Ð¼ Ñĥ
a g
ĠÑĢÐ° Ðº
Ð» Ð»Ð¸
Ð°Ð½ Ð½Ð¾Ðµ
Ð½ ÑĥÐ»
ĠÐ³ ÑĢÑĥ
Ġ196 0
ĠÐ¾ÑģÑĤÑĢÐ¾Ð² Ð°
Ġ Î
ĠÑĤ Ð¾Ð»
ĠÐ¼ Ñĭ
ĠÐľ Ð¾ÑĢ
ĠÑĥÐ¿ Ð¾ÑĤÑĢÐµÐ±
ĠÐ¿ Ð¾ÑĢÑĤ
ĠÐ¢Ð°Ðº Ð¸Ð¼
is t
ĠÐ¸ Ð´
ĠÐŃ Ð¹
ĠÑĦÐµÐ´ÐµÑĢÐ° Ð»ÑĮ
Ñĳ Ñģ
ĠÐ¾ÑĤÐ½Ð¾ ÑģÑıÑĤ
Ñĥ ÐºÑĤ
Ð» Ð¸Ð½Ð°
ÑģÐ¸ ÑĢÐ¾Ð²
ĠÐ¡ÑĢÐµÐ´ Ð¸
Ð¼ Ð°ÑĢ
ĠÑĢÐµ Ð³
Ñĩ Ð¸ÑĤÑĭ
ĠXV III
ĠÐµ ÑģÑĤÐµ
Ð¾Ð» Ñİ
ĠÐ½Ð°Ð·Ð² Ð°Ð½Ð¸Ñı
ĠÑįÐ»ÐµÐºÑĤ ÑĢÐ¸
ĠÑĦÐ¾ÑĢ Ð¼Ñĭ
Ð¸Ñģ Ð°
ĠÐļÐ¾Ð½ÑģÑĤÐ°Ð½ÑĤ Ð¸Ð½
ĠÐ½ÐµÐ´ Ð¾ÑģÑĤ
ĠÐ½Ð° Ð¹
ÑĩÐ° ÑİÑĤ
ĠÐ¿ÑĢÐµÐ´ÑģÑĤÐ°Ð² Ð»ÑıÐµÑĤ
ÑģÑĤÑĮ ÑıÐ½
ĠÐºÐ¾Ð¼Ð¿Ð¾Ð·Ð¸ÑĤ Ð¾ÑĢ
Ð°Ð½ Ð´Ð°
ĠÑĢÐ°Ð· ÑĢÐµÑĪ
ÐµÐ´Ð°Ð³ Ð¾Ð³
Ð² Ð°ÑĤÑĮ
ĠÐ¸Ð·Ð± Ð¸ÑĢÐ°
ĠÐ±Ð»Ð°Ð³ Ð¾Ð´Ð°ÑĢÑı
ĠÐ²Ñĭ Ð²Ð¾Ð´
ÑĨÐ¸Ñı Ñħ
ĠÐŁ Ð°ÑĢ
Ð´Ð° ÑİÑĤ
ĠÐľÐ°ÑĢ Ðº
ĠÐ¿Ð¾Ð½ Ð¸Ð¼
Ð»Ð¸ Ð±Ð¾
ĠÑĢÐ°Ð· Ð±
ĠÑģÐ¿ Ð¾ÑĢ
Ð¼ÐµÐ½ÑĮ ÑĪ
ĠÑģÑĢÐµÐ´ ÑģÑĤÐ²Ð°
Ð¾ ÐµÐ´Ð¸Ð½
ĠÐ²ÑģÐµ Ð³Ð´Ð°
ĠÐ¿ÐµÑĢÐ² ÑĭÐµ
ĠÐº ÑĥÐ¿
Ñı Ð±ÑĢÑĮ
ĠÑĢÐ° Ð½ÐµÐµ
ĠÐ½Ð¾Ð² ÑĭÑħ
ĠÐŁ ÑĢÐµ
Ġ18 0
ĠÐĿÐ¸Ðº Ð¾Ð»Ð°
ĠÐ¼ ÑĭÑģ
Ð°ÑĤÐµÐ»ÑĮ Ð½ÑĭÑħ
ĠÑĢÐ°Ð· Ð¼ÐµÑĢ
Ð° ÑĢÐµ
ĠÐ¾ÑĤÐ½Ð¾Ñģ Ð¸ÑĤÐµÐ»ÑĮÐ½Ð¾
ÑĢÐµÐ´ ÐµÐ»
Ð°Ð¹ Ð»Ð¾Ð²
ĠÐº Ð»Ð°ÑģÑģ
ĠÐ¾ ÐºÐµ
ĠÐ¼ÑĥÐ· ÐµÐ¹
ÐµÐ½ ÑģÐºÐ¸Ð¹
ĠÐĶ ÑĢÐµÐ²
ĠÐ´ÐµÑıÑĤÐµÐ»ÑĮ Ð½Ð¾ÑģÑĤÑĮ
Ð´ Ð°ÑĤ
ĠÑģÐ¾Ñĩ Ð¸Ð½
Ġ% .
ÑĥÐ»ÑĮ Ð¿
Ðº Ð»ÑİÑĩ
Ġ6 0
ĠÐ¶ÐµÐ»ÐµÐ· Ð½Ð¾Ð´Ð¾ÑĢÐ¾Ð¶
ÑģÐº Ð¾ÑĢÐµ
ĠÐ½Ðµ Ð¸Ð·
ĠÐ¿Ð»Ð¾ÑīÐ°Ð´ Ð¸
Ð»Ðµ Ð³
Ð¾ÑĤ Ð²Ð¾ÑĢ
Ð¼Ð° Ñħ
ĠÐļ ÐŁ
ĠÐ¿Ð» Ð¾ÑĤ
ĠÐ¼Ð» ÑĢÐ´
ĠÐ¸ÑģÐºÑĥÑģ ÑģÑĤÐ²Ð°
ĠÑĢÐ°Ð±Ð¾ÑĤ Ñĥ
ĠÐ² Ð½Ð¾Ð²ÑĮ
ĠÐºÐ¾ÑĤÐ¾ÑĢ ÑĥÑİ
ĠÐ¾ÑĤÐ»Ð¸Ñĩ Ð¸Ðµ
ÑĪ Ð¸Ð¼Ð¸
ÑĩÐµ ÑģÐºÐ¾Ðµ
ĠÐĵ ÑĢÐµ
ĠÐ²ÐµÑĢ Ð¾ÑıÑĤ
ĠÐ¸ÑģÐ¿ Ð¾Ð»Ð½
ĠÐ´Ð¾Ð± Ð°Ð²
ĠÑģÐ¾Ð³ Ð»Ð°ÑĪ
o d
Ð½ ÐµÑĢ
Ī Ĵ
ÑĪ ÑĥÑİ
Ñĩ Ð½ÑĭÐµ
ĠÑģÐ²Ð¾Ð¹ ÑģÑĤÐ²Ð°
Ð¿ Ð¾Ð·
ĠÐĿÐ° Ñĩ
Ð¸Ð½Ð° ÑģÑĤÐ¸
Ð¾ÑĢ Ð¾ÑĤ
ĠÐĳ Ð°ÑĢ
ÐµÐ½ ÑĤÐ¸
Ð² Ñĥ
Ð² Ð°Ð»Ð¸
ĠÑģÐ¾ÑģÑĤ Ð¾Ð¸ÑĤ
Ġ199 2
ĠÐ¿Ð¾Ð¼Ð¾Ñī Ð¸
ĠÑĤÐµÐº ÑģÑĤ
ĠÐ°Ð½Ð³Ð»Ð¸Ð¹ ÑģÐºÐ¸Ð¹
ĠÐ´Ð¾Ð³Ð¾Ð² Ð¾ÑĢ
ĠÐ² Ð½Ð¸Ð¼
ĠÐķ ÐºÐ°ÑĤÐµÑĢÐ¸
Ð¼Ñĥ Ð½Ð¸
Ðº ÑĥÐ¿
Ð¾Ð½ Ð¸Ð¼
Ġ3 1
ĠÐ´ÑĥÑħ Ð¾Ð²
ĠÐĽÐµ Ð¾Ð½
Ñı ÑİÑĤ
ĠÐ²ÐµÑĢ ÑģÐ¸Ð¸
Ð°Ð¼ Ð°
ÑĥÑĤ ÑĮ
ĠÐ¡ Ð¸Ð½
ĠÐ¤ Ð¸Ð»Ð¸
ÑĢÐµ Ðº
ĠÐ¿ÑĢÐ¸Ñģ Ð¾ÐµÐ´Ð¸Ð½
ÑĨ Ð¾Ð³
ĠÐ´Ð¾Ð»Ð¶ ÐµÐ½
ÑĢÐ° Ð½Ð°
Ð³ Ð°ÑĢ
Ð¾ÑģÐº Ð¾Ð²
Ð¾Ð² Ð°Ð»
Ð¸Ð» Ðµ
ĠÑĨÐµÐ»ÑĮ Ñİ
ĠÐ¶ Ð¸ÑĤÐµÐ»ÐµÐ¹
ĠÑĢÐµÐ´ Ð°Ðº
ĠÐ³ÑĥÐ± ÐµÑĢ
ĠÐ± Ñİ
ĠÐļ ÑĥÐ±
ĠÐºÐ¾ÑĤÐ¾ÑĢ ÑĭÐ¼
Ð¾Ð² Ð¾Ð³Ð¾
ĠÑįÐºÑģÐ¿ ÐµÑĢÐ¸Ð¼ÐµÐ½ÑĤ
Ġ in
ĠÐĳ Ð¸
ĠÐ¡ Ð¸Ð¼
Ð°Ð² Ð°Ð»
Ð¸ÑĩÐµ ÑģÐºÑĥÑİ
ĠÐºÐ¾Ð½ ÑĨÐ°
ĠÐ»Ð¸Ð½ Ð¸Ð¸
Ġ199 9
ĠÐ¡Ð¾Ð²ÐµÑĤ ÑģÐºÐ¾Ð³Ð¾
ĠÐĲÐ½ ÑĤÐ¸
ĠÐĽ Ð¸
ĠÐ¾ Ð½Ð¾
ĠÐ¿ÑĢÐµÐ¼ ÑĮÐµÑĢ
Ð» ÑĥÐ¶
ĠÑģ ÑĢÐ¾Ðº
Ðµ ÑģÑĤÑĮ
Ġ202 1
ĠÑĥÐ½Ð¸ ÑĩÑĤ
ĠÑĥÐ½Ð¸ÑĩÑĤ Ð¾Ð¶
ĠÑĥ Ð¼ÐµÐ½ÑĮÑĪ
ĠÐºÐ° Ð¿Ð¸ÑĤ
ĠÐ¸ÑĤ Ð¾Ð³
ĠÐ¡ ÑĥÑīÐµÑģÑĤÐ²
Â ²
er s
ĠÑģÐ² ÑıÑī
ĠÑĩÐµÑĤÑĭ ÑĢÑĳÑħ
ĠÑĢÐ¾Ð¼ Ð°Ð½
ĠÐ¼ ÐµÐ»
ĠÐ¿ÑĢÐµ Ð¸Ð¼
ĠÑĥÑģÐ»Ð¾Ð²Ð¸Ñı Ñħ
Ð³Ð¾Ñģ Ñı
ĠÐĴ Ð°Ñģ
ĠÐĵ Ð¾ÑĢ
7 0
ĠÐ½Ð° ÑģÑĤÑĥÐ¿
ĠÐ²Ñĭ Ð±Ð¾ÑĢ
ÑĤ ÑĢÐ¸
ĠÐ¼Ð¾Ð½Ð° ÑģÑĤÑĭ
ĠÐŁ Ð¾Ð»ÑĮÑĪ
ÑĨÐ¸Ð¾Ð½ Ð½ÑĭÐµ
ĠÐ½ Ð°Ð»
Ñĥ ÑĢÑĥ
ĠÑĢÐ°Ñģ ÑģÑĤÐ¾Ñı
ĠÐ· Ð½Ð°Ð¼
ÐµÐ¼ Ð¾Ð³Ð¾
ĠÐľ Ð°Ð¹
ĠÐĹ Ð´
Ðļ Ð°ÑĤÐµÐ³Ð¾ÑĢÐ¸Ñı
ĠÐĲ Ð»ÐµÐº
ĠÐ²Ð½ÑĥÑĤ ÑĢÐ¸
ÑĨÐ¸ ÐºÐ»
ĠÑĩ ÑĳÑĢ
Ð¾Ðº Ð¾Ð¼
ĠÑĩ ÑĥÐ²
ÑĳÐ½ Ð½Ð°Ñı
ĠÐ¿ÑĢÐ¾ÑĤ ÑıÐ¶
ĠÑĢÐ°Ð· Ð´
ÑĤÐ¸ Ðº
ĠÐ½Ð¾Ð² ÑĭÐ¹
ĠÐŀÑĤÐµ ÑĩÐµ
ÑģÑĤ Ð°Ð»
ĠÐ¿ÑĢÐ¸Ð¼ÐµÑĢ Ð½Ð¾
ĠÐ¡ÐµÑĢÐ³ ÐµÐ¹
Ð¸Ð½ Ð¸
Ð¸ÑĤÐµÐ»ÑĮ Ð½ÑĭÐ¹
ĠÐł Ð¾Ð¼
ĠÐ¸Ð· Ð¼ÐµÑĢ
ĠÐ´Ð¸Ð¿ Ð»Ð¾Ð¼
Ð¸ÑģÑĤ Ð¾Ð²
Ġ17 9
ĠÐĿ ÐµÐºÐ¾ÑĤÐ¾ÑĢ
ĠÐ¿ÑĢÐ¾ÑĦ ÐµÑģÑģ
ĠÐ´ ÐµÐº
Ñĭ Ð½Ðµ
ĠÐ¼ Ð¾ÑģÑĤ
ĠÐ³ Ð¾Ñģ
Ñĥ ÑģÐº
ĠÑģ Ð¸ÑĤÑĥ
ĠÑģÑĤÑĢÐ°Ð½Ð° Ñħ
ĠÐ³ Ð°Ð»
Ð¸ÑĨ Ðµ
ĠÐ¾ÑĢÐ³Ð°Ð½Ð¸ Ð·Ð¾Ð²
ÐµÑĢ ÑĮ
ĠÐŀ ÑģÑĤ
ĠÐ·Ð°Ð²Ð¸ÑģÐ¸Ð¼ Ð¾ÑģÑĤÐ¸
Ð°ÑĤ Ð¾Ð»
ĠÐ¿ÑĢÐ¾Ð´ ÑĥÐº
ĠÐ½Ð°Ñĥ ÐºÐ¸
Ñģ ÐµÐ»
Ð¾Ñģ Ð½Ð¾Ð²
Ġ n
ĠÐĴ Ð¸Ð»ÑĮ
ĠÐĴ ÐµÑĢ
ĠÐº Ð»ÐµÑĤ
ĠÐ¿Ð°ÑĢ ÑĤÐ¸Ñı
Ġ199 6
ĠÐĵ ÑĢÑĥÐ·
Ð² Ð°ÑĢÐ´
ÑĤÑĮ ÑģÑı
Ð°Ñģ Ð°
ÑĥÑİÑī Ð¸Ð¹
ĠÐ±Ð¾Ð»ÑĮÑĪÐ¸Ð½ ÑģÑĤÐ²Ð¾
ĠÐ¿ÑĢÐ¾Ð² Ð¾Ð·Ð³
ĠÐ¿ÑĢÐ¸Ð½ ÑıÑĤ
Ġ199 3
ĠÑģÐ»Ð¾Ð² Ð¾
ĠÐ¾Ð±ÑĢÐ°Ð·Ð¾Ð² Ð°Ð½Ð¸Ðµ
ĠÐ´Ð¾Ð»Ð¶ Ð½Ñĭ
Ð¾ÑģÑĤÐ¾ ÑıÑĤÐµÐ»ÑĮ
ĠÐ¼ Ð°
ÐµÐ´ Ð¾Ð½
ĠÐ¿ÑĢÐµ Ñģ
ĠÐ´Ð² ÑĥÐ¼
ÑĳÐ½ Ð½ÑĭÐ¼
ĠÐ° Ð·
Ġ( ,
Ð°Ð½Ð´ Ð¸Ð´
ĠÑģÐ»ÐµÐ´ ÑĥÐµÑĤ
ĠÐĶ ÐµÐ½ÑĮ
ÐµÑĢÐ° Ð¼Ð¸
ĠÐºÐ¾Ð½ ÑģÑĤÑĢÑĥÐº
ÑģÑĤ Ð¾Ð½
Ð°Ðº Ð¸
Ð·ÑĭÐ²Ð° ÐµÑĤ
ĠÐ·Ð°Ðº ÑĢÑĭ
Ðº Ð¾Ðµ
ĠÐķÐ²ÑĢÐ¾Ð¿ Ðµ
ĠÐ¿Ð¾ÑģÑĤ Ð°Ð½Ð¾Ð²
Ġ19 18
Ð¾Ð¿ ÐµÐ´
ĠÐ¿Ð¾ÑĤ Ð¾Ð¼
ĠÐĴÐµÐ»Ð¸Ðº Ð¾Ð¹
ĠÐ³ ÐµÑĢÐ¼
ĠÐ¾ÑĤ ÑĢÐ°Ð¶
ĠÐ¦ ÐµÑĢ
ĠÐ¿ Ð°Ð¿
ÐµÑĢÐ° Ð»ÑĮ
Ð¾Ð¿ Ð¾Ð»ÑĮ
ĠÑĤÐ°Ðº Ð¸Ð¼
ĠÐ¡ ÐŁ
ÑİÑīÐ¸Ñħ ÑģÑı
ĠÐ·Ð° Ð³
ĠÐ· ÑĢÐµÐ½Ð¸Ñı
Ð¾Ð¿ Ð¾Ð»Ð¾Ð¶
ĠÐĿ Ð°ÑĢÐ¾Ð´
ĠÐ½Ð° Ð·
ĠÑĢÐ° ÑģÑĤÐ²
ĠÐ¾Ñģ Ð°Ð´
ÑĨÐ¸Ð¾Ð½ Ð½ÑĭÐ¹
ĠÐ¿ÑĢÐ¾Ð³ÑĢÐ°Ð¼ Ð¼Ñĭ
Ð¾ÑĤ Ðµ
ÑĦ Ð°Ð²
ÑĨÐ¸Ð¾Ð½ Ð½Ð¾Ð³Ð¾
ĠÑĨÐµÐ½ÑĤ ÑĢÐ°
Ð½ÑĥÑĤ ÑĮ
ĠÐ¸Ð¼Ð¿ÐµÑĢÐ° ÑĤÐ¾ÑĢÐ°
Ð°ÑģÑģÐ° Ð¶
ÑģÑĤÑĢÑĥ Ð¼ÐµÐ½ÑĤ
ÑĢÑĥ ÐµÑĤÑģÑı
Ñı Ð»Ð¸
ĠÐ²ÐºÐ»ÑİÑĩ Ð°Ñı
ĠÐ¸Ð½ÑĦÐ¾ÑĢÐ¼Ð° ÑĨÐ¸Ð¸
ÑĤÐµ Ð¿
ĠÐ° Ð¼
ĠÐ½Ðµ Ð¿Ð¾Ñģ
u l
Ð°Ñı ÑģÑĮ
Ð² Ð¾Ð¹
ÑĪ Ð¸ÑģÑĮ
Ð¸ÑĤÐµÐ»ÑĮ Ð½ÑĭÐµ
ĠÑģÐ°Ð¼ ÑĭÐ¼
ĠÐ¿ÑĢÐ¾Ð¸Ñģ ÑħÐ¾Ð´
ĠÐĶ ÑĢÑĥÐ³
ÑĤÐ¸ÑĩÐµ ÑģÐºÐ¾Ð¹
ĠÑĥÑĩÐ° ÑģÑĤÐ²Ð¾Ð²
ĠÑĤÐµÐ» Ð°
ĠÐ½ ÐµÐº
ĠÐ¿ÐµÑĢÐ² Ð°Ñı
ĠÐ½Ð¾Ð² Ð¾Ð³Ð¾
ĠÐĲÐ½Ð´ ÑĢÐµ
ĠÐ°Ð»ÑĮ Ð±Ð¾Ð¼
Ð± ÐµÑĢÐ³
Ð² ÐµÑĤÐ°
Ð´Ð° ÐµÑĤÑģÑı
Ð¾Ñģ Ð¿
Ġ19 20
ĠÐĲÑĦ ÑĢÐ¸
ĠÐĶ Ð¾Ð¼
Ð¾ÑģÑĤÐ¾Ðº Ðµ
ĠÐºÐ¾Ð½ÑĦ Ð»Ð¸
Ñĩ ÐµÐ¹
ĠÐ¸Ð³ ÑĢÑĭ
Ġ199 4
ĠÑıÐ´ ÐµÑĢ
ĠÐº Ð¸Ð½
ĠÐ½Ðµ Ð¿
ĠÑįÐ»ÐµÐ¼ÐµÐ½ÑĤ Ð¾Ð²
Ð ®
ĠÐ³ Ð¾ÑĤÐ¾Ð²
Ð¸ÑĤÐµÐ»ÑĮ Ð½ÑĭÑħ
ĠÑģÐ¾Ð² Ð¼ÐµÑģÑĤ
ĠÐ´ Ð¸Ð½Ð°ÑģÑĤÐ¸
ĠÑģÐµÐ²ÐµÑĢ Ð¾
Ð°Ð½ ÑģÐºÐ°Ñı
ĠÐŁÐ¾ Ñį
ĠÐº ÑĢÑĭ
8 6
ĠÐ± Ð»Ð¾Ðº
ĠÐ¾ÑĤ Ð»Ð¸
ĠÐ·Ð°Ñħ Ð²Ð°ÑĤ
Ð» Ð¾Ð³
ĠÐ¡ Ð¾Ð±
Ð¸Ð²Ð° ÑİÑĤ
Ð¸ Ð³ÑĢÐ°
Ñģ ÐµÐ¼
ĠÐº Ð¸ÑĤÐ°Ð¹
Ð½ Ð¾Ð·
ĠÐ¸Ñģ ÑħÐ¾Ð´
ĠÑģ Ð±
Ð¸Ð½ ÑģÐºÐ°Ñı
Ð¡ Ð¡
ĠÐºÐ½Ð¸ Ð³Ð¸
ÑĦÐ¾ÑĢ Ð¼
ĠÑģÐ¸ÑģÑĤÐµÐ¼ Ðµ
Ġ199 5
ĠÐ¿ÑĢÐ¾Ð¼ÑĭÑĪÐ»ÐµÐ½ Ð½Ð¾ÑģÑĤÐ¸
Ð¾Ð´ Ð°ÑĤÐµÐ»ÑĮ
ĠÐĵ ÑĢÐ¸
ĠÑģÑĩÐ¸ÑĤÐ° ÐµÑĤÑģÑı
ĠÐ²Ð¾Ð· Ð³Ð»Ð°Ð²
ĠÐĴÐµÐ»Ð¸ÐºÐ¾Ð±ÑĢÐ¸ÑĤ Ð°Ð½Ð¸Ð¸
ĠÑģÐ¾Ð± ÑģÑĤÐ²ÐµÐ½
ĠÐ³ Ð¸Ð¼
ĠÐºÐ¾Ð½ ÐµÑĩ
Ð²Ð°Ð½ ÑĤÐ¾Ð²
ĠÐ¿Ñĥ ÑĤÐ¸
Ñĥ Ð»Ð¸
Ð³ ÐµÐ»ÑĮ
ĠÐł Ðµ
ĠÑģÐ²Ð¸Ð´ÐµÑĤ ÐµÐ»ÑĮ
ĠÐĿÐ° Ð¸Ð±Ð¾Ð»ÐµÐµ
ĠÐ´Ð¾Ð» Ð»Ð°
ĠÑĦÐ¸Ð½Ð°Ð½ ÑģÐ¾Ð²
Ð¾Ðº Ñģ
ĠÐ¾ÑģÐ² Ð¾Ð±
ÑĤÐ° Ñħ
ĠÑĤÐ°Ðº Ð¾Ð¹
ĠÐ´Ð¾Ð¼ Ð°
ĠÐ¿Ð¾Ð·Ð²Ð¾Ð» ÑıÐµÑĤ
ĠÑĥÑĢÐ¾Ð² Ð½Ñı
ĠÑģ ÑĥÐ¿
ĠÐ½Ð°Ð·ÑĭÐ²Ð° ÑİÑĤ
ĠÐ²ÑĭÐ´ ÐµÐ»Ñı
Ð¸Ð² Ð°Ð»
ÐµÑĢ Ð¾
ĠÐĴ Ð¾Ð·
ĠÑįÑĤÐ¾Ð¼ Ñĥ
o c
ĠÐ¡ Ð¾Ð»
Ðº Ð¾ÑĢ
Ð³ Ð¾ÑĢ
Ñĳ Ð¶
ĠÐ¿Ð¾Ð´ ÑĤÐ²ÐµÑĢ
ÑĥÑĩ ÐµÐ½Ð¸
ĠÐĴ Ð°ÑģÐ¸
ĠÐ¼ ÐµÑĢ
ĠÐĿ ÐµÑģ
ĠÐ½ÐµÐ¿Ð¾Ñģ ÑĢÐµÐ´
ĠÐ±Ð¾Ð» ÐµÐ·
Ð´ ÐµÐ½Ð°
ÑĤÐ¾ Ñĩ
ĠÑģÐ¾Ð¾ÑĤÐ²ÐµÑĤÑģÑĤÐ² Ð¸Ð¸
Ġ202 2
ĠÑĤ Ñİ
Ð°Ð² Ð°
ĠÑģÑĤÑĢÐ¾Ð¸ÑĤÐµÐ»ÑĮ ÑģÑĤÐ²Ð¾
Ð¸ÑĩÐµ ÑģÐºÐ¾Ð¼
ĠÐ¸ÑģÐ¿Ð¾Ð»ÑĮÐ· ÑĥÑİÑĤÑģÑı
ÑĨÐ¸ÐºÐ» Ð¾Ð¿ÐµÐ´
ĠÐ¿ ÐµÐ´Ð°Ð³Ð¾Ð³
ÑĨ ÐºÐ¸Ð¹
ĠÐł Ð¾Ð±
ÑĢÐ¾Ð² Ð°
Ñĥ Ð¹
ĠÐ· Ð¸Ð¼
ĠÐ¾ÑĤ Ð¼ÐµÑĩ
ĠÐĲ Ñħ
ĠÐ°Ð½ Ð°Ð»Ð¾Ð³
ĠÑĥ ÑĢÐ°Ð²Ð½
ĠÑĢÐ¾Ð´ Ð°
ĠÐ¼Ð½Ð¾Ð³Ð¾ ÑĩÐ¸ÑģÐ»ÐµÐ½
ĠÑĩÐµÑĤÑĭ ÑĢÐµ
ĠÐ¿ÑĢÐ¸ Ð½Ð¸Ð¼
Ġ193 0
ĠÑĪÐºÐ¾Ð» Ð°
ĠÑĨÐµÑĢÐºÐ¾Ð² ÑĮ
Ð¶Ð´ Ñĭ
ĠÑģÐ°Ð¼ Ð¾ÑģÑĤÐ¾ÑıÑĤÐµÐ»ÑĮ
ĠÐ¾Ð± Ð²Ð¸Ð½
ĠÐ°Ð» ÑĦÐ°Ð²
ĠÐ´Ð¸ Ð°Ð»
Ð¡ Ð¾Ð±ÑĭÑĤÐ¸Ñı
ĠÑģÑĤÐ°Ð½ ÑĨÐ¸Ð¸
ĠÐ» ÐµÐ²
ÐµÐ´ Ð°
ÑĢÐ¾Ð² Ð¾Ð´
Ð·Ð° Ð¿Ð°Ð´
ĠÑĤÐµÑħ Ð½Ð¸ÑĩÐµ
ĠÐµ Ð¿Ð¸ÑģÐºÐ¾Ð¿
ĠÐ¿ÑĢÐ¸ ÐºÐ°Ð·
ĠÑĥÐ´ Ð°Ð»Ð¾ÑģÑĮ
ĠÐºÐ½Ñı Ð¶Ðµ
ĠÐĺ Ð¾Ð°Ð½
Ð¼Ð¾Ð½ Ð°Ð²
ĠÐĴÑĤÐ¾ÑĢ Ð¾Ð¹
ĠÐ» Ð°ÑĥÑĢÐµ
ĠÐ³Ð¾ÑĢÐ¾Ð´ ÑģÐºÐ¾Ð³Ð¾
Ñı ÑĢ
ĠÐļ ÑĢÑĭ
ĠÐ¾Ð¿ Ð°Ñģ
ÑĤÐµ Ð³
ĠÐ´ÑĢÐ° Ð¼Ð°ÑĤ
Ġ199 8
ÑıÑī Ð¸Ñħ
ÑĦÐ¸ÐºÐ° ÑĨÐ¸Ð¸
ĠÐ½Ð°ÑģÐµÐ» ÐµÐ½Ð¸Ðµ
Ð¼ Ð¾Ð²
ĠÑģÐ¾Ð·Ð´ Ð°Ð½Ð¸Ñı
ĠÐ²Ð¾Ñģ Ð¿ÑĢÐ¸
ĠÐĿÐµÐºÐ¾ÑĤÐ¾ÑĢ ÑĭÐµ
Ð¸ÑĤÐµÐ»ÑĮ Ð½Ð¾ÑģÑĤÐ¸
Ġ19 17
ĠÐ¿Ð¾Ð· Ð¶Ðµ
Ñı ÑģÑĮ
ĠÐ´Ð¾Ð¿ Ð¾Ð»Ð½Ð¸ÑĤÐµÐ»ÑĮ
ĠÑĢÐµÐ¶ Ð¸ÑģÑģÑĳÑĢ
ĠÐ¸Ð¼ ÐµÐ»
ÑĢÐµ Ð³
ÑĤÐ¸ ÐºÐ°
ĠÐºÐ¾Ð¼ Ð¸ÑĤ
ĠÐºÐ½Ð¸ Ð³
Ñı ÑİÑĤÑģÑı
ĠÐ² ÑģÐ¿
ĠÐ¿ Ð°Ð´
Ð°Ð»ÑĮ Ð½Ð¾Ð¼
ĠÑĢÐ°Ð·Ð»Ð¸Ñĩ Ð½ÑĭÐµ
ĠÐ¡ÑĤ Ð°ÑĢ
ĠÐĵÐµÐ½ ÑĢÐ¸Ñħ
ĠÐ¿ÑĢÐµÐ´Ð¿Ð¾Ð» Ð°Ð³
ĠÐ± ÑĢÐ¾Ð½
Ð»Ð° Ð³Ð°
ĠÐ¿Ð¸Ñģ Ð°Ð»
ĠÐ·ÐµÐ¼ ÐµÐ»ÑĮ
ĠÐ¸Ð·Ð± ÑĢÐ°Ð½
ÑģÑĤÐ¸ ÐºÐ¸
Ġ8 0
ĠÐ´Ð¾ÑģÑĤÐ°ÑĤÐ¾Ñĩ Ð½Ð¾
ĠÐ½Ð¾Ð² ÑĭÐµ
Ð°Ð² ÐºÐ°Ð·
ÑĢ Ð¾Ð¶
ĠÐ²Ð¾Ð¹ Ð½Ðµ
ÑĪ Ð¸Ð±
ĠÐ¶ Ð¸Ð´
ĠÐ¿Ð¾Ð¼ ÐµÑī
ĠÐ¡ÑĤ Ð°Ð»
ĠÐ¤ Ð¾ÑĢ
ĠÐĽ ÐµÐ²
r u
ĠÑģ Ð¸Ð»Ð°
ĠÑĢÐ°Ð±Ð¾ÑĤ Ð°
ĠÐ¿ ÑıÑĤÐ¸
ĠÐ´Ð¾Ðº Ð°Ð·
Ð°Ð» Ð¾Ð¼
ĠÐļ ÑĢÐ¸
ĠÐĿ Ð°Ð·
ĠÐĲÑĢ Ð¼
ĠÐ¿ÑĢÐ¾Ð¸ÑģÑħ Ð¾Ð¶Ð´ÐµÐ½Ð¸Ñı
ÑĤ ÐµÐ·
Ð· Ðµ
ĠÐ¼ ÑĭÑĪ
Ð»Ðµ Ð±
ĠÐºÐ¾Ð½ ÑģÑĤÐ¸ÑĤÑĥ
Ð½Ñİ Ñİ
ÑĪ Ð»Ð°
Ġ a
ĠÐ² ÐµÐ»
Ð¾Ð½ Ñĥ
ÑĩÐµ Ðº
ĠÐ¾Ð±ÑĬ ÑĳÐ¼
ĠÑĢÐµÐ²Ð¾Ð»Ñİ ÑĨÐ¸Ð¸
Ð¾Ñĩ Ð½ÑĭÑħ
ĠÐ° ÑģÑģ
ĠÑĩÐ°ÑģÑĤÑĮ Ñİ
ĠÐ¿ÑĥÑĤ ÑĳÐ¼
ĠÐ²Ð¾Ñģ Ð¿
Ð½Ð° ÑĩÐ°ÐµÑĤ
Ġ199 7
ĠÐ² ÑģÑı
Ðº Ð¸Ð½Ð°
ĠÐ½ Ð¾Ð¼
ĠÐ¾Ð± ÑĢÐ°ÑĤ
ĠÐŃÑĤ Ð¾ÑĤ
ĠÑģ ÐµÐ²
ÐµÐ½ÑĤ Ñĭ
ĠÑģÐ¾Ð²ÑĢÐµÐ¼ÐµÐ½ Ð½Ð¾Ð¹
ĠÑģ ÑĦÐ¾ÑĢÐ¼Ð¸ÑĢÐ¾Ð²
ÑĥÑİ ÑīÐµÐ³Ð¾
ĠÐĺÐ· ÑĢÐ°
Ñĩ Ð°Ñģ
ĠÐ²Ð¿ Ð¾Ñģ
Ñĩ ÐµÐ½
ÐµÐ¹ Ð¼
ĠÐ¶ Ð°Ð½
9 0
ĠÐ²Ð¿Ð¾Ñģ Ð»ÐµÐ´ÑģÑĤÐ²Ð¸Ð¸
Ġ v
ĠÐ¿ ÑĤÐ¸
ĠÑĢÐ°Ñģ ÑģÐºÐ°Ð·
ÑĪ Ð°
Ð¾ÑĢ ÑĦ
ĠÑģÐ»ÑĥÑĩ Ð°Ñı
Ð»ÑıÐ½ Ð´
ĠÑģ ÑĢÐ°Ð¶
ĠÐ± Ð°ÑĪ
ĠÑģÐ²Ð¾ ÑĳÐ¼
ĠÐ¾ÑģÐ½Ð¾Ð² Ð½ÑĭÑħ
ĠÑĢÑĥÑģ ÑģÐºÐ¾Ð¹
ÑıÑĤÑĮ ÑģÑı
ĠÐ¼Ð°ÑĢÑĪ ÑĢÑĥ
ĠÐ¸Ð½ ÑģÑĤÑĢÑĥÐ¼ÐµÐ½ÑĤ
ĠÐ°ÑĢ Ð¼ÑıÐ½
Ð°ÑĢ Ð´Ð°
Ð¸ÑĩÐµ ÑģÐºÐ¸Ð¼Ð¸
ĠÑģÐ¿ ÐµÐºÑĤ
ĠÑĤÐ¾Ð½ Ð½
Ð¾Ðº Ð¾Ð»
ÐºÐ¸ Ð¼Ð¸
t h
ĠÐ´ Ð¸Ð²
ĠÐ¸ÑģÐ¿Ð¾Ð»ÑĮÐ·Ð¾Ð² Ð°ÑĤÑĮ
ĠÐ½ Ð°Ð»Ð¸Ñĩ
Ð± Ð¾Ð»ÑĮ
ĠÐº ÑĤÐ¾
ĠÐ¿ÑĢÐ°Ð² Ð»ÐµÐ½Ð¸Ñı
Ð¾Ð»Ð¾Ð³ Ð¸ÑĩÐµÑģÐºÐ¸Ñħ
ĠÐ½ ÑĥÐ¶
ĠÐ² Ð¸Ð´Ð°
ĠÐĲÐ½Ð³ Ð»Ð¸Ð¸
ĠÐĵ Ñĥ
ĠÐ¿Ð¾Ð´ ÑħÐ¾Ð´
ĠÐ¸Ð½ Ð¶ÐµÐ½
ĠÐĲ ÐºÐ°Ð´ÐµÐ¼
ĠÐ¿ÐµÑĢÐ² ÑĥÑİ
ĠÐ¿ Ð°ÑģÑģÐ°Ð¶
ĠÐ½ Ð°Ð½
Ñ ĸ
ÐµÑĢ Ðº
ĠÐĽ Ð¸Ð²
ĠÐľÐ¾ÑģÐº Ð²Ñĭ
ĠÐ¿ÑĢÐ¸Ñģ ÑĥÑĤÑģÑĤÐ²
ĠÐ´ ÐµÐ½
ĠÐºÐ¾ÑĤÐ¾ÑĢ Ð¾Ð¼Ñĥ
ĠÐ¿ÐµÑĢÐ¸Ð¾Ð´ Ð°
ĠÑĨÐµÐ» Ð¾Ð¼
Ġ198 9
ĠÐ¾Ð±Ñī ÐµÐ¹
ÑİÑīÐ¸Ðµ ÑģÑı
ĠÐº ÑĢÐ¾Ð¼Ðµ
ĠÐ¾ Ð»Ð¸Ð¼Ð¿Ð¸Ð¹
ĠÑĩ Ð¸ÑģÑĤ
ĠÐĲÐ»ÐµÐº ÑģÐµ
Ð°Ð½ Ð°Ð²
ĠÐ³ Ð»Ð°
ĠÑĤ Ð¸ÑĤ
ĠÐŁÑĢÐµÐ· Ð¸Ð´ÐµÐ½ÑĤ
ĠÐ´ ÑĥÑĪ
ÑĨÐ¸Ñı Ð¼Ð¸
ĠÑģÐ¾Ð± ÑĢÐ°
ĠÑİ Ð³Ð¾
Ð´ Ð°Ð²
ĠÑģÐ² ÐµÑĤÐ°
ĠÐ°Ð²ÑĤ Ð¾Ð½Ð¾Ð¼
ĠÐ´Ð²Ð¸Ð¶ ÐµÐ½Ð¸Ðµ
ÑĢÐ¾ ÑĦ
ĠÑĥÐº ÑĢÐµÐ¿
Ã ©
ÑĨ ÐµÐ½Ð¸
Ð¾Ð· Ð½
Ð¾Ð· Ñĭ
ÑĩÐµ ÑģÐºÐ¸Ð¼
ĠÐ·Ð½Ð°Ñĩ Ð¸ÑĤÐµÐ»ÑĮÐ½Ð¾
ĠÑĨÐµÐ½ÑĤ ÑĢÐ¾Ð¼
Ð°ÑĤ Ð¾ÑĢÐ°
Ð°Ð± ÑĢÐ¸
es s
ĠÐ¡Ðº Ð¾Ð½Ñĩ
ĠÐľÐ¸Ð½ Ð¸ÑģÑĤ
ĠÐ± Ð°ÑĢ
ÑĥÑĢ Ð³Ð°
ĠÐ¿ÑĢÐ¸Ð½Ñı Ð»
Ð¾Ð± ÑĥÑģ
Ġ7 0
ĠÐ²Ð¾ ÐµÐ½Ð½Ð¾
ĠÐ²Ð¾Ð·Ð¼Ð¾Ð¶ Ð½Ð¾
Ġ l
ÑĨ ÐµÐ¿
Ñģ ÑĥÑĢ
Ð· Ð¸
ĠÐ¶ Ð¸Ð»
ĠÐ¿ÑĢÐ¾Ð¸Ð·Ð²Ð¾Ð´ ÑģÑĤÐ²Ð¾
ĠÐŁ Ð¾ÑģÑĤ
ĠÑĩÐ°Ñģ Ð¾Ð²
Ð¾Ð² Ð°Ð½
ĠÐºÑĢÐµ ÑģÑĤÑĮÑıÐ½
ĠÐ²ÑĭÐ¿Ñĥ ÑģÐº
ĠÑĦÐ¸Ð»Ð¾ÑģÐ¾ÑĦ Ð¸Ð¸
r i
ĠÐº Ð°Ð½Ð´Ð¸Ð´
ĠÑģÑĢÐµÐ´ ÑģÑĤÐ²
Ġ "
ĠÐļ Ð°ÑĢÐ°
h t
Ð¸ÑĤÐµÐ»Ñı Ð¼Ð¸
ĠÑģÐ¾Ð±Ñĭ ÑĤÐ¸Ñı
ĠÑĥÑģÑĤÐ°Ð½Ð¾Ð² Ð»ÐµÐ½
ĠÑģÐ°Ð¼ Ð¾Ð³Ð¾
ĠÐ²Ñĭ ÑĩÐ¸Ñģ
ĠÐ² ÐµÐ»Ð¸Ðº
ÑĢÑĥ ÐµÑĤ
ĠÐ¼ Ð¾ÑĤ
ĠÑĩÐ¸Ñģ ÐµÐ»
ĠÐ³ ÐµÐ½
Ð¸Ð² Ð°Ð½Ð¸Ñı
ĠÐº Ð¾Ð¿
ĠÐ¿ÑĢÐµ Ð¿Ð°ÑĢÐ°
ĠÐ´ Ð¾Ð±Ñĭ
ÐµÐ¼ Ð°Ñı
ĠÐ¶Ð¸Ð²Ð¾ÑĤ Ð½ÑĭÑħ
Ð¾Ð² Ð¸Ñĩ
Ġ194 5
Ð½Ñĥ Ð¶Ð´
ĠÐļ Ð»Ð¸
ĠÐ²Ð¼Ðµ ÑģÑĤÐ¾
ĠÐľ Ð°ÑĤ
ĠÑģÐº ÑĥÐ»ÑĮÐ¿
ĠÑģÐµÑĢÐµÐ´ Ð¸Ð½Ðµ
ĠÐ¯Ð¿Ð¾Ð½ Ð¸Ð¸
ĠÑĤÑıÐ¶ ÑĳÐ»
ĠÐ³ Ð»
ÑĦ Ð¸Ðº
ĠÐĹÐµÐ¼ Ð»Ð¸
ĠÐĲ ÑĤ
ĠÐ¿ ÑıÑĤ
ĠÑģ ÐµÐ·
Ð¾Ð» ÐµÑĤ
ĠÑģÑĤ Ð¾
ĠÑĥÑģÐ¿ ÐµÑħ
ĠÐŀ Ð¿
ĠÑĢÐµÑģÐ¿ÑĥÐ±Ð»Ð¸ ÐºÐ¸
ÐµÑģ Ð°
Ð¸ÑĤÐµÐ»ÑĮ Ð½Ð¾Ð¹
ÑİÑī Ð¸Ð¼Ð¸
ĠÐ¸Ð·Ð¼ÐµÐ½ ÐµÐ½Ð¸Ñı
ĠÐ¿ÑĢÐ¾ÑĦ ÐµÑģÑģÐ¸Ð¾Ð½
3 5
ĠÑĢÑı Ð´Ð°
ĠÐ¼ Ð°Ð½
ĠÐ¿Ð¾Ð» Ð½Ð¾Ð¼
ĠÐĽ ÑĮ
ĠÐ¿ÑĢÐ¾Ð´ ÑĥÐºÑĤ
ĠÐ¿Ð¾Ð»Ð¾Ð¶ ÐµÐ½Ð¸Ðµ
ÑģÑĤÐ¸ ÐºÐ°
ĠÐĲÐ»ÐµÐºÑģÐ°Ð½Ð´ ÑĢÐ¾Ð²
ĠÐ½Ð°Ð¿ ÑĢÑı
ĠÑĪÐ¸ÑĢÐ¾Ðº Ð¾
Ð½ ÐµÐ½Ð¸Ñı
ĠÐ°ÑĤ Ð¼Ð¾Ñģ
Ðµ ÐµÐ²
ĠÐ¾ ÑĪÐ¸Ð±
ĠÐ¼ ÑĥÑģ
Ð°Ð¹ Ð´Ð¶
ĠÐ³Ð¾ÑģÑĥÐ´Ð°ÑĢÑģÑĤÐ²ÐµÐ½ Ð½Ð¾Ð³Ð¾
ĠÑģ ÐµÑĢÐµ
ĠÐľ Ð°Ð½
ĠÐĿ Ð¾ÑĢ
ĠÐľ Ð¸ÑĢ
ĠÐ³Ð¾ÑģÑĥÐ´Ð°ÑĢ ÑģÑĤÐ²
ĠÐ³ÐµÑĢ ÑĨÐ¾Ð³
ĠÐĺÑĤ Ð°Ð»Ð¸Ð¸
ĠÐĲÐ· Ð¸Ð¸
ĠÐº Ð°ÑĤÐµÐ³Ð¾
ĠÐ´ÐµÑģÑı ÑĤÐ¸
ĠÐ²ÐµÑīÐµ ÑģÑĤÐ²Ð°
ĠÐ¿ ÐµÑĩÐ°ÑĤ
ĠÐ² ÐµÑī
Ð¿ Ð°
ĠÐ¤ ÑĳÐ´
ĠÐ³Ð¾Ð² Ð¾ÑĢÐ¸
ĠÐļÐ¾Ð½ ÑģÑĤÐ¸ÑĤÑĥ
ĠÐºÐ½ÑıÐ· ÑĮ
ĠÐ°ÑģÑĤ ÑĢÐ¾Ð½Ð¾Ð¼
ĠÐĿÐµÑģ Ð¼Ð¾ÑĤÑĢÑı
o v
Ð¼ Ð¾ÑĢ
ÑĩÐµ ÑģÑĤÐ²Ð¾
ĠÑĩ ÐµÐ»
ĠÐ¿Ð¾Ð± ÐµÑĢÐµÐ¶
ĠÐ¾Ð³ ÑĢÐ¾Ð¼
Ð¼Ð¸Ð½ Ð¸ÑģÑĤ
ĠÑĢÑĥÑģ ÑģÐºÐ¾Ð³Ð¾
Ġ Ñī
ĠÐ¿Ð°ÑĢ ÑĤÐ¸Ð¹
ÐµÐ½ Ð½Ð¾Ð¼
ĠÐ¶ÑĥÑĢ Ð½
ĠÑįÑĦÑĦ ÐµÐºÑĤÐ¸Ð²
ĠÐ¿ÑĢ Ð¾Ðº
Ġ3 5
ĠÐ¸ÑģÐ¿Ð¾Ð»ÑĮÐ·Ð¾Ð² Ð°Ð½Ð¸Ñı
ĠÐ¾ÑģÑĥÑīÐµÑģÑĤÐ² Ð»Ñı
ĠÐ¾Ð´ Ð½Ð¾Ð¼
ĠÑĨÐ¸ ÑĦ
ĠÐ» ÑĳÐ³
ĠÐ½Ð°Ð·Ð² Ð°Ð½Ð¸ÐµÐ¼
ĠÐ·Ð°Ð¼ ÐµÑĤ
ĠÑĢÐµÑĪ ÐµÐ½Ð¸Ñı
ÑģÑĤÐ¸ÑĤÑĥ ÑĤÐ°
Ð¡ ÑĤ
ĠÑĢÐ°Ñģ ÑĪÐ¸ÑĢ
ĠÐ¿Ð¾ ÑıÐ²Ð»Ñı
Ð¸ÑĨ ÐµÐ¹
ĠÐŁÐµÑĢÐ² ÑĭÐ¹
ĠÑĢÑĥÑģ ÑģÐºÐ¸Ñħ
ĠÐĿÐ¾Ð² Ð³Ð¾ÑĢÐ¾Ð´
Ð» Ñĳ
Ð¸Ð² Ð°ÑĤÑĮ
ĠÐļÐ°ÑĢ Ð»
ĠÑģ Ð°Ð¹
ĠÐĽ Ð°ÑĤ
Ð¸ÑģÑĤ Ñĭ
ĠÑģÐ¸ÑģÑĤÐµÐ¼ Ñĥ
ĠÑĤ ÐµÐ½
ĠÑĤÐµÐ¼Ð¿ÐµÑĢÐ° ÑĤÑĥÑĢÐ°
Ð¾Ð± ÐµÐ»ÐµÐ²
ĠÐ´Ð¾ ÑħÐ¾Ð´
Ð°Ð»ÑĮ Ð½ÑĥÑİ
ĠÑģÐ¿ ÑĢÐ°Ð²
ĠÐ»Ð¸ÑĤÐµÑĢÐ° ÑĤÑĥÑĢÑĭ
ÑģÑĤ Ð°Ð½Ð¾Ð²
ĠÐ¾ÑĢ Ð´ÐµÐ½
ĠÐ¾Ð´ Ð½Ð¾Ð²ÑĢÐµÐ¼ÐµÐ½Ð½Ð¾
ĠÑĤÑĢÐ°Ð½ Ñģ
ÑĢÐ°Ð· Ñĥ
ĠÐĺ Ñģ
ÐµÑĢÐ± Ð°Ð¹Ð´Ð¶
ĠÐ¿ Ð°
ÐºÐ» Ð¾Ð½
Ð½ ÑıÑĤ
ĠÐľ ÑĥÐ·
ĠÐĽ Ð¾Ð½Ð´
ĠÐ² Ð°Ð»
ĠÑĤ Ð°Ð¹
ĠÐ¿ÑĢÐ¾ÑĤ ÐµÑģÑĤ
ĠÐŃ Ð´
ĠÐ´Ð¸ ÑģÐº
Ñĩ Ð¸ÑĤ
ĠÐ½Ð°ÑĢÐ¾Ð´ Ð½ÑĭÐ¹
ÐºÐ° Ð·ÑĭÐ²
ĠÐ¿ÑĢÐµÐ´ Ð¼ÐµÑĤ
ĠÐ½Ð°ÑĢÐ¾Ð´ Ð¾Ð²
ĠÐ³Ð»Ð°Ð² Ð½ÑĭÐ¼
ĠÐ» Ð¸Ð´
ĠÐ¿Ð¾Ð» Ðµ
Ð°ÑĢÐ¸ Ñı
Ð³Ð¾Ð² Ð¾ÑĢ
ĠÐŀÑĤÐµÑĩÐµ ÑģÑĤÐ²ÐµÐ½Ð½Ð¾Ð¹
Ð¸Ð· Ð²Ð¾Ð´
ĠÑįÑĤ Ñĥ
ĠÐ¼ÐµÑģÑĤ Ð°
ĠÐ»Ñİ Ð´Ð¸
ĠÐŀÐ± Ñī
Ñī Ð°
ÑĤÐ¾ÑĢ Ð¾Ð¼
ĠÑįÐ½ÐµÑĢÐ³ Ð¸Ð¸
ÑģÑĤ ÑĢÐ¸
Ð°ÑĤ Ð°ÑĢ
Ð¿Ð¾Ð» Ð¸ÑĤ
Ñģ ÑģÐ¸
Ð¶Ðµ Ð³Ð¾Ð´
Ñĳ ÑĢÐ°
ĠÐľ Ð¾Ð»
ĠÐ¿Ð¾Ð»ÑĥÑĩ Ð¸Ð»Ð¸
ĠÐ¸ Ð½Ð¸
Ñĩ Ð½Ð¾Ð³Ð¾
ĠÐ¿Ð¾Ð²ÐµÑĢÑħ Ð½Ð¾ÑģÑĤÐ¸
ĠÑĦÐ¾ÑĢ Ð¼Ðµ
Ð¸Ð½ Ð¾Ð¼
Ð¸ÑĤÐµÐ»ÑĮ Ð½Ð¾Ð³Ð¾
Ð½ÐµÐ² ÐµÐº
ĠÐ± Ðµ
ĠÐ¿Ð¾Ð»ÑĥÑĩ Ð¸Ð»Ð°
ĠÐĺ Ð³
ĠÐ¢ ÑĢÑĥ
ĠÐ¿ÑĢÐ¾ ÐµÐºÑĤ
Ð°Ð» Ð¸ÑĤ
Ð¾Ð½ Ð¾Ñģ
ÑĳÐ· Ð´
Ð¸Ðº Ð¾
ĠÐ¡ÐµÐ²ÐµÑĢ Ð½Ð¾Ð¹
ĠÑģÐµÐº ÑĢÐµÑĤ
Ñĩ Ð½ÑĭÐ¹
ĠÐº Ð²Ð°Ð½ÑĤÐ¾Ð²
ĠÐ½ ÑĭÐ½Ðµ
ĠÐ±ÐµÐ·Ð¾Ð¿Ð°Ñģ Ð½Ð¾ÑģÑĤÐ¸
ĠÐ¢ ÑĢÐ¾
ĠÐŃ ÑĢ
ĠÐ³Ð¾ÑģÑĥÐ´Ð°ÑĢ ÑģÑĤÐ²Ð¾
Ð± ÐµÐº
ĠÑĩÐ»ÐµÐ½ Ð¾Ð²
9 9
ĠÐ¿Ð» Ð°Ð½Ð¸
ĠÑģ ÐµÐ³
ĠÐĲ Ð³
Ð°Ð½ Ð½ÑĭÐ¼
Ð¸Ð¼ ÐµÐ½Ð¾Ð²
Ð²Ð° ÑİÑĤÑģÑı
ĠÐ·Ð°Ñī Ð¸ÑĤ
ĠÐ¼ ÐµÑĢÐµ
ĠÐ¡ÐºÐ¾Ð½Ñĩ Ð°Ð»Ð¸ÑģÑĮ
ĠÐŃ ÑĤÐ°
ĠÐºÐ¾Ð½ÑĨ ÐµÐ½ÑĤ
Ð¸ÑĤÐµÐ»ÑĮ Ð½Ð¾Ðµ
ĠÐ¢ Ð¸Ð¼
ĠÐ¿ÑĢÐ¾ ÐµÐº
ĠÐ½Ðµ Ñĳ
ĠÐľ ÐµÑĤ
ĠÐ³Ð¾ÑĢÐ¾Ð´ ÑģÐºÐ¾Ð¹
ĠÐ¿ÑĢÐ¾Ð¸Ð·Ð²ÐµÐ´ ÐµÐ½Ð¸Ñı
ĠÐľ Ð°Ð³
8 5
ÐµÐ¹ Ð½Ð°
Ġ )
Ð½ Ð¾Ð¿
ĠÐ¿ÑĢÐµÐ´Ð¿Ð¾Ð» Ð¾Ð¶
ĠÐ½Ð°Ñĩ Ð¸Ð½
ĠÑĢÐµÐ¶ Ð¸Ð¼
ĠÐ´ÐµÐ¿ÑĥÑĤ Ð°ÑĤÐ¾Ð²
Ð´ Ð¾Ð¼
Ð°ÑĤÐ° ÑģÑĤÑĢÐ¾
ĠÐ¿ Ð°ÑĤÑĢÐ¸
7 5
Ð³Ð¾ Ðµ
ĠÐ¼Ðµ Ð¶
ĠÐºÑĢÐ° Ñı
ĠÐ½Ð¾Ð² Ð¾Ð¹
ĠÑģÐµÐ¼ ÐµÐ¹
ĠÐŀ ÐºÑĤ
ĠÑĤÐµÑĢ Ð¼
ĠÐ²Ð¾Ðº ÑĢÑĥÐ³
Ð¾Ð¶ Ð´Ðµ
ĠÑģÐ¼ Ð¾Ð³
ĠÐ¿ ÐµÑĩ
un d
ĠÐ¿ Ð¸Ñī
ĠÐ¡ Ð¸
ĠÐ¿ÑĢÐ¸ Ð½Ð¸Ð¼Ð°
ĠÐ¿ÐµÑĢÐµ Ð¼ÐµÐ½
ĠÐ±Ð¾Ð»ÑĮÑĪ Ð¾Ðµ
ĠÑĥÑģÐ¿ ÐµÑĪ
ĠÐº Ð»Ð°Ð´
a b
Ð°Ñħ Ð°
ĠÐ¿ÑĢÐµ ÑģÑĤÑĥÐ¿
ĠÐ¦ Ðļ
Ð½Ð¸ ÐºÐµ
ĠÐ¯ Ð½
ĠÐ¼Ð¾Ð» ÐµÐº
ĠÐŀÐŀ ÐĿ
Ð¾ ÑĢÐµÐ¼
ĠÐ´ ÐµÑĢÐ¶
Ð°Ðº Ð¾Ð½
ĠÐ½Ð°ÑħÐ¾Ð´ ÑıÑĤÑģÑı
Ð°Ð½ Ñģ
Ð½Ð¾ Ð¾Ð±ÑĢÐ°Ð·
ĠÐĹ Ð°Ð²
Ð¾Ð² Ð°ÑĤÑĮ
ĠÐĴÐµÑĢÑħÐ¾Ð² Ð½Ð¾Ð³Ð¾
ĠÑĢÐ°Ð· Ð¼
Ð¶Ð´ Ðµ
ĠÐ¶Ð¸Ð² Ð¾Ð¿Ð¸Ñģ
ĠÐ¾ÑĤÐ½Ð¾ÑģÑıÑĤ ÑģÑı
u b
ĠÐ´Ð¾Ð»Ð»Ð° ÑĢÐ¾Ð²
ĠÐ»Ð°ÑĥÑĢÐµ Ð°ÑĤ
ĠÑĥ ÑģÐ¸
ÑĳÐ½ Ð½Ð¾Ðµ
ĠÐ² ÐµÐ»Ð¸
Ñį ÑĤ
ĠÑĢÐ° ÑģÐº
ĠÐļ Ð°Ð¿
ĠÐ¼Ð°Ð³ Ð½Ð¸ÑĤ
ĠÑĦÐ¾ÑĢ Ð¼Ð°
ĠÐ²Ð¾ÐµÐ½ Ð½ÑĭÑħ
ĠÐ²ÑĭÐ¿Ð¾Ð» Ð½Ñı
Ð°Ð´ Ð¶
ÑĥÐ»ÑĮ Ð¼Ð°Ð½
ÑĤÐ¾ÑĢÐ° Ñı
Ġ195 0
ĠÐ°ÐºÐ°Ð´ÐµÐ¼ Ð¸Ð¸
ĠÑħ ÑĢÐ°Ð½
ĠÐºÐ¾ÑĢ Ð¾Ð»
ĠÐ¿ÑĢÐµ ÑģÑĤ
ĠÐ´Ð²ÑĥÐ¼ Ñı
Ġ194 0
ĠÑĤÑĢÐ° ÐºÑĤ
ĠÐŁÐµÑĤ ÑĢÐ¾Ð²
ĠÐĿÐ¸ Ð¶
ĠÐĵ Ð°
ĠÑģÐ°Ð¼ Ð¾Ð»ÑĳÑĤ
Ð¸Ð½ ÑĮ
Ð¾Ðº Ð¸
ĠÐ½Ð¸ Ð¶Ðµ
ÑĢÐ¸ Ð¿
ĠÐŁ Ð¾Ð±
ĠÐ½Ð°Ñĩ Ð°Ð»Ð¸
ĠÑģÐ¸Ð» Ñĥ
Ðº Ð¾Ð¿
ÑĢÐ°Ð½Ð¸ Ñı
Ð² Ð°Ð»ÑĮ
ĠÐºÑĢÑĥÐ¿ Ð½ÑĭÑħ
ĠÑĢÐ°ÑģÐ¿Ð¾Ð»Ð¾Ð¶ ÐµÐ½
Ñİ Ð¶
ĠÐ²ÑĭÐ± Ð¾ÑĢÐ°Ñħ
ĠÐ·Ð°Ð± Ð¾Ð»ÐµÐ²
Ñĥ Ð½Ð°
Ð´ Ð¸Ðº
ĠÑģÐ¾ Ð¾ÑĢÑĥÐ¶
ĠÐĺÑģÑĤ Ð¾ÑĢÐ¸
Ð°Ð½Ð¸ ÐµÐ¹
ĠÐºÐ¾Ð¼Ð¿ Ð°Ð½Ð¸Ñı
Ð°ÑĤ Ñĥ
Ð¾Ð»Ð¾Ð³ Ð¸ÑĩÐµÑģÐºÐ¸Ðµ
ĠÐł Ð¾ÑģÑĤ
Ð² Ð°Ð½Ð¸Ðµ
ÑĮ ÐµÐ²
Ð· Ð¸Ð¸
ĠÐ¸ÑģÐ¿ Ð¾Ð»
ÑĥÑīÐµ Ð³Ð¾
Ð¾Ð² ÑĭÐ¹
ÐµÑĢÐ° Ð½
ĠÑģÐ¾ÑģÑĤÐ¾Ñı Ð½Ð¸Ñİ
ÑĥÑī Ð¸Ñħ
ĠÑģÐ»Ð°Ð² ÑıÐ½
ĠÐĵÐµÑĢ Ð¾Ð¹
ĠÑģÐ¾Ðº ÑĢÐ°Ñī
ĠÐ¿Ð¾ÑģÑĤ ÐµÐ¿
ĠÐ±Ð¾Ð³ Ð°ÑĤ
Ðº Ð»Ð¸
ÐµÐº Ð¸
ĠÑģÐ¿ ÑĥÑĤ
ĠÐ¿ÐµÑĢÐ² Ð¾Ðµ
Ð³ Ð°Ð½Ð¸
Ðµ Ð¾Ð´
ÑĢÐ¸ Ðº
ĠÐĶ ÐµÐ¼
ĠÑĢ Ð¾Ð»Ð¸
ĠÐ½Ð°Ð¿ÑĢÐ°Ð² Ð»ÐµÐ½Ð¸Ñı
ĠÐ¶ÐµÐ½Ñī Ð¸Ð½
ĠÐ´Ð¸Ð¿Ð»Ð¾Ð¼ Ð°ÑĤ
Ñħ Ð¸
ĠÐ½Ð° Ð³ÑĢÐ°
ĠÐŀÐ± ÑĬ
4 5
ĠÐ¼ Ð¼
ĠÐ¿Ð¾Ð´ Ð°Ð²
ĠÑģÐ»ÐµÐ´ÑĥÑİÑī Ð¸Ðµ
ĠÑĢ Ð¾Ðº
ĠÐ°Ñį ÑĢÐ¾Ð¿
ĠÐ» Ðµ
ÑģÐ¾Ð» ÑİÑĤ
ĠÐ¾ÑĤ Ð¼Ðµ
ĠÐ¢ Ñĥ
Ġ194 4
ĠÐ¾ Ð²
ĠÐļ Ð¾Ð³Ð´Ð°
Ð¸ÑĤÐµÐ»ÑĮ Ð½Ð¾ÑģÑĤÑĮ
Ġd e
ĠÐŁÐ°Ð¼ ÑıÑĤ
ÐºÐ¾Ð² ÑģÐºÐ¸Ð¹
Ð¸ÑĢÐ¾Ð² Ð°ÑĤÑĮ
ĠÑĤÑĢÑĥ Ð´Ð°
ĠÑģÐ¿Ð¾ÑĢ ÑĤÐ¸Ð²
ĠÐĴ Ð¾Ð¹
ĠÐºÐ¾Ð½ÑĨ ÐµÐ¿
ĠÐ°ÑĢÐ¼Ð¸ Ñı
Ð¾ÑĢ Ð¾Ð¼
ĠÐ¢ ÑĢÐ°Ð½
ĠÑĪ Ð²ÐµÐ´
ĠÑģÐ¸Ð»ÑĮ Ð½Ð¾
ĠÑĪÐ°Ñħ Ð¼Ð°ÑĤ
ĠÐ¿ÑĢÐ¸ Ð´
ÑģÑĤÐ² ÑĥÐµÑĤ
Ð½Ð¸ ÐµÐ¼
ĠÐ²Ð¾Ð·Ð¼Ð¾Ð¶ Ð½Ð¾ÑģÑĤÐ¸
ĠÐĿ ÑĮÑİ
ĠÑģÐ¼Ñĭ Ñģ
Ð°Ð½ ÑĤÑĭ
ĠÑĤÐµ Ð¾ÑĢÐµ
ĠÐ¼ÑĥÐ·Ñĭ ÐºÐ°Ð½
Ð¸Ð½ ÑģÐºÐ¸Ñħ
ĠÐł Ñĭ
ĠÐ¿Ð¾Ð´ ÑĢÐ°Ð·
Ð¸ Ð°ÑĤ
Ð¾Ðº Ð¾
ĠÐ» ÐµÑĩ
ĠÐ» ÐµÐ¶
ĠÑĥÐ¿ Ð¾Ð¼Ð¸Ð½Ð°
Ġ Y
ĠÐ¼ Ð¾Ð·
ĠÐ¿ÑĢÐ¸ ÑĤ
ĠÐ²Ñĭ ÑģÑĤÐ°Ð²
Ð² Ð°Ñı
ĠÐ¿Ð¾Ð» ÑĳÑĤ
ĠÐľÐ¾ÑģÐº Ð²Ð°
ĠÑįÐº Ð·
ĠÐŁÐ¾Ñģ Ð»ÐµÐ´
ĠÐ´Ð¾ÑĢÐ¾Ð³ Ð¸
ĠÐ½Ð¸Ðº Ð°Ðº
ÐµÑĤ Ð¾Ð¼
ĠÐŀÑģ Ð¾Ð±
ĠÐ¿ÐµÑĢ ÑģÐ¾Ð½Ð°
ĠXV II
ĠÐŁÐ¾Ð» Ð¸ÑĤ
ĠÐŁÐ¾Ñĩ ÑĳÑĤ
in d
ar d
3 3
ĠÑģÑĥÐ± ÑĬ
Ðº Ð½Ð¾Ð²
ĠÑģÐ¾Ð¾ÑĤÐ²ÐµÑĤ ÑģÑĤÐ²ÐµÐ½Ð½Ð¾
ĠÐ² Ð²
ĠÐº ÑĢÐ°ÑĤ
Ð²Ðµ Ñī
ĠÐļ Ð¸ÑĤÐ°Ð¹
ĠÐ¸Ð· Ð¾Ð±ÑĢÐµÑĤ
ĠÐŀ Ð½Ð°
ÐµÑĢ Ñĥ
ĠÐ¡ Ð»Ð¾Ð²
ĠÐ¾ÑĤÐ½Ð¾ÑĪ ÐµÐ½Ð¸Ð¸
ĠÐĴÐ°Ñģ Ð¸Ð»ÑĮ
ĠÑģÐ² Ñı
ĠÐ²Ð¾Ð· Ð½Ð¸ÐºÐ°
6 5
Ð¾Ð´ Ñĭ
ĠÐº Ð¸Ð»
Ð°Ð½Ð¸Ñı Ñħ
ĠÐŀÐ± ÑĢÐ°Ð·
ĠÐ¾Ð¿ÐµÑĢÐ° ÑĨÐ¸Ð¸
ĠÑģÐ»ÑĥÑĩ Ð°Ð¹
Ð° ÑĨ
ĠÐĺÐ¼ Ð¿ÐµÑĢÐ°
ĠÑģ Ð°Ð¼Ð¸
Ð°Ð½ ÑģÐºÐ¸Ñħ
ĠÐ±Ñĭ ÑģÑĤÑĢÐ¾
ÐĿ Ðļ
Ð³ Ð¾Ð½
ĠÑĢÑĥÑģ ÑģÐºÐ¾Ð¼
ĠÐ¼Ð¸Ð½ Ð¸Ð¼
Ð° ÑģÐº
ĠÐ» Ñĥ
Ð¾Ð» Ñĭ
ĠÐ´ÐµÐ¹ÑģÑĤÐ² Ð¸Ðµ
ĠÐ¼Ð¾Ð´ ÐµÐ»Ð¸
Ð¸ÑĢÑĥ ÐµÑĤ
ĠÐº ÑĢÐµÑģÑĤ
Ð Ļ
ĠÐ¾ÑĤ ÑĢÐ¸ÑĨ
ĠÐºÐ¾Ð¼ Ð¸Ñģ
ĠÐ¾Ð±Ð¾ÑĢ ÑĥÐ´
Ñħ Ð¾Ð²
ÐĹ Ð°
ĠÐĵ Ð¾Ð»
ĠÐºÐ¾ÑĢ Ð¾ÑĤ
ĠÐ² Ð¸Ð½
ĠÐ½Ðµ Ð¿ÑĢÐ¸
Ð²ÐµÐ¹ ÑĨ
Ð¾ Ð¸
ĠÑģÑĤ ÑĢÐµÐ¼
ĠÐ¿ÑĥÑĤ Ðµ
ĠÐ¸Ð½ÑĤÐµÑĢÐµ Ñģ
Ð¾Ð´ Ð½Ñı
ÑĪÐ¸Ñħ ÑģÑı
ĠÐ¾ÑĤÐ½Ð¾Ñģ Ð¸ÑĤÑģÑı
Ð¾ÑĢ ÑıÐ´
ĠÐ²Ñĭ Ð½ÑĥÐ¶Ð´
ĠÐ³ÑĥÐ± ÐµÑĢÐ½
ÑĤÐ¸ÑĩÐµ ÑģÐºÐ¸Ñħ
ĠÐ¿ÑĢÐ¸Ð²Ð¾Ð´ Ð¸ÑĤ
Ð¾ Ñĥ
ĠÐ¶ ÐµÑĢÑĤ
ĠÐ¸ Ð»
ĠÐ¾Ð± Ð¾ÑĢÐ¾Ð½Ñĭ
ĠÐ¾Ð¿Ð¸Ñģ ÑĭÐ²Ð°
ĠÑģÐ»ÑĥÑĩÐ°Ñı Ñħ
ĠÑĢÐµ ÑģÑĥÑĢ
Ñĳ Ð¼Ð°
Ð¸Ñģ Ð¾Ðº
Ð½Ð¸ Ð·
ÐĲ Ð½
ĠÐ¿Ð¾Ð· Ð¸
ĠÐºÐ¾Ð½ÑĤ ÑĢÐ¾Ð»
ÑģÑĤ ÐµÑĢ
ĠÐ¤ ÑĢÐ¸Ð´
ĠÐłÐ° ÑģÐ¿
ĠÐ´ÑĢÑĥÐ³ Ð¸Ð¼
ĠÑģ ÑĥÑīÐµ
ĠXV I
ĠÑĢÐ°Ð´Ð¸ Ð¾
6 4
ĠÐĴ Ð°ÑĢ
Ñį ÑĢ
ĠÐŁÐµÑĤ ÑĢÐ°
ĠÐ¿Ð»Ð¾ÑīÐ°Ð´ ÑĮ
ÑĩÐµ ÑģÐºÐ¸
ĠÐ¸Ð³ ÑĢÐ¾Ðº
ĠÐµÐ² ÑĢÐµÐ¹
Ðĵ Ð£
Ð³ Ð¸Ñı
Ð°Ð· Ð°
ÑĳÑĤ ÑĢ
ĠÐ¼Ð°Ðº ÑģÐ¸Ð¼
Ð°Ð¼ ÐµÐ½ÑĤ
c e
ĠÐ¿Ð¾ Ñı
ÐµÐ² ÑģÐºÐ¸Ð¹
ĠÐľ Ð½Ð¾Ð³
Ð¸Ð² ÑĪÐ¸ÐµÑģÑı
ĠÑģÐµÑĤ Ð¸
Ð² Ð¸Ð»Ð¸
Ð± ÑĢÐ°
ĠÐ¿Ð°Ð¼ ÑıÑĤÐ¸
ĠÐŁ Ð°Ð»
ĠÑĦÐ°Ðº ÑĥÐ»ÑĮÑĤ
ĠÐ·Ð°Ð¿ÑĢÐµ Ñī
ĠÐĺ Ð·Ð²
Ġ194 3
ÑĨ ÐµÐ¼
ĠÑģÐ¾Ð¿ ÑĢÐ¾Ð²
ĠÐ¼Ð°ÑģÑĤ ÐµÑĢ
Ð¾ÑĢÐµ ÑĨ
ĠÐĺÑģÐ¿ Ð°Ð½Ð¸Ð¸
ĠÑĦÑĥÑĤÐ±Ð¾Ð» Ð¸ÑģÑĤ
Ð¼ ÑĥÐ½
ÑĤ ÑĢÐ°
ÑĥÑī Ð¸Ð¹
ÑģÐ¸ ÑģÑĤ
ĠÐ½Ð¾ÑĢ Ð¼
ĠÐ¿ ÑĭÑĤ
Ð¶ Ñĥ
Ð¸Ð½ ÑģÑĤÐ²Ð¾
ĠÐ¿ÑĢÐ¸Ð· Ð½Ð°Ðº
Ñģ ÐµÐ²
ĠÑģ Ð¾Ð³Ð»Ð°Ñģ
ÐµÐ» Ñĳ
Ð» ÐµÑĢÐ°
ÑĦ ÐµÐ´
ĠÐĴ Ð¸ÑĤ
ĠÑħ ÑĢÐ°Ð¼
ĠÐ³Ð¾Ð» Ð¾ÑģÐ¾Ð²
ĠÐĺ Ð»ÑĮ
ÐµÑĢÐµ Ð·
ĠÐ¿Ð¾Ðº ÑĢÑĭ
ĠÐ¿Ð¸ÑģÑĮ Ð¼ÐµÐ½
ĠÐ± ÐµÐ¶
ĠÐ¸Ð· Ð»ÑĥÑĩ
ĠÐ»Ð¸ÑĤÐµÑĢÐ° ÑĤÑĥÑĢÐµ
Ð¾Ð¹ ÑĩÐ¸Ð²
ÑĤ ÑĢÐ¾Ð¿
ĠÐ²Ð¾Ð·Ð´ ÐµÐ¹ÑģÑĤÐ²
Ð² ÐµÐ½
ĠÐ¾ÑĦÐ¸ÑĨÐ¸Ð°Ð»ÑĮ Ð½Ð¾
Ð»ÐµÐ½ Ð½ÑĭÑħ
ĠÐ¼ Ð¸ÑĤ
Ð°ÑĤÐµÐ»ÑĮ Ð½ÑĭÐµ
Ð·Ð° ÑĨÐ¸Ñı
Â» :
ÑĥÑģ Ð»Ð¾Ð²
ĠÐ²Ð¾ÐµÐ½ Ð½ÑĭÐ¹
ĠÐŀÑģÐ½Ð¾Ð² Ð½ÑĭÐµ
ĠÐ´Ð¸Ð½Ð°ÑģÑĤÐ¸ Ð¸
ĠÑĢÐ°Ð±Ð¾ÑĤ Ðµ
Ð¾ ÑĨ
ĠÐ¿ÑĢÐ¸ ÑĪ
ĠÐ·Ð°ÐºÐ¾Ð½ Ð¾Ð´Ð°ÑĤÐµÐ»ÑĮ
ĠÐ³Ð¾Ð² Ð¾ÑĢ
ÑĤÐ¸ ÐºÐµ
Ð¸Ð¼ Ð¾ÑģÑĤÐ¸
Ð¸Ð´ Ñĥ
ÑĤÐµÑĢ Ð½
ĠÑħÐ¾ÑĢÐ¾ÑĪ Ð¾
Ð² Ð°Ð½Ð¸Ñı
Ñī Ð¸Ðº
ĠÐł Ð¸Ñĩ
ĠÐ½ÐµÐ² Ð¾Ð·Ð¼Ð¾Ð¶
ÑĥÑİÑī Ð¸Ð¼
9 5
ĠÐ¿Ð°ÑĢ ÑĤÐ¸
ĠÐ´Ð¸Ð² Ð¸Ð·
Ð» Ð¾ÑĢ
Ġ19 19
ĠÑĪ Ðº
Ġ e
Ð¿Ñĥ ÑģÐº
ĠÐ¿ÑĢÐ¾ÑģÑĤÑĢÐ°Ð½ ÑģÑĤÐ²Ð°
ĠÐ²Ð· Ð³Ð»Ñı
Ð¾ Ñİ
ĠÐ¼Ð¾Ð³ Ð»Ð¸
ĠÑģÐ¾Ð²ÑĢÐµÐ¼ÐµÐ½ Ð½ÑĭÑħ
ĠÐ¾ ÑĦÐ¸ÑĨ
ĠÐ£ Ñĩ
ĠÐ¤Ð¸Ð»Ð¸ Ð¿Ð¿
ĠÐ¿ÑĢÐ¸Ð½Ñı ÑĤÐ¾
Ð¿ Ðµ
ĠÐĽ Ð¸ÑĤ
ĠÐ²Ñģ Ñİ
ÐĲ ÐĿ
ĠÐļ Ð¸ÑĢ
Ð½Ð° Ð·Ð½Ð°Ñĩ
Ð» Ð¸ÑĤ
ĠÐ² Ð½
Ġ9 78
ĠÐ¸ÑģÐ¿Ð¾Ð»ÑĮÐ·Ð¾Ð² Ð°Ð½Ð¸Ðµ
ĠÑĥÐ´ Ð°ÑĢ
ĠÑĥÑĢÐ¾Ð² ÐµÐ½ÑĮ
Ñı Ð½Ðµ
ĠÑĢÐµÐ·ÑĥÐ»ÑĮÑĤ Ð°ÑĤ
ĠÐ´ÐµÐ¼ Ð¾ÐºÑĢÐ°
Ð¼Ð¸ ÑĢÐ°
ĠÑģÑĨÐµÐ½ Ð°ÑĢÐ¸ÑģÑĤ
ĠÑĩ Ð¸ÑĤ
ÑģÑĤ ÐµÐ¹
Ð°ÑĤÐµÐ»ÑĮ ÑģÑĤÐ²Ð¾
ĠÐ·Ð°Ð² Ð¸Ñģ
Ñĩ ÑĮ
ĠÐĺÐ· Ð´
ĠÐ¸Ð· Ð³Ð¾ÑĤÐ¾Ð²
ÑģÐ¸ Ñİ
ĠÐ¿Ð¾Ð´ Ð²ÐµÑĢÐ³
ĠÑı ÑĢ
ĠÐ² Ð²Ð¾Ð´
ĠÑĨ Ð°ÑĢÑı
ĠÑĤÐµÐ» Ðµ
ĠÐ· Ð°ÑĢÑı
Ð°Ð² ÑĪÐ¸Ðµ
ĠÐºÐ¾Ð½Ðº ÑĥÑĢ
u d
ĠÐ¿ Ð°ÑĤ
ÑİÑī ÑĥÑİ
ĠÐ¿Ð¾ÑĤ Ð¾Ð¼Ñĥ
ĠÑĤÐµÐ°ÑĤ ÑĢ
ĠÑĤÑĥÑĢ Ð½Ð¸
ĠÐ¼ Ð»Ð°Ð´
Ð¾Ð² Ð°Ð½Ð¸ÐµÐ¼
ĠÑĥÐ± Ð¸Ð¹
ĠÐ¢ ÑĢÐ¸
ĠÐ¡Ð¾ ÑİÐ·
ĠÑģÑĭ Ð½Ð°
ĠÐ³Ð¾ÑģÑĥÐ´Ð°ÑĢÑģÑĤÐ²ÐµÐ½ Ð½Ð¾Ð¹
ĠÐļÐ°Ð· Ð°Ñħ
ÑĨÐ¸Ð¾Ð½ Ð½Ð°Ñı
ĠÑĢÑĥÐ± Ð»ÐµÐ¹
ĠÐ²Ðº Ð»Ð°Ð´
ĠÐ· Ð°ÑĢ
ĠÐ·Ð°Ð² Ð¾ÐµÐ²
ĠÐ¸ÑģÑĤÐ¾ÑĢÐ¸ Ðº
Ġ193 9
8 9
ĠÐ²ÐµÐº Ð¾Ð²
ĠÐ¿ÑĢÐ¾ÑģÑĤ Ð¾
Ð¸Ð» ÐµÐ¹
Ð¾Ðº ÑģÐ¸
ĠÐ¢ Ð¸Ñħ
ĠÐ¸ÑģÑģÐ»ÐµÐ´Ð¾Ð² Ð°Ð½Ð¸Ð¹
ĠÑģÐ°Ð¼ Ð¾Ð¹
Ð¾Ñħ ÑĢÐ°Ð½
ĠÐ¿ÑĢÐ¸Ñĩ ÑĳÐ¼
3 7
ÑĩÐµ ÑģÐºÐ¾Ð¼
ĠÐĲÐ½ ÑĤÐ¾Ð½
es t
ĠÑģ ÐµÐ¹
Ð¸Ð´ Ð¾Ð²
Ð°Ð´Ð° ÐµÑĤ
ĠÐ¿ÑĢÐ¾ ÐµÐºÑĤÐ°
ĠÑĢÐ°Ðº ÐµÑĤ
ÑĨ Ð°Ð¼
ÑģÑĤÐ² Ð¸Ñı
ĠÑĥÐ± Ð¸ÑĤ
ĠÐºÐ°ÑĤ Ð¾Ð»
Ġ Z
ÐµÐ½ Ð½Ð¾ÑģÑĤÑĮ
ĠÐ¤ Ð¸Ð·
ĠÐ¾Ð±Ð»Ð° Ð´
ĠÐ°Ð²ÑĤÐ¾Ð¼ Ð°ÑĤ
ĠÐĵ ÐµÐ½ÐµÑĢÐ°
Ð² Ð¸ÑĤ
ĠÑģ Ð¸Ð³
Ġ9 0
ĠÐ´ÐµÐ¼ Ð¾Ð½
a v
ĠÑĤÐµÑħÐ½ Ð¾Ð»Ð¾Ð³
ÑĢÐ° Ð´
Ð³ ÑĢÑĥÐ¿Ð¿
Ġ% ),
ĠÐłÐ¾Ð´ Ð¸Ð»Ð¸ÑģÑĮ
ĠÐ½Ð°Ñģ ÑĩÐ¸ÑĤÑĭ
ĠÐŁ Ð¾Ð¿
Ġ194 2
ĠÑģÐµÑĢ ÑĮ
ĠÐ¿ Ð»Ð°Ð²
ĠÐĵ Ð¾Ñģ
Ġ198 8
ĠÐºÐ°Ð¶Ð´ ÑĭÐ¹
ÑĨÐ¸ ÑģÑĤ
ĠÐºÐ¾Ð¼Ð¿ Ð¾Ð½
ĠÑħ Ð¾Ð»
ĠÐµÐ´Ð¸Ð½ Ð¸ÑĨ
Ð°ÑĢÐ¸ Ð¹
Ð¾ ÑİÐ·
ĠÐŁ ÑĳÑĤÑĢ
Ð¿Ð¸Ñģ Ð¸
ĠÐ´ÑĢÐµÐ² Ð½Ðµ
ĠÐ½Ð°ÑĢÐ¾Ð´ Ð°
ĠÑĥÐ¿ÑĢÐ°Ð² Ð»Ñı
i b
Ð¸Ð± Ð¾Ð»ÑĮÑĪ
ÐµÐ½ Ð½
Ð± Ð°ÑĢ
ĠÐ¡ Ð°
3 4
ĠÐľÐ¸Ñħ Ð°Ð¹Ð»Ð¾Ð²
ĠÐ¾ÑĤ Ð¼ÐµÐ½
ĠÐ²ÐºÐ»Ñİ ÑĩÐ°ÐµÑĤ
ĠÑĥ ÐºÐ°Ð·ÑĭÐ²Ð°
Ñĥ ÑģÐºÐ°
Ð² ÑĪÐ¸Ð¹
e w
ĠÐ½Ðµ Ð¾Ð´
ĠÐºÐ½ÑıÐ· Ñı
ĠÐŁÑĢÐ°Ð² Ð¸ÑĤÐµÐ»ÑĮ
ĠÐ¡ ÑĥÐ´
ĠÑģÐ² ÐµÑĢÑħ
Ñĩ Ñĥ
ĠÐ´Ð°Ð½ Ð½ÑĭÐµ
c t
ĠÐ±ÐµÑĢÐµ Ð³Ñĥ
ĠÐŁÐ¾Ñį ÑĤÐ¾Ð¼Ñĥ
ĠÑģ ÐµÐ½
ĠÐ½Ð°Ñĩ Ð°Ð»ÑĮ
ĠÑĤ Ð²ÑĳÑĢ
ĠÑĢÐ°Ð· Ð³
ĠÑıÐ·Ñĭ ÐºÐ°Ñħ
3 2
ÐµÐ½ ÑĨÐ¸
ĠÐ¿ÑĢÐµÐ² ÑĭÑĪ
ĠÐ¾ Ð¶
ĠÐ¾Ð±ÑĬ ÐµÐºÑĤÐ¾Ð²
ĠÐ¿Ð¾ÑģÐ»ÐµÐ´Ð¾Ð² Ð°ÑĤÐµÐ»ÑĮ
Ð´ Ð¸Ð¹
Ðŀ Ð±
ĠÐ¼ÐµÑĤ ÑĢÐ¾Ð²
ĠÐ»Ñİ Ð´
ĠÐ¾ÑĤ ÑģÑĤÐ°Ð²
ĠÐ³ ÑĢÐ°Ð²
ĠÐ²Ñĭ Ð´Ð°
ĠÐķÐ² Ð³
ĠÐ¡ Ð¡Ðł
ÐµÐº Ð¾Ð¼
Ð°Ð´ Ðµ
ĠÐºÐ»Ð°Ñģ ÑģÐ°
ĠÑģÐ¾Ð· Ð½
Ð¾Ñĩ Ð½ÑĭÐµ
ĠÐ¼Ð¾Ð´ ÐµÐ»ÑĮ
ĠÐ¿ÑĢÐ¾ ÑıÐ²
ĠÐ´ÐµÐ¹ÑģÑĤÐ² Ð¸Ð¹
ĠÐ®Ð¶ Ð½Ð¾Ð¹
Ð²Ð° ÑĢÐµ
Ð¼Ð¸ Ñı
Ð¾Ð»ÑĮ ÑĦ
ĠÐ° ÑĢÐµÑģÑĤ
ĠÐ´Ðµ ÑģÑıÑĤ
ĠÑĢÐ°Ð±Ð¾ÑĤ Ð°Ð»
ĠÐ¾ÑĢÐ³ Ð°Ð½
ĠÐºÐ»Ð¸ Ð¼Ð°ÑĤ
Ñı Ð½Ð°
ĠÐ¿ Ð¸ÑĪ
ĠÐ´Ð¾Ð»Ð¶ Ð½Ð¾ÑģÑĤÑĮ
ĠÑĢÐµÐ³Ñĥ Ð»ÑıÑĢ
ĠÑĢÑĥÐºÐ¾Ð²Ð¾Ð´ ÑģÑĤÐ²Ð¾Ð¼
ĠÑĢÐ°Ð· Ð¼ÐµÑī
ĠÐ¡Ð¾Ð² ÑĢÐµÐ¼ÐµÐ½
3 6
Ð°Ð» Ð¸Ñı
ĠÐĴ Ð¸Ð½
ÑģÑĤ ÑĢÐ¸Ð¹
ĠÐ³Ð¸Ð¼ Ð½Ð°
ĠÐĽ Ð¸Ð½
ĠÐĲÐ² Ð³Ñĥ
ĠÐ¾Ð± ÑĢÐ°Ð±Ð¾ÑĤ
Ðº Ð»Ð°Ð´
Ð°Ð¼ ÐµÑĤ
ĠÐ³ ÐµÑĢÐ±
ĠÐĿ Ð¾Ð±ÐµÐ»ÐµÐ²
ĠÐ³ Ð¸Ð±
ĠÐ¡ Ñĭ
8 8
Ñİ Ð½
ĠÐ·Ð°Ð½Ð¸Ð¼Ð° ÐµÑĤ
ĠÐ¸Ð½Ð¸ ÑĨÐ¸
ĠÐĴ Ð¿
Ð¾Ðº Ð¾Ð²
Ð°Ð»ÑĮ Ð½ÑĭÐ¼Ð¸
Ð¾Ð¿ Ð¾Ð»
ĠÑģÐ¾Ð·Ð´ Ð°Ð½
ÐµÐº Ñģ
ĠÐ¿ÑĢÐµ Ð¶Ð´Ðµ
ÐµÐ» ÐµÐ·
Ġ198 7
ĠÐ½Ð°Ð·Ð½Ð°Ñĩ ÐµÐ½
ĠÑģÑĤ ÐµÐ½
ĠÑĤÐµ Ð¾ÑĢÐ¸Ñı
ĠÑįÐºÑģÐ¿ Ð»Ñĥ
ĠÐ¿Ð¾Ð·Ð´ Ð½ÐµÐµ
ÑĢÐµÐ¶ Ð¸ÑģÑģÑĳÑĢ
ĠÑģÑĤ Ð°Ð´
ĠC h
ĠÐ¿ÑĢÐ¾Ð¸Ð·Ð¾ÑĪ Ð»Ð¾
7 6
ĠÐ½Ð° Ð³
ĠÐ²Ð½Ð¸Ð¼ Ð°Ð½Ð¸Ðµ
ĠÐ¿ÑĢÐµÐ¸Ð¼ ÑĥÑīÐµÑģÑĤÐ²ÐµÐ½Ð½Ð¾
ĠÐĿ Ð°Ð³
Ð½Ð°Ñĩ Ð°Ð»Ð°
ĠÐĵÐµ Ð¾ÑĢÐ³
ĠÐ¿ Ð¾ÑĢÐ¾Ð´
ĠÐ¼ÐµÑģÑĤ Ð¾ÑĢ
ÑĦ Ð¾Ð½
ĠÐ¢ Ð¾Ð»
Ð¾ÑĢÐ³ Ð°Ð½Ð¸
ĠÐ²Ð¾Ð·Ð´ÑĥÑħ Ð°
Ð°Ð½ ÑĤÐ¾Ð²
ĠÑĢÐ°Ð· Ð½Ð¾Ð¾Ð±ÑĢÐ°Ð·
ĠÑħ ÑĢÐ°
ĠÐ¾ ÐºÐ°Ð·ÑĭÐ²Ð°
ĠÐ¿ÑĢÐ¸Ñģ Ð²Ð¾
Ð½Ð¸ÐºÐ° Ð¼
ÑĢÐ¸ÑĤ ÐµÐ»ÑĮ
ÐµÐ½ Ð¾Ð¼
ĠÑĢÐ¾ÑģÑģÐ¸Ð¹ ÑģÐºÐ°Ñı
ĠÐ¿Ð¾Ð»Ð¾Ð² Ð¸Ð½Ðµ
Ð» Ð¾Ð´
ĠÐ¿ ÑıÑĤÑĮ
ĠÐ¾ÑĤÐ´ÐµÐ»ÑĮ Ð½ÑĭÑħ
ÑĤÐµ Ñħ
ĠÐ¡ ÐµÐ½
Ð°ÑĢ Ð¼
ÐµÐ½Ð¸Ñı Ð¼
ĠÐ§ ÐµÑħ
ĠÐļÐŁ Ð¡Ð¡
ĠÐĳÐµÐ» Ð¾ÑĢÑĥÑģ
ĠÑĤÐµÐ»ÐµÐ² Ð¸Ð´
ĠÑģÑĤ Ð¾ÑĢ
ĠÐ¸Ð¼ ÐµÐ»Ð¸
ĠÐ¿Ð¾ÑıÐ² Ð¸Ð»Ð¸ÑģÑĮ
ĠÐ²Ð¾Ð¹ÑģÐº Ð°Ð¼Ð¸
ĠÑģÐ¾Ñģ ÐµÐ´
ĠÐºÐ¾Ð½Ðº ÑĢÐµÑĤ
Ð¾ÑĢ Ð´Ð¸Ð½
ĠÐ²Ð¾Ð¹ Ð½Ñĥ
ĠÐ¿Ð¾ÑģÐ»ÐµÐ´ Ð½Ð¸Ðµ
ÐµÐ¼ Ð°
ĠÐ» Ð°Ð³
Ð¸Ð´ Ð¸
ĠÑĢ Ð¾Ð¶Ð´ÐµÐ½Ð¸Ñı
ĠÑģ ÑĢÐ°Ð·Ñĥ
ĠÐ¿ÑĢÐµÐ´ Ð½Ð°Ð·Ð½Ð°Ñĩ
ĠÑģÐ¾Ð³ Ð»Ð°
ĠÐºÐ¾Ð¼Ð¿ÑĮÑİÑĤ ÐµÑĢ
ĠÐ¡ Ð°Ð»
ĠÐ¿ÑĢÐ¸ Ð¾Ð±
ĠÑģÐ¾Ð± Ð¸ÑĢÐ°
ĠÐ¸ÑĤÐ°Ð»ÑĮÑıÐ½ ÑģÐºÐ¸Ð¹
Ð¿ Ð¾Ð²
ÑĳÐ½ Ð½ÑĭÐ¼Ð¸
ĠÐ·Ð°Ðº Ð¾Ð½Ñĩ
ÑıÑī Ð¸Ðµ
ĠÐ´ Ð¸Ñģ
ĠÐ¼ÐµÐ½ÑĮ ÑĪÐµ
ĠÑĤ Ð¾Ð¹
ĠÑģÐ¾Ð» Ð´Ð°ÑĤ
ĠÐ·Ð´ Ð°Ð½Ð¸Ñı
el l
ĠÐĵ Ð°ÑĢ
Ñĥ Ð²Ð°
ÐºÐ¾Ð² ÑģÐºÐ¾Ð³Ð¾
ĠÐ® ÑĢÐ¸Ð¹
ĠÑĨÐµÐ½ÑĤ ÑĢÐµ
Ð¿ ÐµÑĢ
ĠÐ¿Ð¾Ð»ÑĥÑĩ ÐµÐ½Ð¸Ñı
ÑĤÐ¸ÑĩÐµ ÑģÐºÐ¾Ð³Ð¾
ÑĢÐµ ÑĤÑĮ
ĠÐºÐ¾Ð»Ð¸ÑĩÐµ ÑģÑĤÐ²Ð°
ĠÑģÑĤÐ¾ÑĢÐ¾Ð½ Ñĥ
ÐµÐº ÑģÐ¸
ĠÑģÐ¾Ð·Ð´ Ð°Ð½Ð¸Ðµ
ĠÐ·Ð°ÑıÐ² Ð¸Ð»
i k
Ð°Ð½ Ñĥ
ÐŃ Ð¡
ĠÐ¼ Ð¾ÑģÐºÐ¾Ð²
Ð¸Ð´ Ñĭ
Ð¸ÑĢÐ¾Ð² Ð°Ð½
ĠÐ¿ÑĢÐµÐºÑĢÐ° Ñī
ĠÐ¡ÐŁ Ð±
Ð¾Ð³ÑĢÐ° Ð´
ĠÑĥÑĩ ÐµÐ½Ð¸
ĠÑĦ Ð¸Ð»Ð¸
ĠÑģÐµÑĢÑĮ ÑĳÐ·
ÑģÐ¿ Ð¾ÑĢÑĤ
ĠÐ¾Ð±ÑīÐµ Ð³Ð¾
ĠÐĲÐ»ÐµÐºÑģ ÐµÐ¹
ĠÐ²Ð¾Ð·Ð´ ÑĥÑĪ
ÐµÐ» ÐµÐ½
ĠÐ´Ð¾Ð»Ð¶ Ð½Ð°
ĠÐ¼ÑĥÑģ ÑĥÐ»ÑĮÐ¼Ð°Ð½
ĠÐĴ ÐĴ
ĠÐĵ Ð°Ð¹
ÐºÐ¸ Ð¿
ĠÐ¾ÑĢ Ð´ÐµÐ½Ð°
ĠÐ½ Ð¸Ð¼Ð¸
ĠÐ¿ ÑĥÑģÑĤ
ĠÐ¿ÐµÐ² Ð¸ÑĨÐ°
ĠÐ¾Ðº ÐºÑĥÐ¿
ĠÐºÐ¾Ð½ÑĦÐ»Ð¸ ÐºÑĤ
ĠÑģ ÐµÑĢÐ²
Ð¢ Ðŀ
ĠÐ¾ÑĤ ÑĢÐ°Ñģ
ĠÑģÐ¾ÑģÑĤÐ°Ð² Ð°
ĠÐŀ ÑĦÐ¸ÑĨÐ¸Ð°Ð»ÑĮ
ĠÐ¡Ð¾ ÑĨÐ¸
ĠÐ» Ð¸Ðº
ĠÐ² ÑħÐ¾Ð´Ð¸ÑĤ
ĠÑģÑĤ Ð°Ð±
Ð½ÑĥÐ» ÑģÑı
ĠÐ³ ÑĢÐ°Ð½
4 8
Ð»Ð° Ð¼Ð¸
ĠÐľ ÐµÐ½
ĠÐĺÐ·Ð² ÐµÑģÑĤ
ĠÐ´ Ð»Ð¸ÑĤÐµÐ»ÑĮ
ĠÑĢÑĭ Ð½
ĠÐĳÐ¾ÑĢÐ¸ Ñģ
Ð¾Ð½ ÐµÑĩ
ĠÑģÐ¾ÑģÑĤÐ¾Ñı Ð½Ð¸Ðµ
ĠÐĹÐ´ ÐµÑģÑĮ
ĠÐ² ÐµÑĩ
ĠÑģ ÑĥÐ´Ð°
ĠÐ± ÑĥÑĢ
ĠÐ¿ÑĢ Ð¾Ð½
Ð¸ÑĢÐ¾Ð² Ð°Ð½Ð¸Ñı
ĠÑįÐºÐ¾Ð½Ð¾Ð¼ Ð¸ÐºÐ¸
ĠÐ¿Ð¾Ñģ ÐµÑī
Ġ5 00
ĠÑģÐºÐ¾ÑĢ Ð¾ÑģÑĤÑĮ
ĠÑįÐ¿Ð¾Ñħ Ð¸
Ñĩ Ð½Ð°Ñı
ĠÐĳ ÑĢÐ¸ÑĤ
ĠÐ¿Ð¾Ð² ÑĤÐ¾ÑĢ
ĠÐĶ ÐµÑĤ
ĠÐ²Ð¾Ð·ÑĢÐ° ÑģÑĤ
ĠÐ½Ð¸ Ð¶
ĠÐ¾Ð· Ð½Ð°ÑĩÐ°ÐµÑĤ
ÑĤÐ° Ð¹
ĠÐ¥ Ð¾ÑĤÑı
ĠXX I
ĠÐ¸ÑģÐ¿ ÑĭÑĤ
ĠÑĢÑĭ Ð±
Ð¾ÑģÑĤ ÐµÐ¹
ĠÐĶ Ð°Ð»ÑĮ
ĠÑģÑĤÐ°Ð½Ð´ Ð°ÑĢ
ÑĦ Ð¸Ð»ÑĮ
ÑĨÐ¸Ð¾Ð½ Ð½Ð¾
ĠÐ¿ÑĢ Ð¾ÑĢ
ĠÐ» Ð¸ÑĤ
ĠÐ´Ð¾Ð» Ð³
Ð³ Ð¸Ð·
ĠÐĲÐ½Ð´ ÑĢÐµÐ¹
ĠÐº Ð²Ð°Ð´
ĠÐ¾ÑĤ ÑĢÑı
Ġ4 5
ĠÑĥÑĩ Ð¸Ð»Ð¸
ĠÐŀÑĢ Ð´ÐµÐ½
ĠÐ¸Ð½Ð´ Ð¸Ð²
Ðº Ð°ÑĢ
a p
Ð¿ Ð»
ĠÐ¿ÑĢÐ¾ÑĤÑıÐ¶ ÐµÐ½Ð¸Ð¸
Ġ196 8
ĠÑįÐ»ÐµÐ¼ÐµÐ½ÑĤ Ñĭ
9 6
ĠÐ½Ð° Ð¼
ĠÑħ Ð¾ÑĤ
ĠÐºÐ¾Ð½ ÑĦÐµÑĢ
ĠÐŁÑĢÐ¸ Ð¼ÐµÑĢ
ĠÐ¸Ð½ÑĤ ÐµÑĢÐ²
ĠÐ½Ð°Ñĩ Ð°Ð»Ð¾ÑģÑĮ
ÑĢÐ¸ ÑĦ
ĠÐ½Ð°ÑĥÑĩ Ð½Ð¾
Ð³ Ð¾Ð»ÑĮ
ĠV I
ĠÑģÐ¾Ð¿ ÑĢÐ¾ÑĤÐ¸Ð²
Ð¸Ð·Ð°Ð½ ÑĤÐ¸Ð¹
ĠÐ¿ÐµÑģ ÐµÐ½
ĠÐºÐ¾Ð¼Ð¿ Ð»ÐµÐº
ĠÐºÑĢÐ¸ ÑģÑĤÐ°Ð»
Ð½Ñĭ Ð½Ðµ
ĠÐ½Ð°Ð¿Ð¸Ñģ Ð°Ð»
Ġ g
q u
Ð½Ð¸ Ð¼Ð¸
ĠÐ¼Ð¸Ðº ÑĢÐ¾
ĠÐ³ Ð°ÑĢ
Ð½ Ð¾Ð¶
ĠÐ¿ÑĢÐµÐ´ÑģÑĤÐ°Ð² Ð¸ÑĤÐµÐ»ÐµÐ¹
ĠÐ± Ð¾Ñı
ĠÐ°ÐºÑĤÐ¸Ð² Ð½Ð¾
ÐµÐ¼ Ð¾Ðµ
ÐµÐ½ÑĮ Ñİ
ĠÐŃÐº Ð¾Ð½Ð¾Ð¼
ĠÐļ Ð¾ÑģÑĤ
Ð»ÐµÐ½ Ð½ÑĭÐµ
ÑĢÐµ ÑĨ
ĠÐ·Ð°Ð¿ Ð°Ñģ
Ð½Ð¸ÐºÐ° Ñħ
Ġ198 4
ĠÐ°Ð²ÑĤÐ¾Ð¼Ð¾Ð± Ð¸Ð»ÑĮ
ĠÐ¼ Ð³
ĠÐ» ÑĮ
ĠÐłÑĥ ÑģÐ¸
ĠÐ³ ÑĢÑĥÐ·
Ġ197 9
ĠÑĥÑĩÑĳ Ð½ÑĭÐ¹
ĠÐ¤ÑĢÐ¸Ð´ ÑĢÐ¸Ñħ
ÑĢÐ° Ð¼Ð¸
ĠÐŁ Ñĥ
Ð¸Ð¼ Ð¾ÑģÑĤÑĮ
ĠÐ¤Ð¸Ð½ Ð»ÑıÐ½Ð´
ĠÐµ Ð¶ÐµÐ³Ð¾Ð´
ĠÑģ ÑĥÑĤ
Ð¸Ð´ÐµÑĢ Ð»Ð°Ð½Ð´
ĠÐ² ÑģÐºÐ¾ÑĢÐµ
ÐµÐ½ ÑĨÐ¸Ð°Ð»ÑĮ
Ñį Ð»ÑĮ
ĠÐ²ÑĭÐ¿ ÑĥÑī
ĠÐŁ ÑĥÑĤ
ĠÐĽÐµÐ½Ð¸ Ð½Ð°
ĠÐ¶ÑĥÑĢÐ½Ð°Ð» Ð¸ÑģÑĤ
a y
ĠÐĺ Ð¼ÐµÐ½
ĠÐ·Ð´ Ð¾ÑĢÐ¾Ð²
ÑİÑīÐ¸Ð¹ ÑģÑı
8 7
ÑĩÐ° ÑģÑĤÐ¸
ĠÑħ ÑĢÐ¾Ð½
ĠÐºÐ½Ð¸ Ð³Ðµ
ĠÐĴÐ¸Ðº ÑĤÐ¾ÑĢ
ĠÐºÐ¾Ð½ÑĤÑĢ Ð¾Ð»ÑĮ
ĠÐ¿Ð¾Ñģ ÑĢÐµÐ´
Ð»Ð¾ÑĤ ÑĮ
ĠÐ°ÑĢÑħ Ðµ
ĠÐĿÐ°Ñģ ÐµÐ»ÐµÐ½Ð¸Ðµ
Ð¸Ð½ ÐµÐ½ÑĤ
ÑĢÐ¾Ñģ Ð»Ð°Ð²
ĠÐ°Ð± ÑģÐ¾Ð»ÑİÑĤ
ĠÐ²ÑĭÑĪ ÐµÐ»
ĠÐ¡ Ð¾Ð»Ð½
ĠÐ¸ÑģÐ¿Ð¾Ð»ÑĮÐ· ÑĥÑİÑĤ
ĠÐ»Ð¸Ð½ ÐµÐ¹
ĠÑģÐ¾Ð² ÐµÑĤÐ°
ĠÐ¿ÐµÑĢÐ² Ð¾Ð½Ð°Ñĩ
Ð»Ð° Ñħ
Ð¸Ð²Ð° ÑİÑĤÑģÑı
ĠÐºÐ¾Ñģ Ð¼Ð¾Ð½Ð°Ð²
ĠÐ¿ÑĢÐ¾Ð²Ð¾Ð·Ð³ Ð»Ð°ÑĪ
4 4
ĠÐ²ÑĭÑģ Ð¾ÑĤ
Ð°Ñī Ð¸Ñħ
ĠÐ¸Ð½ Ð´Ñĥ
Ġ197 3
ĠÑģÑĤ Ð°
ĠÐ¼Ð¸Ð½ ÑĥÑĤ
ĠÐºÑĢÐ¸ Ð·
ĠÑģÑĤÐ°Ð½Ð´ Ð°ÑĢÑĤ
ĠÑĤÑĢÐ°Ð´Ð¸ ÑĨÐ¸Ð¸
ĠÐ± ÑĥÐ¼Ð°
ĠÐ± Ð°ÑģÑģ
ĠÐ¿ÐµÑģ Ð½Ð¸
ĠÐľÐ½Ð¾Ð³ Ð¸Ðµ
Ð¾Ð² ÐµÑĢ
ĠÐ¿ÐµÑĢÐµ Ð³Ð¾Ð²
Ð³ ÐµÐ½
ĠÑĢÐ°Ñģ ÑħÐ¾Ð´
Ġ197 5
ĠÐ³ÑĥÐ±ÐµÑĢ Ð½Ð¸Ð¸
ĠÑĩÐ° ÑīÐµ
ĠÑģÐ¿ÐµÑĨÐ¸ Ð°Ð»Ð¸ÑģÑĤ
Ñģ Ð»Ð°Ð²
Ð°Ð½Ð¾Ð² Ð°
an t
Ġ198 6
Ð½Ð°Ð´ ÑĨ
ĠÑģÑĤÑĢÐ¾Ð¸ÑĤÐµÐ»ÑĮ ÑģÑĤÐ²Ð°
Ð°ÑĤÐµÐ»ÑĮ ÑģÑĤÐ²Ð°
ĠÑģÐ»Ð¾Ð² Ð°Ð¼
ĠÐ¿ÑĢÐµÐ´Ð¿ÑĢÐ¸ ÑıÑĤÐ¸Ð¹
5 5
ÑĪ Ð¸Ð½
ĠÐ¾Ð´ Ð½Ñĥ
ĠÐ¿Ð¾Ð»Ð¸ÑĤ Ð¸Ðº
ĠÑĥÑĢÐ¾Ð² Ð½Ðµ
ĠÐł Ð°Ñģ
ĠÑĥ Ð»
Ġ193 8
ĠÐ¸Ð½Ð¾ÑģÑĤÑĢÐ°Ð½ Ð½ÑĭÑħ
ĠÑĢÐ°Ð· Ð°
ĠÐ¨ ÑĤ
Ġ w
ĠÐºÐ¾Ð½ÑĨÐµÐ½ÑĤ ÑĢÐ°
Ð· Ð´
ÑĦ Ñĭ
ĠÐ° ÑĦ
ĠÐ¿ Ð¸ÑĤ
. .
ÑģÑĤ Ð°Ð½Ð°
ĠÐĴ ÐµÐ»Ð¸
ĠÑĢÑıÐ´ Ð¾Ð¼
Ð°Ð» Ñĥ
ĠÐ¸Ð½Ð¶ÐµÐ½ ÐµÑĢ
ĠÐº Ð²Ð°ÑĢ
ÐµÑĤ Ð¸Ñı
Ð¾ÑĢÐ¾Ð´ Ð°
ÑĤÐ¸ÑĩÐµ ÑģÐºÐ¸Ðµ
Ð¾ÑĢÑĤÑĥ Ð³
ĠÐĲÐ´ Ð¼Ð¸Ð½Ð¸ÑģÑĤÑĢÐ°
Ð°ÑĤÐµÐ»ÑĮ Ð½Ð¾Ð¹
ĠÐ¿ÑĢÐ¾Ð±Ð»ÐµÐ¼ Ñĭ
Ð½Ð° Ð±
Ġâ ĪĴ
ĠÐŁÐµÑĢÐ² Ð°Ñı
ĠÑģÐ¾Ð» Ð½Ðµ
ĠÐ¸Ð· Ð³
Ð¾Ñħ Ð¾Ð·ÑıÐ¹
ĠÐ¿ÑĢÐµÐ·Ð¸Ð´ÐµÐ½ÑĤ Ð¾Ð¼
ĠÑĥÐ´ Ð°Ð»
ĠÐ¿Ð¾ÑģÑĳÐ» Ð¾Ðº
ĠÐ¾ ÑĨÐµÐ½Ð¸
ĠÐļÐ°Ð» Ð¸Ð½
ĠÐĺÐ¼Ð¿ÐµÑĢÐ° ÑĤÐ¾ÑĢ
Ð¸Ð· Ð½ÐµÑģ
ĠÐ³ Ð¾Ð¼
ĠÐ¿ÑĢÐ°Ð² Ð¸Ð»Ð°
ÑĢÐ¸Ð³ Ð¸Ð½
Ð¼ Ð°Ð½Ð°
ĠÐºÐ¾Ð¼ Ð¼ÑĥÐ½Ð¸
ĠÐ²Ð¾ÐµÐ½ Ð½Ð¾Ð¹
ÐµÑĢ ÑĤÐ°
ĠÐ´ Ð¾Ð²Ð¾Ð»ÑĮ
ĠÑģ ÑĥÑħ
Ġ198 5
ĠÑģÑĢÐ°Ð²Ð½ ÐµÐ½Ð¸Ñİ
Ð½ ÐµÐ½Ð¸Ðµ
ĠÐĴ ÐµÐ½Ð³
ĠÑĢÐµ ÑĦÐ¾ÑĢ
ĠÐ²ÐµÑīÐµ ÑģÑĤÐ²
Ð¾Ð² ÑĭÐ¼
Ð¼Ð¸ ÑĢ
ĠÐĿ ÐµÐ¼
ĠÐ¿ÐµÑĢÐµ Ð¸Ð¼ÐµÐ½Ð¾Ð²
ĠÐ³ÑĢÐ° Ð½Ð¸ÑĨÑĭ
Ñĭ Ð´
ĠÐ¿Ð¾Ð»ÑĥÑĩ Ð¸Ð²
ĠÑİ Ð³Ðµ
ĠÐ³Ðµ Ð¾Ð³ÑĢÐ°ÑĦ
Ð¾Ð¶Ð´ ÐµÐ½Ð¸Ð¸
ĠÑģÐ²ÑıÐ· Ð°Ð½Ð¾
ĠÐ¾Ð±ÑıÐ· Ð°Ð½
ĠÐ§ Ð°
6 6
Ð´ ÐµÑĢ
ÐµÐ½ Ð½ÑĭÐ¼Ð¸
Ġ3 00
ĠÑģÐ¾Ð± Ð¾ÑĢ
ĠÐ´ÐµÐ» Ðµ
ĠÑģÐ¾Ð´ÐµÑĢÐ¶ Ð¸ÑĤ
ĠÐľ Ð¸Ð»
ÑĩÐµ ÑģÐºÑĥÑİ
Ð»Ð°Ñģ ÑģÐ¸
ĠÐ¸ÑģÑĤÐ¾ÑĢÐ¸ Ñı
ĠÐ¿ÑĢÐ¸ÑĢÐ¾Ð´ Ñĭ
ĠÐ·Ð°Ð» Ð¾Ð¶
ĠÑģÐ¾ÑģÑĤÐ¾Ñı Ð½Ð¸Ñı
ĠU n
ĠÐ°Ð²Ð¸ Ð°
ĠÑħÐ°ÑĢÐ°ÐºÑĤÐµÑĢÐ¸ Ð·
ĠÐ·Ð½Ð°Ð¼ ÐµÐ½Ð¸ÑĤ
Ðº Ð¾ÑģÑĤÐ¸
ĠÐ¾ÑģÐ½Ð¾Ð² Ð°Ð½
Ð¸ Ð³Ñĥ
ÑĤÐ¸ÑĩÐµ ÑģÐºÐ°Ñı
ĠÐºÐ¸Ð½Ð¾ ÑĢÐµÐ¶Ð¸ÑģÑģÑĳÑĢ
ĠÐĲ Ð¹
ĠÐ¸Ð½ÑĤ ÐµÐ»
Ġ ;
ĠÐ½Ðµ Ð¿ÑĢÐµ
Ġ196 4
ĠÐ¿Ð¾ÑĢÑıÐ´ ÐºÐ°
Ð³ Ð°Ð½
ĠÐ¿ÑĢÐµÐ´ÑģÑĤÐ°Ð² Ð¸ÑĤÐµÐ»ÑĮ
Ð°Ð² Ð¸
ĠÐ¥ Ð°ÑĢ
ĠÐĲ Ð»Ð¸
ĠÐĹ Ð°ÑĤ
in e
ĠÐ½ÐµÐ¹ ÑĤ
ĠÑģÐ¼Ðµ ÑĪ
ĠÑģ ÐµÑĢÐ¸Ð¸
ĠÐ´ÐµÐºÐ° Ð±ÑĢÐµ
ĠÐ½ÐµÐ¾Ð±ÑħÐ¾Ð´Ð¸Ð¼ Ð¾
ĠÐ±Ðµ ÑģÐº
ÑĤ Ð°Ð½
ĠÑĤÐ°Ðº Ð¾Ð³Ð¾
ĠÐ£ Ð¸Ð»ÑĮ
ĠÐĿÐ° ÑĥÐºÐ°
ĠÐ¨ Ð²Ðµ
Ð»ÐµÐ´ÑģÑĤÐ² Ð¸Ðµ
ĠÑģÐ¿ Ð¾ÑĢÑĤÐ°
ĠÑģÐ¿ Ð¸ÑģÐ¾Ðº
ĠÐļ Ð¾Ñģ
Ġ196 7
ĠÑħÐ¾Ð·ÑıÐ¹ ÑģÑĤÐ²Ð°
ĠÐºÐ° Ð¿
ĠÐ¿ÑĥÑĤ ÑĮ
ĠÑģÐ¾Ñĩ ÐµÑĤ
ĠÑģ Ð»Ð°Ð±
Ġ197 8
Ð»Ð° Ð¹
ĠÑģÑĤ Ð¾Ñı
Ð¸Ð¹ ÑģÐºÐ¸Ð¹
ĠÐĴ ÐµÐ½
ĠÐ¸Ð¼ ÐµÑĤÑĮ
an g
ĠÐ±ÑĥÐ´ ÑĥÑĤ
ĠÐ¾ÐºÑĢÑĥÐ¶ Ð°
ĠÐ¾Ð± Ñĭ
Ġ% )
ĠÐ³Ð¾Ð² Ð¾ÑĢÐ¸ÑĤ
4 7
ÑĢÑı Ð·
ĠÑģÐ¾Ð·Ð´ Ð°Ð²
ĠÑģÑĤ Ð¾Ð»Ð¸
ĠÐľ ÑĥÑħ
ĠÐ± Ð¾Ð¼
ÑĢÐ¾Ð¿ Ð¾Ð»Ð¸ÑĤ
ĠÑģ Ð°Ð´
ĠÐ¾ÑĢÐ³ Ð°Ð½Ð¾Ð²
ĠÐ·Ð°Ð¼ ÐµÑģÑĤ
ĠÐ½ÐµÑģ Ð¼Ð¾ÑĤÑĢÑı
ĠÐĺ ÐµÑĢ
Ġ198 2
ĠÐ´Ð°Ð»ÑĮÐ½ÐµÐ¹ ÑĪÐµÐ¼
3 9
ÑĪ ÐµÐ¼Ñĥ
Ñį ÑĦ
ĠÑĥÐ¿ Ð¾Ð¼Ð¸Ð½
ĠÑĦ ÐµÑģÑĤÐ¸
ĠÐ¸Ð³ ÑĢ
ĠÐ¿Ð¾ÑģÑĤÐµÐ¿ ÐµÐ½Ð½Ð¾
Ð¿ Ð¾Ñĩ
Ñį Ð»ÐµÐºÑĤ
ĠÐ¿ÑĢ Ð¾Ð·
ÑĳÐ½ Ð½Ð¾ÑģÑĤÑĮ
Ġ196 1
Ġ196 5
ĠÐ²ÐµÑģÑĮ Ð¼Ð°
ĠÐŁ ÑĥÑĪ
ĠÐ¤ ÐµÑĢ
ĠÑĦÑĥÐ½Ðº ÑĨÐ¸Ð¾Ð½
ÐµÐ´ Ñĭ
ĠÐł Ð°Ð¹
ĠÑĩÐ°ÑģÑĤ ÐµÐ¹
ĠÐ¾ÑģÐ½Ð¾Ð² Ð½Ð¾Ð¹
ĠÐ¿ÑĢÐ¾ÑĤÐ¸Ð² Ð¾ÑĢÐµ
ĠÐ± ÑĢÐ°ÑĤ
Ġ196 2
ĠÐ½Ðµ Ð³
0 1
Ġ193 7
Ð² Ð¾Ð²
ĠÐĽ Ð°
Ð»Ð¾Ð² Ð°
ĠÐ¼Ð° Ðµ
Ġ197 6
ĠÐ¿ ÑĮ
ĠÐ¾Ð± Ð¼ÐµÐ½
Ð¸ÑĤÐµÐ»ÑĮ Ð½Ð°Ñı
Ġ198 3
3 1
ĠÐº Ð¾Ð»ÑĮ
Ñĩ Ð¸ÐºÐ°
Ð¾Ð¿ Ð°
ÑģÑĤÐ²Ð¾Ð² Ð°Ð»
ĠÐ¾ÑĤÐ½Ð¾ÑĪ ÐµÐ½Ð¸Ð¹
ÑĦÐ¸ÐºÐ° ÑĨÐ¸Ñı
ĠÑĥ Ð´Ð°
Ð°Ð¼ Ð¼
Ð¾ÑĢÐ¸ Ð¸
ĠÐµÐ² ÑĢÐµ
Ðµ Ð¸
Ð»ÑĥÑĩ ÑĪ
ĠÐļ Ð½Ð¸
ĠÑĤÑĢÐµ ÑĥÐ³Ð¾Ð»ÑĮ
ĠÐ¿Ð°ÑĢÐ° Ð¼ÐµÑĤ
Ð¾ÑĤ Ð»Ð°Ð½Ð´
ĠÑģÐ¾ÑģÑĤÐ°Ð²Ð»Ñı ÑİÑĤ
Ð°ÑĤÐµÐ»ÑĮ Ð½ÑĭÐ¹
ĠÐ·Ð°Ð² ÐµÐ´
ĠÑĦÐ»Ð¾ÑĤ Ð°
6 8
ĠÐ¿Ð¾Ð»ÑĥÑĩ Ð¸ÑĤÑĮ
Ð°Ð»Ð¸Ð· Ð¼
Ð³ Ð¾Ð»
ĠÐ¾ÑĤ Ð¼ÐµÑĤ
ĠÐ¢ Ð¾ÑĢ
ĠÐļ ÑĢÑĥÐ¿
ĠÑģÑĤ ÑĢÐ¾Ðº
ĠÑĨ Ð°ÑĢÑĮ
Ð¶Ð´ ÐµÐ½Ð¸Ñı
ĠÑĩÐ»ÐµÐ½ Ñĭ
ĠÐ¡ Ð°ÑĢÐ°
Ñĥ Ð³Ð¸
Ð´ ÐµÐ»ÑĮ
ĠÐĳ ÑĥÐ´
ĠÐķÐ²ÑĢÐ¾Ð¿ ÐµÐ¹
Ð½ ÐµÐ¼Ñĥ
Ð¸ÑĤ Ð°ÑĢ
ĠÐ¿Ð¾Ð»Ð¸ÑĤ Ð¸ÐºÐ¸
ĠÑģÐµÐ² ÐµÑĢÐµ
Ðĺ Ð½
ĠÐ¼Ð¾Ð½ Ð°ÑĢÑħ
ĠÑĤÐ²ÑĳÑĢ Ð´
Ñĳ Ð²Ð°
ÑĢÐµÐ¼ Ñı
ĠÐ¸Ð½ ÑģÑĤÐ¸ÑĤÑĥÑĤÐ°
ĠÐ¼ÐµÑĤÐ°Ð» Ð»
ĠÐ³Ð°Ð· Ð°
Ð» Ð»Ðµ
ĠÐ´ Ð¶
Ð¼Ð° Ð¹
0 5
Ð¾ÑĢ Ð´Ð¶
ĠÐ´Ð¸ ÑĢÐµ
ĠÑģÐµÐ¼ ÑĮÐ¸
ĠÐĴÑģ ÐµÐ¼
ĠÐļ Ð°ÑĤ
ĠÐļ Ð¸ÑĤ
ĠÐ·Ð°Ð¿Ð¸Ñģ Ð¸
Ð¿ Ð°ÑĤ
ĠÑģÐ²ÑıÐ· ÑĮ
ĠÑģÑĤ ÐµÐº
ĠÐµ Ð¹
ĠÐ²Ð¾ÐµÐ½ Ð½Ð¾Ð³Ð¾
Ð· Ñı
ĠÑıÐ·Ñĭ ÐºÐ¸
Ñģ Ð¸Ð½
ĠÐ¿ÑĢÐ¸ Ð²ÐµÐ´
ÑģÑĤÐ¸ Ð¼
ĠÐ³ Ð»Ð°Ñģ
ÑĤÐ¸ Ð²Ð°
ĠÐĳ Ð°Ð¹
ĠÐ·Ð° ÑģÐµÐ´
ĠÐ²ÑĭÑģÐ¾Ðº Ð¾Ð¹
ĠÑģÑĩÐ¸ÑĤ Ð°Ð»
ĠÐ°Ð²ÑĤ Ð¾Ð±ÑĥÑģ
ĠÐ¸Ð¼ ÐµÐ½ÐµÐ¼
ÑĤÐ¸ÑĩÐµ ÑģÐºÐ¸Ð¹
Ġ197 7
ĠÐ¿ÑĢÐ¾Ð³ÑĢÐ°Ð¼ Ð¼Ð¸ÑĢÐ¾Ð²
ĠÑĤ ÑĢ
Ġ196 3
ÐµÐ½ Ð´Ð°
ĠÑģÐ¾Ð²ÐµÑĤ ÑģÐºÐ¾Ð¹
ĠÐ¼ÐµÐ´ Ð¸
ĠÐŁ Ð»
ĠÑģÐ¾ÑģÑĤÐ¾Ñı Ð½Ð¸Ð¸
ĠÑģÑĥÑīÐµÑģÑĤÐ² ÑĥÑİÑĤ
Ð»Ð¸ Ð½Ñĭ
ĠÐ² Ð¸Ð·
ĠÐ± ÐµÐ´
ĠÐŁ Ð¾ÑĤ
ĠÐ¿Ð¾ÑģÐ»ÐµÐ´ Ð½Ð¸Ð¹
8 2
Ð¾Ð´ Ñĥ
ÑĢÐ¾ ÑĪ
ĠÐ¾ ÑĢÐ¸
ĠÑĢÐµ ÐºÐ¾Ð¼
ĠÑģÐ¾ÑĤÑĢÑĥÐ´ Ð½Ð¸ÑĩÐµ
ĠÐ¡ ÐµÐ²
Ð°ÑĢ ÑģÐºÐ¸Ð¹
Ð¾Ð»Ð¾Ð³ Ð¸ÑĩÐµÑģÐºÐ¸Ð¹
ĠÑģÐº Ð»Ð¾Ð½
Ġ197 2
6 7
Ð¾ Ð¾Ð±ÑĢÐ°Ð·
o b
ĠÐĳ Ð°Ð±
ĠÑįÐ½ ÑĨÐ¸ÐºÐ»Ð¾Ð¿ÐµÐ´
ĠÐ¿ÑĢÐ¾Ð¸Ð·Ð²ÐµÐ´ ÐµÐ½Ð¸Ð¹
Ñħ Ð°Ð½
Ð°ÑĤ Ð°Ð»ÑĮ
ĠÐ¿ÑĢÐ¸Ð¼ÐµÐ½ ÐµÐ½Ð¸Ñı
ĠÐ¿Ð°Ð¼ÑıÑĤ Ð½Ð¸Ðº
8 4
ĠÐ¸Ð· Ð¼ÐµÐ½Ð¸
ĠÐ¢ ÑĢÐ°
ĠÐ¼Ð¸Ð»Ð»Ð¸ Ð¾Ð½Ð¾Ð²
ĠÐĵÑĢÐ¸ Ð³Ð¾
0 4
p h
ĠÑģÐ¾Ð²ÑĢÐµÐ¼ÐµÐ½ Ð½Ð¾Ð³Ð¾
ĠÐŁ Ð¾Ð²
ĠÐ¿ÑĢÐµÐ´ ÑĥÑģ
ĠÑıÐ½ Ð²Ð°ÑĢÐµ
ĠÐĶ Ð°Ð²
Ġ197 4
Ġ196 9
ĠÐĺÐ½ ÑĤÐµÑĢ
ĠÐľÐ¾ÑģÐºÐ¾Ð² ÑģÐºÐ¾Ð³Ð¾
ÑĤ Ð¾Ð»
ĠÐ¿ÑĢÐ¸ Ð³
Ð¾Ñĩ Ð½Ð¾Ð¹
ĠÐ¼ Ð°Ð»Ð¾
ĠÐ¸Ð´Ðµ Ð¸
Ðº Ð¾Ð³
Ð¸Ð½ Ð°Ñħ
ĠÐķ ÑīÑĳ
ÑģÑĤÐ¸ÑĩÐµ ÑģÐºÐ¾Ð¹
ĠÑĢÐ°Ð±Ð¾Ñĩ Ð¸Ñħ
ĠÐ± ÐµÑģ
ÐĻ Ð¾ÑĢ
ÑĥÑģ Ð°Ð»
i o
Ð¾Ð± Ð»Ð°
ar t
ĠÐľÐ¸Ð½Ð¸ÑģÑĤ ÐµÑĢ
ĠÑģÐ¾ÑģÑĤÐ°Ð² Ð¸Ð»
Ġ194 6
ĠÑĤÐµÑĢÑĢÐ¸ÑĤÐ¾ÑĢÐ¸ Ñİ
ĠÐ¸Ð·Ð²ÐµÑģÑĤ Ð½Ð¾
ĠÐŁ Ð¾ÑĢÑĤÑĥÐ³
ĠÐ¿Ð¾Ð¼ Ð¾Ð³
Ġ198 1
ĠÐ³Ð¸Ð¿ Ð¾ÑĤ
Ð¾ÑģÑĤ Ð¾ÐºÐ°
ĠÐ¾ÑģÑĤ Ð°Ð½Ð¾Ð²
ĠÐŁÐµÑĢÐ² ÑĭÐµ
ĠÐ± Ð¾Ð¶Ðµ
ĠÐ½Ð°Ñĩ Ð°Ð»Ð°ÑģÑĮ
ĠÑģÐ°Ð¼ Ð¾Ð¼
ĠÐ¾Ð¿ÑĢÐµÐ´ÐµÐ» ÐµÐ½Ð¸Ñı
ĠÐ´Ð¾ÑģÑĤÐ¸ Ð³Ð°
ĠÐ¸ÑģÐ¿Ð¾Ð»ÑĮÐ· Ñĥ
ĠÐ·Ð°Ð²Ð¸Ñģ Ð¸ÑĤ
Ð¸Ð· Ð°ÑĨÐ¸Ð¸
ÑģÑĤ Ð¸Ð½
ĠÑģ ÐµÑģÑĤ
ĠÐ¿ÑĢÐµÐ´Ð¿ÑĢÐ¸ ÑıÑĤÐ¸Ñı
ĠÐ¼ÐµÑģÑı ÑĨÐµÐ²
ĠÐ¿Ð¾Ð»Ð½Ð¾Ð¼ Ð¾Ñĩ
ĠÐ²Ð¸Ð´ Ñĭ
ĠÐ¾ÑĢÑĥÐ¶ Ð¸Ñı
Ð»ÑĮ Ð½Ð¾Ð³Ð¾
ÐĶ Ðł
ÑĢÐ°ÑĤ Ð½Ð¾
ĠÐ·Ð½Ð°Ðº Ð¾Ð¼
Ð± Ð¾Ð¹
ĠÑĥ ÑģÑĤÑĥÐ¿
ĠÐ¾ÑĤ ÑĨÐ°
ĠÐ·Ð´ Ð°Ð½Ð¸Ðµ
ĠÑģÐ¾Ð±Ñĭ ÑĤÐ¸Ð¹
ĠÐĽÐµÐ½Ð¸Ð½ Ð³ÑĢÐ°Ð´
8 3
Ð°ÑĤÐµÐ»ÑĮ Ð½Ð¾Ð³Ð¾
ĠÐ§ ÐµÑĢÐµÐ·
ĠÐºÑĢÐ¾Ð² Ð¸
ĠÐ½ÐµÐ¸Ð· Ð²ÐµÑģÑĤ
ĠÐ¿ÑĢÐ¾ ÑħÐ¾Ð´Ð¸ÑĤ
ÐĲ ÑĢ
Ð²Ð¸ Ð»Ð°ÑģÑĮ
ĠÐ¾ÑģÐ½Ð¾Ð² Ð½ÑĭÐµ
ĠÑĢÐ°ÑģÐ¿Ð¾Ð»Ð¾Ð¶ ÐµÐ½Ñĭ
ĠÐ¿Ð°ÑĢÐ° Ð»Ð»
ĠÐ¿ÑĢÐ¸Ð² ÐµÐ»Ð¾
ĠÐ±Ð¾ÑĢÑĮ Ð±Ñĭ
ĠÑĢÐ°Ð¹ Ð¾Ð½Ð¾Ð²
Ġ197 1
ĠÑģÐ»ÑĥÐ¶ Ð±Ñĭ
ĠÐ¾Ð± ÑģÐ»ÑĥÐ¶
Ð½Ðµ Ð¿
Ġ195 7
ĠÐŁÐ¾Ð¼ Ð¸Ð¼Ð¾
ĠÑĥ Ð»ÑĥÑĩÑĪ
ĠÐ±Ð°Ð· Ðµ
ĠÐĳÐ¸ Ð¾Ð³ÑĢÐ°ÑĦÐ¸Ñı
ÑĢ Ð¾Ð³Ð¾
ĠÐ³ Ð¾Ð½
ĠÑĢÐ°Ð· Ð²ÐµÐ´
ĠÐ·ÐµÐ¼ Ð»Ñı
ĠR e
Ġ196 6
ĠÐ¿ÑĢÐµÐ² ÑĢÐ°Ñī
ÐºÐ¸Ð¿ Ð°Ð¶
ĠÐĺ ÑĢ
Ð°Ð»Ð¸Ð· Ð¼Ð°
ÑģÐºÐ° Ð·ÑĭÐ²
ĠÐĲÐ² ÑģÑĤÑĢÐ°
ĠÐŁÐ°Ð² ÐµÐ»
ĠÐ¾ÑĢÐ³Ð°Ð½Ð¸ Ð·
ĠÐ½ÐµÐ·Ð°Ð²Ð¸ÑģÐ¸Ð¼ Ð¾ÑģÑĤÑĮ
Ð°ÑĢÐ¸ Ð½
ĠÐºÐ¾ÑĢÐ°Ð± Ð»Ñı
0 3
ĠÑģ Ð°Ð½
ĠÑħ Ð°Ð½
ÑĩÐ¸ ÐºÐ¾Ð²
ĠÐ´Ð¾Ð²Ð¾Ð»ÑĮ Ð½Ð¾
ĠÐĴ Ð¼Ðµ
ĠÑĥÑĤÐ²ÐµÑĢ Ð¶
ĠÑģÑĢÐµÐ´ Ñĭ
ĠÑįÐ»ÐµÐºÑĤ ÑĢÐ¾
ÑĪÐµÐ¹ ÑģÑı
ĠÐ±ÑĢÐ° ÑĤÑĮ
ĠÑĤ ÐµÑĢÐ°
ĠÐ´ÑĢÑĥÐ³ Ð°
ĠÐºÐ¾Ð» ÐµÐ±
ĠÑģ Ð¾Ð¼
Ð³ ÐµÑĢ
ĠÐº Ð»Ñİ
ĠÐ¾Ðº ÑĢÐ°
Ġ192 2
ĠÐŁÐµÑĤ ÐµÑĢÐ±ÑĥÑĢÐ³
Ð¾Ð² ÑģÐºÐ¸Ð¹
ÑĢÐµ Ñĩ
ÑĢÑĥ Ñĩ
ĠÐ°Ð²Ð³Ñĥ ÑģÑĤÐµ
7 4
ĠÐ¢ Ð°Ð¼
ĠÐ¿Ð¾Ñģ ÐµÑĤ
ĠÑĤÐµÐ» ÐµÑĦ
ĠÐ¾ÑĢÐ³Ð°Ð½Ð¸Ð·Ð° ÑĨÐ¸Ð¹
ÑĢ Ð¾Ð³ÑĢÐ°Ð¼
ĠÑģÐ°Ð¼ ÑĭÐ¹
Ð»Ñİ Ð´
ĠÑĤÐµÐ¼Ð¿ÐµÑĢÐ° ÑĤÑĥÑĢÑĭ
ĠÐ¿Ð¾Ð» Ð°Ð³
ĠÐ°Ð½Ð°Ð»Ð¾Ð³ Ð¸Ñĩ
ĠÐ¸Ð¼Ðµ ÐµÑĤÑģÑı
ĠÐºÐ¸Ð» Ð¾Ð¼ÐµÑĤ
en s
Ð»Ð° Ðº
ÑĥÐ¿ ÑĢÐ°Ð²
ĠÑĦÐ°Ðº ÑĤÐ¸ÑĩÐµÑģÐºÐ¸
ĠÐ¼ÐµÐ½ Ñı
ĠÐ²Ð¾Ð·Ð½Ð¸Ðº Ð½Ð¾Ð²
ĠÑĦ Ð°Ð±ÑĢÐ¸
ĠÑħ Ð¾Ð»Ð¾Ð´
ÑĢÐ¸ Ð¶
ÑĪÐµ ÑģÑĤÐ²ÐµÐ½
ĠÑģÐµÐ½ÑĤ ÑıÐ±ÑĢÐµ
ĠÐĲÐ· ÐµÑĢÐ±Ð°Ð¹Ð´Ð¶
ĠÐ²ÑĭÐ±Ð¾ÑĢ Ñĭ
ÑģÐº Ð¾ÑħÐ¾Ð·ÑıÐ¹
ĠÐ´ Ð¾ÑĩÑĮ
Ð»Ð¸ Ð²Ð°
ĠÐ·Ð°Ñī Ð¸ÑĤÑĭ
ĠÐ± Ð»Ð°
9 7
Ġ1 000
Ð³Ð¾ ÑĢÐ¸ÑĤ
ĠÐ¾Ð¿ Ð¿Ð¾Ð·
Ġ195 8
ĠÑģÐºÐ¾ÑĢ Ð¾ÑģÑĤÐ¸
ĠÐ»ÑİÐ± Ð¾Ð¹
ĠÐĿÐ°Ñĩ Ð°Ð»Ð¾
ĠÐº Ð²
ĠÐļÑĢÐ°Ñģ Ð½Ð¾
ĠÐĹÐ°Ð¿Ð°Ð´ Ð½Ð¾Ð¹
ÑĢÐµÐ³ Ð¸ÑģÑĤ
ĠÐľ Ð°ÑĢÑĤ
ĠÐ¼Ð°ÑĢ ÑĤÐµ
ĠÐ¢ Ð°Ð¹
ĠÐ¿Ð¾Ð»Ð¸ÑĤ Ð¸ÑĩÐµÑģÐºÐ¸Ð¹
ĠÑĥÐ¿ÑĢÐ°Ð² Ð»ÐµÐ½Ð¸Ðµ
i f
ĠÐº Ð°Ð´
ĠÐ²ÑĤÐ¾ÑĢ Ð¾Ð³Ð¾
ĠÐ¾ ÑĢÐ¸Ð³Ð¸Ð½
Ð¼ÐµÑĢ ÑĪÐ¸Ðµ
ĠÐĺÐ½Ð´ Ð¸Ð¸
ĠÐĳÐ¾Ð»ÑĮÑĪ Ð¸Ð½ÑģÑĤÐ²Ð¾
or d
Ġ192 1
ĠÐľÐ°ÑĢÐ¸ Ñı
ĠÐºÐ¸Ñģ Ð»
ĠÐ¿ÑĢÐµÐ´ÑģÐµÐ´ Ð°ÑĤÐµÐ»ÑĮ
ĠÐĴÐ°ÑģÐ¸ Ð»Ð¸Ð¹
ÑĢÐ° ÑģÑĤ
Ġ195 6
ĠÑģÐ½Ð¸ Ð¶
ĠÐ½ÐµÐ¿Ð¾ÑģÑĢÐµÐ´ ÑģÑĤÐ²ÐµÐ½Ð½Ð¾
Ð¾ÑģÑĤ Ð¾Ñı
Ð¼Ð¾ÑĤ ÑĢ
ĠÑģÐµÐ³ Ð¾Ð´Ð½Ñı
Ð°Ð² Ð¸Ð»
ĠÑĢÑĥ Ðº
ĠÐºÐ¾Ð¼Ð°Ð½Ð´ Ñĭ
Ñİ ÑģÐµÑĢ
ÑĥÑİÑī ÐµÐ¹
ĠÐºÐ¾ÑĢÐ¿ ÑĥÑģ
ĠÑģÐ¸Ð½ ÑĤÐµÐ·
ĠÐ½Ð°Ð· Ð°Ð´
ĠÐ·Ð°Ðº ÑĢÐµÐ¿
ĠÑĦ Ð°Ð½ÑĤÐ°
ĠÑģÑĢÐµÐ´ Ð½ÐµÐ²ÐµÐº
ĠÐ³Ðµ Ð¾Ð¼ÐµÑĤ
ÑĢÐ¸ Ð¼
Ð¾Ð»Ð¾Ð³ Ð¸ÑĩÐµÑģÐºÐ¾Ð¹
ĠÑĩÐ°ÑģÑĤÐ¸ ÑĨ
ĠÐ¿Ð¾Ð½ ÑıÑĤÐ¸Ðµ
ĠÐĶÐ¼Ð¸ÑĤ ÑĢÐ¸Ð¹
Ð¾ÑĤ Ð²
Ð¾ÑģÑĤ ÑĢÐ¾
Ð¸Ð² Ð°Ð»Ð¸
Ð¿Ð¾Ð» Ðµ
ĠÐ¾ÐºÑĤ ÑıÐ±ÑĢÐµ
ĠÐĿÐ¸ÐºÐ¾Ð» Ð°Ñı
ĠÐ¿ÑĢÐµÑģÑĤ Ð¾Ð»
ĠÐļ ÑĥÐ·
ĠÐ¿Ð¾ÑģÑĤÐ¾ÑıÐ½ Ð½Ð¾
ĠÐ´ÑĢÐ°Ð¼Ð°ÑĤ ÑĥÑĢÐ³
ĠÐĴ Ð¾Ñģ
ÐµÐ² ÑĭÑħ
ĠÑĦ Ð°Ð¼Ð¸
Ġ192 9
ĠÐ²Ð¾Ð» Ð½Ñĭ
ĠÐ·Ð² ÑĳÐ·Ð´
ĠÐºÐ¾ Ð¾ÑĢÐ´Ð¸Ð½
ĠÐ²Ð¿ Ð»Ð¾ÑĤÑĮ
Ñı Ð»Ð°
Ð°ÑĤ Ð¾ÑĢÐ¾Ð²
ĠÐ¦ ÐµÐ·
ĠÑį Ð¼Ð¸
ĠÐ¼Ð°Ñģ Ñģ
Ð± ÐµÐ»
ĠÐļ Ñĥ
ĠÐ¿ÑĢÐ¾ ÑıÐ²Ð»Ñı
ĠÐ¸ÑģÐ¿ Ð¾Ð»Ð½Ð¸ÑĤÐµÐ»ÑĮ
ĠÐĴÑģÐµÐ¼ Ð¸ÑĢ
Ġ h
ĠÐ¿ÑĢÐµÐ´Ð»Ð¾Ð¶ Ð¸Ð»
ĠÐŁ Ð¾Ð·
Ð²Ð° Ð¹
ĠÑģÐ¾ Ð¾Ð±ÑīÐµ
ĠÑģÐ²Ð¾ Ð¸Ð¼Ð¸
ÑĥÐ¼ Ð°Ð½
ĠÐŀ ÐĲÐŀ
ÑĤÑĥ ÑĢÑĥ
ĠÐ¾ÑģÑĤÑĢÐ¾Ð² Ð¾Ð²
ĠÐĺÐ²Ð°Ð½Ð¾Ð² Ð¸Ñĩ
ĠÐ±Ñİ Ð´Ð¶
ÐµÐ½ Ð½ÑĥÑİ
ĠÐĶ Ð¾ÑģÑĤ
ĠÐ¿ Ð»ÐµÐ½
ĠÐ¡ Ñĥ
ĠÐ¿ÑĢÐ¸ Ð»Ð¾Ð¶
ĠÐ¿ÑĢÐµÐ´ÑģÑĤÐ°Ð² Ð»ÐµÐ½Ð¸Ñı
ĠA n
ĠÐĳÐµÑĢ Ð»Ð¸Ð½
Ġ193 6
ĠÐ´Ð¾Ð»Ð¶ Ð½Ð¾ÑģÑĤÐ¸
ÐµÐ½ ÑģÐºÐ¾Ð³Ð¾
Ð¸Ð½ ÑģÐºÐ¸Ðµ
Ġ193 4
Ð¾Ð² Ð°Ð»Ð¸
ĠÑģ Ð½Ð¾Ð²Ð°
e b
ĠÐ²ÑĢÐµÐ¼ ÑĳÐ½
ĠÐ·Ð°Ð¼ ÐµÐ½
ĠÑģÑĭ Ð³ÑĢÐ°
Ð° ÑĳÑĤÑģÑı
ĠÐĳ Ð»Ð°Ð³
Ð»Ð¸ ÑĪ
ĠÐľÑĥÐ· ÐµÐ¹
ĠÐ¿Ð¸Ñģ Ð°ÑĤÐµÐ»Ñı
ĠÐĵÑĢÑĥÐ· Ð¸Ð¸
Ð° Ð·Ñĭ
ĠÐ½Ð¸Ðº Ð¾Ð³Ð´Ð°
6 2
7 2
8 1
ĠÐ°ÑĢ Ð³
Ð°Ð½ ÑģÐºÐ¸Ðµ
ĠÐ½Ð° ÑģÑĤ
Ñģ Ð²
ĠÐł Ð°Ð½
ĠÐ¿ÐµÑĢÐµ ÑģÐµ
ĠÐĿÐ¾Ð² Ð¾Ñģ
ĠÐ¿ÑĢÐ¾ÑĦÐµÑģÑģ Ð¾ÑĢ
ĠÐĶÐ¶ Ð¾ÑĢÐ´Ð¶
ĠÐŀÐŀ Ðŀ
0 2
ĠÐ¾ÑĢÐ³Ð°Ð½Ð¸Ð·Ð° ÑĨÐ¸Ñı
ĠÐļÐ¾ÑĢ Ð¾Ð»ÐµÐ²
ĠÐĵÑĢÐ° Ð¶Ð´Ð°Ð½
Ðº Ð¾ÑģÑĤÑĮ
ĠÐļ Ð¾ÑĢÐµ
ĠÐļ Ð¸ÑĤÐ°
ĠÐ¾ÑģÑĤÑĢÐ¾Ð² Ðµ
ĠÐº Ð»Ð¸Ð½
ĠÐ±Ð¾Ð»ÑĮÑĪ Ð¸Ñħ
ĠÑĤÐµÑħ Ð½Ð¸ÐºÐ¸
9 4
ÑĢÐµ Ð·Ð²
ĠÑĦ Ð¸Ð³
ĠÐĳ ÑĥÑĢ
it y
ĠÐº Ð°Ñģ
ĠÐ¿ÑĢÐ¾ÑĨÐµÑģ ÑģÐµ
ĠÑĨ Ð²ÐµÑĤÐ°
ĠÐ¼Ð°Ñģ ÑģÑĭ
Ð¾Ðº Ð¾Ð¹
Ġ192 5
ÑģÐº Ð¾ÑĢ
ĠÐ²Ð¾Ð·ÑĢÐ° ÑģÑĤÐµ
ÑĢÐµ Ð»
ÑĢÑĥ ÑİÑĤ
Ðł Ð¾Ð´
ĠÐŁÐµÑĢÐ² Ð¾Ð¹
ĠÐ± Ð¸Ð·Ð½ÐµÑģ
ĠÑĤ ÑĢÐµÐ½
ĠÐ´Ð°Ð» ÐµÐµ
ÑĨ Ð¾Ð¼
ĠÐļ ÑĢÐ°
ĠÐºÐ°Ð¶Ð´ Ð¾Ð³Ð¾
ÐµÑħ Ð°Ð»
ĠÐ¸Ð·Ð²ÐµÑģÑĤ Ð½ÑĭÐ¹
Ñĭ Ð»
ĠÐ·Ð° ÑģÐ»ÑĥÐ¶
ĠÑģÐ¼ÐµÑĢ ÑĤÑĮ
6 3
7 1
Ðº Ð°Ðº
r an
Î ±
Ð² Ð¾Ð»ÑĮ
ÑĢÐ¾Ð²Ð°Ð½ Ð½ÑĭÑħ
ĠÑĩÐ»ÐµÐ½ Ð¾Ð¼
ĠÐ¿Ð°ÑĤÑĢÐ¸ Ð°ÑĢÑħ
ÐµÐ½Ð¸ Ð½
ĠÐ¡ ÐµÑĢ
ÑĥÑİ ÑīÐµÐµ
Ð°Ð² ÑĪÐ°Ñı
ÑĢÐ¾Ð¼ ÑĭÑĪÐ»ÐµÐ½
i an
Ð¾ ÑħÐ¾Ð´
ĠÑģÐ¿ Ð°Ñģ
ĠÐºÐ¾Ð»Ð»ÐµÐº ÑĤÐ¸Ð²
Ð± Ð½
ĠÐ£ Ð½Ð¸
ÑĪÐµ Ð³Ð¾ÑģÑı
ĠÐºÐ½Ð¸ Ð³Ð°
ĠÐ¦ÐµÑĢ ÐºÐ¾Ð²
ĠÐ±Ð¾Ð»ÑĮÑĪ ÑĥÑİ
ĠÑĩÐµÑĤ Ð²ÑĳÑĢ
X V
ÑĪ ÑĤÐ°Ð±
ÐºÑĢÐ° ÑĤ
ĠÐ²ÑĢÐµÐ¼ ÐµÐ½ÐµÐ¼
ĠÐĲÐ½ ÑĤ
ĠÐ½ÐµÐ·Ð°Ð²Ð¸ÑģÐ¸Ð¼ Ð¾ÑģÑĤÐ¸
ĠÑģ Ð¼ÐµÐ½
ĠÐº Ð¾Ð¶
ĠÐ±Ð¾Ð»ÑĮÑĪ ÐµÐ¹
ĠÐ¯ ÑĢÐ¾ÑģÐ»Ð°Ð²
ĠÐ¿ÐµÐ² ÐµÑĨ
ĠÐĲÐ¼ÐµÑĢÐ¸ ÐºÐ¸
ĠÐ§ Ð¸Ñģ
Ðº Ð»Ð°
ĠÐ¡ Ð¸Ð±
ĠÐ½Ð°ÑĥÑĩ Ð½ÑĭÑħ
ĠÐ¿ÑĥÐ±Ð»Ð¸ ÐºÐ°
9 8
ÑıÑī Ð¸Ð¹
ĠÐ¿ÑĢÐ¸Ð¼ÐµÐ½ ÐµÐ½Ð¸Ðµ
ĠÐŃ Ð´Ñĥ
ĠÐ¿ÐµÑĢÐ² Ð¾Ð¼
ĠÐ¸Ð· Ð´ÐµÐ»
ÐµÑħ Ð½Ð¸ÑĩÐµ
ĠÑģÑĥÑīÐµÑģÑĤÐ² Ð¾Ð²Ð°Ð½Ð¸Ñı
ĠÑĦÑĥÐ½Ðº ÑĨÐ¸Ð¹
Ð»ÑĮ Ð½ÑĭÐ¹
Ð°Ð¹ Ð½
ĠÐŀ Ð»Ð¸Ð¼Ð¿Ð¸Ð¹
ĠÐŁ Ð¾Ðº
ĠÐ¿Ð¾Ñģ Ð»
ĠÐŀÐ± ÑīÐµ
ĠÑģ ÐµÐ»
ĠÐŁ Ð»Ð°ÑĤ
ĠÐ¿Ð¾Ð»Ð¸ÑĤ Ð¸ÑĩÐµÑģÐºÐ¾Ð¹
al l
ĠÐ»ÐµÐ³ ÐºÐ¾
Ð±Ð¸ ÑīÐµ
ĠÐ½Ð° ÑĨÐ¸Ð¾Ð½
ĠÐŁ Ð°ÑĢÐ°
ĠÐ¿ÐµÑĢÐµ Ð²Ð¾Ð·
ÑĤÐµÑĢ ÑĢÐ¸ÑĤÐ¾ÑĢÐ¸
ÑģÑĤÐ²ÐµÐ½ Ð½ÑĥÑİ
Ð¸ ÑĨÐ¸Ñı
Ñĥ ÑĢÐµ
Ð² Ð°ÑĤÑĭ
ĠÐ» Ð°Ð±
ÐµÐ½ ÑģÐºÐ¾Ð¹
Ð½Ð¸ Ð»
ĠÐ¾Ð± ÑĥÑģÐ»Ð¾Ð²
ĠÑĥÑģ Ð¸Ð»
ĠÐ³Ð¾ÑĢÐ¾Ð´ Ð°Ñħ
5 4
Ñģ ÐµÐ¹
Ð¿ÑĢÐµ Ñģ
ĠÐºÐ¾Ð½ÑĨ Ñĥ
ĠÑĥÐ´ Ð¾Ð±
Ðµ Ð³Ð¾
9 2
ĠÐ³ Ð¾ÑĢÐ¸
ÐµÐº Ð¾
Ġ195 9
Ð± ÑĥÐ´
Ð¿Ð¸Ñģ Ð¾Ðº
ĠÐĳ Ð°ÑĪ
ĠÐ·Ð° ÑģÐ»
Ð¾Ñĩ Ð½ÑĭÐ¹
Ð²Ð¸ Ð³Ð°
ĠÑĥÑģÑĤ Ð°Ð½Ð°Ð²
ĠÐ²Ð¾ÑģÑģÑĤ Ð°Ð½Ð¸Ðµ
Ð³ÑĢÐ° ÑĦ
ĠÐ¿ÐµÑĢÐµÐ´Ð° ÑĩÐ¸
ĠÐ´ÐµÐ» Ð¾
ÑĭÑĩ Ð°Ð¹
ĠÐ¿Ð»Ð°Ð½Ð¸ ÑĢÐ¾Ð²
ÑĢÐµÐ·Ð² ÑĭÑĩÐ°Ð¹
ĠÐº Ð¸ÑĢ
Ð»Ñı ÑİÑĤ
ĠÐ¸Ð·Ð²ÐµÑģÑĤ Ð½ÑĭÑħ
ĠÐĵÐ¾ÑĢÐ¾Ð´ Ð°
e x
Ð¸ÑĢÑĥ ÐµÑĤÑģÑı
ĠÐ´Ð° ÑĳÑĤ
ĠÐ±Ð¸Ð±Ð»Ð¸Ð¾ÑĤ ÐµÐºÐ°
ĠÐ¾Ð±ÑĬÑıÑģ Ð½Ñı
ÐµÐ¼ ÑĭÐ¼
Ġ192 6
ĠÐĴÐµÐ»Ð¸Ðº Ð¾Ð³Ð¾
ĠÑįÐºÑģÐ¿Ð»Ñĥ Ð°ÑĤÐ°
ĠÐŁ Ð°Ð¿
ĠÐ¿ÐµÑĢÐµ Ñģ
ĠÑģ ÑħÐ¾Ð´
ÑĩÐµ ÑģÐºÐ¸Ð¼Ð¸
ĠÐĴÐ»Ð°Ð´Ð¸Ð¼Ð¸ ÑĢÐ°
Ð½Ð¾Ð¼ Ð¾ÑĢ
ĠÐ½ÐµÐ¿ÑĢÐµ ÑĢÑĭÐ²
ĠÐ ©
Ð¾Ð½ Ð¸
ĠÐ¾Ð±ÑĬ ÐµÐºÑĤÐ°
ĠÑĢÐ¾ÑģÑģÐ¸Ð¹ ÑģÐºÐ¸Ñħ
ĠÐ°Ð¿ÑĢÐµ Ð»Ðµ
ĠÐĸ ÑĥÐºÐ¾Ð²
ĠÑģ Ð´
ÐµÐ¼ Ð¾ÑĢÐ¸
ĠÐĽ ÐµÐ¹
ĠÑģÐ¾Ð·Ð´ Ð°Ð½Ð¸Ð¸
ĠÐ¼Ð½Ð¾Ð¶Ðµ ÑģÑĤÐ²Ð°
ÑĢÐµ ÑĤÐ°
ĠÑĢÐ¾Ð´ Ð¸Ð»ÑģÑı
ĠÐºÐ°Ð¼ Ð¿
Ð¼ Ð¿Ð¸
ĠÐ¼ÐµÑģÑĤ Ð½Ð¾Ð³Ð¾
ĠÐŁÐ°Ð¼ÑıÑĤ Ð½Ð¸Ðº
Ð¶ ÐµÐ¹
ÑĤÐ¸ Ð»
Ð°Ð² Ð¾Ð´
ÑģÑĤÐ²ÐµÐ½ Ð½Ð¾Ð¼
Ð»ÐµÐ½ Ð½ÑĭÐ¹
ĠÑģÑĢÐµÐ´ Ð½ÐµÐ¼
ĠÑį Ð²Ð¾Ð»Ñİ
ĠÑĢÐµ ÐºÐ°
ĠÐ´ Ð¸Ðº
ĠÐŃ ÑģÑĤÐ¾Ð½
Ġ193 5
Ġ192 4
ĠÐ·Ð² Ð°Ð½Ð¸Ðµ
ĠÐļ Ð¾
ĠÐĿ ÐµÐ²
Ð¾Ñģ ÑĦ
Ð·ÑĭÐ²Ð° ÑİÑĤ
ĠÑĦ Ð¸Ð»
ĠÐ³Ð¾ÑģÑĥÐ´Ð°ÑĢÑģÑĤÐ²ÐµÐ½ Ð½ÑĭÑħ
ĠÐ¼Ð°ÑĤÐµÑĢÐ¸ Ð°Ð»Ð¾Ð²
ĠÐ³Ð»Ð° Ð·
ĠÐ¿Ð¾Ð· Ð¸ÑĨÐ¸Ð¸
ĠÐ¸ÑģÑĤÐ¾ÑĢÐ¸ Ñİ
ĠÐ¸ÑģÐºÑĥÑģ ÑģÑĤÐ²
ĠÑģÐ°Ð¹ ÑĤÐµ
ĠÐ½Ð°ÑħÐ¾Ð´ Ð¸Ð»ÑģÑı
ĠÐ¿ÑĢÐµÐ´ÐµÐ» Ð°Ñħ
ĠÐŁÑĢÐ°Ð² Ð¾ÑģÐ»Ð°Ð²
ĠÐµ Ð³Ð¸Ð¿
ĠÑĨ ÐµÐ¿
ĠÑģÐ¿ ÑĥÑģÑĤ
ĠÐ¡ÑĥÑīÐµÑģÑĤÐ² ÑĥÐµÑĤ
ĠÑĤÐ¸ÑĤ ÑĥÐ»
ĠÑģ ÑİÐ¶
Ð¾ÑĤ Ð¸Ð¿
Ð»Ñı ÑĤÑĮ
Ð´Ð° Ð¼Ð¸
ĠÑĤÐµÑĢÑĢÐ¸ÑĤÐ¾ÑĢÐ¸ Ñı
Ñģ ÐµÑĢÐ²
ĠÐº ÑĥÐ±
ĠÐ¢ Ñİ
Ġ193 2
Ð»Ñı ÑĨÐ¸Ð¸
ĠÐ» Ð¸ÑĨÐ°
ĠÑĢÐµ ÐºÐµ
ĠÐ¥ Ð¾Ð»
ĠÑģÐ¾ÑģÑĤÐ¾Ñı Ñī
ĠâĢ ¦
ĠÐŁÐ°ÑĢÐ¸ Ð¶
ĠÑĤÐ°Ð± Ð»Ð¸
ÑįÑĦ ÑĦÐ¸ÑĨÐ¸
ĠÐ½ ÐµÑĢÐ²
Ð»Ð¸ Ðº
Ð°Ð¼ ÐµÑĢÐ¸
ĠÐ´ÐµÐ¹ÑģÑĤÐ² ÑĥÐµÑĤ
ĠÐ´Ð¾Ð»Ð¶ Ð½Ð¾
ĠÑĥ Ð´Ð¾Ð²
Ð´ÐµÐ½ ÑĤÐ¸
ĠÐ¾ÑĤÐ½Ð¾ÑĪ ÐµÐ½Ð¸Ðµ
ĠÑĢÐ°Ð² ÐµÐ½
ĠÑģÑĥÐ´ ÐµÐ±
ĠÐºÐ¾Ð¼ Ð¼ÐµÑĢ
ĠÐĹ Ð²
en d
ĠÐ±ÑĢÐ¸ÑĤ Ð°Ð½ÑģÐºÐ¸Ð¹
Ñģ ÑĥÐ½
ĠÐĺÐµÑĢ ÑĥÑģÐ°Ð»
ĠÑĤ ÑĢÐ°Ð²
ĠÐŁ ÑĢÑĥÑģ
ÐµÑĢÐ° Ñħ
ĠÐºÐ°Ðº Ð¾Ð¹
6 9
7 7
Ð¼ Ð¾Ð¹
ÑĩÐµ Ð³Ð¾
ĠÐ±Ñĭ ÑģÑĤ
ĠÐŀ Ð´Ð¸Ð½
ĠÑĢÐµÐ³Ð¸ Ð¾Ð½Ð°
ĠÑģÐµÐ»ÑĮ ÑģÐºÐ¾ÑħÐ¾Ð·ÑıÐ¹
ĠÐ²ÐµÑĢ Ð½ÑĥÐ»ÑģÑı
ĠÐ´ ÑĢÑĥ
Ð½Ð¾Ð² Ð¸Ð´
ÑĮ Ð¼Ð¸
ĠÐ¸Ð½Ð´Ð¸Ð² Ð¸Ð´Ñĥ
ĠÐ±ÐµÑģÐº Ð¾Ð½ÐµÑĩ
ĠÑģ Ð½Ðµ
Ð½Ð¸Ðº Ñĥ
ĠÐ¸Ñİ Ð»Ðµ
ĠÐ²ÑĭÐ± Ð¾ÑĢÐ¾Ð²
ĠÐ» ÑĳÑĤ
ĠÐĵ ÐµÑĢÐ°
ĠÐ²Ð¾ Ð¾Ð±ÑīÐµ
ĠÐ¿Ð°ÑģÑģÐ°Ð¶ Ð¸ÑĢ
Ð¸ÑĤ Ðµ
ĠÐ¿ÑĢÐ¸ ÑĳÐ¼
Ð¡ Ð¿
Ġ192 8
ĠÑĢÐ°ÑģÐ¿ÑĢÐ¾ÑģÑĤÑĢÐ°Ð½ ÐµÐ½Ð¸Ðµ
ĠÐ¿ÑĢÐµÐ¿Ð¾Ð´ Ð°Ð²
Ġ k
Ð´ Ð¾Ðº
Ð°Ð½ ÐºÐ°
ĠÐ³Ð¾ÑĢÐ¾Ð´ Ð¾Ð¼
ĠÐ½Ð¾Ñı Ð±ÑĢÐµ
ĠÐ´ Ð½Ð¸
ĠÐ¿ÑĢÐ¾ÑĤÐ¸Ð² Ð¾Ð¿Ð¾Ð»Ð¾Ð¶
ĠÑģ Ð°Ð¹ÑĤ
ĠÑĩÐ°ÑģÑĤÐ¸ ÑĩÐ½Ð¾
ĠÐłÐ¸Ð¼ ÑģÐºÐ¾Ð¹
ĠÐ²Ð´ Ð¾Ð»ÑĮ
ĠÐĹÐ°ÑĤ ÐµÐ¼
ĠÐ¡ Ð²ÐµÑĤ
ĠÐ¾ÑģÐ¾Ð± ÐµÐ½Ð½Ð¾ÑģÑĤÐ¸
ĠÑĦÐ¸Ð»ÑĮ Ð¼Ð°
ĠÑĦ Ð¸ÑĢ
ĠÐł ÐµÐ·
Ġ3 2
ĠÐ³ÑĢÐ° Ð¼
ĠÐ¿ÑĢÐµÐ´ÑģÑĤÐ°Ð² Ð¸ÑĤÐµÐ»Ð¸
ĠÑģÐµÑĢ Ð´
ĠÑĢÐµÐ°Ðº ÑĨÐ¸Ð¸
ĠÐ±ÑĥÐº Ð²
Ð°ÑĤÐµÐ»ÑĮ Ð½Ð¾Ðµ
Ð¸Ð½ ÑģÐºÐ¾Ð¼
ĠÑģÐ¾Ð²ÐµÑĤ ÑģÐºÐ¸Ñħ
ĠÐ´Ð¸ Ð°Ð³
Ġ192 3
ÐµÑĢ Ð¾ÑģÑģÐ¸Ð¹
ĠÐ½Ð¾Ð² Ð¾Ðµ
ĠÐ¿Ð¾Ð»Ð¸ÑĤ Ð¸ÑĩÐµÑģÐºÐ¸Ñħ
ĠÑĢÐµ Ð±
ÑĢÐ¸ Ð·
ĠÑĥÐ¿ ÑĢÐ°Ð·Ð´
ĠÐ½Ð°ÑĩÐ¸Ð½Ð° ÐµÑĤÑģÑı
Ð° ÑĨÐ¸Ñİ
ÑĮ ÐµÑĤ
Ð¾ÑĤ Ð¾Ð¿
ĠÑĤÐ°Ðº Ð¾Ðµ
ĠÐ³ Ð²Ð°ÑĢÐ´
ĠÐł Ð°Ð´Ð¸
ĠÐ²ÐµÑĢ ÑĪ
Ñģ Ð°Ð¼
Ñĳ ÑģÑĤ
ĠÑĥÑģ Ð»
4 2
ĠÑĢÐµÐ»Ð¸ Ð³Ð¸Ð¸
ĠÐ¾Ð±ÐµÑģÐ¿ÐµÑĩ ÐµÐ½Ð¸Ñı
ĠÑĥÑģÑĤÑĢÐ¾Ð¹ ÑģÑĤÐ²Ð°
ĠÐĿÐ¾Ð±ÐµÐ»ÐµÐ² ÑģÐºÐ¾Ð¹
ĠÐ± Ð»Ð¸Ð¶
ĠÐ¡ÐµÐ²ÐµÑĢ Ð¾
ĠÐ¶ÐµÐ»ÐµÐ· Ð½Ð¾Ð¹
Ð¸ÑĤ Ð¸
ĠX II
ĠÐ¡Ð²ÑıÑĤ Ð¾Ð³Ð¾
Ñħ Ð°Ð·
ĠÐ·Ð° ÑĢÐµÐ³Ð¸ÑģÑĤ
ĠÐ¿ÑĢÑıÐ¼ Ð¾
Ð°Ð»Ð¸Ð· Ð°ÑĨÐ¸Ð¸
ĠÐĸ Ð°Ð½
ĠÐ±ÑĥÐ´ ÑĥÑī
ĠÐ¿Ð¾Ð»Ñĥ Ð¾ÑģÑĤ
ÐºÐ° Ð·Ð°
ĠÐ¢ Ð¾Ð³Ð´Ð°
ĠÑĤÐµÐ°ÑĤ ÑĢÐ°Ð»ÑĮ
ĠÑģÑĩÐ¸ÑĤÐ° ÑİÑĤ
ĠÐĲÑĢÐ¼ ÐµÐ½Ð¸Ð¸
ÑĦÑĦ ÐµÑĢ
Ñī Ð¸ÐºÐ¾Ð²
ĠÑĤÐµÑĢ ÑĢÐ¾
ĠÐ´ÐµÐ» Ð°
ĠÐ»Ð¸Ð½ Ð¸Ñı
Ð¿ Ñĭ
ĠÐ°Ð² ÑĤÐ¾ÑĢÐ°
ĠÑĤÑĢÐ°Ð½ÑģÐ¿ Ð¾ÑĢÑĤÐ°
ÑĥÑĩ Ð¸
ĠÐ¾ÑģÐ½Ð¾Ð² Ð°ÑĤÐµÐ»ÑĮ
ĠÐ¿Ð¾Ðº Ð¾Ð»
ĠÐ¿Ð¾Ð¼Ð¾Ñī ÑĮ
Ð» Ð¾Ð¿
ĠÐĳ Ð¾Ð»ÐµÐµ
ĠÐ£ Ð·
ĠÐ°Ð² ÑģÑĤÑĢÐ¸Ð¹
ĠÑĤÑĭ ÑģÑı
ĠÑģÑĤÐ°ÑĤ Ð¸
Ã ¤
ĠÐł ÐµÐ¹
ÐµÐ· Ð´Ðµ
ĠÐ±Ð¾Ð»ÑĮÑĪ Ð°Ñı
ĠÐŀÑĤ ÐºÑĢÑĭ
ĠÑĤÐ¸Ð¿ Ð¾Ð²
ĠÐ¾Ð¿ÑĢÐµÐ´ÐµÐ»Ñı ÐµÑĤÑģÑı
ĠÐ¿ÑĢ Ð¾Ð»
Ð¸ÑĤÐµÐ»ÑĮ Ð½ÑĭÐ¼
ĠÑģ Ð½Ð°ÑĩÐ°Ð»Ð°
ÑĨ ÐµÑģÑģ
ÐºÐ¾Ð² Ð¾Ð¹
ĠÐ¾Ð¿ ÑĭÑĤ
ÑģÑĤÑĢÑĥ ÐºÑĤ
ĠÐ½Ð°ÑĩÐ¸Ð½ Ð°Ñı
ĠÐ¸Ð·Ð¼ÐµÑĢ ÐµÐ½Ð¸Ñı
Ð¸ Ð¾
ĠÐĲ ÐĿ
ĠÐľ Ð°Ñģ
ÑĢÑı Ñģ
ĠÐ¿ÑĢÐ¸Ð¼ÐµÐ½ ÑıÐµÑĤÑģÑı
ĠÑģÑĤÑĢÐµ Ð»
Ð½ÐµÐ¹ ÑĪÐ¸Ñħ
ÑģÑĤÐ¸ÑĩÐµ ÑģÐºÐ¸Ñħ
ĠÐĽÑİ Ð±
ĠÐĴÐ¸Ð»ÑĮ Ð³ÐµÐ»ÑĮ
ĠÐ¾ÑĤ ÐµÑĨ
ĠÐĿ Ð°ÑĢ
Ñĩ ÐµÑĢ
ĠÐ¡ Ð°Ð²
ĠÐļÐ¾Ð¼ Ð¿
ĠÑĢÐ°ÑģÑĤ ÐµÐ½Ð¸Ð¹
ĠÑģ ÐµÑĢÐ¸
ĠÐ¼ ÐµÑĤÐ°
ĠÑĦ Ð°Ð¹
ÐĲ Ð²
Ð½Ð°Ðº Ð¾Ð¼
ĠÐ½Ð°Ð¿ Ð°Ð´
ĠÐ¸ Ð¼Ð¸
ĠÐ³ Ð»Ð°Ð²Ð°
ĠÐ½Ð° Ð¸Ð¼
Ġ19 14
ĠÐ¸ÑģÐºÐ»ÑİÑĩ ÐµÐ½Ð¸ÐµÐ¼
3 8
ÐµÐ» Ð¸Ñı
Ð°ÑĢÐ° Ð±
ĠÐºÑĢÑĥÐ¿ Ð½ÑĭÐµ
ĠÐ¸Ñģ ÑĩÐµ
g e
o k
Ð¼ ÐµÐ¹
ĠÐłÐµÑģÐ¿ÑĥÐ±Ð»Ð¸ ÐºÐ°
ĠÐ¸Ð½ÑĤÐµÑĢ Ð¿ÑĢÐµ
ĠÐ° ÑģÐ¿
Ð¸Ð¹ ÑģÐºÐ¾Ð³Ð¾
Ġ194 8
ĠC om
i p
ĠÐ¿ Ð¸Ð»
ĠÑĢÐµ ÑĩÐ¸
ĠÑģÐ¿ Ð¸
ĠÐ²ÑģÑĤÑĢÐµ ÑĩÐ°ÑİÑĤÑģÑı
ĠÐ³ Ð»Ð°Ð³
ĠÐ²ÐµÑĢ ÑģÐ¸Ñı
ĠÐ¢ Ð°ÑĢ
ĠÑģÐ¾Ð· Ð´Ð°
ĠÐ¼ÐµÐ¶Ð´ÑĥÐ½Ð°ÑĢÐ¾Ð´ Ð½ÑĭÑħ
ĠÐ¾Ð±ÑĬÑıÐ² Ð¸Ð»
Ð³ Ð¸Ð½
ÑĥÐ½Ð´ Ð°Ð¼ÐµÐ½ÑĤ
ĠÐľ Ð°Ñħ
ĠÐ¼Ð°ÑĪ Ð¸Ð½
ÑĢÐ° Ñĩ
Ð°Ð² ÑĪÐµÐ³Ð¾
ÑįÐº Ð¾Ð½Ð¾Ð¼
6 1
ÑĪ ÑĤÐ°
ĠÐĽ Ð°Ð²
ĠÐºÐ»Ð°Ð´ Ð±Ð¸ÑīÐµ
ĠÐºÐ° ÑĦÐµÐ´
ĠÐ¸ÑĤÐ¾Ð³ Ðµ
ĠÑĢÐ°Ð·Ð³ ÑĢÐ¾Ð¼
O S
ĠÐ² ÑĢÐ°Ñī
Ð°Ð»Ð¸Ð· Ð¸ÑĢÐ¾Ð²
Ð°Ð¼ÐµÑĢÐ¸ ÐºÐ°Ð½
ÐµÐ½ÑĤ Ð¾Ð¼
ĠÐ¿Ð¾Ð² ÐµÐ´
ĠÑĤÑĢÐ° Ð¼
ĠÑģÐµÐ¼ ÑĮÐµ
Ð²ÐµÑĢ Ñģ
ĠÑģÑĥÑīÐµÑģÑĤÐ² Ð¾Ð²Ð°Ð½Ð¸Ðµ
ĠÐ¿ÑĢÐ¸ Ð·Ð²
ĠÐ¿Ð¾Ð»Ð¾Ð¶ ÐµÐ½Ð¸Ñı
ĠÐ²ÑħÐ¾Ð´ ÑıÑĤ
ĠÑıÐ² Ð»ÐµÐ½Ð¸Ñı
Ð½Ð°Ñĩ Ð°Ð»ÑĮÐ½Ð¾
Ð°ÑĤ ÑĢ
ĠÐ¿Ð¾Ð½ ÑıÑĤÐ¸Ñı
ÑĤ ÐµÑĤ
ĠÐ¸ Ð´ÐµÐ½ÑĤÐ¸
ĠÑĤ Ð°Ð»
Ðļ Ðŀ
ĠÐ½ÐµÐ¼ Ñĥ
ĠÐ¼ÐµÐ´ Ð°Ð»ÑĮ
ĠÐ·Ð°Ñī Ð¸Ñī
ĠÐ» Ð¾Ðº
Ð»ÐµÑĤ Ð¸Ñı
ĠÐºÐ°Ð» ÐµÐ½Ð´
ĠÐ¼ Ð¾
ĠÐ¡ Ð¿Ð¸ÑģÐ¾Ðº
ĠÐ·Ð° Ð¸Ð¼
ĠÐ´Ð¸ ÑĢÐ¸Ð¶
ĠÐ¾Ð±ÑīÐµ ÑģÑĤÐ²Ð¾
ĠÐ² Ð¾ÑģÑĤÐ¾Ðº
ĠÑĢÐ°Ð¹ Ð¾Ð½Ñĭ
ÐĹ Ð°Ð¿
ĠÐ±Ð¾Ð»ÑĮÑĪÐ¸Ð½ ÑģÑĤÐ²Ðµ
ĠÐ¿ÑĢÐ¾Ð²Ð¸Ð½ ÑĨÐ¸Ð¸
ĠÑģÐ¼ÑĭÑģ Ð»Ðµ
ÑĤ Ð¸Ð½Ð³
ĠÐļ Ð¸ÑĢÐ¸
ĠÐ¾Ð± ÑĢÐ°ÑĤÐ¸
ÑĤÐ¸Ð² Ð½ÑĭÐ¹
ĠÑģ ÐµÑĤÑĮ
ĠÐ¾Ð± Ð¾ÑĢÐ¾Ð½
ÑĢÑĭ Ð²Ð°
ĠÑģÐ¾Ð²ÐµÑĤ ÑģÐºÐ°Ñı
ĠÐºÑĢÑĥÐ¿Ð½ÐµÐ¹ ÑĪÐ¸Ñħ
ÐµÐ»Ñı Ñħ
. -
ĠÐł ÐĲÐĿ
ĠÐ·Ð° ÑģÑĤÐ°Ð²
ĠÑģÐ¾Ð·Ð´ Ð°Ð½Ð°
ĠÐ¸Ð½ÑĤ ÐµÐ½
ĠÐ´Ð¾Ð¿ Ð¾Ð»Ð½
ow s
ĠÐ³ÑĢÑĥ Ð·Ð¾Ð²
Ð± ÑĢÐ°Ð½
ÐĿ Ðł
Ġ194 7
Ġ194 9
ĠÐĶÑĢÑĥÐ³ Ð¸Ðµ
ĠÐĴ Ð¾ÑĢ
ĠÐºÐ¾Ð¼ Ð±Ð¸Ð½
ĠV II
ÑĢ Ð¾Ð½Ð°
Ñħ Ð¾Ð¶Ð´ÐµÐ½Ð¸Ðµ
ÐµÐ» Ð»
ĠÑģÐ²Ð¾ ÐµÐ¼Ñĥ
ĠÐ¼ÑĥÐ¶ ÑĩÐ¸Ð½
4 3
ĠÐºÐ¾Ð» Ð»ÐµÐ´
ĠÐ´Ð¾Ð¼ Ðµ
ÑĥÐ¼ Ð±
ĠÐ¦ Ð·
Ð» Ð¾ÑĢÐ¸
ĠÐĿ Ð°Ð´
ĠÐĶ Ñį
ÑģÑĤ ÑĢÐ¸Ð¸
ĠÑĦÐµÐ²ÑĢÐ° Ð»Ðµ
Ð»Ð¸Ð· Ð°Ð²
ĠÐ¿ÑĢÐ¸Ð¼ÐµÐ½ Ñı
ĠÐ¿Ð¾Ð´ÑĢÐ°Ð· Ð´ÐµÐ»
a k
ĠÑİ ÑĢÐ¸Ð´
ĠÐ²Ð°ÑĢÐ¸ Ð°Ð½ÑĤ
Ã ¼
ĠÐ±Ð¾Ð³ Ð¾ÑģÐ»Ð¾Ð²
ĠÐ¿ÑĥÐ½ÐºÑĤ Ñĭ
ĠX III
ĠÐ²Ð»Ð¸Ñı Ð½Ð¸ÐµÐ¼
ĠÐº Ð°ÑĤÐ°ÑģÑĤÑĢÐ¾
ĠÑĤÑĢÑĥ Ð´Ð¾Ð²
ĠÐ±Ð¾Ð»ÑĮÑĪÐ¸Ð½ ÑģÑĤÐ²Ð°
e g
ÐµÐ½ Ð´Ñĥ
ĠÐ½ Ð¾Ð³
ĠÑıÐ·Ñĭ ÐºÐ¾Ð¼
ÐĹ Ð¾Ð»Ð¾ÑĤ
ÐµÐ²Ð¸Ñĩ Ð°
Ġ202 3
Ð± Ð»Ð¸Ð·
Ð¾Ð¶ Ð´Ð°
ĠÐ¾Ð¿ Ñĭ
ĠÑĩÐµÑĤ Ð²ÐµÑĢ
Ñĥ Ð°
ĠÐ¾ÑĤÐ½Ð¾ÑĪ ÐµÐ½Ð¸Ñİ
ĠÑĥÐ² Ð¸Ð´
ÑģÐµÐ² Ð´
ĠÐŁ ÑĢÐ¾ÑĤ
ĠÐĶ Ð°Ð½Ð¸
ĠÑĦÑĥÐ½Ðº ÑĨÐ¸Ñı
ĠÐĴÐ¾ÑģÑĤÐ¾Ñĩ Ð½Ð¾Ð¹
ÑģÑĤÐ² Ð¸Ðµ
ĠÐĴ ÐµÑģ
ĠÐ¿Ð¾ ÐµÐ·Ð´
ĠÑģÐ¾Ð· ÑĭÐ²Ð°
ĠÐ½ÐµÐ¾Ð±ÑħÐ¾Ð´Ð¸Ð¼ Ð¾ÑģÑĤÐ¸
ÑĦ Ðµ
Ð¾Ñı Ð·Ñĭ
ĠÐ¼ÑĥÐ·Ñĭ ÐºÐ¸
ĠÐ¾Ð»Ð¸Ð¼Ð¿Ð¸Ð¹ ÑģÐºÐ¸Ð¹
Ðº ÑĥÑİ
ĠÑģ Ð¸Ñħ
ĠÐº Ð°Ð²Ð°Ð»
ĠÑĦÐ¸Ð· Ð¸Ðº
ĠÐ°ÑĢÑĤÐ¸ Ð»Ð»Ðµ
ĠÐ¾ÑģÐ½Ð¾Ð² Ð°Ð½Ð¸Ñı
ĠÑĢÐ°Ð¹Ð¾Ð½ Ð°Ñħ
ec t
ĠÐ¿Ð¾Ð» Ð¾Ñģ
ÑĨ ÐµÑĤ
Ġ193 3
ĠÐ²ÑģÑĤÑĢÐµ ÑĩÐ°ÐµÑĤÑģÑı
ĠÐĳÐ¾Ð»ÑĮÑĪ Ð¾Ð¹
ĠÐ½ÐµÐ´Ð¾ÑģÑĤ Ð°ÑĤÐ¾Ñĩ
Ð°Ð³ Ð½Ð¸ÑĤ
ĠÐ¼ÐµÑģÑĤ Ð½ÑĭÑħ
ĠÑģÑĩÐ¸ÑĤ Ð°ÑĤÑĮ
ĠÐ¸ÑģÑĤÐ¾Ñĩ Ð½Ð¸ÐºÐ¾Ð²
ĠÑĤ Ð¾Ð¶Ðµ
ĠÐķ Ð´Ð¸Ð½
Ð½Ñĥ Ð²
ĠÐĸ ÐµÐ»ÐµÐ·
ĠÐ¼ Ð¸Ñģ
ĠÐ¾Ð±Ð»Ð° Ð´Ð°ÐµÑĤ
Ġ195 3
4 9
ÐºÐ¸ ÑĢ
ĠÐ¿ÑĢÐ¾ÑĨÐµÑģ ÑģÐ°
ĠÑģÐ¿ÑĥÑģÑĤ Ñı
ĠÐ¾Ð± Ðµ
ĠÐľÐ°Ðº ÐµÐ´Ð¾Ð½
ĠÑģ Ð¾ÑĢ
ÑĤÐ¾ Ðµ
ĠÐ§ Ð»ÐµÐ½Ñĭ
Ð³Ð¸ Ñİ
ĠÐ£Ð¸Ð»ÑĮ ÑıÐ¼
ĠÐ¡ ÑĤÐµÐ¿
ĠÐ¿Ð¾Ð´Ð´ÐµÑĢÐ¶ ÐºÑĥ
ĠÑģÑĤÐ¾ÑĢ Ð¾Ð½Ðµ
ĠÑģÐ¾Ð¾ÑĤÐ²ÐµÑĤÑģÑĤÐ² ÑĥÐµÑĤ
4 1
ÑĨ Ð¸Ð½
ĠÑĦ Ð¸Ð³Ñĥ
ĠÐ²Ñĭ ÑĤ
ĠÐ¿Ð»Ð¾ ÑģÐº
Ð¿ ÑĢÐµÐ´
ÑĢÐ¸ Ñģ
ĠÑĥÑģÑĤ Ð¾Ð¹ÑĩÐ¸Ð²
ĠÐ³Ð¾Ð» Ð¾Ñģ
ĠÑģÑĤÑĢÑĥÐºÑĤ ÑĥÑĢ
ĠÐ¿ÑĢÐ¾Ñģ Ð¿
ĠÐ´Ð¸ÑĢÐµ ÐºÑĤÐ¾ÑĢ
. ;
ĠÐ² Ð¾Ð»Ð½
ĠÐĲÐ½ Ð°ÑĤÐ¾Ð»
Ð¹ ÑĤÐ¸
ĠÐ¸Ð¼ ÐµÐ½
ĠÐ¥ Ð¾ÑĢ
ĠÐ´ Ð¸Ð½Ð°Ð¼Ð¸
0 6
ĠÐĲÐºÐ°Ð´ÐµÐ¼ Ð¸Ð¸
Ð¸ Ð¶
ĠÐŁ Ð°Ð½
ĠP r
ĠÐ¾ÑĤ Ð²
ĠÐ£ Ð»ÑĮ
ĠÐŁÐ¾ Ñħ
ĠÐ¼Ð¾Ð· Ð³Ð°
ĠÐ¿Ð¾ Ð¸ÑģÐº
Ðľ Ðĺ
ĠÐ² Ð½ÐµÑģ
ĠÑħ Ð¾Ðº
ÑĢÐ°Ð³ Ð¼ÐµÐ½ÑĤ
ĠÐĹÐ°Ðº Ð¾Ð½
Ð°Ð»ÑĮ Ð½Ð¾ÑģÑĤÐ¸
ĠÐ²Ð¾ ÑĪÐ»Ð¸
ĠÐĳ ÐµÐ·
Ð» ÑĳÐ½
ĠÐľÐ¾ÑģÐº Ð²Ñĥ
Ġ195 4
ĠÑĥÐ³ ÑĢÐ¾Ð·
ĠÑģÐ´ÐµÐ» Ð°ÑĤÑĮ
ĠÐŃ Ð»ÑĮ
ĠÐ¸ÑģÐ¿Ð¾Ð» Ð½Ñı
ÑģÐ¿ Ð¾ÑģÐ¾Ð±
ĠÐŁÑĢÐµÐ· Ð¸Ð´Ð¸
ĠÐ¿ÐµÑĢÐµÐ½ Ð¾Ñģ
ĠÐ´ Ð¸Ð·
Ð¸Ð½ ÑģÐºÐ¾Ðµ
ÐµÐ¼ Ñĭ
Ð¸Ð² Ð°Ð½Ð¸Ðµ
ĠÐ·Ð°Ðº Ð»Ñİ
ĠÐĲ ÑĢÐ¸ÑģÑĤ
ĠÐŀ Ð»ÑĮ
ĠÐĵÑĢÐµ ÑĨÐ¸Ð¸
ĠÐ¿ÐµÑĢÐµ Ð¿Ð¸ÑģÐ¸
ĠÐ¾ÑĢ Ð±Ð¸ÑĤ
ÑģÐ¾Ð² ÐµÑĤ
ĠÐ¿Ð¾Ð»Ð¾Ð² Ð¸Ð½Ñĭ
ĠÐ°ÐºÐ°Ð´ÐµÐ¼ Ð¸Ðº
ĠÐ±ÐµÑĢÐµ Ð³
ĠÑģÐµÑĢÐµÐ´ Ð¸Ð½Ñĭ
ĠÐ½Ðµ ÑĥÐ´Ð°
ĠÐ¸Ð·Ð¾Ð±ÑĢÐ°Ð¶ ÐµÐ½Ð¸Ñı
ĠÑĤÑĥ ÑĢÐ¸
ĠÐ¿Ð¸ÑĪ ÐµÑĤ
Ð¿ ÐµÑĢÐ²
ÐµÑĢ Ð½Ð¸
Ð´Ð° Ñħ
ĠÐ¼Ð°ÑĢ Ðº
ĠÐ±ÐµÐ» Ð¾ÑĢÑĥÑģ
Ð°ÑĢ Ð½ÑĭÑħ
ĠÐŃ Ð»ÐµÐºÑĤ
ĠÑģÐ¾ÐµÐ´Ð¸Ð½ ÐµÐ½Ð¸Ñı
ĠÐłÐ° Ð±Ð¾ÑĤ
ĠÐ´Ð²Ð¾ÑĢ ÑıÐ½
ĠÐ¡Ð¾ÑĨÐ¸ Ð°Ð»Ð¸ÑģÑĤÐ¸ÑĩÐµ
ĠÐº Ð³
Ñį Ð¼
ĠÑģÐ¾ ÑĢÐµÐ²
0 8
ÐµÐ½ Ñģ
ĠÐĺ ÑģÐº
ĠÑģÐ² ÐµÐ´ÐµÐ½Ð¸Ñı
ĠÐ¶ ÐµÐ½Ð°
ĠÐºÐ¾Ð¼ Ð°Ð½Ð´Ð°
ĠÑĢÑĥÑģ ÑģÐºÐ¸Ðµ
ÑģÑĤÐ¾ ÑıÑĤÐµÐ»ÑĮ
ĠÐ¾Ð±Ð¾Ð· Ð½Ð°
ĠÐĺ Ñħ
ĠÐĵÐ¾ÑģÑĥÐ´Ð°ÑĢ ÑģÑĤÐ²ÐµÐ½Ð½Ð¾Ð¹
Ð¾Ð² Ð¾
ÑĨ Ð¾
ĠÐ¿Ð¾Ð¿ ÑĥÐ»Ñı
Ġ192 7
ĠÐ¿ Ð¸
ĠÐº Ð¾ÑģÑĤ
ÑģÐ¸ ÑĢÐ¾Ð²Ð°Ð½
ĠÑĢÐ°Ð· Ð½ÑĭÐµ
ĠÐ¾ÑģÑĤ Ð°ÑĳÑĤÑģÑı
ĠÐ¿Ð¾Ð·Ð²Ð¾Ð» Ñı
ĠÐ¿ÑĢÐ¾Ð²ÐµÐ´ ÐµÐ½Ð¸Ñı
ĠÑįÐ¿Ð¾Ñħ Ñĥ
7 9
ĠÐľ Ð¾
ĠÐĿÐ¾ÑĢ Ð²Ðµ
Ñĭ ÑĪÐµ
Ð¸ÑĤ Ð¸Ð²
ĠÐ» Ð¸ÑĤÐ¾Ð²
ĠÐ²ÑĢÐµÐ¼ ÐµÐ½Ð°
ĠÐ´Ð² Ð¾Ð¹
ĠÐ²Ð¾ÑģÑģÑĤ Ð°Ð½Ð¸Ñı
ĠÐľÐ°Ðº ÑģÐ¸Ð¼
Ð¾ÑĤ Ð¾Ñĩ
ĠÐł ÐµÐ»Ð¸
ĠÐĶ ÐµÐ¿
ĠÐ¿ÑĢÐµÐ´ ÑĭÐ´
ĠÐ¾Ð´ ÐµÑĢÐ¶
ĠÑģÑĥÐ´ ÑĮ
Ġ190 5
ĠÐ¿ÑĢÐµÐ¾Ð±ÑĢÐ°Ð· Ð¾Ð²
ĠÑĦÐ¾ÑĢ Ð¼Ð°ÑĤ
Ð°Ð¿ Ð°Ð·
ĠÐ¿ÑĢÐ¾Ð´ ÑİÑģÐµÑĢ
ĠÑįÐ»ÐµÐºÑĤ ÑĢÐ¾Ð¼
ĠÐĺÐ¼ÐµÐ½ Ð½Ð¾
ĠÐ½ ÐµÐ½
ĠÐ§ ÑĳÑĢ
ĠÐ¸Ñİ Ð½Ðµ
ĠÐ¸ÑģÑģÐ»ÐµÐ´Ð¾Ð² Ð°ÑĤÐµÐ»ÑĮ
ĠÑĤÐµÐ¿ ÐµÑĢÑĮ
ÑĢÐ¸ Ñİ
ĠÐ» ÐµÐ´
ĠÐļÐ° Ð¶Ð´
Ñĩ Ð½Ð¾Ðµ
ÐµÐº Ð°Ð½
ĠÐ¸Ð½Ð¸ÑĨÐ¸ Ð°ÑĤÐ¸Ð²
Â ³
ÑĢÑĥ Ð½
ĠÐ´ÑĢÑĥÐ³ Ð¾Ð¼
ĠÐ¿Ð¾Ð»Ð¸ÑĤ Ð¸ÐºÐ°
ĠÐ¾ÐºÐ¾Ð½Ñĩ Ð°Ð½Ð¸Ñı
ĠÐ°Ð» Ð³Ð¾ÑĢÐ¸ÑĤ
ĠÑĢÐµÐ¶ Ð¸ÑģÑģ
5 6
Ġ *
ÑĢÐ° Ð½Ñĭ
ĠÐł Ð°Ð´
ĠÐ£ÐºÑĢÐ° Ð¸Ð½Ðµ
ĠÐĿÐ°ÑĨÐ¸Ð¾Ð½Ð°Ð»ÑĮ Ð½ÑĭÐ¹
b er
Ñĩ ÐµÐ½ÐºÐ¾
ĠÐĴ Ð¾ÑĢÐ¾Ð½
ĠÑĩ ÑĢÐµÐ·Ð²ÑĭÑĩÐ°Ð¹
ÑĤÐ¸ ÑĢÑĥ
Ð± ÐµÐ»ÑĮ
ĠÐ¼ ÑĥÑĩÐµÐ½Ð¸
Ð¾Ð± Ð¸Ð»ÑĮ
ĠÐĿ ÐµÐ¿
ÑĭÐ²Ð° ÐµÑĤÑģÑı
ĠÐ¿Ð¾ÑĢÐ°Ð¶ ÐµÐ½Ð¸Ðµ
Ð°Ðº Ð¾Ð²Ð°
ĠÐ¼Ðµ Ñĩ
ĠÐĴÑĭ Ð¿ÑĥÑģÐº
ĠÐŀÐºÑĤ ÑıÐ±ÑĢÑĮ
ÑģÑĤÐ²ÐµÐ½ Ð½Ð¾ÑģÑĤÐ¸
ĠÑįÑĦÑĦ ÐµÐºÑĤ
ĠÐ´ Ð¸ÑģÑĤ
ÑĪ ÐµÐ´
ÐĿ Ð°
ĠÐ²Ð¾Ðº Ð·
ĠÑĩÐ¸ÑģÐ»ÐµÐ½ Ð½Ð¾ÑģÑĤÑĮ
ĠÐ» Ð¾Ð¶
ĠÐ¾ÑģÐ½Ð¾Ð² Ð°Ð½Ð¸Ð¸
7 3
Ð°Ð´ ÑĮ
ĠÐ·Ð°Ð½ ÑıÐ»
Ðº ÐµÑģÑĤ
Ð¾Ðº ÑĥÐ¿
ĠÐĵ Ð¾Ð½
ĠÐ±Ð¾ÑĢÑĮ Ð±Ðµ
ĠÐ½ÐµÑĦ ÑĤÐ¸
Ð¾ÑģÑĤ Ð°Ð½
ÑĦÐ¾ÑĢ Ð¼Ð°ÑĤ
ĠÑģÐ»ÑĥÑĩÐ° ÐµÐ²
ĠÐ¿Ð¾ÑģÑĤÑĢÐ¾ ÐµÐ½
ĠÐºÑĢÐµÐ¿ Ð¾ÑģÑĤÐ¸
o ur
Ðº Ð¾Ñģ
Ð»Ð¸ Ñİ
ĠÑģÑĤÐ°Ð½ ÑĨÐ¸Ñı
Ð¿ Ð¸ÑģÑĮ
ĠÐ¿Ð¾Ñģ Ð°Ð´
Ðļ ÐŁ
ĠÐ¿Ð¾Ð³ Ð¸Ð±Ð»Ð¸
ĠÐ²ÑĢÐ° Ñĩ
ĠÐŁ Ð¸Ñģ
ĠÐ¶ Ð¸Ð»Ð¸
ĠÐ¿Ð°ÑĢ ÑĤ
ĠÐ¿Ð¾ÑĢ ÑĤÑĥ
ĠW ind
ĠÐ²Ð½ÑĥÑĤÑĢÐµÐ½ Ð½Ð¸Ñħ
u p
Ð» Ð¾Ð¹
ÑĤÐµ Ð³ÑĢÐ°
ĠÐ±Ð¾Ð»ÑĮÑĪ Ð¸Ð¼
ĠÑģÐº Ð»Ð°Ð´
ĠÐºÐ°Ð¶Ð´ Ð¾Ð¹
ĠÐŁÐ¾ÑĩÑĳÑĤ Ð½ÑĭÐµ
ĠÐĴ Ð»Ð°Ð´
ĠÐ²Ñģ Ð»ÐµÐ´ÑģÑĤÐ²Ð¸Ðµ
ÑĬ ÑĳÐ¼
ĠÐ± ÐµÑĢ
ĠÐ¼ÐµÑĤÐ¾Ð´ Ñĭ
ĠÐºÑĥÐ»ÑĮ ÑĤÑĥÑĢÐ°
ĠÑĢÐµ ÐºÐ¾Ð½
ĠÑģÐ¿ Ð¾ÑĢÑĤ
ĠÐ·Ð°Ðº Ð¾Ð½Ð°
ĠÑĦÐ¸Ð· Ð¸ÐºÐ¸
ĠÐ¼Ð¾Ð¼ ÐµÐ½ÑĤÐ°
Ð´ ÑĨ
ĠÐºÐ¾Ð¼Ð°Ð½Ð´ Ð¾Ð²Ð°Ð½Ð¸ÐµÐ¼
ro s
ĠÐ²ÑĭÐ¿Ñĥ ÑģÐºÐ°
ĠÐ¿ÑĢÐ¾Ð´ÑĥÐº ÑĨÐ¸Ð¸
Ñı Ñĩ
Ð³ ÑĢÐ°Ð½
ĠÑĢÐ°ÑģÐ¿ ÑĢÐµÐ´ÐµÐ»
ĠÑĤÐ¾ÑĢÐ³Ð¾Ð² Ð»Ð¸
ĠÐ¿ÑĤÐ¸ ÑĨ
ĠÑģÐ¾ÑĢÐµÐ² Ð½Ð¾Ð²
Ġ Ï
ĠÐĿ ÐĲ
ÐµÑĢÐ¸ Ð½
ĠXI V
il l
ĠÑĤÑĭÑģÑı ÑĩÐ¸
ĠÐĳ ÐµÐ½
Ð¾Ñĩ ÐºÐ¸
ĠÐ¼Ð¾ÑĤ Ð¸Ð²
ĠÐ¿ Ð°Ðº
ĠÐ¾ÑĤ ÑģÑĤÑĥÐ¿
ÐµÑĢÐµ Ð¹
Ð¶Ð´ ÐµÐ½Ð¸Ðµ
Ð¾Ð³ÑĢÐ° Ð½Ð¸Ñĩ
ÑĤ Ñı
ĠÐĶ Ð°
Ð¸ÑĩÐµ Ð³Ð¾
ĠÑıÐ²Ð»Ñı Ð»ÑģÑı
ĠÐ¿Ð¾Ðº ÑĢÐ¾Ð²
0 9
ĠÐ¡ Ð¾ÑĦ
ĠÑħ ÑĢÐ¾Ð¼
ĠÐ±Ð¸ÑĤ Ð²Ðµ
ĠÐ¯ Ðº
ĠÐºÐ¾Ñģ Ð¼Ð¾Ñģ
ĠÐ´ÐµÑĢÐµÐ² ÑıÐ½
Ð¿ ÐµÑĢÐµ
ĠÑĪ ÐµÑģÑĤÐ¸
Ð¼Ñĭ ÑĪ
ĠÐ· Ð¾Ð½Ñĭ
ĠÑģÐ² ÑĭÑĪÐµ
ĠÐ¿Ð» Ð¾Ð´
ĠÐ¾Ñħ ÑĢÐ°Ð½
ĠÑģÑĤÑĢÑĥÐºÑĤ ÑĥÑĢÑĭ
ĠÐ»ÐµÐº Ð°ÑĢ
ĠÐĶ Ðµ
ĠÑģÐ¾ÑģÑĤÐ¾Ñı Ð»ÑģÑı
ĠÐ¿ÑĢÐ¾ÑģÑĤÑĢÐ°Ð½ ÑģÑĤÐ²Ð¾
ĠÐĳ Ð¸Ð±Ð»Ð¸
ĠÐ¿ÑĢÐ¾Ð² ÐµÑĢ
ĠÐ¾Ð´Ð½Ð¾ Ð¸Ð¼
ÑĤÐµÑĢÐ½ Ð°ÑĤÐ¸Ð²
Ñĩ ÑĳÑĢ
ĠÐ´ Ð¾Ð·
Ð·Ñĭ Ðº
ĠÐ´Ð¾ ÑĩÐµ
ĠÐ½Ð°ÑģÑĤÐ¾Ñı Ñī
ĠÐļ Ð°Ð²ÐºÐ°Ð·
ĠÐ¢ Ð°Ð»
ĠÑĪ ÐµÑģÑĤÑĮ
ĠÐ½ Ð¾Ñĩ
ÑĦ ÐµÐ»ÑĮ
ĠÐĳ Ð¾ÑĢ
ĠÑĤÑĢÐµÐ± Ð¾Ð²
ĠÐ¿Ð¾Ñı Ð²Ð¸Ð»Ð°ÑģÑĮ
ÑĤ Ð¸Ð½
ĠÐ½Ð° ÑĤÑĥÑĢÐ°
ÑĢÑı Ð´Ñĥ
ĠÑģÐ¼ÐµÑĢ ÑĤ
ĠÐ¿Ð¾Ð±ÐµÐ´ Ñĥ
ĠÐ¸Ð½ÑĤÐµÐ½ ÑģÐ¸Ð²
ĠÐŁÐ°ÑĢÐ¸ Ð¶Ðµ
ĠÐ¿ÑĢÐµÐ¿Ð¾Ð´ Ð¾Ð±
ĠÐ¿ Ð°Ð½
Ð¸Ð½ Ð³ÑĢÐ°Ð´
ĠÐ¾Ðº Ð¸Ñģ
Ġ| |
ÐµÐ» Ð°Ð½Ð´
ĠÐ½Ð° Ð¸Ð±Ð¾Ð»ÑĮÑĪ
ĠÐĲ Ð¿
ÑĤÐ° Ð¶
ĠÐ¿ÑĢÐ°Ð² Ð¸Ð»ÑĮ
Ð± Ð¾Ð½
Ð°ÑĤ Ð¾ÑĢÑĭ
ĠÑģÐ¾ ÑİÐ·Ð°
ĠÐĳÐ¾Ð» Ð³
ĠÐ¼ÐµÑĢ Ð¾Ð¿ÑĢÐ¸
ĠÐ» Ð¸Ð´ÐµÑĢ
ÑĢÐ°Ð² Ð¾
ĠÐ¿ÐµÑĢÐµ Ð¶
ĠÐ´Ð°Ð½ Ð½Ð¾Ð³Ð¾
ĠÐ°ÑĤÐ¼Ð¾Ñģ ÑĦ
ĠÑĥ ÑĢÐ¾Ð¶
ĠÑĦÐ¾ÑĢ Ð¼Ð¸
ĠÑĨÐ¸ÑĦ ÑĢÐ¾Ð²
ĠÐļÐ¸ÑĤ Ð°Ñı
ÑĢÐµ ÑģÑģ
ĠÐŁÐ¾ ÑģÐºÐ¾Ð»ÑĮÐºÑĥ
0 7
ÑĢÐ¸ ÑģÑĤÐ°
ĠÐ¸ÑģÐ¿Ð¾Ð»ÑĮÐ·Ð¾Ð² Ð°Ð½Ð¸ÐµÐ¼
ĠÐ¿ÑĢÐ¸ÑħÐ¾Ð´ Ð¸ÑĤÑģÑı
ĠÐ³Ð¾Ñģ Ð¿Ð¾Ð´
ĠÐ¶ ÐµÑģÑĤ
ĠÐĺÑģÐ¿ Ð¾Ð»ÑĮÐ·
Ð· Ð¸Ñı
ĠÐ¸Ð¼Ðµ ÑİÑĤÑģÑı
ĠÑģÐ¾Ð´ÐµÑĢÐ¶ Ð°Ð½Ð¸Ðµ
ĠÐ¿Ð¸ÑģÑĮ Ð¼Ð¾
ĠÐ·Ð°Ð´Ð° Ñĩ
ĠÐ´ÐµÐ½ ÐµÐ¶
ÑīÐµ Ð³Ð¾ÑģÑı
ĠÐ´Ð¾Ð¼ Ð°ÑĪ
ĠD e
ÑĤ ÑĭÐ¹
Ð³ ÐµÐ±
ĠÐŁ ÐµÑĢÐµÐ´
ĠÑĥÑĩÐ°ÑģÑĤ Ð½Ð¸Ðº
Ð½ Ð°ÑĤ
Ġ195 5
ĠÑģÑĤÐ¸Ñħ Ð¾ÑĤÐ²Ð¾ÑĢ
ĠÐ½Ð°Ð»Ð¸Ñĩ Ð¸Ðµ
ĠÐ³ ÑĢÐ¸
ĠÐĺ ÑģÑģÐ»ÐµÐ´Ð¾Ð²
ĠÐ²Ð¾ÐµÐ½ Ð½ÑĭÐµ
ĠÐºÐ°ÑĤÐµÐ³Ð¾ ÑĢÐ¸Ð¸
ĠÐĳ Ð°Ð³
Ð¸Ð· Ð¸ÑĢÐ¾Ð²
ÑģÑĤÐ²ÐµÐ½ Ð½ÑĭÐ¼Ð¸
ĠÐ¸Ð·Ð²ÐµÑģÑĤ ÐµÐ½
Ð¼Ð¸Ð½Ð¸ÑģÑĤ ÑĢ
ĠÐĽÐ°ÑĤ Ð²
5 2
ĠÐ¢ Ð°
ĠÐ¤Ð¸Ð½Ð»ÑıÐ½Ð´ Ð¸Ð¸
ĠÐ½Ð° ÑĢÐº
ĠÐľ Ð¸ÑĤ
ĠÐĵ Ð¸Ð¿
ĠÑįÑĤ Ð½Ð¸ÑĩÐµ
Ð°ÑĤÐµÐ»Ñı Ð¼Ð¸
ĠÐ¿Ð¾ÑıÐ² Ð¸Ð»ÑģÑı
Ð¿Ð¾Ñģ Ð»ÐµÐ´ÑģÑĤÐ²Ð¸Ð¸
ĠÑĦÑĥÑĤ Ð±Ð¾Ð»ÑĮ
ÐµÐ½ ÑĨÐ¸Ñı
ĠÑģÐ²Ð¾Ð¹ ÑģÑĤÐ²
9 1
Ñİ Ð¹
ĠÐĹ Ð¾Ð»Ð¾ÑĤ
ĠÐ¿Ð¾ÑĢ ÑĥÑĩ
ĠÐ½Ð°ÑĥÑĩ Ð½Ð¾Ð¹
ĠÐķ Ð»Ð¸Ð·Ð°Ð²
ĠÐ¿ÑĢÐµÐ´ÑģÑĤÐ°Ð² Ð»ÐµÐ½Ñĭ
ĠÐ¿ÑĢÐ¾Ð³ÑĢÐ°Ð¼ Ð¼Ð°
ĠÐ¿ÑĢÐ¸ÑĢÐ¾Ð´ Ðµ
ĠÐļÑĢÐ°ÑģÐ½Ð¾ ÑıÑĢ
ĠÐ·Ð°Ð¸Ð¼ ÑģÑĤÐ²Ð¾Ð²
c he
Ġ4 00
ĠÑĢÐ°Ð±Ð¾ÑĤ Ð°ÐµÑĤ
Ð½Ð¾ÑĪ ÐµÐ½Ð¸Ðµ
ĠÐ¡ ÑĤÐ°
ĠÑĤÐµÑħÐ½ Ð¾Ð»Ð¾Ð³Ð¸Ð¸
Ð² Ð¾ÑģÑĤÐ¾Ñĩ
ĠÑģÐ¾Ð²Ð¼ÐµÑģÑĤ Ð½Ð¾
ĠÑĢÐ°Ð·Ð² Ð¸Ð²
ĠÐºÑĥÐ»ÑĮ ÑĤÑĥÑĢÐµ
ĠÐļÐ»Ð¸ Ð¼Ð°ÑĤ
ĠÐŁ Ð°
ĠÑĢÐµ Ð»ÑĮ
Ð¾Ñħ ÑĢÐ°Ð½Ð¸
ĠÐ½Ð° Ð±Ð¾ÑĢ
ÑĥÑī Ð¸Ðµ
ĠÐ²Ð·Ð°Ð¸Ð¼Ð¾Ð´ÐµÐ¹ÑģÑĤÐ² Ð¸Ñı
ĠÐº Ð°Ð»ÑĮ
ĠÐŁ Ð¾Ð·Ð´
ĠÑĤÐµÐ¿ Ð»Ð¾Ð²
ĠÐ± Ð¾
ĠÑįÐºÑģÐ¿ ÐµÐ´Ð¸
ĠÐŀÑĢ Ð³Ð°Ð½Ð¸
ĠÐ°Ð´Ð¼Ð¸Ð½Ð¸ÑģÑĤÑĢÐ° ÑĨÐ¸Ð¸
Ðº Ð°Ð»
Ð¡ Ð¢
ĠÑģÑĤÑĢÐ° ÑĤÐµÐ³
ĠÐľÐ¾ÑģÐºÐ¾Ð² ÑģÐºÐ¾Ð¹
ĠÐľÐ¸ÑħÐ° Ð¸Ð»Ð°
ĠÑĨ ÐµÐ½
ÑĥÐ»ÑĮ ÑĤÑĥÑĢÐ°
Ġ| -
ĠÐ¿Ð¸ÑģÑĮ Ð¼Ð°
ĠÐ°ÑģÑģ Ð¾ÑĨÐ¸
Ñĥ Ð¼Ðµ
ÑĦ Ð¸Ð½
ÑĦ Ð¸Ð·
ÑĳÐ½ Ð½Ð¾Ð¼
ĠÐ½Ð°ÑĨÐ¸Ð¾Ð½Ð°Ð»ÑĮ Ð½Ð¾Ð³Ð¾
ĠÑĢÐ¸Ð¼ ÑģÐºÐ¸Ð¹
ĠÐ°Ð¿ Ð¾ÑģÑĤ
ĠÐ¿ÑĢÐ¾Ð³ÑĢÐ°Ð¼Ð¼Ð¸ÑĢÐ¾Ð² Ð°Ð½Ð¸Ñı
ĠÐ±Ð¾Ð»ÑĮÑĪ ÐµÐ²
ĠÐ¿Ð¾ÑģÐµÐ» ÐµÐ½Ð¸Ñı
ĠÐļ Ð°Ð±
ĠÐľ ÐµÑģÑĤ
ÑĢÐ¾Ð² Ð¾Ð»ÑĮ
Ð·Ð° Ð¿
ĠÐ¸ÑģÑĤ Ð¸Ð½
ĠÐ¾ÑģÑĥÑīÐµÑģÑĤÐ² Ð»ÑıÐµÑĤÑģÑı
Ð± Ñİ
ÑĨÐ¸Ð¾Ð½ Ð½Ð¾Ðµ
ĠÑģÐ¾Ð·Ð´ Ð°Ð»
ÑĥÐ²Ð° ÑĪ
ĠÐ¡ Ð¸ÑĢÐ¸
Ð°ÑĤÐµÐ»ÑĮ Ð½Ð°Ñı
Ðļ ÐĲ
ĠÑģÐ»ÐµÐ´ Ð¾Ð²
ĠÐ³Ð»Ð°Ð² Ð½ÑĭÐ¹
Ð´ Ð¾Ð½
ĠÐ± Ð°Ð½Ðº
ĠÑĦ ÑĥÐ½Ð´Ð°Ð¼ÐµÐ½ÑĤ
ĠÐĶ ÐµÐ¹ÑģÑĤÐ²
ĠÐŁÑĢÐµÐ´ ÑģÐµÐ´
T he
Î ¿
ĠÐ» ÐµÐ¹
ĠÐ¸Ñģ Ð»Ð°Ð¼
e y
ĠÐłÐ¾Ð± ÐµÑĢÑĤ
ĠÐ¿Ð¾Ð´ Ð²Ð¾Ð´
ĠÐ¾Ð±ÑĬ ÐµÐºÑĤ
ĠÐ¾ÐºÐ¾Ð½Ñĩ Ð°ÑĤÐµÐ»ÑĮÐ½Ð¾
ĠÐ¾ÑĤÑģÑĥÑĤÑģÑĤÐ² Ð¸Ðµ
ÑĤ ÐµÑĢÐµ
Ðº Ð°Ð½Ð¸
ÐºÐ¾Ð² ÑĭÑħ
ĠÑĪ Ð°Ð³
ĠÐĶÐ¶ ÐµÐ¹Ð¼
ĠÐ½Ð°Ð¿ÑĢÐ°Ð² Ð»ÐµÐ½Ð¸Ð¸
Ð³ Ð°Ð»ÑĮ
ĠI X
ĠÑĢÐ°Ð±Ð¾ÑĤ Ð°ÑĤÑĮ
ÐĶ Ð¶
ĠÐ´Ð°Ð½ Ð½Ð¾Ð¹
ĠÐ¸Ð·ÑĥÑĩ ÐµÐ½Ð¸Ñı
Ð° ÑĢÐµÐ²
Ñħ Ð¾
ĠÐ·Ð°Ð² Ð¾Ð´Ð°
ĠÐ¿ÑĢÐ¾ÑĤÐ¸Ð² Ð½Ð¸ÐºÐ°
ĠÐ²ÑĭÑĪ Ð»Ð°
Ð¾Ð¿ ÐµÑĢÐ°
ĠÑģÑĩÐ¸ÑĤ Ð°ÐµÑĤ
Ð»Ð°Ð² ÑıÐ½
Ñħ Ñĥ
ĠÐº Ñĥ
ĠÑĤ Ð¸
ĠÐ¿Ð¾Ð» ÐµÐ·
ĠÑģÐ²Ð¾Ð±Ð¾Ð´ Ñĭ
ĠÐº ÑĢÐµÐ¼
ĠÐĳ ÐµÐ»ÑĮ
ĠÐ¼Ð°ÑĤÐµÑĢÐ¸ Ð°Ð»
as s
Ð¾Ð² Ð¾Ðµ
ĠÐĿÐ° ÑĥÑĩ
ĠÐ¤ÑĢÐ°Ð½ ÑĨÑĥÐ·
ĠÑĨÐ¸ ÐºÐ»
ĠÐ¾Ð±Ð¾Ð·Ð½Ð°Ñĩ ÐµÐ½Ð¸Ñı
ĠÐºÑĢÐ°Ð¹ Ð½Ðµ
ĠÐ½ Ð¸ÑĩÐµÐ³Ð¾
Ð½Ð° Ð¼Ð¸
ĠÐ¡Ð¼ Ð¾Ð»
ĠÐºÐ°Ð½ Ð°Ð»
ĠÐ±Ð¾Ð»ÑĮÑĪ Ð¸Ðµ
ĠÑĥÑĩÑĳ Ð½ÑĭÑħ
5 3
Ð°Ðº ÑĤÐ¸Ð²
ĠÐ¿Ð¾Ð» ÑĳÑĤÐ°
ĠÐĳ ÑĥÐ»
ĠÐ¿ÑĢÐµ Ð¶
Ġ193 1
ĠÑĩÐ¸ÑģÐ»ÐµÐ½ Ð½Ð¾ÑģÑĤÐ¸
Ð½ÐµÐ¹ ÑĪÐ¸Ðµ
ĠÐ²Ð· ÑıÑĤ
ĠÐ¿ÑĢÐµÐ´ Ð¿Ð¾Ñĩ
ĠÑģÐ°Ð¼Ð¾ ÑĥÐ¿ÑĢÐ°Ð²
ĠÐºÐ¾ÑĢÐ¾Ð» ÑĳÐ¼
ĠA l
ĠÐºÐ¾Ð½ÑĤ Ð¸Ð½ÐµÐ½ÑĤ
ĠÑĤÑĢÐµÐ± Ð¾Ð²Ð°Ð½Ð¸Ñı
ĠÐĿÐ¸ Ð¶Ðµ
ĠÐ£Ð½Ð¸ Ð²ÐµÑĢÑģÐ¸ÑĤ
ĠÐ¡ Ð¸Ð±Ð¸ÑĢ
ĠÐļ Ð°Ð»Ð¸
ĠÐĽ Ð¾Ð¼
ĠÐ´Ðµ ÑıÑĤ
Ð½Ð¾ÑģÑĤ ÑıÑħ
un g
ĠÐ¾Ð±ÑĥÑĩ ÐµÐ½Ð¸Ñı
ĠÐķÐ³Ð¸Ð¿ ÑĤÐ°
ĠÐ¶ÑĥÑĢÐ½ Ð°Ð»Ð°
ÐµÑĤ Ñĥ
Ð°ÑĤ ÑĥÑĢ
ĠÐ¨ Ð²ÐµÐ¹ÑĨ
ĠÐ½Ð°Ð¿ÑĢÐ°Ð² Ð»ÐµÐ½
ĠÐ¼ÑĥÐ· ÐµÑı
ĠÐ±Ð¾Ð»ÐµÐ· Ð½Ð¸
Ñı Ð½Ð¾Ð²
ĠÐ³ Ð¾ÑĢÑĭ
Ð°Ð² ÑĢÐ¸
ĠÐŁÑĢÐ¸ Ð¼ÐµÐ½
Ð¤ ÑĢÐ°Ð½
ĠÐºÐ°Ð½ Ð°Ð´
ĠÐ¿Ð¾Ð»ÑĮÐ· Ñĥ
ÑĢÐ¾Ð² Ð°Ð½Ð¸Ñı
ĠÐ¤ Ð¸Ð»Ð¾ÑģÐ¾ÑĦ
ĠÐ¾Ðº ÑĢÐµÑģÑĤ
ĠÐ»ÑİÐ± Ð¾Ð²
ĠÐ» Ð¸Ð½Ð³
ĠÐ¿Ð°ÑĢ Ðº
ĠÐ¿ÑĢÐ¾Ð¼ ÐµÐ¶
ĠÐŃÐºÐ¾Ð½Ð¾Ð¼ Ð¸ÐºÐ°
ĠÐ°ÑĢÐ¼Ð¸ Ñİ
Ð´ Ð°Ð¼
ĠÐĴÑģÐµ Ð³Ð¾
ĠÐºÐ¸ÑģÐ»Ð¾ÑĤ Ñĭ
ĠV III
ĠÑĥÐ»Ð¸ ÑĨÐµ
Ð¾Ð³ Ð°
ĠÐ³ Ð¸ÑĤ
ĠÑĦ Ð¸Ðº
ĠÐĶ Ð¾Ð±
ĠÐ¼Ð¸Ð½Ð¸ÑģÑĤ ÑĢ
Ð½ Ð¸ÑĤÑĮ
ĠÑģÐ»ÐµÐ´ÑĥÑİÑī Ð¸Ð¹
ĠÐ¦ÐµÑĢÐºÐ¾Ð² ÑĮ
ĠÐ´ ÑĢÑĥÐ¶
ĠÑĦ Ð»Ð°Ð³
ĠÐ¿ÐµÑĢÐµ ÑĥÐ»
ĠÐ¾Ð¿ÑĢÐµÐ´ÐµÐ» ÐµÐ½Ð¸Ðµ
ĠÐ²Ð¾Ð¿ÑĢÐ¾Ñģ Ñĭ
5 8
Ñĩ Ð¸Ð½Ñĭ
ĠÐ»Ð°Ð± Ð¾ÑĢÐ°
ÑĢÐ¾Ð¿ Ð¾Ð»
ĠÑģÑĢÐµÐ´ Ðµ
ĠÐ²ÐµÐºÐ° Ñħ
ĠÐ¿Ð¾Ð· Ð½
ĠÐ°ÑĢÑħÐ¸ÑĤÐµÐº ÑĤÑĥÑĢÑĭ
ĠÐ¿ÑĢÐµÐ´ÑģÑĤÐ°Ð²Ð»Ñı ÑİÑĤ
Ð¾Ðº Ðµ
Ð»ÐµÐ½ Ð½Ð¾
ĠÑģÐ¾Ð³Ð»Ð°ÑĪ ÐµÐ½Ð¸Ðµ
ĠÐ¨ Ð°Ñħ
ĠÐ³ÐµÑĢ Ð¾
ÑģÐº Ñĥ
ÐµÑĢ Ñģ
Ð¸ÑĢÐ¾Ð² Ð°Ð½Ð¸Ðµ
Ð½Ð¾ÑĪ ÐµÐ½Ð¸Ñı
ÑĢÐ°Ð±Ð°ÑĤÑĭ Ð²Ð°
ĠÐ¾ÐºÐµ Ð°Ð½Ð°
ĠÐ¿ÑĢÐµ Ð±Ñĭ
Ð¸ÐºÐ° Ð¼Ð¸
ĠÑĢÐµÐ· ÐºÐ¾
ĠÐ¾Ð´Ð¸Ð½ Ð°ÐºÐ¾Ð²
ĠÐ¿ÑĢÐ¾ÑģÑĤÑĢÐ°Ð½ ÑģÑĤÐ²Ðµ
ĠÐ¸ÑģÐºÐ»ÑİÑĩ Ð¸ÑĤÐµÐ»ÑĮÐ½Ð¾
Ñħ Ð¸Ð¼Ð¸
ĠÐĴ Ð¸Ð·Ð°Ð½
ĠÑĩ ÑĥÐ´
ĠÐ³Ð»Ð°Ð² Ð½ÑĭÑħ
ÑįÐ½ ÐµÑĢÐ³
ĠÐ¾ÑĤÐ´ ÑĭÑħ
ĠÑĤÐµÐº ÑģÑĤÐ°
ĠÐľ Ð¸Ðº
Ð¾Ð»Ð¾Ð³ Ð¸ÑĩÐµÑģÐºÐ¾Ð³Ð¾
Ð¶ ÐµÐ²
ĠÐŀ Ð¼
ĠÐ¶Ð¸Ð· Ð½
ĠÐ¿ÑĥÑĤÐµ ÑĪÐµÑģÑĤÐ²
ĠÐ³Ð¾ÑĢÐ¸ Ð·
ÑĢÐµ Ð»Ð¸
ĠÐĳ Ð°
ĠÐĳ ÑĢÐ°
Ð¾ ÑĢÐ°Ð·Ð´
Ġ19 00
Ð· Ñĥ
Ð½ Ð°ÑĢÑı
ĠÐ²Ð¾ ÑģÐº
ĠÐ¸Ð·Ð²ÐµÑģÑĤ Ð½Ñĭ
ĠÐºÐ¾ ÑįÑĦÑĦÐ¸ÑĨÐ¸
ĠÑĦÑĢÐ¾Ð½ ÑĤÐ°
Ð¸ÑĤ Ð¾Ð¼
ÑģÑĤÐ²Ð¾Ð² Ð°Ð»Ð¸
u x
ÐºÐ° Ð´
ĠÐĶ Ð¾Ð»
ĠÐ´Ð¾ÑģÑĤ Ð°Ð²
ĠÐĵÐµÑĢÐ¼ Ð°Ð½Ð¸Ñı
ĠÑģÐ¾Ð±ÑĢÐ° Ð½Ð¸Ðµ
ÑĢ Ð³
Ð± Ð»
Ð¾Ð³ ÐµÐ½
or t
ĠÐŀÐ±Ñī Ð°Ñı
ĠÑģ ÐµÐ»Ð¾
ĠÐĿÐ¾Ð² ÑĭÐ¹
ĠÐ¸ÑģÐºÑĥÑģ ÑģÑĤÐ²Ð¾
4 6
ĠÐĺÐ¾Ð°Ð½ Ð½Ð°
ĠÐĿÐ¾Ð²Ð¾Ñģ Ð¸Ð±Ð¸ÑĢ
ĠÐ¼ Ð°Ð¹
ĠÐ¡ Ð°Ðº
ĠÐ¡ Ð»ÐµÐ´
ÐµÑģ Ð»Ð¸
ĠÐ¿ÑĢÐ¾Ð´ Ð°Ð¶
ÐµÐ½Ð³ ÐµÑĢ
ĠÑģÑĤÐ°ÑĤÑĮ Ð¸
ĠÑĤÐ²Ð¾ÑĢ ÑĩÐµÑģÑĤÐ²Ð°
ĠÐ¾ÑĤÐ»Ð¸ ÑĩÐ°ÐµÑĤÑģÑı
ĠÐŁ ÑĢÐ¾Ðº
ĠÑį ÐºÐ¸Ð¿Ð°Ð¶
ĠÐ½Ðµ Ð¾Ð¿
ĠÐ¿ÐµÑĢÐµ Ð²Ð¾ÑĢ
ĠÐ¿ÑĢÐµÐ´ÑģÑĤÐ°Ð² Ð»ÐµÐ½
ĠÐ±ÑĭÐ² ÑĪÐ¸Ð¹
ĠÐĿÐ° Ð¿Ð¾Ð»Ðµ
ĠÐ¾ÑĤÐ´ÐµÐ»ÑĮ Ð½ÑĭÐµ
ĠÐĳÐ¾Ð³ Ð°
ÑĥÐ»ÑĮ ÑĤÐ¸
ĠÑģÐ²ÑıÐ· Ð°Ð½
ÑıÑī ÐµÐ¹
ĠÑģÐ¾Ð´ÐµÑĢÐ¶ Ð°Ñī
200 0
ĠÐ¡Ð¸Ð± Ð¸ÑĢÐ¸
ĠÐ¥ Ñĥ
ĠÐ¾ÑģÑĤ Ð°ÑĤ
ĠÐĳÐ»Ð°Ð³ Ð¾Ð´Ð°ÑĢÑı
ĠÐ² Ð¾ÑģÑĮ
ĠÑĤÐµÐ» Ð¾
ĠÐ°Ð´Ð¼Ð¸Ð½Ð¸ÑģÑĤÑĢÐ°ÑĤÐ¸Ð² Ð½Ð¾
ĠÐ± ÐµÑģÑģ
ÑģÑĤÐ²Ð¾Ð² Ð°ÑĤÑĮ
ĠÑĢÐµÐ°Ð»Ð¸Ð· Ð°ÑĨÐ¸Ð¸
ĠÐ¸Ð´ ÑĳÑĤ
ĠWind ows
ĠÐ½ Ð°Ð»Ð¾Ð³
Ð°Ðº Ð¾Ð¼
ÑĤÐ° ÑĨÐ¸Ð¸
ic h
ÐµÐ´ Ð¸Ð¸
ĠÐĶ ÐµÐ»
ĠÐ¨ Ð°ÑĢ
ĠÐ²Ð· ÑĢÑĭÐ²
ĠÑĥÑĩÐ°ÑģÑĤ Ð½Ð¸ÐºÐ¾Ð²
ĠÐ¿Ð°ÑĢÐ°Ð»Ð» ÐµÐ»ÑĮ
Ġ1 20
ĠÐľ Ð¸
Ð»ÐµÐ´Ð¾Ð² Ð°ÑĤÐµÐ»ÑĮ
Ð¸Ð½ Ð°Ð¼
Ð¾Ð± Ð½Ð¾Ð²
Ð²ÐµÑĢ Ð´
Ð¸Ð½Ð¾ ÑģÑĤÑĢÐ¾
ĠÐĲÐ± Ð´
ĠÐŁ ÑĢÐ¾Ð´
ĠÐ¼Ð½ ÐµÐ½Ð¸Ðµ
ĠÐ¿ÑĢÐ¾Ð² ÑĳÐ»
ĠÑĢÐµÐ± ÑĳÐ½
ĠÐ½Ð° ÑĤ
ĠÐ¼Ð°ÑĤÐµÐ¼Ð°ÑĤ Ð¸Ðº
ĠÐ²ÐµÑĢÑħ Ð¾Ð²
ĠÐºÐ¾Ð½Ñģ ÐµÑĢÐ²
ÑĤÐ¸ ÐµÐ¼
X I
ĠÐ³Ð°Ð· ÐµÑĤÑĭ
ĠÐŁ Ð¾Ð½
ĠÑĢÐµ Ð¿
Ġ $
Ñİ Ð´Ð°
ÑģÑĤÐ² ÑĥÑİÑĤ
ĠÐł ÐµÐ²
ĠÐĺ Ð¾Ñģ
ĠÐ½Ð°ÑĨÐ¸Ð¾Ð½Ð°Ð»ÑĮ Ð½Ð¾Ð¹
ĠÐ´Ð¾Ð³Ð¾Ð² Ð¾ÑĢÐ°
ĠÐ½ÐµÐ¾Ð´ Ð½Ð¾Ðº
ĠÐº Ð°ÑĢÑĮ
ĠÐĹ Ð¸Ð¼
ĠÐľÑĥÑħ Ð°Ð¼Ð¼
â ĪĴ
ĠÐ² Ð¸Ð·Ð°Ð½ÑĤÐ¸Ð¹
ĠÐļ Ð¸
Ð¾Ð»Ð¾Ð³ Ð¸ÑĩÐµÑģÐºÐ°Ñı
ĠÑĢÐ°Ñģ ÑģÐºÐ°
ĠÐºÑĥÑĢ Ñģ
ĠÑĤ Ð°
ĠÐ¾ÑģÐ½Ð¾Ð² Ð½ÑĭÐ¼
ĠÑĢÑı Ð´Ðµ
9 3
Ð°Ð½ ÑĨÐµÐ²
Ð¾Ñĩ ÐºÐ°
ĠÑģÑĦ ÐµÑĢÐµ
ĠÐ¿Ð° ÑĨÐ¸
ĠÑĤÐµÐ»ÐµÐ²Ð¸Ð´ ÐµÐ½Ð¸Ñı
ĠÑĢÐ°Ñģ ÑģÑĤÑĢÐ¾Ð¹
ĠÐļÐ°ÑĢ Ð»Ð°
ĠÐ±Ð¸Ð±Ð»Ð¸Ð¾ÑĤ ÐµÐº
Ðµ ÑĩÐµ
ĠÐĺ Ð¸Ñģ
Ġ% ).
ĠÐ´ÑĢÐµÐ² Ð½Ð¸Ñħ
ĠÐ¾ÑĤ ÑĢÑıÐ´
ĠÐĶ Ð°Ð»
ĠÐĺÐ½ ÑģÑĤÐ¸ÑĤÑĥÑĤ
ĠÐŁÐµÑĢÐ² Ð¾Ðµ
ĠÑĢÐ°Ð² Ð½Ð¾
ĠÐŁÐ°Ð¼ ÑıÑĤÑĮ
Ð»Ñı ÑİÑĤÑģÑı
ÑĢÐµÐ´ ÐµÐ»ÐµÐ½Ð¸Ðµ
ĠÐĵ Ð¸ÑĤ
ĠÐ¡Ð¾ ÐµÐ´Ð¸Ð½
ĠÐļÑĢÐ°Ñģ Ð½Ð¾Ð¹
ÑģÑĤÐ²ÐµÐ½ Ð½Ð¾ÑģÑĤÑĮ
Ñĩ ÑĳÑĤÐ°
Ð°Ð½ ÑĤÐ¸
ĠÐ·Ð°Ðº Ð¾Ð½Ð¾Ð¼
Ð°ÑĤÐ¾ÑĢ Ð¾Ð¼
ĠÐ¾Ð± Ð¾ÑģÐ½Ð¾Ð²
ĠÐĶ Ð¾Ðº
ĠÐ¼ÐµÑģÑĤ Ð°Ñħ
ĠÐĸ ÐµÐ½
ĠÐĳ Ð¾Ð¶
ĠÐŃ Ð²
ĠÐŃ Ð¿
ĠÐ²ÐµÑĢÐ¾ÑıÑĤ Ð½Ð¾
ĠÐ»ÐµÑĤ Ð¾Ð¼
ĠÐ´ ÐµÑĢÐµ
ÐµÐ»ÑĮ Ð·Ñı
ÐµÐº ÑĤÐ¾Ð¼
ĠÑģÐ¾Ð¾Ð±Ñī ÐµÐ½Ð¸Ñı
Ð¾Ñĩ Ð½Ð¾
ĠÐ¼ÐµÑģÑı ÑĨ
ĠÑĤ ÐµÑģ
Ð¡ Ð¾ÑİÐ·
Ñħ ÑĥÐ´
ĠÐļ ÐµÐ¼
Ñĩ Ð°Ð»ÑĮ
Ð°ÑĤÐµÐ»ÑĮ Ð½ÑĭÐ¼
ĠÐ¿Ð¾Ð´Ð³Ð¾ÑĤÐ¾Ð² ÐºÐ¸
ĠÐļÑĢÑĭ Ð¼
ÑĮÐµÑĤ Ð½Ð°Ð¼
Ñģ Ð¼ÐµÐ½
Ð¼Ð¸ Ð¸
ĠÐµ Ð´Ð¸
ĠÑĪ Ð¸ÑĢÐ¸
ĠÐ¿ÐµÑĢÐµ Ð²
ĠâĢ ĵ
ĠÐ¶ ÐµÐ½Ð¸
ÐµÐ· Ð°
ĠÑĢÐµÐ·ÑĥÐ»ÑĮÑĤ Ð°ÑĤÑĭ
ĠÐ°Ð» ÐºÐ¾Ð³
ĠÑĩÐµÐ¼Ð¿Ð¸Ð¾Ð½ ÐºÐ°
ĠÐ½ÐµÐ´Ð¾ÑģÑĤ Ð°ÑĤ
ĠÐłÐ¸Ñĩ Ð°ÑĢÐ´
Ðº Ñģ
Ð¾Ðº Ð¾Ð»Ð¾
ĠÑģÐµÐ¼ ÑĮ
ĠÐķÐ²Ð³ ÐµÐ½Ð¸Ð¹
Ñĩ Ð½ÑĭÐ¼
ĠÐºÐ¾Ð½ ÐµÑĨ
ĠÑģÐ¾Ð² Ð¿
ĠÐ¿ÑĮ ÐµÑģ
ĠÑģ ÑĥÑīÐµÑģÑĤÐ²ÐµÐ½Ð½Ð¾
ĠÐ¼ Ð°ÑĤÑĮ
ĠÑĦ Ð°Ð·
ÑģÑĤÑĮ Ñı
ĠÑĥÐ½Ð¸Ð²ÐµÑĢÑģÐ¸ÑĤÐµÑĤ Ðµ
ĠÐ¸Ð» Ð»Ñİ
ÐµÐ´ Ð»Ð¸Ð²
ĠÐľ ÐµÑĢ
ĠÑģÐ²ÑıÐ· Ð°Ð½Ð½ÑĭÐµ
ĠÑĤÐ¾ÑĢ Ð¶Ðµ
ac k
Ð± Ð°Ð»
ÑĨ ÐºÐ¾Ð³Ð¾
ĠÑģÐ²ÑıÑī ÐµÐ½
Ð» Ð¾Ð³Ð¾
ĠÐ¿Ð¾Ð» ÐºÐ¾Ð²
ÑıÐ½ ÑĥÑĤ
ĠÐ¤ Ð¸Ð»ÑĮ
ĠÐ¿ÑĢÐ¾Ð¼ÑĭÑĪÐ»ÐµÐ½ Ð½Ð¾ÑģÑĤÑĮ
ĠÐŁÐ¾Ð»ÑĮÑĪ Ð¸
ĠÐ¿ Ñĭ
ÐµÑĤ Ð¸Ð¸
ĠÐ½Ð° Ð´Ðµ
Ð»Ñı Ð»
ÑĥÑģ Ð¾Ð²
ĠÐ½Ð°Ð·Ð² Ð°Ð½
ÑĢÐ¸ ÐºÐ°Ð½
ĠÐ½Ð° ÑģÑĤÑĢÐ¾
ÐµÑĢÐ± ÑĥÑĢÐ³Ð°
ĠÐļÐ¾Ð½ Ñģ
ĠÐłÐ¸Ð¼ Ðµ
Ð¾Ð³ Ð¾ÑĢ
ĠÐ´ ÑĢÑĥÐ·
ĠÐ¼ ÑıÐ³
ĠÐ·Ð° Ñģ
ĠÐ¤ Ð¸Ð»
ĠÐ±ÑĭÐ² ÑĪÐµÐ³Ð¾
ÑĤ Ð¾Ð¹
Ð¿ Ð°ÑĢ
ĠÐ´Ð¸ Ð°Ð¿Ð°Ð·
ĠÑĤÐ¾Ñĩ ÐºÐ°
ĠÐ´Ð²Ð° Ð¶Ð´Ñĭ
Ð»Ð¾ÑīÐ°Ð´ ÑĮ
ĠÐĴÐ¼Ðµ ÑģÑĤÐµ
ĠÐ»Ð¸ÑĤÐµÑĢÐ° ÑĤÑĥÑĢÐ°
ĠÐ¸Ð½ÑĦ ÑĢÐ°
p t
ÐµÐ· Ð´Ñĭ
ĠÐ¸Ð¼Ð¿ ÐµÑĢÐ¸Ñı
ĠÐ¾Ð±ÑīÐµ ÑģÑĤÐ²ÐµÐ½Ð½ÑĭÐ¹
ĠÐ»ÐµÑģ Ð°
ĠÐ¿ÑĢÐ¸Ð½Ð°Ð´Ð»ÐµÐ¶ Ð¸ÑĤ
ĠÐĿÐ¸ÐºÐ¾Ð»Ð° ÐµÐ²Ð¸Ñĩ
ĠÐ½ÑĥÐ¶ Ð½Ð¾
ĠÐ¿ÐµÑģ Ð½Ñı
ĠÑģÐ¸Ð»Ð° Ð¼Ð¸
ĠÐ¡ Ð¸Ð»
Ð°Ð»ÑĮ Ð½Ð¾ÑģÑĤÑĮ
ĠE n
ĠÑĤ ÑĢÐ¾Ð¿
ÐµÐ´ Ð¸ÑĨÐ¸Ð¸
Ð°Ð½Ð´ Ð¸Ð½
ĠÐ³Ð¾ÑĢÐ¾Ð´ ÑģÐºÐ¸Ñħ
Ðĺ ÑģÑĤ
Ð½Ð¸ÑĨ Ðµ
ĠÐ´Ð¾ÑĢÐ¾Ð³ Ð°
ĠÑģÑĥÐ¿ ÑĢÑĥÐ³
ĠÐĶ Ñİ
ĠÐ¿Ð¾Ð´ Ð½Ñı
ÐºÐ¾Ð¼ Ð°
ĠÐ³ÑĢÑĥÐ¿Ð¿ Ðµ
ĠÐ¿ÑĢÐµÐ´ÑģÐµÐ´ Ð°ÑĤÐµÐ»Ñı
Ð½ Ð¸Ð½
Ð¿ Ð°ÑĢÑħ
ĠÐ¥ ÑĥÐ´
ĠÑģÑĤ Ð¸Ð»Ðµ
ĠÐ¤ÑĢÐ°Ð½ ÑĨÐ¸Ñı
ĠÐ³ÑĢÐ°Ð² Ð¸ÑĤÐ°
Ð¾Ð³ Ð°Ð½
ĠÐ¼ Ð¾ÑĢÐ°
ÑĳÐ½ Ð½ÑĥÑİ
ĠÑĪ ÐµÑģÑĤ
Ð³Ñĥ ÑĪ
ĠÑģÑĢÐµÐ´ Ð½ÐµÐ¹
ĠÐ³ÑĢÑĥÐ¿Ð¿ Ñĥ
ĠÐ½Ð°ÑĢÐ¾Ð´ Ð½ÑĭÑħ
ĠÑĢÐ¾ÑģÑģÐ¸Ð¹ ÑģÐºÐ¾Ð¹
ĠÐ¿Ð¾Ñĩ ÑĤÐ¾Ð²
Ð¼ Ð¾Ð´
ĠÐ¡ Ð¸ÑģÑĤÐµÐ¼
ĠÑį Ð²
ĠÑĦ ÑĢÐ°Ð³Ð¼ÐµÐ½ÑĤ
ĠÐĳ ÑĢÑİ
ĠÑĢÐµ ÑĦÐµÑĢ
ÑĢÐ°Ð· Ð¸Ð»Ð¸
ĠÐ½Ð°Ð¹ ÑĤÐ¸
ÑĨ Ð²ÐµÑĤ
ÐµÐ½Ð° ÑĩÐ°Ð»ÑĮ
ĠÐ¦ÐµÑĢ ÐºÐ²Ð¸
ĠÐĿÐ°Ð· Ð²Ð°Ð½Ð¸Ðµ
ĠÑģÐµÐ¹ ÑĩÐ°Ñģ
Ð¿ ÑĤÐ¾Ð¼
ĠÑĥ Ð½Ð¸Ðº
Ġ19 12
ĠÐºÐ¾Ð¼ Ð¼Ñĥ
ĠÑİ Ð³
ĠÐľ Ð¾Ð¶
ĠÐ´Ð°Ð½ Ð½ÑĭÐ¹
ĠÐ¿Ð¾Ñĩ ÑĳÑĤ
ĠÐ²ÑģÑĤÑĢÐµ Ñĩ
ĠÐŁÑĢÐµÐ´ ÑģÑĤÐ°Ð²
ĠÐºÐ»ÑĥÐ± Ð°
ÑĥÐ± ÐµÐ¶
ÐłÐ¾Ð´ Ð¸Ð²ÑĪÐ¸ÐµÑģÑı
ÑĢÐ°Ð²Ð¾ Ð¾ÑħÑĢÐ°Ð½
ĠÐĴ Ð°ÑĪ
ÐµÑģ ÑģÐ°
Ð¾Ð±ÑĢÐ°Ð· Ð¾Ð²
ĠÑĥÑģÑĤÑĢÐ¾Ð¹ ÑģÑĤÐ²Ð¾
ĠÐļÐ¸ÑĤÐ° Ðµ
5 7
ĠÐ¿ÑĢÐ¸Ð½ ÑĨÐ¸
ĠÐ´Ð¾ÑģÑĤÐ¸ Ð¶ÐµÐ½Ð¸Ñı
ĠÐ¼Ð¸Ð½Ð¸ÑģÑĤ ÑĢÐ¾Ð²
ĠÐ´ Ð·
ÐµÐ· Ð¶
ĠÑįÐ¿ Ð¸Ð·
Ġ Ã
ĠÐ¿ ÐµÑĤ
ÑĢÐ¸ ÑĢÐ¾Ð²Ð°Ð½
ĠÐ½Ð° ÑĢÑıÐ´Ñĥ
ÑĥÑħ Ð°
Ð¸ÑĨ Ñĥ
ĠÐ¡Ð² ÑıÑī
ĠÐĽÑĥ ÑĨÐ¸Ð¹
ĠÑĨÐµÐ½ÑĤÑĢÐ°Ð»ÑĮ Ð½Ð¾Ð¹
Ñĭ Ð½
ĠÐĹ Ð½Ð°Ñĩ
ĠÐ¿Ð¾Ðº Ð¸Ð½
ĠÐ³Ð»Ð°Ð² Ñĭ
ĠÐ±ÑĥÐ´ Ð´
ĠÐĿÐ°Ð³ ÑĢÐ°
Ġ Q
ÐµÐ½ ÑĨÐµÐ²
ÑĳÐ½ Ð½Ð¾ÑģÑĤÐ¸
Ð£ Ð¼ÐµÑĢÑĪÐ¸Ðµ
Ġ195 2
ic a
ĠÐº Ð¾ÑĪ
ĠÐ§ ÐµÑĩ
ĠA r
ĠÑĦÐ¾ÑĢÐ¼Ð¸ÑĢÐ¾Ð² Ð°Ð½Ð¸Ñı
Ð¿ Ð¾Ð»ÑĮ
ĠÐļÐ° ÑģÐ¿
ĠÐ¼ÐµÑģÑı ÑĨÐ°
5 9
ĠÐ¾ Ñī
ĠÑģÐ¾Ð² Ð¾ÐºÑĥÐ¿
ĠÐŁ ÑĥÐ±Ð»Ð¸
ĠÐ¿Ð¾ÑģÑĤ ÑĢÐ¾Ð¹
ĠÐ¿Ð¾Ð±ÐµÑĢÐµÐ¶ ÑĮÐµ
Ð´ Ð»Ñı
ĠÐ½Ð° ÐºÐ°Ð·
ĠÐĴ Ð°Ð¶
Ð¸ÑĢÑĥ ÑİÑĤ
ĠÐ¸Ð·Ð´ Ð°Ð½Ð¸Ñı
ĠÐ¾Ð±ÑĬÐµÐ´Ð¸Ð½ ÐµÐ½Ð¸Ñı
ĠÐ¢ Ð°Ð½
ĠÐ²Ð¾ ÐµÐ²
ĠÐºÐ¾ Ð°Ð»Ð¸
ĠÐ¾ÑģÐ½Ð¾Ð² Ñĥ
ĠÐ¿ÐµÑĢ ÑģÐ¾Ð½
ĠÑĢÐ°Ð·ÑĢÐ°Ð±Ð¾ÑĤ ÐºÐ¸
Ð¾ Ð¾ÑĤ
Ġ19 10
ĠÐ²ÑģÑĤÑĥÐ¿ Ð¸Ð»
Ð°ÑĢ Ð½Ð¾Ð¹
ĠÐ¾ÑĢÐ³ Ð°Ð½Ñĭ
ĠÑģÐ´ÐµÐ» Ð°Ð»
ĠÐ¡Ð°ÑĢÐ° ÑĤÐ¾Ð²
ĠÑĦÐ¸Ð· Ð¸
ĠÐ³Ð°Ð· ÐµÑĤÐ°
5 1
i z
ĠÑĩ ÑĳÑĤ
ĠÐĴ ÑĤÐ¾ÑĢÐ°Ñı
ĠÐ§ Ð¶
ĠÐ°Ð½Ð°Ð»Ð¸Ð· Ð°
Ġ3 6
ĠÑħÐ¸Ð¼Ð¸ Ð¸
ĠÐķ Ð¡
Ġ15 0
iv e
ĠÐ¿ÐµÑĢÐµ ÑģÐµÐ»
ĠÐ§ Ð°ÑĢ
ĠÐ¼ Ð°Ð½Ð¸
ĠÐ³ Ð¾ÑģÑĤ
ĠÐ· Ð¾Ð½
ĠÐ¡ÑĢÐµÐ´ Ð½ÑıÑı
ĠÐ¿ ÐµÑħ
ĠÐ½Ð° ÑĪÐµÐ¹
ĠÐ°ÑĢ ÑĤ
ĠÐ¡ÑĤ Ð°Ð²
ĠÐ¼Ð½Ð¾Ð³Ð¾ÑĩÐ¸ÑģÐ»ÐµÐ½ Ð½ÑĭÐµ
ĠÐ¾Ð± ÑģÑĥ
ĠÐ¿ÑĢÐ¸ ÑģÑĤÑĥÐ¿
ĠÑĨ Ð¸ÑĤ
ĠÐ·Ð² Ð°Ð½Ð¸Ñı
ĠÑĥÐ´Ð¾Ð² Ð»ÐµÑĤ
ÑģÐ¸ ÐµÐ¹
ĠÐ¿ÑĢÐµÐ² Ð¾Ñģ
ÑĦ ÐµÐ¹
ĠÐľ ÐĴ
ĠÑģÐ¾Ð·Ð´ Ð°ÑĤÑĮ
ĠÐ²Ð¾Ñģ Ð¿Ð¸ÑĤ
or k
ĠÐ¸Ð·Ð´ Ð°Ð½Ð¸Ðµ
ĠÑģÑĤÐµÐ¿ ÐµÐ½ÑĮ
ĠÐ²Ð»Ð¸Ñı Ð½Ð¸Ñı
ĠÐ¿ÑĢÐ¾ÑĨÐµÑģ ÑģÐ¾Ð²
ĠÑģÐ¾Ñģ ÑĢÐµÐ´
ĠÐŃÑĤÐ¸ Ð¼
ĠÑĩÑĥÐ² ÑģÑĤÐ²
ĠÐ¤ÑĳÐ´ Ð¾ÑĢÐ¾Ð²
ĠÑĥÐ¿ÑĢÐ°Ð·Ð´ Ð½
ĠÐ¿ ÑģÐµÐ²Ð´
Ð¾Ð· Ð¾Ð²
ĠÐ¿Ð¾Ð´ ÑĢÐ¾Ð±
ÐµÑĨ ÐºÐ¸Ð¹
ĠÑģ Ð½Ñı
ĠÑĪ ÑĤÑĥÑĢ
ĠÑįÐºÑģÐ¿ ÐµÐ´Ð¸ÑĨÐ¸Ð¸
ĠÐ³ÐµÐ½ÐµÑĢÐ° Ð»Ð°
ĠÑĥÑģÐ» ÑĥÐ³
Ð¿ ÐµÐ²
ĠÐ´ ÑĭÑħ
Ð¾Ð¹ ÑĤÐ¸
Ð¼ÐµÑĢ ÑĤ
Ð»Ð¾Ð¶ ÐµÐ½Ð¸Ñı
ĠÑĥÐ¿Ð¾Ð¼Ð¸Ð½Ð° ÐµÑĤÑģÑı
Ðł ÑĥÑģ
ĠÐ¼ÐµÑĤÐ°Ð» Ð»Ð¾Ð²
Ð» ÑĭÑħ
Ð¾ÑĢ ÑıÐ¶
ĠÐ°Ð³ ÐµÐ½ÑĤ
ĠÐºÑĢÐµÐ¿ Ð¾ÑģÑĤÑĮ
ĠÐºÑĢÐ¸Ð· Ð¸Ñģ
ĠÐľ Ðĵ
ĠÐ¿ÐµÑĢÐµ Ð¼ÐµÑī
ÑģÑĤÐ¸ÑĩÐµ ÑģÐºÐ¸Ðµ
Ð¾ÑĢÐ°Ð·Ð´ Ð¾
ĠÐ£ Ð¶Ðµ
ÐºÑĢÐ° Ñģ
ĠÐ¿Ð¾ÑģÐ»ÐµÐ´ Ð½Ð¸Ñħ
ÐŁÐµÑĤÐµÑĢÐ±ÑĥÑĢÐ³ Ðµ
ĠÑĨ ÐµÐ»Ð¸
Ðĺ Ðļ
ĠÐłÐ¸Ð¼ Ð°
Ð¾Ð± Ð°
ĠÑĢÐ¾ÑģÑģÐ¸Ð¹ ÑģÐºÐ¾Ð³Ð¾
ĠÑĢÐ°Ð·Ð²Ð¸ÑĤ Ð¸Ð¸
ĠÐ¶ÐµÐ½Ñī Ð¸Ð½Ñĭ
ĠÐ½Ð°Ð» Ð¾Ð³Ð¾Ð²
Ġ19 13
ĠÑģÐ¾Ð± Ð¾ÑĢÐ°
ĠÐ¯ ÐºÐ¾Ð²
ĠÐ° ÑĥÐ´
ĠÐ¿Ð¾Ð» ÐºÐ¾Ð²Ð¾Ð´
Ð¸Ðµ Ð¿Ð¸ÑģÐºÐ¾Ð¿
ĠÐ±Ð¾Ð»ÑĮÑĪ Ð¾Ð³Ð¾
ĠÑģÐ¾Ð²ÐµÑĢÑĪ ÐµÐ½Ð½Ð¾
ĠÐ¿Ð¾Ð±ÐµÐ´ Ñĭ
ĠÐ¾ÑģÐ°Ð´ ÐºÐ¾Ð²
ĠÐłÐ¾ÑģÑĤ Ð¾Ð²
ĠÐļ Ð¸ÑĢÐ¾Ð²
Ð²Ð° ÑĢÐ¸
ĠÐ£ ÐºÐ°Ð·
ÑĥÐ½ Ð³
ĠÐĴÐ¾ Ð¾ÑĢÑĥÐ¶
ĠÐ½Ð°ÑĩÐ°Ð» Ð¾Ð¼
ĠÐ°ÑĢÑħÐ¸ÑĤÐµÐº ÑĤÐ¾ÑĢ
ĠÐ² Ð¾Ð¿
ĠÑģÑĭ Ð½Ð¾Ð²
ĠÐĴ Ð°Ð²Ð¸Ð»
ĠÐ½Ðµ ÑĢÐµÐ´
ĠÑģÐ¾ÑģÑĤÐ°Ð² Ð¸Ð»Ð°
Ð´ÐµÐ¼ Ð¾ÐºÑĢÐ°
ĠÐ¿ÑĢÐ°Ðº ÑĤÐ¸ÐºÐµ
ĠÐ¿ÑĢÐ¸Ð± Ð»Ð¸Ð·
ĠÑĢÐ°Ð·Ð´ ÐµÐ»Ñı
ĠÑĤÑİ ÑĢÑĮ
ĠÐĲÐ»ÐµÐºÑģÐ°Ð½Ð´ÑĢÐ¾Ð² Ð¸Ñĩ
ĠÐ²Ð°Ð» ÑİÑĤ
ĠÑĢÐ°Ð· Ð»Ð¸
ĠÐ¦ Ð¸
ĠP ro
ĠÐ¼Ð¸Ð½ ÐµÑĢÐ°
ÑĦ Ñĥ
Ð°Ð² Ñĭ
ĠÐĶ Ð°Ð³
ĠÐ¶ ÑĳÑģÑĤ
Ð¸Ñı Ð¼Ð¸
ĠÐĳÐ¾Ð»ÑĮÑĪ Ð°Ñı
ĠÐ¿ÑĢÐ¸ÑĪ Ð»Ð¾ÑģÑĮ
ĠÐĲÐ²Ð³Ñĥ ÑģÑĤ
ĠÐĴ Ð°Ð½
Ð¾Ð¿ ÑĢÐ¾
ĠÐ§ Ð°ÑģÑĤ
Ð»ÐµÑĤ ÑĢÑıÑģ
ĠÐ¿Ð¾ÑģÐ»ÐµÐ´ Ð½ÐµÐ³Ð¾
ĠÐ²Ð· ÑĢÐ¾Ñģ
Ð¿ ÑıÑĤ
ĠÑĦ ÑĢÐ°Ðº
ĠÐ¨Ð²Ðµ ÑĨÐ¸Ð¸
ĠÐŁÐ¾Ð· Ð¶Ðµ
ĠÐ¾ÑĤÐºÑĢÑĭ ÑĤÐ¸Ñı
ĠÑģÐ¾Ð¾Ð±Ñī ÐµÐ½Ð¸Ðµ
ĠÐ´Ð°Ð² Ð»ÐµÐ½Ð¸Ñı
ĠÐ¿Ð¾ÑĢÑıÐ´ ÐºÐµ
ĠÐ¾ÑĤÐºÐ°Ð· Ð°Ð»ÑģÑı
| |
ÑĦ Ð°Ðº
Ð¾Ñģ Ð¾Ð¼
Ð°Ð² ÑĪÐ¸Ð¼
ĠÐµÐ´Ð¸Ð½ Ð¸ÑĨÑĭ
ĠÐ¼ÐµÑħÐ°Ð½Ð¸ Ð·Ð¼
ĠÐŁÐ°Ð² Ð»Ð¾Ð²
ĠÐ» Ð¾ÑĪ
ĠÐ¥ Ð°Ð¹
ĠÐ·Ð² ÑĥÑĩ
ĠÑĢÐ¾Ð¼ Ð°Ð½Ð°
ĠÐ¡ ÐµÑĢÐ±
ÑģÐ¸ Ð»Ð¸
ĠÐ¼Ð°Ð» ÐµÐ½ÑĮ
ĠÐ²Ð¾Ð·Ð² ÑĭÑĪ
ĠÐľÐµÐ¶Ð´ÑĥÐ½Ð°ÑĢÐ¾Ð´ Ð½ÑĭÐ¹
ĠÑģÐµÑĢÐµ Ð±ÑĢÑı
o u
ĠÐ½ Ð¾Ð¼Ð¸Ð½
Ð¼Ð¸ ÑĢÐ°Ð»
ĠÐ¿ÑĢÐ¸ Ð¼
ĠÐŀÑĦÐ¸ÑĨÐ¸Ð°Ð»ÑĮ Ð½ÑĭÐ¹
p p
ÑĢ ÐµÐ½Ð¸Ðµ
ĠÑĢÐ°ÑģÑĤÐ² Ð¾ÑĢ
ĠÑģÐ¸Ð³ Ð½Ð°Ð»
ĠÐ¸Ð·Ð²ÐµÑģÑĤ Ð½ÑĭÐµ
ĠÑģÑĤÐ°Ð± Ð¸Ð»ÑĮ
ÑģÑı Ñī
ĠÐľ Ð°
ĠÐľ ÑĥÑĢ
ĠÐ¿ÑĢÐµ ÑĤ
ĠÑģÑĤÐ¾Ð» ÐºÐ½Ð¾Ð²
ĠÐ² Ð¸ÑĨÐµ
ĠÐ½Ð°Ð·Ð² Ð°Ð»
ter n
ĠÐ»Ðµ Ð³Ð¸
ĠÐĴ ÑģÐºÐ¾ÑĢÐµ
ĠÐľ ÐµÐ»
Ð¸ÑĩÐµ ÑģÐºÐ¾Ð¼Ñĥ
ĠÐ¥ Ð°ÑĢÑĮ
ÑģÐ¿ ÐµÐºÑĤÐ¸Ð²
ĠÑįÑĤ Ð½
ĠÐ¿ÑĢÐ°Ð² Ð¸Ð»
ĠÑĥ Ð»ÑĮ
ĠÐ²ÑĭÑģÑĤÑĥÐ¿ Ð¸Ð»
ĠÐĺÐ² Ð°Ð½Ð°
ĠÑģÑĤÑĢÑĥÐºÑĤ ÑĥÑĢÐ°
ĠÐ¸Ð·Ð³ Ð½
ĠÐŀ Ð±Ñĭ
ĠÑģÐ² Ð¸Ð½
ÑĨ ÐµÐ»
ĠÐ½Ð¾Ð² ÑĥÑİ
ĠÐ²Ð¾Ð´ Ðµ
ĠÐ¼Ð¾ÑĢ ÑģÐºÐ¾Ð¹
ĠÑĤÐµÐº ÑģÑĤÐ¾Ð²
ĠÐĽÑİ Ð´
ÑģÑĤ ÐµÑĤ
Ð³ Ð°Ð»
on t
ĠÐĺÐ½ Ð¾Ð³Ð´Ð°
ĠÑĥÐ³ Ð¾Ð»Ð¾Ð²
ĠÐ´Ð¾ÑĩÐµ ÑĢÐ¸
Ð¾ÑĤ Ñĥ
ĠÐ¿Ð¾Ð» Ð½Ð¾
Ð¸Ð´ Ðµ
ĠÐ¼ÐµÑĤÐ°Ð» Ð»Ð¸
ĠÐ½Ð°ÑĩÐ¸Ð½Ð° ÐµÑĤ
ĠÐ¡Ð¾Ð»Ð½ ÑĨÐ°
Ð¼ Ð¾Ð¼
ĠÐ¸ Ð´ÐµÐ¹
ÑĪ Ð°Ð»
Ð»Ð° ÑĢÐ°
ĠÐ¢ Ð¸ÑĤ
ĠÑĨÐ°ÑĢ ÑģÑĤÐ²Ð°
ĠÐ¸ÑĤÐ¾Ð³ Ð°Ð¼
ĠÐĽÑĮ Ð²Ð¾Ð²
ĠÐ¸Ð½ÑĤÐµÐ» Ð»ÐµÐº
ĠÐĺ Ð¼Ð¿
ĠÐľ Ð°ÑĤÐµÑĢÐ¸
ĠÐ³Ð»Ð°Ð² Ð½Ð¾Ð³Ð¾
ĠÐĲÑĦÑĢÐ¸ ÐºÐ¸
Ð¸Ð¹ ÑģÐºÐ¾Ð¹
ĠÑĥÐ»Ð¸ ÑĨ
ĠÐ³ÐµÐ½ ÐµÑĤ
ĠÐļ Ð°Ð²
ĠÑĢÑĥ ÐºÐ¸
Ð¾Ð¿Ð¸Ñģ Ð¸
i es
ĠÐ² Ð¾ÑģÑĤÐ¾ÐºÐµ
ĠÐ´ Ð¸ÑģÐ¿
Ð»Ð¸ Ð²Ð°ÐµÑĤÑģÑı
ĠÐ¥ ÑĢÐ¸ÑģÑĤ
ĠÐ²ÐµÑĢ Ð½ÑĥÑĤÑĮ
ĠÐĽ Ð°ÑĥÑĢÐµ
ĠÑĥÑĩ Ð¸ÑĤÑĭ
ĠÑģ ÑĥÐ»
ĠÐļ Ð¸Ð¿
Ġ19 15
ÑıÑĤ ÐµÐ¶
Ðļ Ð¾Ð¼
ĠÐ°Ð½Ð³ Ð»
ĠÐŁÐµÑĤ ÑĢ
ĠÐ°ÑĤÐ¼Ð¾Ñģ ÑĦÐµÑĢ
ĠÐ¿Ð°ÑĢÑĤ Ð½
ĠÐ´ Ð¾Ð²
ÐµÐ¼ Ðµ
ĠÐĴ Ð¾Ð·Ð¼Ð¾Ð¶
Ð°Ð½Ð¸Ñı Ð¼
ÐµÑĢ ÑģÐ¾Ð½
ĠÐĴ ÑĢÐµÐ¼ÐµÐ½
ĠÐĶ ÐµÐº
ĠÐĲÑĢ Ð³
ĠÐĺÑģÑĤ Ð¾Ñĩ
ĠÐ¼ÑĥÐ·ÑĭÐºÐ°Ð½ ÑĤ
ĠÐ§ ÐµÐ¼
Ð½Ð¸ÐºÐ¾Ð² Ð°
ÑĢÐ° Ð¸Ð»ÑĮ
ÑĢÑĥ Ð±
ĠÐ´Ð¾Ð¼ Ð¾Ð²
ĠÐĺÐµÑĢÑĥÑģÐ°Ð» Ð¸Ð¼
ĠÐĳ Ð°ÑĤ
ĠÐ·Ð´ Ð°Ð½Ð¸Ð¹
ĠÐºÐ°ÑĩÐµ ÑģÑĤÐ²Ð°
ĠÑĪÐºÐ¾Ð» Ðµ
ĠÐĲÐ¼ÐµÑĢÐ¸ ÐºÐµ
ĠÑģ ÐµÐ´
ÐµÐº ÑģÑĥ
ÑĢÐ°ÑĤ Ð½ÑĭÐ¹
ĠÐ°Ð´ ÑĢÐµ
ĠÐŁÐ¾Ð» ÑĥÑĩ
ĠÑĪÑĤ Ð°ÑĤ
ĠÐ¿ÑĢÐ¸ÑĩÐ¸Ð½ Ð¾Ð¹
ĠÑģ Ð¶
ĠÐ¥ ÑĢÐ¸ÑģÑĤÐ°
ĠÐ¾Ð±ÑĬ ÐµÐºÑĤÐ¸Ð²
ĠÑĤÐµÐ» ÐµÐºÐ°Ð½
ĠÐ³Ð»ÑĥÐ± Ð¾Ðº
ĠÐºÐ½ÑıÐ¶Ðµ ÑģÑĤÐ²Ð°
Ð°ÑĢ ÑģÐºÐ¾Ð³Ð¾
ÑįÐ½ ÑĮ
ĠÐ¼ÐµÑĤÐ°Ð»Ð» ÑĥÑĢÐ³
Ð»Ð¸ÑĪ ÐºÐ¾Ð¼
Ð¾Ð¿ Ð°ÑĤ
Ð¸ÑģÑĤ Ð°
on d
ĠÑįÐ½ÐµÑĢÐ³ ÐµÑĤ
ĠÐ¿Ð¾Ð¿ÑĭÑĤ ÐºÐ¸
ĠÐ¾ÑĤ Ð¾Ð±ÑĢÐ°Ð¶
ĠÐĿ Ð¸Ð´ÐµÑĢÐ»Ð°Ð½Ð´
ĠÐłÐ¾ÑģÑģÐ¸ ÐµÐ¹
ĠÑģÐ²ÑıÐ· Ð°Ð½Ð½ÑĭÑħ
ĠÐ·Ð°Ð½ ÑıÑĤ
ĠÐ¿Ð¾Ñħ Ð¾Ð¶
ĠÑĢÐµÐ³Ð¸ Ð¾Ð½Ð¾Ð²
Î ¹
ĠÐ½ ÑĢÐ°Ð²
ÐµÐ¹ ÑĤ
ĠÐŁ Ð¾Ð³
ĠÐ¾Ð±ÑīÐµ ÑģÑĤÐ²ÐµÐ½Ð½Ð¾Ð³Ð¾
ĠÑģÑĥÐ´ Ð¾Ð²
ĠÐ¦ÐµÐ½ÑĤÑĢÐ°Ð»ÑĮ Ð½Ð¾Ð¹
ĠÐļ Ð¾Ð¿
ĠÐ¤ ÐµÐ¾Ð´
Ð²Ðµ Ð¶
Ð½Ð¸ÑĨ Ñĥ
ĠÐ°Ð¿Ð¿Ð°ÑĢÐ° ÑĤ
ĠÐ´Ð¸Ñģ ÑĨÐ¸Ð¿
ĠÑĤ Ñı
ĠÐºÐ¾ÑĤÐ¾ÑĢ ÑĭÐ¼Ð¸
ĠÑĢÐ°Ð·Ð²Ð¸ÑĤ Ð¸Ñİ
Ð»ÐµÐ¹ Ð±
ĠÐ·Ð°Ð» Ð¸Ð²
Ð¾Ð½ Ð¸Ñı
ĠÐŁ Ð¾Ð»ÑĮ
ÑĥÑīÐµ ÑģÑĤÐ²Ð°
ÑĥÑī Ð°Ñı
ÑĦÐ¸ÑĨÐ¸ ÑĢÐ¾Ð²
Ð² ÑģÐµ
ĠÐĲ ÑĪ
ĠÐ½Ð¾Ð² Ð°Ñı
as t
ĠÑģÐµÐ²ÐµÑĢ Ð½Ð¾Ð¹
ĠÐłÑĥÑģ ÑģÐºÐ¾Ð¹
ĠÐºÐ°Ð½Ð´Ð¸Ð´ Ð°ÑĤ
ÑĪ Ð»Ð¾
ĠÐ¿ÑĢ Ð¾ÑģÑĮ
ĠÐ¸Ð½ Ð²ÐµÑģÑĤÐ¸
ĠÐ´ÐµÐ» Ð°ÐµÑĤ
ĠÐ·ÐµÐ¼ Ð»Ðµ
ĠÐ»Ð¸Ñĩ Ð½Ð¾ÑģÑĤÐ¸
ĠÑģÐ¾ÑĨÐ¸Ð°Ð»ÑĮ Ð½Ð¾Ð¹
ĠÐ¾ÑģÐ²Ð¾Ð± Ð¾Ð¶Ð´
Î ½
ĠÐĲÐ½ Ð½Ð°
ĠÑĥÑĩ ÑĳÑĤ
ĠÑģÑĤÐ¾Ð»Ð¸ ÑĨÑĭ
ĠÐŁÑĢÐµÐ·Ð¸Ð´Ð¸ ÑĥÐ¼Ð°
ĠÑĢÐ° ÑģÑĤÐ²Ð¾
ĠÐ½ÐµÐ± ÐµÑģ
ĠÐ¿Ð¾ÑĢÑĤÑĥ Ð³Ð°Ð»ÑĮ
ĠÐŁ Ð°ÑĤÑĢÐ¸
Ð°Ð³ Ð°Ð½
ĠÑģÐ²ÑıÐ· Ð°Ð½Ñĭ
194 5
ĠÐ¸Ð½ ÑĤÐµÐ³ÑĢÐ°
ĠÐ¿Ð¾Ñį ÑĤÐ°
ĠÐ°Ð²ÑĤÐ¾ÑĢ Ð¾Ð²
ĠÑĤ Ð°ÑĤÐ°ÑĢ
ÑĢÐº ÑĥÑĤ
ÑĪÑĤ ÐµÐ¹Ð½
ĠÐ²Ð¾ÑģÐ¿ Ð¾Ð¼Ð¸Ð½
ĠÐĴÐ¿ ÐµÑĢÐ²ÑĭÐµ
ĠÐ± Ð¾ÑĢ
ĠÐļ Ñĳ
ĠÐ¾ÑĤ Ð¿
ĠÑı Ñģ
Ġ190 8
ĠÑĦÐ¸Ð»ÑĮ Ð¼Ðµ
ĠÐ·Ð°Ð¿Ð°Ð´ Ðµ
ĠÐ½ÐµÐ²Ð¾Ð·Ð¼Ð¾Ð¶ Ð½Ð¾
ĠÐ½ ÐµÐ»ÑĮÐ·Ñı
ĠÐ´ÑĢÑĥÐ³ Ð¾Ð³Ð¾
ĠÑģÐ¾ÑģÑĤÐ¾Ñı Ð»Ð°ÑģÑĮ
ĠÑģÑĤ ÑĥÐ¿
ĠÐ½Ð¾Ð² ÑĭÐ¼
ĠÐ³ Ð¾ÑĢÐ°Ð·Ð´Ð¾
Ð¸Ñģ Ð»Ð°Ð²
Ð¸Ð· Ð°
ĠÐ¼Ð¾Ð½ ÐµÑĤ
ĠÐ½Ð°Ð·ÑĭÐ² Ð°Ð»Ð¸
ÐµÐ² Ð¾
ĠÑĥÐ³ Ð»ÐµÑĢ
ĠÐ¿ÑĢÐ¸Ð³ Ð»Ð°ÑĪ
f f
Ð¸ÑĢÐ¾Ð² Ð°Ð»
ĠÐĲÑĢ ÑĤ
ĠÑĦÑĥÐ½Ðº ÑĨÐ¸Ð¾Ð½Ð°Ð»ÑĮ
ÑĢÐ¸ Ð½Ð°
ĠÑģÐ¿Ð¾ÑģÐ¾Ð± Ð½Ð¾ÑģÑĤÑĮ
ĠÑĥÑģÐ»Ð¾Ð² Ð¸Ð¹
ĠÐ½ÐµÐ¾Ð´Ð½Ð¾Ðº ÑĢÐ°ÑĤÐ½Ð¾
ĠÐŁÑĢÐ¸ Ð½
ĠÐ¿Ð¾Ðº ÑĥÐ¿
ĠÐ´Ð¸ Ð°Ð¼ÐµÑĤ
ĠÑĩÐµÐ»Ð¾Ð²ÐµÐº Ð¾Ð¼
ĠÐĴÐµÐ»Ð¸ ÐºÐ¸Ð¹
ÑĮ ÐµÑĢÐ°
ĠÐ¸ÑģÑĤÐ¾ÑĢÐ¸ ÑĩÐµÑģÐºÐ¸Ñħ
ĠÑĤÑĢÐ° Ð³
ĠÐ½ Ð¾ÑĩÑĮ
ĠÐ¾Ð± ÑģÑĤÐ¾ÑıÑĤÐµÐ»ÑĮ
ĠÐ¾ÑģÑĤ Ð°Ð»ÑĮÐ½ÑĭÐµ
ĠS p
ĠÐ³Ð° ÑĢÐ°Ð½
ĠÐļÐ¾Ð½ÑģÑĤÐ¸ÑĤÑĥ ÑĨÐ¸Ð¸
Ð± Ð°ÑĤ
ÐµÐ² ÑģÐºÐ¾Ð³Ð¾
ĠÑĦ ÐµÑĢ
Ð¸Ð· Ð¸Ð¾Ð½
ĠÐ´Ð¾Ðº ÑĤÐ¾ÑĢÐ°
ĠÐŁÐ°Ð² Ð»Ð°
ĠÑģÐ¸ÑĤÑĥ Ð°ÑĨÐ¸Ð¸
ĠÐºÐ¾Ð¼Ð¸ÑĤ ÐµÑĤÐ°
ĠÑĤÐµÐ½ Ð´ÐµÐ½
ĠÐ¶ Ð¸ÑĤÐµÐ»Ð¸
ĠÐ²Ð¾ ÐµÐ½Ð°ÑĩÐ°Ð»ÑĮ
ĠÐ¼ÐµÐ¶Ð´ÑĥÐ½Ð°ÑĢÐ¾Ð´ Ð½Ð¾Ð³Ð¾
ĠÐ±Ð¾ÐµÐ² ÑĭÑħ
ĠÐ´ÑĢÐµÐ²Ð½Ðµ Ð³ÑĢÐµ
ĠÐ¡ Ð¾Ð·Ð´
ĠÐļ Ð»Ð°ÑģÑģÐ¸
Ð¸Ð» Ð»
ÑĤÐ¸Ð² Ð½Ð¾
ĠÑĢÐµÐ³Ð¸ Ð¾Ð½Ðµ
ÑĢÐ° ÑĤÐ°
ÑĤÐ¾ÑĢÐ¸ Ð¸
ĠÐ¿Ð¾Ð»ÑĥÑĩ Ð°ÐµÑĤ
ĠÐ·Ð°Ð´Ð° ÑĩÐ¸
ÑģÐº Ð¾Ð»ÑĮÐºÐ¾
ĠÐ· ÐµÑĢ
ĠÐĺ Ð¼Ðµ
ĠÑģÐ°Ð¼ Ð¾Ð»
ĠÐ°ÑĢÑħÐ¸ÑĤÐµÐº ÑĤÑĥÑĢ
Ð¿ÑĢÐ¾ Ð¸Ð·Ð²Ð¾Ð´
ĠÐ´ Ð¾Ð¶Ð´
ĠÐºÐ¾Ð¼ Ð¼ÐµÐ½ÑĤ
Ð¸ÑĢÐ° Ð¼Ð¸
ÑĢÐµ ÑģÐ¿
Ð¾Ð¼ Ð°
ĠÐ¾Ð± ÑĪÐ¸ÑĢ
Ġ19 16
ĠÑĥÑģÑĤ ÑĢÐ¾
ĠÐŀÐº Ð¾Ð»Ð¾
ĠÑģÐ¾ÑģÑĢÐµÐ´ Ð¾ÑĤÐ¾Ñĩ
ĠÐŁ ÑĤÐ¾Ð»
ĠÐ²Ð¾Ð· Ð¾Ð±Ð½Ð¾Ð²
ĠÐ´ÐµÐ» ÐµÐ½Ð¸Ðµ
ĠÐ¾Ð· ÐµÑĢÐ°
ĠÐ¼ÑĭÑģ Ð»Ð¸
ĠÐ·Ð°Ð³ ÑĢÑıÐ·
ĠÐ¿Ð¾ÑģÑĢÐµÐ´ ÑģÑĤÐ²Ð¾Ð¼
ĠÑģ Ð»Ð¸ÑĪÐºÐ¾Ð¼
ÑĢÐµ Ðµ
ĠÑĢÐ°Ð· Ð½Ð¾Ð²Ð¸Ð´
ĠÑĨÐ¸ Ð²Ð¸Ð»Ð¸
ĠÐ°Ð²Ð¸ Ð°ÑĨÐ¸Ð¸
ĠÐĴ Ð¿Ð¾ÑģÐ»ÐµÐ´ÑģÑĤÐ²Ð¸Ð¸
Ð¾Ðº Ñĥ
Ð°Ð¼ Ð¸Ð½
Ð¸Ð· ÐµÐ¼
Ð¸Ñı Ñħ
Ð²Ð¸ Ð´Ð°
Ð²ÐµÐ´ ÐµÐ½Ð¸Ñı
ÑĥÑİÑī Ð°Ñı
Ð¾ÑĢÐµ Ð¹
ĠÐ¼Ð¾Ð´ Ð¸
ĠÑĥÐ»Ð¸ ÑĨÑĭ
ĠÐ¿ÑĢÐ¾Ð¿ Ð¾Ð²ÐµÐ´
Ð²Ð¸ Ð»Ð°
Ð½Ð¾Ð· Ð½Ð°Ñĩ
Ð¾ Ð¾Ð±
ĠÐ²Ñĭ Ð·ÑĭÐ²Ð°ÐµÑĤ
ÑĦÐ¸ÑĨÐ¸ ÑĢÐ¾Ð²Ð°Ð½
ĠÐºÐ¾Ð½ÑģÑĤÑĢÑĥÐº ÑĨÐ¸Ð¸
ĠÐ¡ Ð°Ñħ
ĠÑĥ ÑħÐ¾Ð´
ĠÑĩ Ð¸Ð½Ð¾Ð²
Ð¸Ð» Ð¾Ð²
ĠÐ¿ÑĢÐ¸ Ð¾Ð±ÑĢÐµÑĤ
Ð¸Ð² ÑĪÐ°Ñı
Ð½Ð¾Ð² Ð¾Ð´
ÑĭÐ² Ð°ÑĤÑĮ
ĠÐ²ÑĭÑħÐ¾Ð´ Ð°
ĠÐºÐ»Ñİ ÑĩÐµÐ²
ĠÐ¸ÑģÑĩÐµ Ð·
v er
ÑĢÐ¾Ð¼ Ð°
ĠÐµÐ²ÑĢÐ¾Ð¿ÐµÐ¹ ÑģÐºÐ¸Ñħ
ĠÐ¿ÐµÑĩÐ°ÑĤ Ð¸
ĠÐ½ÐµÑĢÐµÐ´ ÐºÐ¾
ĠÐ¼ Ð¸ÑĢÑĥ
ĠÐ¾Ñģ Ð²Ð¾
ĠÐ¿ÑĢÐ¸ Ð¿Ð¸Ñģ
Ð¾Ð»ÑĮ Ð½ÑĭÑħ
ĠÑĢÐµ ÑĩÑĮ
Ð½Ðµ ÑĪ
ĠÑĢÐµÑĪ Ð¸Ð»
Ġ190 6
ĠÑĥÑĩÐ°ÑģÑĤÐ²Ð¾Ð² Ð°Ð»
ĠÐĴÑĭÐ¿ÑĥÑģÐº Ð½Ð¸ÐºÐ¸
ÑĨ Ð¸Ð½Ð°
ĠÐ· Ð¾Ð½Ðµ
ĠÐ¾Ð± Ð¾Ð±Ñī
ĠÐ²Ñĭ Ð¸Ð³ÑĢÐ°
ĠÑģÐ¾Ð± ÑĢÐ°Ð½Ð¸Ñı
ĠÐĿÐ¾Ð² Ð¾Ð¹
ĠÐ½ÐµÐ³ Ð°ÑĤÐ¸Ð²
ĠÐ·Ð°ÑģÐ» ÑĥÐ³Ð¸
ĠÐ² ÑĢÐµÐ´
ĠÐ± Ð¾Ð¹
ĠÐ¡ Ð¾Ñĩ
ĠÑħ ÑĢÐµÐ±
ĠÐ³ÑĢÐ° Ð¼Ð¾ÑĤ
ĠÐ¾ÑĤÑģÑĤÐ°Ð² ÐºÑĥ
ĠÑģ ÐµÐ»Ðµ
ĠÐ® Ð³
ĠÐŁÐµÑĢÐ² Ð¾Ð½Ð°Ñĩ
ĠÐ¿ÑĢÐ¸Ð½Ñı Ð»Ð¸
ĠÐĲ ÑģÑĤ
ĠÐŀÐ´ Ð½Ð¸Ð¼
Ð½Ð¾ÑģÑĤ ÑıÐ¼Ð¸
ĠÐºÐ½Ð¸ Ð³Ñĥ
Ð» ÑĳÐ²
ĠÐ¿ Ðµ
ÑĢÐµ Ð»ÑĮ
Ð± ÐµÑĢÑĤ
ĠÐŁ Ð»Ð°Ð½
Ð¸ÑĢ ÑĤÑĥ
Ð°Ð³ Ð°
ĠÑĢÐ°ÑģÐ¿Ð¾Ð»Ð¾Ð¶ ÐµÐ½Ð°
ÑĢÐ¾Ð» Ð»ÐµÐ¹Ð±
ĠÑĢÐ¾ÑģÑĤ Ð°
ĠÐ² ÐµÑģÑĤÐ¸
ĠÐĹ Ð°Ð¼
ĠÐ¿ÐµÑĢÐµ Ð²ÐµÐ´
ĠÑģÐ¾Ð²ÐµÑĤ ÑģÐºÐ¾Ð³Ð¾
ĠÑģÑĬ ÑĳÐ¼
ĠÐºÐ¾ÑĢÐ¿ ÑĥÑģÐ°
ĠÐ»ÐµÑĩ ÐµÐ½Ð¸Ñı
ĠÐº Ð°ÑĢÐ°
Ð¶ Ð½ÑĭÐ¹
ĠÑģÑĤÐ°ÑĤÑĮ Ðµ
ĠÑİÐ¶ Ð½Ð¾Ð¹
Ð°Ð» Ð¸Ð½
ĠÐ¸Ð¼ ÐµÐ»Ð°
ÑĥÑħ Ð¾Ð²
ĠÐ¼Ð½Ð¾Ð³ Ð¾Ðº
ĠÑįÐ½ ÐµÑĢ
ĠÐ½ÑĭÐ½Ðµ ÑĪ
ĠÐĴ ÐµÑģÑĤ
Ð¸Ñĩ Ð½ÑĭÐ¹
ĠÐ°ÑĢÐ¼Ð¸ ÐµÐ¹
ĠÑĢÐ°ÑģÐ¿ÑĢÐ¾ÑģÑĤÑĢÐ°Ð½ ÐµÐ½Ð¸Ñı
Ð¾Ð· ÐµÑĦ
ĠÐĺ ÑģÐ°
ĠÐŁÐµÑĢÐ² ÑĭÐ¼
ĠÑģÐ¾Ð²ÐµÑĢÑĪ Ð¸Ð»
ĠÐ¿ÑĢÐ¾ÑĪ Ð»Ð¸
ĠÐĴÐĴ ÐŁ
ĠÐ¿ÑĢÐ¾Ð½ Ð¸Ðº
Ð¾Ð» Ð³Ð¾
ĠÑı Ðº
ÑĳÑĢ ÑĤ
ĠÐ¿Ð¾ÑĤ ÐµÐ½ÑĨÐ¸
Ð»Ð°Ð½Ð´ Ð¸Ð¸
ĠÑĢÐµÑģÐ¿ÑĥÐ±Ð»Ð¸ ÐºÐ°Ð½
Ð³Ð»Ñı Ð´
ĠÐ·Ð°Ðº Ð°Ð·
ĠÐ¾Ð±ÑĬ ÐµÐºÑĤÑĭ
ĠÑĤÐµÑĢÑĢÐ¸ÑĤÐ¾ÑĢÐ¸ Ð¹
ĠÐºÐ¾Ð½ÑĦÐµÑĢ ÐµÐ½ÑĨÐ¸Ð¸
ĠÑį Ð¼
ĠÑĢÐ°Ð² Ð½Ð°
ĠÑģÐ»ÐµÐ´ÑĥÑİÑī Ð¸Ð¼
ĠÑĥÑĩÑĢÐµÐ¶Ð´ ÐµÐ½Ð¸Ð¹
ĠÐ²Ñĭ ÑĢÐ°Ð·
ĠÑģÐ² Ð¾Ð´
Ġ3 3
ĠÐ¾ÐºÐ°Ð· Ð°Ð»ÑģÑı
ĠÐ±Ð»Ð¸Ð¶ Ð°Ð¹
ĠÐ°Ð² ÑĤÐ¾ÑĢÐ¸
in t
ĠA m
ĠÐ¼Ð°Ñģ ÑĪÑĤÐ°Ð±
ĠÐ²Ð½ÐµÑĪ Ð½ÐµÐ¹
Ð² Ð¸Ð²Ð°Ð»
ÑĢÑĥ ÑİÑĤÑģÑı
Ġ19 11
ÑĤÐ¸ÑĩÐµ ÑģÐºÐ¾Ðµ
ĠÐ¿ÑĢÐµÐ´ÑĥÑģ Ð¼Ð°ÑĤÑĢÐ¸
m an
ÐµÐº ÑģÑĤ
ĠÐ½Ðµ Ð¿Ð¾Ð´
ĠÑĢ Ð¾Ñģ
ĠÐ¾ÑĤÐºÑĢÑĭ ÑĤÐ¸Ðµ
ĠÐĳÐ°Ð» ÑĤÐ¸Ð¹
Ðº ÑĤÐ°
ĠÐ¡ ÐľÐĺ
ĠÑĢÐ° Ð´Ð¸Ðº
Ð°Ð½Ð³ ÐµÐ»ÑĮ
ĠÐ¾Ð± Ð¾
ĠÐ¾ÑģÐ½Ð¾Ð² Ð°Ð½Ð°
ĠÐ³ÑĢÐ°Ð¶Ð´Ð°Ð½ ÑģÐºÐ¾Ð¹
ĠÐ°ÑĢÑĤÐ¸ÑģÑĤ ÐºÐ°
ĠÑĦÑĢÐ¾Ð½ ÑĤ
ĠÐĺÐ·ÑĢÐ° Ð¸Ð»Ñı
Ð¾Ñĩ ÐµÑĢ
Ð°Ð´ Ñĥ
Ġ7 5
ĠÑĥÑĩÑĢÐµÐ¶Ð´ ÐµÐ½Ð¸Ñı
ĠÐ¿Ð¾Ñħ Ð¾ÑĢÐ¾Ð½
ĠÐºÐ² Ð°ÑĢÑĤ
ÑĢÑĥ ÑĤ
Ð¾ÑĢÐ° Ð¼Ð¸
Ð½Ð¸ÑĨ ÐµÐ¹
ĠÐ¿Ð¾Ð´Ð´ÐµÑĢÐ¶ ÐºÐ¸
ĠÐ¸ Ð¾Ð½
Ð± Ð¾Ð²
ĠÐ½Ð° Ð¼ÐµÑĢ
Ð¾ÑĤ Ð°Ð½Ð¸
ĠÐĵ Ð°Ð·
ĠÐºÐ¾ÑĢÐ°Ð± Ð»ÐµÐ¹
Ġ ),
Ð± Ð¸Ð½Ð°
ĠÑģÑĤ Ð¾Ð¸ÑĤ
ĠÐľ ÐµÐºÑģÐ¸
ĠÑĢÐ°ÑģÐ¿ Ð¾ÑĢÑıÐ¶
ĠÑĢÐ°Ñģ ÑģÑĤÑĢÐµ
ĠÑĥÐºÑĢÐ° Ð¸Ð½ÑģÐºÐ¸Ð¹
ĠÑĢÐµÑĦÐ¾ÑĢ Ð¼Ñĭ
Ð°Ð½Ð¸Ñı Ð¼Ð¸
ÐĲ Ðł
ÑĥÑĪ ÐºÐ¸
ĠÐ¦ÐµÐ½ÑĤ ÑĢ
= "
ĠÐł ÐµÑĩ
ĠÐ³Ð¾ÑģÑĥÐ´Ð°ÑĢ ÑģÑĤÐ²Ð¾Ð¼
ĠÐºÐ¸Ð½Ð¾ Ð°ÐºÑĤ
ĠÑģÐµÐ»ÑĮ ÑģÐºÐ¾Ð³Ð¾
ĠÐ±ÑĢÐ° ÑĤÐ°
ĠÑģÐºÐ°Ð· Ð°Ð»
ĠÐº ÑĢÐµÐ´
ĠÐĴ ÐµÐ½Ðµ
Ð°ÑĢ Ð½ÑĭÐ¹
ĠÐ¿Ð¾Ð» Ñİ
Ġ195 1
ĠÐĳÑĭ Ð»
ÐµÐ¼ Ð¾ÑģÑĤÐ¸
ĠÑĢÐµÐ´ ÐºÐ¾
ĠÐ¼ÐµÑĤÐ¾Ð´ Ð¾Ð²
Ġ i
ÐµÐ´ Ð¾Ð²
ĠÑĢÐ°ÑģÐ¿ Ð°Ð´Ð°
Ð²ÐµÐ´ ÐµÐ½Ð¸Ðµ
ÑĥÑĪ ÐºÐ°
ĠÐŁÐ¾Ñħ Ð¾ÑĢÐ¾Ð½
ĠÐ¿Ð¾ ÑıÑģ
ÑĥÐ»ÑĮ ÑĦ
ĠÐ¸Ð¼Ð¿ ÑĥÐ»ÑĮ
ÑģÑĤÐ¸ÑĩÐµ ÑģÐºÐ¸Ð¹
ĠÑģÐµÐ¼ ÑĮÑı
ĠÐ¿ÑĢÐµÐ´Ð¿ÑĢÐ¸ Ð½Ð¸Ð¼
Ð°Ð²ÑĪÐ¸Ð¹ ÑģÑı
ĠÐ¿ÑĢÐ¸Ð±Ñĭ Ð»
ĠÐ¶ÐµÑĢÑĤ Ð²
ĠÑĤÐµÑħÐ½Ð¾Ð»Ð¾Ð³ Ð¸Ð¹
ĠÐ³ÑĢÐ°Ð¼ Ð¼Ð°ÑĤ
Ñģ Ð¸Ñģ
ĠÑģÑĢÐµÐ´ Ð½ÐµÐ³Ð¾
ĠÐ¾Ð¿Ð¸Ñģ Ð°Ð½Ð¸Ðµ
1 00
ĠÐ·Ð° Ð´ÐµÑĢÐ¶
ÑĥÐ¼ ÐµÑĢ
ĠÑģÐ¿ Ð¸ÑĢ
ĠÐķ Ñĳ
Ð½ ÑģÐºÐ¸Ð¹
Ð´ ÑĤ
ĠÐºÑĢÐ° ÐµÐ²
ĠÐºÑĢÐ¸ÑĤÐ¸ Ðº
ĠÐĲÑĢÐ¸ÑģÑĤ Ð¾ÑĤ
Ð°Ð¼ Ð¿
Ð¼Ðµ Ñģ
Ð¾Ñħ Ð¸Ð¼Ð¸
ĠÐ¸ÑģÐ¿Ð¾Ð»ÑĮÐ·Ð¾Ð² Ð°Ð»
ĠÐ´Ð¾Ð¼ Ð¸Ð½
ĠÐ¸Ð·Ð»ÑĥÑĩ ÐµÐ½Ð¸Ñı
ĠÐ¼ Ð½Ðµ
ĠÐļ ÑĢÐµ
ĠÐĲ ÑģÑģ
Ð³Ð¸ ÐµÐ¹
ĠÐ¿ÑĢÐ¾Ð¸Ð·Ð²ÐµÐ´ ÐµÐ½Ð¸Ðµ
ĠÐ½Ð°ÑĩÐ°Ð» Ñĥ
ÑĤÐµÑħ Ð½Ð¸ÑĩÐµ
Ñı Ð»Ð¸ÑģÑĮ
ÑĢÐ° ÐºÑĤ
Ð¾Ð´ Ð¸
ĠÑĩÐ°ÑģÑĤÐ¸ ÑĨÑĭ
ĠN ew
ĠÐ¿ÑĢÐ¾Ð¸ÑģÑħ Ð¾Ð¶Ð´ÐµÐ½Ð¸Ðµ
ĠÐłÐ¾Ð¼ Ð°Ð½
ĠÐ½Ð°Ð³ÑĢÐ° Ð¶Ð´
ĠÐ¾ ÑĢÑĥÐ´
Ð¸Ð» ÐµÑĤ
ĠÐ´Ð¾Ðº ÑĤÐ¾ÑĢ
ĠÐĴÐ»Ð°Ð´Ð¸ Ð¼Ð¸ÑĢÐ¾Ð²
ĠÑĤÑĥ ÑĢÐµÑĨ
ĠÐ¾ ÑĦÐ¾ÑĢÐ¼
ÐµÑĢÐµ Ð¼Ð¾Ð½
Ðļ ÑĢÐ°Ñģ
ĠÑįÐºÐ¾Ð½Ð¾Ð¼ Ð¸ÑĩÐµÑģÐºÐ¾Ð¹
ĠÐ¿ÑĢÐ¸ Ð³Ð¾ÑĢÐ¾Ð´
Ð³ÑĢÐ° Ð´Ð°
Ð¿Ð¾Ð» Ð½Ðµ
ĠÐ´ Ð¸ÑģÑģ
ĠÐ¥ Ð°Ð±
ĠÐĲÐ² ÑģÑĤÑĢÐ¸Ð¸
Ð¸ÑĤÐµÐ»Ñı Ð¼
ĠÐĲÑĤ Ð»Ð°Ð½
ĠÑĥÑĩÐ¸Ð»Ð¸ ÑīÐµ
ĠÐ¾Ð± Ð¸ÑĤ
ĠÐķ Ð»ÑĮ
ĠÐ¿ÑĢÐ¾ÑĤÐ¸Ð² Ð¾Ð¿
ĠÐºÐ¾Ð½ÑĤ Ð°Ðº
ĠÑĢÐ¸ ÑģÑĥÐ½
of t
ĠÑģÐ¸ÑĤÑĥ Ð°ÑĨÐ¸Ñı
ĠÐĺÐ½ÑĤÐµÑĢ Ð½ÐµÑĤ
ĠÐ¿ÑĢÐ¸ ÑĪÑĳÐ»
ĠÐĶ Ð²
Ðł Ð¾ÑģÑģÐ¸
ĠÐ½ÐµÐºÐ¾ÑĤÐ¾ÑĢ Ð¾Ðµ
ĠÐŁ ÐµÑĢÐ¼
ĠÐ¨ Ð¸ÑĢ
ĠÐ´Ð¾Ð» Ñı
ĠÐ²ÑģÐµÐ¼ Ð¸
Ð² ÑıÐ·
ÑģÐº Ð°Ð´
ÑĢÐµÑģ ÑģÐ¸Ð²
ĠÐ·Ð°Ð¿Ð°Ð´ Ð½Ð¾Ð¹
ĠÐĽÐ¾Ð½Ð´ Ð¾Ð½
ĠÑĦÐ¸Ð»Ð¸ Ð°Ð»
Ð² Ð°Ð»Ð¾ÑģÑĮ
Ñı Ð·Ñĭ
ĠÑĨ ÐµÐ»ÑıÑħ
ÑĥÐ· Ð¾Ð²
ĠÐ¼Ð¸Ð½Ð¸ÑģÑĤ ÐµÑĢ
ĠÐ¿Ð¾Ð»ÑĮ ÑģÐºÐ¸Ð¹
ĠÐ¸ Ð±Ð½
Ð°Ð½ Ð½ÑĭÐ¼Ð¸
ĠÐ· ÐµÐ»Ñĳ
ĠÐ°Ð»ÑĮ ÑĤÐµÑĢÐ½Ð°ÑĤÐ¸Ð²
ĠÑģÐ¼Ñĭ ÑģÐ»
Ñĥ Ð¶Ðµ
ĠÑģ ÐºÐ¾
Ð¾Ð´ Ðµ
ĠÐ³Ð»Ð°Ð² Ð½Ð¾Ð¹
ĠÑģÐ¾ÑģÑĤÐ°Ð²Ð»Ñı Ð»Ð°
ĠÑģÐ¾ÐµÐ´Ð¸Ð½ ÐµÐ½Ð¸Ð¹
ig n
ĠÐ¼Ð¸ÑĦ Ð¾Ð»Ð¾Ð³Ð¸Ð¸
Ġ r
ĠÐ² ÐµÐ½
ĠÑĦ Ð¾Ð»ÑĮ
ĠÐ°Ð» Ð³ÐµÐ±
ÑĢÐ¾Ñĩ ÐµÐ¼
ĠÐ¿ÑĢÐ°Ð²Ð¾ÑģÐ»Ð°Ð² Ð½Ð¾Ð¹
Ð¾Ð´ Ð¾Ð»
ĠÐ²Ñĭ ÑıÐ²
ÑĢÐ°Ð½ Ðµ
ĠÐ¾ÑĢÐ³Ð°Ð½Ð¸ Ð·Ð¼Ð°
Ð½ÑĮ ÑĪÐµ
ĠÑĤÐµÐ¼Ð¿ÐµÑĢÐ° ÑĤÑĥÑĢ
ĠÐ¿ÐµÑĢÐµÐ²Ð¾Ð´ ÑĩÐ¸Ðº
ĠÐ¿ÑĢÐ¾Ð¿ Ð°Ð³
ĠÐµÐ¶ÐµÐ³Ð¾Ð´ Ð½Ð¾
ĠÑĢÐ° Ð½ÑĮÑĪÐµ
s p
ÑĥÐ½ ÑĮ
ÐĲ ÐĹ
ÑĥÑīÐµ Ðµ
ĠÑĩÐµ ÑĪ
ĠÐ½Ð°ÑĢÐ¾Ð´ Ð½Ð¾Ð³Ð¾
ĠÐ¼Ð°Ñģ ÑģÐ°
ĠB e
ol og
ĠÑģÐ¾ÑĩÐ¸Ð½ ÐµÐ½Ð¸Ð¹
ĠÐĽÐµÐ¾Ð½ Ð¸Ð´
Ðļ Ð¡
ÑģÑĤÑĢÑĥ ÐºÑĤÐ¾ÑĢ
ĠÐ¿ÑĥÐ½ÐºÑĤ Ð¾Ð²
ĠÐľÐ¸ÑħÐ°Ð¹Ð»Ð¾Ð² Ð¸Ñĩ
ĠÐ¾Ð´ Ð¾Ð±
ĠÑĢÐ°Ñģ ÑĩÑĳÑĤ
ĠÐ°ÑĢÑħ Ð¸ÐµÐ¿Ð¸ÑģÐºÐ¾Ð¿
ĠÑģÐ¾ÑĨÐ¸Ð°Ð»ÑĮ Ð½Ð¾
ĠÐµÐ²ÑĢÐµ ÐµÐ²
i re
ĠÐ´Ð¸ ÑĦÑĦÐµÑĢ
Ð¸ÑģÑģ Ð»ÐµÐ´Ð¾Ð²Ð°ÑĤÐµÐ»ÑĮ
ĠÐ¾ÑĤ ÑĢÐµÐ·
ĠÐ¾ÑĤ ÐºÐ»Ð¾Ð½
Ð»Ð¸Ð½ Ð³
ĠÐ¿Ð¾ÑĢÑıÐ´ Ð¾Ðº
ig ht
Ð¾ ÑĩÐµ
Ñĩ Ð°Ð½
ĠÐĳ Ð°Ñħ
ĠÐĶ Ð°Ð½Ð¸Ð¸
Ð»ÑĮ Ð½Ð¾Ð¹
ĠÐ¼Ð½Ð¾Ð³ Ð¾Ð¼
ĠÑģÐ¾ÑĨÐ¸ Ð°Ð»Ð¸ÑģÑĤÐ¸ÑĩÐµ
ĠÐ¢ÑĢÐ°Ð½ ÑģÐ¿Ð¾ÑĢÑĤ
Ð± ÑĥÑĢÐ³Ð°
Ð¼Ð° Ð·
Ġ190 4
ĠÐ¾Ð¿ÐµÑĢÐ° ÑĨÐ¸Ð¹
l d
ÑģÐº Ð°ÑĢ
ÑĨÐ¸Ð¾Ð½ Ð½ÑĭÐ¼
ĠÐ´ÐµÐ½ÑĮ Ð³Ð¸
ĠÐĲÐ²ÑģÑĤÑĢÐ° Ð»Ð¸Ð¸
Ð°Ð½Ð¸ ÑģÑĤ
ĠÑĪ ÑĤÐ°Ð±
ĠÐ²Ð¾Ð¹ ÑģÐºÐ¾
Ð» Ð°Ð½Ð°
ĠÐ² Ð¸ÑĢÑĥ
ĠÐĶ Ð·
ĠÑģÐ»ÑĥÐ¶ Ð±Ñĥ
Ð¾Ð´ Ð¸Ð½Ð°Ð¼Ð¸
ĠÐ¸Ð· Ð»Ð¾Ð¶
ĠÐ¾Ð±ÑīÐµ ÑģÑĤÐ²Ðµ
ĠÐ¾ÑĢÐ³Ð°Ð½Ð¸ Ð·Ð¼
ĠÐ£ ÑĢ
ĠÐ¿Ð¾Ð¼ Ð¸Ð¼Ð¾
ĠÑĦÑĢÐ°Ð½ÑĨÑĥÐ· ÑģÐºÐ¾Ð³Ð¾
ĠÐ¼Ð°ÑĤÐµÑĢÐ¸ Ð°Ð»Ñĭ
ĠÑģÑĤÐ°ÑĤ ÐµÐ¹
ĠÐ²Ñĭ ÑģÐºÐ°Ð·ÑĭÐ²
ĠÐĺ ÑĢÐ°
ĠÐ·Ð² ÑĥÐºÐ¾Ð²
ĠÐ¸Ð¼Ð¿ÐµÑĢÐ°ÑĤÐ¾ÑĢ Ð¾Ð¼
s ch
ĠÐ¡ ÐµÐ¹
ĠÐ½Ðµ Ð¶
Ð¸ÑģÑĤ Ð¾ÑĢÐ¸
ĠÐ£ Ð³
ĠÐĴÐ°Ð» ÐµÐ½ÑĤ
ĠÐ¾ÑģÐ² Ð¾Ð±Ð¾Ð´
ĠÐĴÐ°ÑģÐ¸Ð»ÑĮ ÐµÐ²Ð¸Ñĩ
s k
Ñħ Ð¾Ð¶Ð´ÐµÐ½Ð¸Ñı
Ð°Ð½ ÑģÐºÐ¾Ð¼
Ġ6 4
ÑģÑĤÐ¸ÑĩÐµ ÑģÐºÐ°Ñı
ĠF M
ĠÑĥÐºÑĢÐ° ÑĪ
Ð¾Ð½ Ð¸Ð¸
ĠÐĺ Ð¾Ð³Ð°Ð½
ĠÐ¿ÐµÑĢÐµ ÑĢÐ°Ð±Ð¾ÑĤ
ĠÐ¥ Ð¸Ð¼Ð¸
ĠÑĢÐ°Ð±Ð¾ÑĤ Ð°ÑİÑĤ
ĠÐ±ÑĥÐ´ ÑĥÑīÐµÐ³Ð¾
ÑİÑīÐ°Ñı ÑģÑı
Ð°Ð½Ð´Ð¸Ð½ Ð°Ð²
ĠÐļ ÐµÑĢ
Ð¼ÐµÑĩ Ð°ÑĤÐµÐ»ÑĮ
ĠÑħÐ¸Ð¼Ð¸ ÑĩÐµÑģÐºÐ¸Ñħ
ĠÐ½Ð° ÑĥÐºÐ°
ĠÑĤÐ¾Ñĩ ÐºÐµ
ÑĪÐµÐµ ÑģÑı
ĠÐŁ Ð¾Ñı
ĠÐĿ ÑĮÑİÑĤ
Ð½Ðµ ÑĨ
ĠÐ¿Ð°ÑĢÑĤÐ¸ Ð·
ĠÐ¡ ÑĤÐ¸
ĠÐ¿Ð¾Ð´ Ð²ÐµÑĢ
ĠÐłÐ¾ÑģÑģÐ¸ Ñİ
ĠÑģÐ¿ÐµÑĨÐ¸ ÑĦ
ĠÑĢÐ°ÑģÑģÑĤÐ¾Ñı Ð½Ð¸Ðµ
ĠÐŀÐ±ÑĬ ÐµÐ´Ð¸Ð½
Ð¾Ñĩ Ð½Ð¾Ð³Ð¾
ĠÑĤÐµ Ð¾ÑĢÐµÐ¼
ĠÐµÐ´Ð¸Ð½ ÑģÑĤÐ²ÐµÐ½Ð½ÑĭÐ¼
ĠÐ¿ÑĢÐ¸Ð½ ÑıÑĤÑĮ
ĠÐ¡ÐµÐ²ÐµÑĢ Ð½Ð¾Ð³Ð¾
ĠÐ¿ÑĢÐ¾ÑĨÐµÑģ ÑģÑĭ
ĠÑıÐ´ ÑĢÐ°
Ġ6 5
ĠÑģÐ¾Ð´ÐµÑĢÐ¶ Ð°ÑĤ
ĠÐĺÐ³ Ð¾ÑĢÑĮ
ĠÐĴÐ°ÑĪ Ð¸Ð½Ð³
ĠÐ²Ñĭ ÑĢÐ¾Ñģ
ĠÐ¿ÑĢÐµ Ð¾Ð±Ð»Ð°
ĠÑĢÐ¾Ð´ ÑģÑĤÐ²ÐµÐ½
ĠÐ¿Ð¾Ð±ÐµÑĢÐµÐ¶ ÑĮÑı
ĠÐ· Ð½Ð°
ÑĦÐ¾ÑĢ Ð¼Ñĥ
ĠÐĿÐ¾Ð² Ð°Ñı
ĠÐ¿ÑĢÐ¾ÑĪ ÑĳÐ»
ĠÐ¿ÑĢÐ¾Ð´ÑĥÐºÑĤ Ð¾Ð²
a e
ĠÑģ ÐµÐ»Ð°
ĠÑĤÑĢÐ°Ð½ Ð·
ĠÑĤÐµÐ¾ÑĢÐ¸ Ñİ
Ð½ÐµÑĢ ÑĥÑģ
ĠÐ² Ð°Ð³
Ð¾Ð» Ðµ
Ð¸ÑĤ Ð²Ð°
ĠÐ¿Ð¸Ñģ Ð°ÑĤÐµÐ»ÐµÐ¹
ĠÑĥÐ½Ð¸ Ð²ÐµÑĢÑģ
ĠÐ²ÑĭÑģÐ¾Ðº Ð¸Ñħ
Ð»Ð° ÑģÑĤ
ĠÐł ÑıÐ·
ĠÐ½Ð°ÑħÐ¾Ð´ Ð¸Ð»Ð¸ÑģÑĮ
ĠÐ¾Ð±Ñī ÐµÐ¼
ĠÐ²Ð¾Ð·ÑĢÐ° ÑģÑĤÐ°
Ð² Ð¾ÑģÑĤ
ĠÐĽ ÐµÑĤÐ¾Ð¼
ĠÐ³ÑĢÐ° Ð´
ĠÐļÐ¾ÑĢ Ð¾Ð»ÑĮ
ĠÑĢÑĥÐºÐ¾Ð²Ð¾Ð´ ÑģÑĤÐ²Ð¾
ĠÐ³Ð» Ð¾Ð±
Ñģ ÐµÐ»ÑĮ
Ð¿ Ð¸Ð½
ÑĦÐ¸ Ñİ
ĠÐ´ÐµÐ¹ÑģÑĤÐ² ÑĥÑİÑĤ
ĠÑģÐ¸Ð¼ Ð¿ÑĤÐ¾Ð¼
ĠÐ³ÑĢÐ°Ð¶Ð´Ð°Ð½ Ðµ
ĠÐ¿ÑĢÐµÐ´Ð¿ÑĢÐ¸ ÑıÑĤÐ¸
Ðµ ÑĨÐ¸
ĠÐ¿ ÐµÐ½
Ð´Ð¸ ÑĢÐ¾Ð²
ĠÐ³ÑĢÐ°Ð½Ð¸ÑĨ Ðµ
ÑĩÐ°ÑģÑĤ ÑĥÑİ
ĠÐ¸Ð·Ð±Ð¸ÑĢÐ° ÑĤÐµÐ»ÑĮ
Ð¾Ð» Ð¾Ð¼
Ġ3 4
ÑıÑī Ð°Ñı
ĠÐ¼Ð¾Ð½ Ð°Ñħ
ĠÐļÐ¸ÑĢ Ð³Ð¸Ð·
ĠÐ¿ Ð°Ð»ÑĮ
ĠÐ¡ Ð°Ð´
ÐµÐ² Ð°Ñı
ĠÐ½ÐµÐ¼ÐµÑĨ ÐºÐ¸Ñħ
Ð½ Ð¾Ð¶Ðµ
Ð´ Ð¸Ð»
ÑĤÐ¸ ÐºÑĥ
ĠÐ½Ð°Ð¿ÑĢÐ°Ð² Ð»ÐµÐ½Ð¸Ðµ
ĠÐ¾Ð±Ð»Ð°ÑģÑĤ ÐµÐ¹
ĠÑģÑĤÑĥÐ´ ÐµÐ½ÑĤÐ¾Ð²
Ð´ Ñı
ÐµÐ½ ÑģÐºÐ°Ñı
ĠÐ²Ð¾ ÑĪÑĳÐ»
ĠÐ·Ð°Ðº Ð¾Ð½Ð¾Ð²
ĠÐ²Ñģ ÐµÐ¼Ñĥ
ĠÐŁ ÑģÐºÐ¾Ð²
ĠÐŁ Ð»Ð¾ÑīÐ°Ð´ÑĮ
ĠÐĵ Ð°Ð³
ĠÐĽ ÐµÑĤ
ĠÐ¿Ð¾Ð»ÑĥÑĩ Ð°ÑİÑĤ
ĠÐ·ÐµÐ¼ Ð»Ñİ
ĠÐ½ÐµÐ¼ÐµÑĨ ÐºÐ¾Ð³Ð¾
Ñĩ Ð¸ÐºÐ¸
ĠÑģÑĤ Ð¸Ð»Ñı
ĠÐľ Ð°Ð»ÑĮ
ĠÑģÑĤÑĢÐ°Ð½ Ñĥ
ĠÐ£ÐºÑĢÐ° Ð¸Ð½Ð°
ĠÑĨÐ°ÑĢ ÑģÑĤÐ²Ð¾
ĠÐ¿Ð°ÑĢÐ»Ð°Ð¼ÐµÐ½ÑĤ Ð°
Ñĩ Ð½Ð¾ÑģÑĤÐ¸
ĠÐĲ Ð¼ÐµÑĢÐ¸ÐºÐ°Ð½
ĠÐł Ð¾Ñģ
ÑĢÐ¸ÑģÑĤ Ð¾Ð²
ĠÐ³ÐµÑĢ Ð¾Ñı
ĠÑģÐµÑĢ Ð´Ðµ
Ð» Ð¾ÐºÐ°
ĠÐµ Ð´
Ð¸Ð² ÑĪÐ¸Ñħ
ĠÐ¸Ð½ÑĦÐ¾ÑĢÐ¼Ð° ÑĨÐ¸Ñİ
ĠÑĥÑĩÐ°ÑģÑĤÐ¸ Ñı
ĠÑĤÑĢÐµÐ½ ÐµÑĢ
Ð°Ð² Ð°ÑĤÑĮ
ĠÐ¾Ñģ ÑĥÐ¶Ð´
ĠÐ²ÑĤÐ¾ÑĢ Ð¾Ð¼
ĠÐ¡Ð¿ Ð°Ñģ
ĠÐ¸Ð·Ð¾Ð±ÑĢÐ°Ð¶ ÐµÐ½Ð¸Ðµ
ĠÐ¿Ð»Ð°Ð½ ÐµÑĤÑĭ
ĠÐ´ÐµÐ¿ÑĥÑĤ Ð°ÑĤ
Ñħ Ð¾Ð·
ĠÐ¡ ÐµÐ½ÑĤ
Ð°ÑĢ Ð½ÑĭÐµ
ĠÐ¾Ð± Ð½Ð¾Ð²
ĠÐ¾ÑĤ Ð²ÐµÑĢ
Ð¾Ðº ÐºÐ¾
ĠÑĨÐµÐ½ÑĤ ÑĢÐ¾Ð²
ÑĢÐ° ÑĪ
Ð¾Ñĩ Ð½Ð°Ñı
ĠÐ¾Ð´ ÐµÐ¶Ð´
ĠÑģÐ°Ð¼ Ð¾Ðµ
ĠÐ°Ð½ ÑĤ
ĠÐ·Ð°Ðº Ð¾Ð½Ñĭ
ĠÐ¸ÑģÐ¿Ð¾Ð»ÑĮÐ·Ð¾Ð² Ð°Ð»Ð¸ÑģÑĮ
ĠÑħÐ°ÑĢÐ°ÐºÑĤÐµÑĢÐ¸ ÑģÑĤÐ¸
ĠÐºÐ¾Ð½ÑĨ ÐµÑĢ
ĠÐ²ÑĭÑģÑĤÑĥÐ¿ Ð°ÐµÑĤ
ĠÐ½Ð°Ð·Ð½Ð°Ñĩ ÐµÐ½Ð¸Ñı
ÐĶ ÐŁ
ĠÐ²Ð¾Ð´ Ð¾Ð¹
ĠÐ¸ÑģÐ¿Ð¾Ð»ÑĮÐ·Ð¾Ð² Ð°ÑĤÑĮÑģÑı
Ġ190 7
ĠÐĵÐµ Ð¾ÑĢ
ĠÐ¿ÑĢÑıÐ¼ Ð¾Ð¹
ĠÐ¼ÐµÑĤ ÑĢÐ¾Ð¿Ð¾Ð»Ð¸ÑĤ
ĠÑģÐ¸Ð¼ Ð¼ÐµÑĤ
ĠÐ¼Ð°ÑĪ Ð¸Ð½Ð¾ÑģÑĤÑĢÐ¾
ĠÐ¶Ð¸Ð²Ð¾Ð¿Ð¸Ñģ ÐµÑĨ
ĠÑģÑĤ ÑĢÐ¾Ð¹
ĠÐ¿ÑĢÐ¸Ð½Ð¸Ð¼Ð° ÐµÑĤ
ĠÐ·Ð°ÑĢ ÑĥÐ±ÐµÐ¶
ĠÐ½Ð°Ð¸Ð¼ ÐµÐ½
Ð°Ð» ÐµÐ¹
ĠÐł ÑĥÐ¼Ñĭ
ĠÐĵ Ð°Ð½
Ð¸Ñĩ Ð½ÑĭÐµ
ĠÐ¢Ð¾Ð¼ Ð°Ñģ
ĠÐ¢ÑĥÑĢ ÑĨÐ¸Ð¸
ĠÑĦÐµÐ´ÐµÑĢÐ°Ð»ÑĮ Ð½Ð¾Ð³Ð¾
ĠÐ¡ ÐĿ
ĠÑĤÑĭÑģÑıÑĩ ÐµÐ»
ĠÐ¸Ð½ÑĤÐµÑĢ Ð½ÐµÑĤ
ĠÐĶÐµÐ¿ ÑĥÑĤ
ĠÑĢÐµÐºÐ¾Ð½ ÑģÑĤÑĢÑĥÐº
Ð¼ ÑĥÑĤ
ĠÐ¾ÑĤ Ð±
ĠÐŃ Ð¼Ð¸
ĠÐ·ÐµÐ¼ Ð»ÐµÑĤÑĢÑıÑģ
ĠÐĵÐ¾ÑģÑĥÐ´Ð°ÑĢ ÑģÑĤÐ²ÐµÐ½Ð½ÑĭÐ¹
ĠÐ½Ð°Ð±Ð»Ñİ Ð´Ð°ÐµÑĤÑģÑı
ĠÐĲÐ½Ð°ÑĤÐ¾Ð» Ð¸Ð¹
ĠÑħÐ°ÑĢÐ°ÐºÑĤ ÐµÑĢÐ°
ĠÑĢÐ°Ð½ Ð½Ð¸Ñħ
ĠÐ¼Ð¾Ð½Ð°ÑģÑĤÑĭ ÑĢÑı
ĠÑģ Ð¾Ð»Ð½
Ð¾Ð± Ð¸
ÐĴ Ð¾ÑģÑĤÐ¾Ñĩ
ĠM ic
ĠÐ°Ð½Ð³Ð»Ð¸Ð¹ ÑģÐºÐ¾Ð³Ð¾
ĠÐĿÐĲ Ð¢Ðŀ
l es
ĠÐĺ ÑĢÐºÑĥÑĤ
ĠÐ¾Ñģ Ð»Ð°Ð±
ĠÑĥÑĩ ÐµÐ½Ð¸Ðµ
ĠÐ¿ÑĢÐ¸Ð· Ð½Ð°
ĠÐ¼Ð°Ð³ Ð°Ð·
ÐµÐº ÑĨÐ¸Ð¸
ĠÐ°ÑĢÑħ Ð¸Ð²
ĠÐĴÑģ ÐµÑĢÐ¾ÑģÑģÐ¸Ð¹
Ð°Ð²ÑĪÐ¸Ñħ ÑģÑı
ĠÑģÐ¾ÑħÑĢÐ°Ð½Ð¸ Ð²
ĠÐŁ ÐµÑĢÐ¸
ĠÐĳ ÐµÑĢÐ½
ĠÐ¥ Ð°Ð½
ĠÐŁÑĢÐ¾ Ð¸Ñģ
ĠÑĤÐ²Ð¾ÑĢ ÑĩÐµ
ĠÐ¾ÑĢÑĥÐ¶ Ð¸Ðµ
Ġ &
Ð¾Ð³ Ð¸
ÐµÐ² Ð½Ð°
ĠÐľ Ñį
ĠÐ²Ñĭ ÑģÐºÐ°Ð·
ÑĥÐ´ Ð¾Ð²
ĠÐ¡ÑĤ ÑĢÐ¾
ĠÐ¾Ð±ÐµÑģÐ¿ÐµÑĩ ÐµÐ½Ð¸Ðµ
ĠÑģÑĤ Ð¸Ð¼
ĠÐĵ Ð¾Ð¼
ĠÐ¢ ÐµÑħ
ĠT h
ĠÐ²Ð¾Ð·Ð½Ð¸ÐºÐ° ÐµÑĤ
ĠÐ¿Ð¸ÑĤ Ð°Ð½Ð¸Ñı
ÑĨÐ¸ Ð·Ð¼
ĠÐļ ÑĥÐ»ÑĮÑĤÑĥÑĢÐ°
Ð°Ð² ÑĪÐµÐ¹
ĠÐĳ Ð°Ð²
ĠÐ´Ð² Ð¾ÑĢÐµÑĨ
ĠÐµÐ´Ð¸Ð½ ÑģÑĤÐ²ÐµÐ½Ð½ÑĭÐ¹
ĠÑĪÐºÐ¾Ð» Ñĥ
ÑİÑīÐµÐ¹ ÑģÑı
ĠÐľÐµÐ¶Ð´ Ñĥ
ĠÐĴÐ°Ð» ÐµÑĢÐ¸Ð¹
ĠÑĤÐµÐ½ Ð½Ð¸
ÐµÑĢÐµ Ñı
ĠÐ²Ð¾ÑģÑĤÐ¾Ñĩ Ð½Ð¾Ð¹
ĠÐķÐ³Ð¸Ð¿ ÐµÑĤ
ĠÐ¿ÑĢÐµÑģ Ð»ÐµÐ´Ð¾Ð²
Ã ¡
Ð¾ÑĢ Ñĥ
ĠÑĥ Ñī
ĠÐ» Ð¾Ð´
ĠÐĶ Ð½ÐµÐ¿
ĠÐ¸Ð¼ Ð¼ÑĥÐ½
ÐŁ ÑĢÐ¸
ĠÑĦÐ°Ðº ÑĤ
ĠÐĶÐ¼Ð¸ÑĤ ÑĢÐ¸
ĠÐŁÐ¾Ð·Ð´ Ð½ÐµÐµ
Ñĳ Ð¹
Ð»ÑĮ Ð½ÑĭÑħ
ÐºÐ¾Ð² ÑĭÐµ
ĠÑģÐµÐ¼ Ð¸
ĠÐ¿ÑĢÐµÐ² ÑĢÐ°ÑĤÐ¸
Ð¼ ÐµÐ´
ĠÐ² Ð¿Ð¾Ð»Ð½Ðµ
ÑĢÐ° ÑģÐ¿
Ð°ÑĤ ÐµÐ»Ñİ
ĠÐ¼Ð°ÑĢ ÐºÐ¸
ĠÐ´Ð¾Ð± ÑĢÐ¾Ð²Ð¾Ð»ÑĮ
ĠÐ¼Ð°ÑĪ Ð¸Ð½Ñĭ
ĠÐµÐ³Ð¸Ð¿ ÐµÑĤ
Î µ
Ġ3 7
at h
ĠB o
ĠÐºÐ¾Ð½ÑĤÑĢ Ð¾Ð»Ñı
ĠÑĤÐµÐ»ÐµÑĦ Ð¾Ð½
t e
Ð½ ÑĳÐ¼
Ð»ÐµÐº Ð¾Ð¿
ĠÑģÐ¸ÑģÑĤÐµÐ¼ Ð¾Ð¹
Ð¾Ð¿ÑĢÐ¸ ÑıÑĤ
ĠÐºÐ¾Ð¼Ð¸Ñģ ÑģÐ¸Ð¸
ĠÐĵÑĢÐ¸Ð³Ð¾ ÑĢÐ¸Ð¹
ĠÐ¿ÑĢÐ¸ Ð¼ÐµÐ½Ð¸
ĠÐ¾Ð¿ÑĢÐµÐ´ÐµÐ»Ñı ÐµÑĤ
ĠÑģÐµÐ· Ð¾Ð½
ÑĤ Ð¾Ð½Ð°
Ð± Ð°Ñģ
ĠÐĳ ÑĢÐ°Ð·Ð¸Ð»Ð¸
ĠÐ²Ñĭ Ð·ÑĭÐ²
ÐµÐ· Ð¸Ð¸
ĠÐ¿ÑĢÐµÐ´ÑģÑĤÐ°Ð² Ð»ÐµÐ½Ð°
ĠÑħÐ¾Ð·ÑıÐ¹ ÑģÑĤÐ²Ð¾
Ð³ÑĢÑĥÐ¿Ð¿ Ñĭ
ÑĥÑī ÐµÐ¹
ĠÑģÐ¾ÑĨÐ¸Ð°Ð»ÑĮ Ð½ÑĭÑħ
Ð³ ÑĥÐ½
ĠÐ§ ÑĤ
ĠÐ´Ð² ÑĥÐº
Ð° ÑİÑīÐ¸Ñħ
ÑģÐ¾Ð² ÐµÑĢÑĪ
ĠÐ·Ð¾Ð»Ð¾ÑĤ Ð°
ĠÐĳÐµÐ»Ð¾ÑĢÑĥÑģ ÑģÐ¸Ð¸
ĠÐ¸Ð¼ ÐµÐ²
ÐºÐ¾Ð¼ Ð¿
or y
ĠÐ¾Ð¿ÑĥÐ±Ð»Ð¸ÐºÐ¾Ð² Ð°Ð»
ĠÑĥÑģÐ¿ÐµÑĪ Ð½Ð¾
Ð» Ð°ÑĤÑĭ
Ġ3 8
ĠÐŀÐ»Ð¸Ð¼Ð¿Ð¸Ð¹ ÑģÐºÐ¸Ñħ
ĠÐĵ ÑĢÐ¾Ð·
ÑĢÐ°Ð² Ð½Ð¸
ÐłÐ¾ÑģÑģÐ¸ Ñı
ÐµÑĢ Ð¿
Ð¾Ð»ÑĮÐ· Ð¾Ð²
ĠÐ¢Ðµ Ð¾ÑĢÐ¸Ñı
Ð¾Ð¿ÑĢÐ¸ Ð¼ÐµÑĩÐ°ÑĤÐµÐ»ÑĮ
Ð½ Ð°Ð²
ĠÑģ ÑĥÑī
ĠÐ½Ð°Ð·ÑĭÐ²Ð° ÑİÑĤÑģÑı
ĠÐ·Ð½Ð°ÑĩÐ¸ÑĤÐµÐ»ÑĮ Ð½Ð¾Ð¹
ÑĦÐ¸Ð»ÑĮ Ð¼
Ð°Ð½ ÑĨÑĭ
ÐµÑĤ Ð¸
ĠÐŁ Ð¸ÑĢ
ĠÐļ Ð¾Ð²
ĠÐĽ Ð¸ÑĤÐ¾Ð²
ÑĥÐ± ÐµÑĢÐ½
ĠÐ¾Ð±ÑīÐµ Ðµ
ĠÐ²Ð¾Ð¿ÑĢÐ¾Ñģ Ð°Ð¼
ĠÐŁÐ¾ÑĢÑĤÑĥÐ³ Ð°Ð»Ð¸Ð¸
c i
ĠÐ¿Ð¾Ð´ Ð·ÐµÐ¼
ĠÐ¿Ð¾Ñģ Ð»ÑĥÐ¶
ĠP h
ĠÐ¾Ñħ Ð¾ÑĤ
ĠÐ¾Ñī ÑĥÑī
ĠÐ¿ÑĢÐµÐ²Ð¾Ñģ ÑħÐ¾Ð´
ĠÐ¿Ð¾Ð» Ð½Ð¾Ð¹
ĠÐ½Ð°Ñĩ Ð°Ð»Ð¸ÑģÑĮ
ĠÑĤÐ¾ ÑĩÐµÐº
ĠÐµÐ´Ð¸Ð½ Ð¸ÑĨÐ°
ĠÑĢÐµÐ»Ð¸Ð³Ð¸Ð¾Ð· Ð½ÑĭÑħ
Ð´ Ð·
ĠÐ² Ð¾Ð²
ĠÑģ Ð¼ÐµÑī
ĠÐ¡ ÑĤÐµ
Ð½Ð° ÑģÑĤ
ĠÐĿÐ° ÑĩÐ¸Ð½
ĠÐ¼Ð°ÑĤÐµÑĢÐ¸ Ð°Ð»Ð°
Ð³ÑĢÐµ ÑģÑģ
á ½
Ġ ).
ĠÑģ ÑģÑĭÐ»
ĠÑĩÐ¸Ñģ Ð»Ñĥ
Ġ6 00
ĠÐ¿ÐµÑĢ ÑģÐ¿ÐµÐºÑĤÐ¸Ð²
ĠÑĥÑĩÑĳ Ð½ÑĭÐµ
ĠÑĤÑĢÑĥ Ð±
ĠÐ±ÑĥÐº Ð²Ñĭ
ĠÐ¾Ð¶ Ð¸Ð´
Ð¸ÑĤÐµÐ»ÑĮ ÑģÑĤÐ²Ð¾
Ð»ÐµÐ½ Ð½Ð¾Ð¹
ÑĢÐµÐ· Ð¸Ð´ÐµÐ½ÑĤ
ĠÑĤÑĢÐµÐ± ÑĥÐµÑĤ
ĠÐ¿ÑĢÐ¸Ñĩ Ð¸Ð½Ðµ
Ð»ÐµÐºÐ¾Ð¿ Ð¸ÑĤÐ°
Ð» Ð¾Ð±
Ð°ÑĤ Ð¾
ĠÐĶ Ð°ÑĢ
Ġ4 8
ĠÐ¸ÑģÑĤÐ¾Ñĩ Ð½Ð¸ÐºÐ¾Ð¼
ĠÐ¼Ð°ÑĤÐµÐ¼Ð°ÑĤ Ð¸ÐºÐ¸
ĠÐ²ÑĭÐ½ÑĥÐ¶Ð´ ÐµÐ½
ĠÐ§Ð° ÑģÑĤÑĮ
ĠÐ± Ð°ÑĤÐ°Ð»ÑĮ
Ð¿Ð¾Ð» Ð½
ĠÐ°Ð´ ÑĢÐµÑģ
ĠÑģ Ð°Ñħ
ĠÐ¢ ÑĢÐµÑĤÑĮ
Ð¾Ð»Ð¾Ð³ Ð¸
ĠÐ»ÑĥÑĩ ÑĪÐµ
Ð¸Ð¼ ÑĭÑħ
ĠÑģÐ²ÑıÐ· Ð°Ð½Ð°
ĠÐ¿ÑĢÐ¾Ð³ÑĢÐ°Ð¼ Ð¼Ðµ
ĠÐ³ ÐµÑĤ
Ð¾Ñģ Ðµ
ĠÐĳ Ð°Ðº
ĠÐĹ Ð°Ñħ
ĠÐ²Ð»Ð° ÑģÑĤ
ĠÐ¿ÑĢÐ¾ÑĨ ÐµÐ´
ĠÑħÐ¾Ðº ÐºÐµ
Ð°Ð½ ÑģÐºÐ¾Ðµ
ĠÐĴ Ð¸ÑĪ
ĠÑĢÐ° Ð´
ÑĤÐ¸ Ð½Ñĭ
ĠÑį Ð¼Ð¾
ĠÐ¿ÑĢÐ°Ð² Ð¾Ð¼
ĠB l
ĠÐ¿ÑĥÐ±Ð»Ð¸ ÑĨÐ¸ÑģÑĤ
ĠÑĥÐºÐ°Ð·ÑĭÐ²Ð° ÐµÑĤ
ĠÐ³Ð¾Ð´ Ð¾Ð¼
ĠÐŃ Ð»
ĠÑįÐº Ð·ÐµÐ¼
ĠÐ¼Ð¾Ð½Ð°ÑģÑĤÑĭ ÑĢÑĮ
ĠÐ°ÑĢÐ³ ÑĥÐ¼ÐµÐ½ÑĤ
ĠÐļ Ð¾Ð·
ĠÐ¾ÑĢ Ð±
ĠÐ¸ÑģÐ¿Ð¾Ð»ÑĮÐ·Ð¾Ð² Ð°Ð»Ð¸
ĠÐ½Ð¾Ñģ Ð¸ÑĤ
Ñĥ Ð³Ð°
ÑĮ ÑıÐ½
ĠÐĴ Ð¾ÑģÑĤÐ¾ÐºÐ°
ĠÐ¢ Ð¸Ð¿
Ð½Ðµ ÑģÑĤ
ĠÐ¼ÐµÑģÑĤ Ð½Ð¾ÑģÑĤÐ¸
ĠÐºÐ¸Ð½ ÐµÐ¼Ð°ÑĤ
Ð· Ð¼Ñĭ
ĠÐŁ Ð¾ÑĢ
ĠÐ½Ð°ÑģÐµÐ» ÑĳÐ½Ð½ÑĭÑħ
ĠÐ¼ÐµÑģÑĤÐ¾ÑĢ Ð¾Ð¶Ð´ÐµÐ½Ð¸Ñı
ĠÐ½Ð°ÑĢÐº Ð¾ÑĤ
ÑĢÐ° ÑĤÑĮ
Ð· Ð°Ð¼
ĠÐ¼ ÑıÑĤÐµÐ¶
ÑĨÐ¸ Ð´
ĠÑįÐ»ÐµÐ¼ÐµÐ½ÑĤ Ð°
ĠÐ±Ð¾Ð» Ð³Ð°ÑĢ
ÐµÑĢ Ð½ÑĭÐ¹
ÐºÐ¾Ð½ ÐµÑĨ
ĠÑĦÐ¾ÑĤ Ð¾
ĠÐºÐ¾Ð¼Ð¿Ð»ÐµÐº ÑģÐ°
er n
ĠÐŀÐ±ÑĢÐ°Ð· Ð¾Ð²Ð°Ð½Ð¸Ðµ
Ð¸Ð· Ð¼Ðµ
Ð´Ð° ÑİÑĤÑģÑı
Ð²ÐµÑĢ Ñħ
Ñĥ Ð¼Ð¸
ĠÐ± ÐµÐ½Ð·
ĠÐļ Ð²Ð¸Ð½
ĠÑģÑĤ Ð¸Ð»ÑĮ
ĠÐ¨ Ð¾ÑĤÐ»Ð°Ð½Ð´
Ðĺ ÐĶ
ĠÐ½Ð°ÑģÐµÐ» ÐµÐ½Ð¸ÐµÐ¼
ĠÐ´ Ð»Ð¸Ð½Ð°
ĠÐ¾Ñģ Ð²ÐµÑī
200 5
ÑıÑīÐ¸Ñħ ÑģÑı
ĠÐ»Ð¸Ðº Ð²Ð¸Ð´
Ñı ÑīÐµÐ³Ð¾
ĠÐ² ÑĤÐ¾ÑĢÐ°Ñı
Ð¸Ð² ÑĪÐ¸Ðµ
ĠÐ·Ð° ÑĦÐ¸Ðº
Ġ190 9
ĠÐ¼Ð°Ð³ Ð¸ÑģÑĤ
ĠÐ² Ð¾Ð»ÑĮ
ĠÐ² ÐµÐ½Ð³ÐµÑĢ
ĠÐ·Ð°Ð½Ð¸Ð¼Ð° ÑİÑĤ
ĠÐĴÐ¾ÑĢÐ¾Ð½ ÐµÐ¶
ĠÑģ Ð½Ð¸Ð¼
ÑģÑĤÐ¸ Ð½Ñĭ
ĠÐ¢ ÐµÐ»
ĠÑįÐº Ð²Ð¸Ð²Ð°Ð»
ĠÐ¿Ð¾Ðº Ð»Ð¾Ð½
Ð¿Ð¸ Ð¾Ð½
ĠÐ¸ÑģÑĤÐ¾Ñĩ Ð½Ð¸ÐºÐ¸
ĠÑĤÐ¾Ð² Ð°ÑĢÐ¾Ð²
ĠÐºÐ¾Ð¼Ð¸ÑĤ ÐµÑĤ
ĠÐ¸Ð¼ ÐµÐ½Ð°
Ð¾Ð»Ð¾Ð³ Ð¸Ñİ
ĠÑģÐ¾Ð·Ð´ Ð°Ð½Ñĭ
ĠÐŀÑģ Ð¼Ð°Ð½
Ð¾ÑĢÐ¸ÑĤ ÐµÐ»ÑĮ
ÐĹÐ°Ð¿ Ð°Ð´
ĠÑĤ ÑĢÐ¾Ð»Ð»ÐµÐ¹Ð±
Ð½Ð¾Ðº Ð¾Ð¼
ĠÐ¸Ð½ÑĤÐµÑĢÐµ ÑģÐ¾Ð²
Ð³ Ð¸Ð´
ĠÐ´ ÑĥÐ±
ĠÐ´ Ð»Ð¸Ð½Ñĭ
ĠÐŁ ÑĢÐµÐ¿
ÐµÐ»Ð¾Ð² ÐµÐº
ĠÑĥÐ± ÐµÐ¶Ð´
ĠÑģÐ¼ ÐµÐ½Ð¸
ĠÐĵÐµÐ½ÑĢÐ¸Ñħ Ð°
ĠÐ¿ Ð°Ñģ
Ð¾Ð³ Ð¾Ð½
ĠÑĥ ÑģÐºÐ¾ÑĢ
ĠÐ¾Ð± Ð°
ĠÐł ÑĥÐ´
ĠÐĿ Ð°Ð²
ĠÑĪ ÑĤÐ°
ĠÐ¾ÑģÐ½Ð¾Ð² Ñĭ
ĠÑĢÐ°Ñģ ÑĪ
ĠL e
Ġ190 3
ĠÑĥÑĢÐ¾Ð² Ð½ÐµÐ¼
ĠÐ¾ÑĤÐ¿ÑĢÐ°Ð² Ð¸Ð»ÑģÑı
ĠÑĩÐµÑĢ ÑĤÑĭ
ĠÐ¢ÐµÑĢ Ð¼Ð¸Ð½
ĠÐ¢ÐµÑĢ ÑĢÐ¸ÑĤÐ¾ÑĢÐ¸
ĠÐŃÐ¹ Ð½
ĠÑĤÑĢÐµÑĥÐ³Ð¾Ð»ÑĮ Ð½Ð¸ÐºÐ°
ĠÑģÐ¾Ð· Ð²
ĠÐ³ÐµÑĢ Ð¾Ð¹
ÐŁÐµÑĤ ÐµÑĢÐ±ÑĥÑĢÐ³Ð°
ĠÑĢÑĥÐ± ÐµÐ¶
ĠÐ¿Ð¾ÑıÐ²Ð»Ñı ÐµÑĤÑģÑı
ĠÐ¿ÐµÑĢÐµÑĥÐ» Ð¾Ðº
ĠÑģÐ°Ð¼Ð¾Ð» ÑĳÑĤÐ°
y st
Ð°Ð½ ÑģÐºÐ¸Ð¼
Ð³ Ð¾Ð¼
ĠÑĥ ÐºÐ°Ð·ÑĭÐ²
ĠÐł ÑĥÐ±
ĠÐ¾ÑģÐ½Ð¾Ð² Ð¾Ð¹
ĠÐ¸ÑģÐ¿Ð¾Ð»ÑĮÐ· ÑĥÐµÑĤ
ĠÐľÐ°ÑĢÐ¸ Ð¸
ĠÐ± Ñĥ
Ñį ÑĤÐ°Ð¶
ĠÐľ ÑĥÑģ
ĠÐ¿ÑĢÐµÐ´ÑģÑĤÐ°Ð² Ð»ÐµÐ½Ð¸Ðµ
ĠÐ¼Ð°ÑĤ ÑĢÐ¸
ÑģÑĤÐ¸ÑĩÐµ ÑģÐºÐ¾Ð³Ð¾
Ð¸Ñī Ð°
ĠÐĲÐ± ÑħÐ°Ð·
ĠÑĢÐµÐ³ Ð¸ÑģÑĤÑĢÐ°
ĠÑĦÐ¸Ð³ ÑĥÑĢ
Ñĭ Ð¶
Ð°ÑĤ ÑĤ
Ð¸Ð½ Ñı
Ġ( ;
ĠÐ¡ ÑĥÐ»
ĠÐŁ Ð¸ÑĤ
ĠÐ¿Ð¾Ð² Ð¾Ð´Ñĥ
ÑĭÐ²Ð° ÐµÑĤ
ĠÐ¿Ð»Ð°Ð½ ÐµÑĤ
ĠÐ´Ð¸Ðº ÑĤ
] ,
ĠÐ¸ÑģÐ¿ Ñĭ
Ðĵ Ðĳ
ĠÐ³ÑĢÑĥÐ¿Ð¿ Ð¾Ð¹
ĠÑĦÐ¸Ð· Ð¸ÐºÐµ
Ñĩ ÐµÐ½Ð¸Ñı
Ð°ÑĢ ÑģÐºÐ¾Ð¹
ÐµÐ´ Ð¶
ÑĢÐ¾Ð½ Ð¾Ð²
ĠÐķÐºÐ°ÑĤÐµÑĢÐ¸ Ð½
ĠÐ¾ Ð·Ð½Ð°Ñĩ
ĠÐĳ Ð¸ÑĢ
ÑĨÐ¸Ñı Ð¼
ĠÐ¿Ð¾Ñį Ð·Ð¸Ð¸
ĠÐļÐ¾Ð¼ Ð¸ÑĤ
ĠÐ¾ÐºÐ¾Ð½Ñĩ Ð¸Ð»
Ð½ ÐµÐº
ĠÐĴ Ð½ÑĥÑĤ
ĠÐļ Ð°Ð´
ĠÑģÑĤ Ð¾Ð»ÑĮ
ĠÐŀ Ð»ÐµÐ³
ĠÑģÐ°Ð¼ ÑĭÐµ
ĠÐ²Ð¾Ð´ Ð°
ĠÐ´ÑĢÐµÐ² Ð½ÐµÐ¹
ĠÑįÑĤÐ° Ð¿
Ð»Ñı Ð»Ð¸
Ð¾Ð»ÑĮ ÑģÐºÐ¸Ð¹
ĠÐĳ Ð¾
ĠÐŃ Ð»Ð¸
ĠÐ¿ÑĢÐ¾ÑĤ Ð¾ÐºÐ¾Ð»
20 10
ĠÐķÐ² Ð°Ð½Ð³
ĠÐ´ÐµÑĢÐµÐ² Ð½Ñı
ĠÐ°Ð»ÑĦÐ°Ð² Ð¸ÑĤÑĥ
ÑĢ Ð¾Ð¶Ð´
ĠÐ¸ ÐºÐ¾Ð½
Ñĳ ÑĢÐ¾Ð²
ÑĢÐ¾Ð² Ð°Ð½Ð¸Ðµ
Ð»ÐµÑĤ Ð½Ð¸Ð¹
ĠÐ»ÑİÐ´ ÑĮÐ¼Ð¸
p er
ĠÐľ Ð°Ð´
ĠÐ¸Ð· Ð½Ð°ÑĩÐ°Ð»ÑĮÐ½Ð¾
ĠÐł Ð°ÑģÑģ
ĠÐĶ ÑĥÐ±
ĠÐ£ ÑĩÐ°ÑģÑĤ
ĠÐ·Ð´ ÑĢÐ°Ð²Ð¾Ð¾ÑħÑĢÐ°Ð½
ĠÐ·Ð°Ñħ Ð²Ð°
ation al
ĠÐĴÐµÐ½Ð³ ÑĢÐ¸Ð¸
ĠÐº ÑĥÐ´Ð°
ĠÐ¢Ð°Ðº Ð¸Ðµ
ÑĮÑı Ð¼Ð¸
ĠÐ²ÐµÐº ÑĤÐ¾ÑĢ
ĠÐ»ÑİÐ± Ð¾Ð³Ð¾
Ġ25 0
ĠÐºÐ»Ð°ÑģÑģÐ¸ ÑĩÐµÑģÐºÐ¾Ð¹
ĠÐºÐ¾Ð»Ð»ÐµÐ´ Ð¶
ÑĢ ÑĳÐ»
ĠÐµ Ð¿Ð°ÑĢÑħ
ĠÐ¿ÑĢÐ¾ ÐµÐ·Ð´
ĠÐ¿Ð¾Ð»Ñı ÑĢ
ĠÐ³Ð¾Ð²Ð¾ÑĢ ÑıÑĤ
ĠÐ¼ ÐµÑĢÑĭ
ĠÐ½Ðµ Ð·Ð½Ð°Ñĩ
ĠÐĹ Ð½Ð°Ð¼
ĠÐ¥ ÑĢÐ°Ð¼
Ð¾Ð³Ð¾Ð² Ð¾ÑĢ
ĠÑģÐµÐº ÑģÑĥ
ĠÐ½Ð°ÑĨÐ¸Ð¾Ð½Ð°Ð»ÑĮ Ð½ÑĭÐ¹
ĠÑģÑĤÐ° ÑĢÐµÐ¹
Ðµ Ð³Ð°
ĠÐ² ÑĤÐ¾ÑĢÐ¸
ĠÐŁ ÐµÑģ
ĠÐŀ Ð³
ĠÐľÐ¾ÑģÐºÐ¾Ð² ÑģÐºÐ¸Ð¹
ĠÐ²ÐºÐ»Ñİ ÑĩÐ°
ĠÐ°ÑįÑĢÐ¾Ð¿ Ð¾ÑĢÑĤ
ĠÐ´ÑĢÑĥ Ð³Ð¾Ðµ
ĠÐ²ÑĭÑĤ ÐµÑģ
ĠÑį Ñģ
ĠÐ¼Ð¾Ð³ Ð»Ð°
ĠÐĲÐ² ÑĤ
ĠÐŁ Ð¾ÑĢÑĤ
ĠÐ»Ð¸Ñĩ Ð½Ð¾
ĠÐ¾ÑĤÐ´ÐµÐ» ÐµÐ½Ð¸Ñı
ĠÐºÐ²Ð°Ð½ÑĤÐ¾Ð² Ð¾Ð¹
Ð± ÑĥÑĢ
ĠÐ¼ ÐµÐ¼Ð¾ÑĢÐ¸
ÑĤÐ¾ ÑĢÐµ
ĠÑģÐº Ð¾Ð½Ñĩ
ĠÐ¿Ð¾Ð´Ð´ÐµÑĢÐ¶ ÐºÐµ
ĠÐ¾Ð¿Ð¸Ñģ Ð°Ð½Ð¸Ñı
ĠÐ¾ÑĩÐµ Ð²Ð¸Ð´
ĠÐĺÐ¾Ð°Ð½ Ð½
ĠÐ±Ð»Ð° Ð³Ð¾
ĠÐĿÐ°ÑĩÐ¸Ð½ Ð°Ñı
o st
Ð² Ð°Ð»Ð°
Ð± ÐµÐ·
ĠÐĴ ÑĮÐµÑĤÐ½Ð°Ð¼
ĠÐ²Ð¾Ð¹ Ð½
ĠÐ¸ÑģÑģÐ»ÐµÐ´Ð¾Ð² Ð°ÑĤÐµÐ»Ð¸
ĠÐĴÐµÐ»Ð¸ÐºÐ¾Ð±ÑĢÐ¸ÑĤ Ð°Ð½Ð¸Ñı
C l
ĠÐ¾ÑĢ ÐºÐµÑģÑĤ
Ðĺ Ðĺ
ĠÑĨÐµÑĢ Ðº
ĠÑģÐ¾Ð¿ÑĢÐ¾Ð² Ð¾Ð¶Ð´
ÑĢ ÑĭÐ¹
ĠÑģ Ð½ÑıÑĤ
Ð¸Ñĩ Ð½Ð¾
ÑģÑĤÐ²Ð¾Ð² Ð°Ð½Ð¸Ñı
ĠÐºÐ¾ÑĢÐ¿ Ð¾ÑĢÐ°
Ð² Ð¾Ð½
ĠÐł ÑıÐ´
ĠÐ¡ÐµÑĢÐ³ Ðµ
ĠÐ¾ÐºÑĢÑĥÐ¶Ð° ÑİÑīÐµÐ¹
ĠÐ¿Ð¸Ð» Ð¾ÑĤ
ÐµÑģ ÑģÐ¸Ð¸
ĠÐ£ ÑģÐ¿
ĠÐ¸Ð¼Ð¿ ÐµÑĢÐ¸
ĠÐ²Ð¿ ÐµÑĩÐ°ÑĤ
ĠÑįÐºÐ¾Ð½Ð¾Ð¼ Ð¸ÑĩÐµÑģÐºÐ¾Ð³Ð¾
iv ers
a h
u e
Ñİ Ð»ÑĮ
Ð½Ð° Ñģ
Ð½Ð° Ñħ
ĠÐ¿ÑĢÐµ ÐµÐ¼
ĠÐĿÐ° Ð±
ĠÐĶÐ¾Ð½ ÐµÑĨ
ĠÐŁÑĤÐ¾Ð» ÐµÐ¼
Ñı Ð»ÑģÑı
Ñĩ ÑĤÐ¾
ĠÑģ ÐµÑĢÐ±
Ð¾Ð¿ Ð¾ÑĤ
ĠÐ¸ÑģÐ¿ Ð°Ð½ÑģÐºÐ¸Ð¹
200 8
ÐµÐ² ÑĭÐµ
ĠÐ¾Ð´ Ð½Ð¾Ð¼Ñĥ
ĠÐ¾ÐºÐ°Ð· Ð°Ð»Ð¸ÑģÑĮ
ĠÐŀÑģÑĤ ÑĢÐ¾Ð²
ĠÐłÐ°Ð´Ð¸ Ð¾
Ð¾Ñģ Ð¸Ð¿
ĠÐ£ Ñį
Ð°Ð»Ð¸Ð· Ð°ÑĨÐ¸Ñı
ĠÐ·Ð´ Ð°Ð½Ð¸Ð¸
ĠÐ¾ÑģÑĤÑĢÐ¾Ð² Ð°Ñħ
ĠÐ¿ÐµÑĢÐµÐ³Ð¾Ð² Ð¾ÑĢÑĭ
Ð±Ð»Ð¸Ð· Ð¸
ĠÐ² ÑĥÐ»
ĠÐĴ ÐµÑĤ
ĠÐŁ ÑĢÐ¾ÑĤÐ¸Ð²
ĠÐ¾Ð± ÐµÑī
ĠÐĲ Ð¿Ð¾Ð»
ĠÐ¿Ð¾Ð² ÐµÐ´ÐµÐ½Ð¸Ñı
ÑĤÐ¾ÑĢÐ° Ð¼Ð¸
ĠÐĵÐµÐ¾ÑĢÐ³ Ð¸Ð¹
Ð½ Ð¾ÑĢÐ¾Ð´
ĠÐ¸ ÑĢ
ĠÑĤ Ñĳ
ĠÐ¡ Ð¾Ðº
Ð¸Ð² ÑĪÐ¸ÑģÑĮ
ĠÐ¿ÑĢÐµÐ¼Ð¸ Ñı
ĠÑĥÑĢÐ°Ð²Ð½ ÐµÐ½Ð¸Ñı
ĠÐ± Ð¾Ðº
ĠÐ± Ð¾Ð³Ð¾Ð²
ĠÐ½Ð°Ñĩ Ð°Ð»ÑģÑı
ĠÑģ Ð°ÑĤ
ĠÐ± ÑĥÑħ
ĠÑĦ ÐµÐ¾Ð´
ĠÑĨ ÐµÑĢÐµÐ¼Ð¾Ð½
ÑĨÐ¸Ð¾Ð½ ÐµÑĢ
Ġ5 5
ĠÑĥÐ¿ Ð¾Ð¼
ĠÐ½Ð°ÑĨÐ¸Ð¾Ð½Ð°Ð»ÑĮ Ð½ÑĭÑħ
ĠÐ½ÐµÐ±Ð¾Ð»ÑĮÑĪ Ð¾Ð¹
ĠÐºÐ¾ÑģÐ¼Ð¸ ÑĩÐµÑģÐºÐ¾Ð³Ð¾
a ch
ÐµÐ¼ Ð¾ÑģÑĤÑĮ
ĠÐĵ ÑĢÐ°Ð½
Ð´Ð° Ð¿
ĠÐ³Ð¾ÑĢÐ¾Ð´ Ñĥ
ÑĤÐ¸Ð² Ð½Ð¾Ðµ
ĠÐ¸Ð´Ðµ Ñı
ĠÐ±ÐµÑĢÐµ Ð³Ð¾Ð²
ĠÐ¿ÑĢÐµÐ´ÐµÐ» Ð°Ð¼Ð¸
ĠÐ£Ð· Ð±ÐµÐº
Ã ¶
ĠÐ¸Ð· Ð²
Ð¡ Ð¨ÐĲ
ĠÐ°Ð½ ÑĤÑĢÐ¾Ð¿
ĠÐ·Ð°Ð¼ ÐµÐ½Ð¸
ĠÐ¿ÑĢÐ¸Ð² Ð»ÐµÐº
ĠÑĤÑĢÐµ ÑĤÐ¸Ð¹
ĠÐ¡ÑĥÑīÐµÑģÑĤÐ² ÑĥÑİÑĤ
ĠÑĢÐµ Ð¼Ð¾Ð½
Ð²Ð° Ð¼Ð¸
ÑĥÑī ÐµÐ½
ĠÑħÑĢÐ° Ð¼Ð°
Ð°Ð» Ñı
ĠÐļ Ð¸Ð¼
ĠÐ¢ Ð¸Ð±
ĠÑģÐ¾ÑģÑĤÐ¾Ñı Ð»Ð¾ÑģÑĮ
ĠÐļÐ¾Ð» Ñĩ
ĠÑĤÐµÐ»ÐµÐ² ÐµÐ´
ĠÐ´Ð¾ÑģÑĤÐ¸Ð³Ð° ÐµÑĤ
ĠÑģÐ¸ÑģÑĤÐµÐ¼ Ð°ÑĤ
ĠÑĢÐ°Ð·Ð»Ð¸Ñĩ Ð½ÑĭÐ¼Ð¸
ĠÑģÑĤÐ¾Ð» Ð¸ÑĨÐµÐ¹
i er
Ð»Ð¸ Ð¼Ð¿Ð¸
Ð»ÐµÐ½ Ð½Ð¾ÑģÑĤÑĮ
ÑģÑĤ Ð°Ð½Ðµ
ĠÐ¿Ð¾Ð³ Ð»Ð¾Ñī
ĠÑĤÐµÐ¼Ð¿ÐµÑĢÐ° ÑĤÑĥÑĢÐµ
Ð¾ÑĢ ÐµÐ½
ĠÐ¾Ð± Ð¾Ð»
Ð¸Ð² Ð°Ñı
Ð¸Ñĩ Ð½ÑĭÑħ
ĠÐ·Ð°Ð¿ Ð¸ÑģÑĮ
Ð¸ÑĤÐ° ÐµÑĤÑģÑı
ĠÐ¡Ð¾Ð²ÐµÑĤ ÑģÐºÐ¾Ð¹
Ġ st
ĠÐ¸Ð· ÑĢÐ°Ð¸Ð»ÑĮ
ĠÐµ Ð¶
ĠÐ¤ Ð°Ðº
ĠÐºÐ¾Ð¼Ð¿ Ð°Ð½Ð¸Ð¹
ĠÐ·Ð°Ð¼ ÐµÑĩ
ĠÐ¿Ð¾ÑĢÐ°Ð¶ ÐµÐ½Ð¸Ñı
Ð¾Ð½ ÑĤÐ¾Ð²
Ġ4 4
ĠÐ¼Ð¸Ð½ Ð¸ÑģÑĤÑĢÐ°
ic al
ĠÐĴÑģ ÐµÐ»
ĠÐ½Ð°Ð¿ÑĢÑı Ð¶
ĠÐŀÐ±Ñĭ ÑĩÐ½Ð¾
ĠÐĺÑģÑĤÐ¾Ñĩ Ð½Ð¸ÐºÐ¸
Ðº ÑĢÐµÐ¿
ĠÐ± ÐµÐ³
ĠÐ²ÑĭÑģ ÑĪÐµÐ³Ð¾
Ðĳ ÐµÐ»
ĠÐ¾Ð±Ñī Ð¸Ð½Ñĭ
ĠÐĽÑİ Ð´Ð¾Ð²
ĠÐ²Ð¾Ð¾ÑĢÑĥÐ¶ ÑĳÐ½Ð½ÑĭÑħ
ĠÐ²Ð¾Ð·Ð³Ð»Ð°Ð² Ð¸Ð»
ĠÐĽÐ¾Ð½Ð´ Ð¾Ð½Ðµ
ĠÐŃÐ´Ñĥ Ð°ÑĢÐ´
ĠÑįÐ»ÐµÐºÑĤÑĢÐ¾Ð¼ Ð°Ð³Ð½Ð¸ÑĤ
ĠÐ§ÑĤ Ð¾Ð±Ñĭ
Ï ģ
Ñĳ ÑĢÑĭ
ÐµÑĢÐ° ÑĢ
ĠÐ²ÑĭÑģ ÑĪÐ¸Ñħ
at e
ĠÐ»ÑĥÑĩ ÑĪÐ¸Ñħ
ĠÐºÐ»ÐµÑĤ Ð¾Ðº
ĠÐ·Ð°ÐºÑĢÑĭ ÑĤ
ĠÐ¸Ð½ÑĦÑĢÐ° ÑģÑĤÑĢÑĥÐºÑĤ
ĠÑĤ ÐºÐ°Ð½
ĠÐĴÐ¸Ð»ÑĮÐ³ÐµÐ»ÑĮ Ð¼
ĠÑģÐºÐ¾ ÑĢÐµÐµ
ÑĤÐ¸ ÐºÐ¾Ð²
ÑĤÐ¸ ÑĢÐ¾Ð²Ð°Ð½
ĠÐ¾Ð´ Ð¸Ð½Ð¾
Ð»Ñİ Ð±
ÑıÐ½ ÑĮ
ĠÐ¿ÑĢÐ¾Ð¸Ð· Ð²Ð¾Ð»ÑĮ
ÑĢÐ¾Ñģ Ð¾Ð²
ĠÐºÐ¾Ð½ÑĨ ÐµÑĢÑĤ
ĠÐ²ÐµÐ»Ð¸Ñĩ Ð¸Ð½Ñĭ
ĠÐ°Ð»ÑĮÐ±Ð¾Ð¼ Ð°
Ð¾ÑĢÐ¸ Ð½
Ð»Ñİ Ð¼Ð¸Ð½
u re
Ð¾Ð´ Ð¾Ð¼
ÐµÐ» Ð¸Ð¹
ĠÐļ Ð¸Ð½
Ð¾Ð± Ð¸Ð»Ð¸
ĠÐ¿ÑĢÐµÐ´ Ð»Ð°Ð³Ð°
Ð¸ÑĢÐ¾Ð² ÐºÐ¸
ĠÐĲÐ½ÑĤÐ¸ Ð¾Ñħ
ĠÑĥ Ð´ÐµÑĢÐ¶
ĠÐ´Ðµ Ð±
in ux
ĠÐ½Ð°Ð·ÑĭÐ²Ð° ÐµÐ¼ÑĭÐ¹
ĠÐ¸Ð¼Ð¿ÐµÑĢÐ° ÑĤÑĢÐ¸
ĠÐ½Ð°ÑģÐ»ÐµÐ´ Ð¸Ñı
Ð° ÑİÑīÐ¸Ðµ
ĠÐ½Ð° Ð¼ÐµÑģÑĤ
Ð°Ð² ÑĪÐ¸ÐµÑģÑı
ĠÐ´Ð¸ ÑĢÐµÐº
200 6
ĠÐ¿ÑĢÐ¾ÑĤÐ¸Ð²Ð¾ÑĢÐµ Ñĩ
ÑĦ Ð¾Ð²
ÑĤÐ¸ Ñİ
ĠÐ¸Ð· Ð¾ÑĤÐ¾Ð¿
ĠÑģÐ»Ð¾Ð² Ð°Ð¼Ð¸
ĠÐ¸ÑģÐºÑĥÑģ ÑģÑĤÐ²Ðµ
ĠÑĢÑĥÐºÐ¾Ð²Ð¾Ð´ Ð¸ÑĤÐµÐ»ÑĮ
ĠÐ¡ÐµÐ¼ Ñĳ
ĠÐľÐ¾Ð» Ð´Ð°Ð²
ĠÐ¾ÑĤ ÑħÐ¾Ð´
ÐµÐ² ÑĭÐ¼
ÑģÑĤÐ²Ð° Ñħ
Ð¸ ÑģÐºÐ¸
ĠÐ² Ð»Ð¸
Ð¶ Ð½ÑĭÑħ
ĠÐ²Ñĭ Ð´ÐµÑĢÐ¶
ĠÐ¢ Ð¾Ð»ÑĮÐºÐ¾
ĠÐ¿Ð¾Ð» ÐºÐ°
ĠÐ¿Ð¾Ð´ Ñģ
Ð½Ð¾Ð¼ ÐµÑĢ
Ð¾Ð´ Ð¾ÑĢ
ĠÐł Ð¾Ð·
ĠÐ¾Ð±Ð»Ð° Ð´Ð°ÑİÑĤ
ĠÑĤÐµÑħ Ð½Ð¸Ðº
ĠÐºÐ¾Ð¾ÑĢÐ´Ð¸Ð½ Ð°ÑĤ
ĠÐŃÑģÑĤÐ¾Ð½ Ð¸Ð¸
ĠÐ²Ð¾ÑģÐº ÑĢÐµÑģ
ĠÐļ Ð¾ÑĤ
Ð»Ðµ Ð³Ð°
ĠÐ¼Ð°Ñģ ÑģÐ¸Ð²
ĠÑģÐ»ÑĥÐ¶ Ð¸ÑĤ
us t
ĠÐ¿ÑĢÐ¸Ð± Ð»Ð¸Ð¶
a z
n e
ÑĢÐ¸ ÐºÐ°
Ð¾Ð± Ð¾ÑĢ
ĠÐ¢ Ð¾
ĠÐ¾ÑĤÐºÑĢÑĭ ÑĤÐ°
ĠÐ·Ð² ÑĥÐº
ĠÐ¿ÑĥÑĤ ÐµÐ¹
ÐºÑĢÐ°ÑĤ Ð½ÑĭÐ¹
ĠÐ¿ÑĢÐ¾Ð¿Ð°Ð³ Ð°Ð½Ð´
Ð¾ ÑĦÐ¸ÑĨÐ¸Ð°Ð»ÑĮ
Ð¾Ð± Ð¾ÑĢÐ¾ÑĤ
ĠÐĿ ÐµÐº
ÑĥÐ» Ñĥ
ĠÑĢÐµÐ¶ Ð¸Ð¼Ð°
ĠÐ¿Ð¾ÑģÑĤÑĢÐ¾ ÐµÐ½Ð°
ĠÐ¿ÑĢÐ¾ÑħÐ¾Ð´ ÑıÑĤ
ĠÐ¢Ð¾Ð» ÑģÑĤ
ĠÑģ Ð½Ð°Ð±
Ð°ÑĢ Ð½Ð¾Ð³Ð¾
Ð°ÑĤÑĮ Ñı
Ð¾ÑĢÐ¸ Ð¼
Ð¾Ð»Ð¾Ð³ Ð¸ÑĩÐµÑģÐºÐ¾Ðµ
Ġ4 3
ĠÐºÐ°Ð½ ÑĨ
ĠÐ»ÐµÐº ÑģÐ¸
ĠÐ¿ÑĢÐµÐ´ Ð¾ÑĤÐ²
ĠÐ´Ð²Ð° Ð´ÑĨ
ĠÐ·Ð½ Ð°Ð½Ð¸Ñı
r y
ĠÐ¿ÑĢÐ¸ Ð·ÑĭÐ²
ÑĤÐ¸Ð² Ð½ÑĭÐµ
ĠÐ²ÑĤÐ¾ÑĢ Ð¾Ðµ
Ð°Ð´Ð° ÑİÑĤ
ĠÐ¼Ð°ÑģÑģÐ¾Ð² Ð¾Ð¹
ĠÐ° ÑĢÐ¸ÑģÑĤ
ĠÐŁ Ð°Ðº
Ð¸ÑĩÐµ ÑģÑĤÐ²Ð¾
ĠÐ·Ð°ÑģÐ»ÑĥÐ¶ ÐµÐ½Ð½ÑĭÐ¹
Ñħ Ð¾Ð»
Ð°Ð½ Ð½ÑĥÑİ
Ð¡ Ð¾Ð²
ĠÑĥÑĩ ÐµÐ½Ð¸Ñı
199 1
Ñĳ Ð¼Ðµ
ĠÐĲ Ð½Ð°
Ð°Ð»ÑĮ Ð½Ð¾Ð¼Ñĥ
ĠÑģÐ¾Ð± ÑģÑĤÐ²ÐµÐ½Ð½Ð¾
ĠÐ¡ÑĤ Ð°Ð½Ð¸
ĠÐ¸ÑģÐ¿Ð¾Ð»ÑĮÐ·Ð¾Ð² Ð°Ð½Ð¸Ð¸
ĠÑĨÐ¸ ÑĢ
Ġd er
ĠÐ¸Ð³ÑĢÐ° ÐµÑĤ
ĠÑĥ Ð²ÐµÑĢ
Ð»Ðµ Ð¿
Ð¢ Ðł
ĠÐ¿ÑĢÐµÐ²ÑĭÑĪ Ð°ÐµÑĤ
ĠÐ¸ Ð½ÑĭÑħ
ĠÐ¿Ð¾ÑģÐ»ÐµÐ´ Ð½ÐµÐ¹
200 4
ĠÐºÐ°Ð½ Ð¾Ð½
ĠÐ¼ Ð°Ð»ÑĮ
Ð¾ÑĤ Ð²ÐµÑĤ
ĠÐ° ÑģÑģÐ¸
ĠÑĦ Ð°Ð¹Ð»Ð¾Ð²
ĠÑĥÐºÑĢÐ° Ð¸Ð½
ĠÐºÐ»ÐµÑĤ ÐºÐ¸
ĠÑģÐµÐ· Ð¾Ð½Ð°
ĠÐ¿Ð¾Ð²ÐµÐ´ ÐµÐ½Ð¸Ðµ
Ð° ÑİÑīÐ¸Ð¹
ĠÐ¾Ð±ÑīÐµ ÑģÑĤÐ²ÐµÐ½Ð½ÑĭÑħ
ĠÐºÐ¾Ð¼Ð°Ð½Ð´ Ð¸ÑĢ
ĠÐļÐ¾Ð» ÑĥÐ¼Ð±
ĠÐ¸Ð½ÑĦÐ¾ÑĢÐ¼Ð° ÑĨÐ¸Ñı
Ġ al
ĠÐ¿ ÑĥÐ½Ðº
ĠÐ² ÑĢÑĥÑĩ
Ñĩ ÐµÐ½ÑĮ
ĠÐĿ ÐµÐ´
ÐµÑĢÐ° Ð¼
T P
Ð»Ð¸ Ð²Ð¾
ĠÐĴ Ð°Ð»ÑĮ
ĠÐ¿ÑĢÐµÐ´ Ð¼
ĠÐĹ ÐµÐ»Ð°Ð½Ð´
ĠÐ¾Ð±ÑĬ ÑĳÐ¼Ð°
ĠÐ® Ð³Ð¾
ĠÐ½Ð°ÑĢÐ¾Ð´ Ð½Ð°Ñı
ĠÐŁÑĢÐ¾ Ð¸Ð·Ð²Ð¾Ð´
Ġ z
Ð»Ð¸ ÐºÐ°
ÐºÐ¾Ð² Ð¾
ĠÐĹ Ð°Ñģ
Ð¢ ÐĴ
ĠÐ±ÑĥÐ´ ÑĥÑĩÐ¸
] .
ĠÐ¼Ð¾ÑĢ ÑĦ
ĠÑĥÑģÑĤÐ°Ð½Ð¾Ð² Ð»ÐµÐ½Ð°
ĠÐ»ÐµÐ¶ Ð¸ÑĤ
Ñģ Ð°Ð¼Ð±
ĠÐ¼ Ð»ÐµÐºÐ¾Ð¿Ð¸ÑĤÐ°
ÑĦ ÑĤ
Ð¸Ð· Ð½ÑĮ
ĠÐ¢ Ð²ÐµÑĢ
ĠÐºÑĢÑĥÐ¿ Ð½ÑĭÐ¹
ĠÑĤÐ¾Ñĩ Ð½Ð¾
ĠÐ¤ÑĳÐ´ Ð¾ÑĢ
ĠÐŁÐµÑĢÐ²Ð¾Ð½Ð°Ñĩ Ð°Ð»ÑĮÐ½Ð¾
ÐµÐ½ Ð½Ð¾ÑģÑĤÑĮÑİ
Ñĩ ÑĳÐ²
Ð± Ð¸Ð»Ð¸
ĠÐĵ Ð¾ÑĢÑĮ
Ð·Ñĭ ÐºÐ°
ĠÑĢÐ¸ ÑĤÑĥ
ĠÐ¸Ð·Ð¼ÐµÐ½ ÐµÐ½Ð¸Ð¹
ĠÐ¾Ð±ÑĬÐµÐ´Ð¸Ð½ ÐµÐ½Ð¸Ðµ
ĠÐļÐ¾Ð½ÑģÑĤÐ°Ð½ÑĤÐ¸Ð½ Ð¾Ð¿Ð¾Ð»ÑĮ
ĠÐ¿Ð°ÑģÑģÐ°Ð¶ Ð¸ÑĢÐ¾Ð²
ĠÐ¾ÑĤÐ¼Ðµ ÑĩÐ°ÐµÑĤ
ĠÑĥÑĤÐ²ÐµÑĢÐ¶ Ð´Ð°ÐµÑĤ
ĠÑįÐ² Ð°ÐºÑĥ
ĠÑĤ Ð¾ÐºÐ°
ĠÐ¸Ð·Ð´ Ð°ÑĤÐµÐ»ÑĮ
ĠIn t
ĠÐĶÐ¶ÐµÐ¹Ð¼ Ñģ
ĠÐ´ Ð¾ÑĢÐ¾Ð¶
ĠÐ¾Ð¿ Ð¸ÑĢÐ°
ĠÐĵÐµ Ð¾Ð³ÑĢÐ°ÑĦÐ¸Ñı
Ð¸Ð²ÑĪÐ¸Ð¹ ÑģÑı
ĠÐºÐ²Ð°Ð´ ÑĢÐ°ÑĤ
Ð¿ Ð¸Ð¸
Ð°Ð½ Ð½Ð¾Ð¼
ĠÐ´ Ð¾Ð½
ĠÐ¿ÑĢÐµ Ð¿ÑıÑĤ
Ð¸Ñĩ Ð½Ð¾Ð¹
ĠÐ²ÐµÑĢ Ð½Ñĥ
ĠÑģÐ²ÑıÑĤ Ð¾Ð¹
ĠÐ½Ð¾Ð¼ ÐµÑĢ
ĠÐĵÑĥ Ð¼Ð¸
Ð² Ð¸Ð·
Ñĩ Ð»ÐµÐ½
Ñİ ÑīÐµÐ³Ð¾ÑģÑı
ÐµÑĢ Ð¾Ð½
ĠÐŁ ÑĢÐ¾Ð³ÑĢÐ°Ð¼
ĠÐ¿ÑĢÐ¾Ð²Ð¾Ð´ Ð¸ÑĤÑģÑı
ĠÐĶÐ°Ð³ ÐµÑģÑĤ
Ð°Ð» Ð»
ĠÐ¿Ð¾Ð´ ÑĩÑĳÑĢ
ĠÐ¿Ð¾Ð· Ð½Ð°ÐºÐ¾Ð¼
ĠÐ¾Ð¿ÑĢÐµÐ´ÐµÐ» Ð¸ÑĤÑĮ
ĠÑģÐ²ÑıÑĤ Ð¾Ð³Ð¾
Ð½Ð¾ÐºÐ¾Ð¼ Ð°Ð½Ð´
ÐµÐ» Ð¸Ð½
ĠÐ° Ð½Ð¸
ÑĤÐ¸Ð² Ð½Ð¾Ð¹
ĠÑģÐ¾Ð·Ð´ Ð°Ð½Ð¸Ñİ
ĠÐ°Ð½Ð³Ð»Ð¸Ð¹ ÑģÐºÐ¾Ð¼
ĠÐ±Ð¸Ð±Ð»Ð¸Ð¾ÑĤ ÐµÐºÐ¸
Ñĳ Ðº
ĠÑĢÐ°Ð· ÑĢÐ°Ð±Ð°ÑĤÑĭ
ĠÐ¾Ð±ÑĢÐ°Ð· ÑĥÑİÑĤ
Ð³Ð¾ÑĢÐ¾Ð´ ÑģÐºÐ¾Ð¹
ĠÑģÐ¸Ð¼Ð²Ð¾Ð» Ð¾Ð²
Ñĥ Ð»Ð°
ĠÐĴ Ð½ÐµÑĪ
ĠÐľ ÐµÑħ
ĠÐĽ ÐµÑģ
ĠÐķ ÑĦ
ĠÐ´ÐµÐ¹ÑģÑĤÐ² Ð¸ÐµÐ¼
ÑĦÑĦ Ð¸Ðº
Ð¾ÐºÐ¾Ð¼ Ð¾ÑĤ
Ġ und
Ð°ÑĢÐ¸ Ð½Ð°
ĠÐ¿ÑĢÐ¸Ð½ ÑĨ
ĠÐ¸ÑģÑĤÐ¾Ñĩ Ð½Ð¸ÐºÐ°Ñħ
ĠÐ¿ÑĢÐ¾Ð¸Ð·Ð¾ÑĪ ÑĳÐ»
ÑĪÑĤ ÐµÐ¹Ð½Ð°
ĠÐ¿ÐµÑĢÐµÐ½ ÐµÑģ
ĠÑįÐºÐ·ÐµÐ¼ Ð¿
Ð± Ð°Ñħ
ĠÐ´ Ñĭ
ĠÐĴ Ð¾Ð´
ĠÑį ÑģÑĤÐµÑĤ
199 0
ĠÐ¿ÑĢÐ¸Ð¼ÐµÑĢ Ñĥ
ĠÐ°ÑĤÐ¾Ð¼ Ð¾Ð²
ĠÑģÑĥÑĤ Ð¾Ðº
ĠÐŁÐ» ÑĥÑĤ
Ðº Ð¾Ð»ÑĮ
Ñħ Ð¸Ð½
ĠÐ´ Ð½ÐµÐ²
ĠÐĵ ÑĢÑĥÐ¿Ð¿
ĠÐ²Ð¾Ð´ Ñĥ
ĠÑĢÐµÐº Ð¾ÑĢÐ´
ĠÐ»Ñĥ Ð½Ðµ
ĠÐ·Ð°ÐºÐ»Ñİ ÑĩÐ°ÐµÑĤÑģÑı
ĠÐ¾ÑĤÐ´ÑĭÑħ Ð°
ĠÑģ Ð¸
ÐµÐ¼ ÑĮ
ĠÑĥ ÐµÐ·Ð´
ĠÐļ ÑĢÐ¸ÑģÑĤ
ĠÑģÑĤ Ð°ÑĢÐ°
Ð²Ð° ÑĢÐ¸ÑĤÐµÐ»ÑĮ
ÑĢÐ¾Ð½ Ð¸ÐºÐ°
or m
ĠÐ¸ÑģÐº Ð¾Ð¿Ð°
ĠÐ¸Ð·Ð¼ÐµÐ½ ÐµÐ½Ð¸Ðµ
ĠÑģÐ±Ð¾ÑĢ Ð½Ð¸Ðº
ĠÑģÐºÑĥÐ»ÑĮÐ¿ ÑĤÐ¾ÑĢ
Ï Ħ
Ð»Ñı ÑĨÐ¸Ñı
ĠÑĨ ÐµÐ»ÐµÐ¹
ÐºÐ¾Ð¼ Ñĥ
ĠÑģÐ»Ð¾Ð² Ð°ÑĢÑĮ
ĠÐ¿ÑĢÐ¾Ð¿ Ð¾ÑĢ
ĠÐ¾Ð±Ð¾ÑĢÑĥÐ´ Ð¾Ð²Ð°Ð½Ð¸Ñı
ĠÑĥÐ´Ð¾Ð²Ð»ÐµÑĤ Ð²Ð¾ÑĢ
Ð¼ ÐµÐ»ÑĮ
ĠÐĶ ÐµÐ²
ĠÐ´Ð°Ð½ Ð½Ð¾Ð¼
ĠÐ²Ð· ÑıÐ»
ĠÐ¿ÑĢÐ¸Ñģ ÑĥÑĤ
ĠÐ²Ð»Ð°ÑģÑĤÑĮ Ñİ
ĠÐ¿Ð»ÐµÐ¼ ÑĳÐ½
ĠÐ£ Ð¿ÑĢÐ°Ð²
is h
ĠÐ¿ÑĢÐ¾Ð¼ÑĭÑĪÐ»ÐµÐ½ Ð½ÑĭÑħ
ĠÐłÑĭ Ð±
ĠÐ¸Ð½ÑĤÐµÑĢÐ² ÑĮÑİ
ĠÐ·Ð´Ð¾ÑĢÐ¾Ð² ÑĮÑı
Â ·
Ñı ÑĤÐ¾
ĠÑģ Ð¾Ð¶
ĠÑģ Ð°Ð½Ðº
ĠÐ±Ñĭ ÑĤÐ¾Ð²
Ð»ÐµÑĤ Ð¸Ñİ
ĠÐ¿Ð¾ÑģÐ»ÐµÐ´ Ð½ÐµÐµ
ĠÐ²ÐµÐ´ Ð¾Ð¼
Ð°ÑģÐº ÐµÑĤ
Ġ et
ĠÐ¿Ð¾ÑıÐ² Ð»ÐµÐ½Ð¸Ñı
ĠÐ´Ð»Ð¸Ð½ Ð¾Ð¹
ĠÑĢÐ°ÑģÐ¿Ð¾Ð»Ð°Ð³ Ð°ÐµÑĤÑģÑı
ĠÐ¶ÑĥÑĢÐ½ Ð°Ð»Ðµ
Ð¿ Ð¾ÑģÑĤ
ĠÑģÐ¸ÑģÑĤÐµÐ¼ Ð°Ñħ
ĠÐ¸ÑģÐ¿Ð¾Ð»ÑĮÐ·Ð¾Ð² Ð°Ð»ÑģÑı
ĠÑģÐ¾Ð²ÑĢÐµÐ¼ÐµÐ½ Ð½ÑĭÐµ
Ð¾Ð»Ñı ÑĢ
ĠÐºÐ°Ð· Ð½
ĠÐ»Ð¸ÑĨ ÐµÐ½Ð·
ĠÐ²ÐºÐ»Ñİ ÑĩÐ°ÑİÑĤ
ÑģÑĤÑĢÐ¾Ð¹ ÐºÐ¸
ĠÐºÐ²Ð°ÑĢ ÑĤÐ¸
Ñĥ ÐºÐ¸
Ð½Ð° ÑĩÐµ
i um
u g
Ð¾Ð´ ÐµÐ»ÑĮ
ĠÐļ ÑĢÐµÐ¼
Ð¸Ð´ ÐµÐ¼
ĠÐ¤ ÑĢ
ÑİÑī ÐµÐ¼
ĠÐ¾Ð±ÑĢÐ°Ð· ÑĥÐµÑĤÑģÑı
ĠÑĦÑĢÐ°Ð½ÑĨÑĥÐ· ÑģÐºÐ¾Ð¹
ĠÐ±Ð¾Ð³ Ð°
Ð°ÑĢ Ñĥ
ĠÐĲ Ð¡Ð¡Ðł
ÐµÐ½ÑĤ Ð°Ð¼Ð¸
ĠÐ¾Ð¿ ÑĤÐ¸
ÐŁ Ð¦
ÑĦÐ¾ÑĢ Ð´
ĠÐ¿Ð¾Ð·Ð²Ð¾Ð» Ð¸Ð»Ð¾
ĠÐ¿ÑĢÐ¸ÑģÐ²Ð¾ ÐµÐ½Ð¾
ĠÐ¿ÐµÑĢÐ²Ð¾Ð½Ð°Ñĩ Ð°Ð»ÑĮÐ½Ð¾
ĠÐĸÐµÐ»ÐµÐ· Ð½Ð¾Ð´Ð¾ÑĢÐ¾Ð¶
ĠÐº ÑĢÐ¸ÑĤ
ĠÐŁ ÑĢÐ¾Ð¼ÑĭÑĪÐ»ÐµÐ½
ĠÐļ Ð»Ð°Ð²
ĠÐ¡Ð² Ð¾Ð±Ð¾Ð´
ĠÐ¿ÑĢÐ¸Ð½Ñı ÑĤÐ°
ĠÐ²Ð¼Ðµ ÑĪ
ĠÐ¿ÑĢÐ¸Ð² ÐµÐ»Ð¸
ĠÑģÐ¾ÑģÑĤÐ°Ð²Ð»Ñı Ð»Ð¸
Ð¾Ð½ ÑĮ
Ð¸Ð· Ð´
ĠÐ²ÐµÑĢ ÑĤÐ¸Ðº
ĠÐ¿Ð¾Ð² ÑĢÐµÐ¶Ð´
ĠÐ¨ ÐµÐ²
ĠÐļÐ¾Ð½Ñģ ÑĥÐ»Ñĭ
ĠÐ¾ÑģÑĤ Ð°Ð»ÑĮÐ½ÑĭÑħ
ĠÐ»ÑİÐ± Ð²Ð¸
ĠÑģÐ»ÑĥÐ¶ Ð¸Ð»
ĠÐ³Ð¾Ð» Ð»Ð°Ð½Ð´
ĠÐ¾Ð±ÐµÑģÐ¿ÐµÑĩ Ð¸Ð²Ð°ÐµÑĤ
ĠÐ¿ÑĢÐµÐ¾Ð±ÑĢÐ°Ð· Ð¾Ð²Ð°Ð½Ð¸Ñı
ĠÐĲÐ½Ð´ÑĢÐµ Ñı
Ð¿ Ð¾ÑĢ
ĠÐ· ÑĢÐ¸ÑĤ
ÑĢÐ¾Ð² Ð¾Ð¹
ĠÐĽ ÐµÐ±
ĠÐ¿ÑĢÐµÐ´Ð»Ð¾Ð¶ ÐµÐ½Ð¸Ðµ
ĠÐĴÐ°ÑĢ ÑĪ
ĠÐĴ ÐµÐ´
ĠÐł ÐµÑĪ
ĠÐ¿Ð¾Ð» ÑĥÐ¿
Ð¼Ñĭ Ñģ
ĠÐºÐ¾ÑĢÐ°Ð± Ð»ÑĮ
ĠÐ½Ð°Ð¹ Ð´
ĠÐĲÑĦÑĢÐ¸ ÐºÐµ
ĠÐ¾ÑģÐ²Ð¾Ð± Ð¾Ð¶Ð´ÐµÐ½Ð¸Ñı
ĠÑģÐ°Ð¼Ð¾ÑĥÐ¿ÑĢÐ°Ð² Ð»ÐµÐ½Ð¸Ñı
ĠÐ³Ð¾ÑĢÐ¸Ð· Ð¾Ð½ÑĤ
Ð² Ð°Ð»Ð¸ÑģÑĮ
ĠÐľ ÐµÑģ
ĠÐĵ ÐµÑĢÐ±
ĠÐ¿Ð¾Ñģ ÐµÐ»ÐµÐ½Ð¸Ðµ
Ð²Ð¸Ð¶ ÐµÐ½Ð¸Ðµ
Ġ189 7
ĠÑĤ ÑĳÐ¼
ĠÐĿ ÐµÐ·
ÐµÐ»Ñı Ð¼Ð¸
ĠÐ¼Ð°ÑĤ Ñĩ
ÑģÑĤÐ²Ð¾Ð² Ð°Ð»Ð¾
ĠÑģÐ¸Ð½ Ð´
ĠÐ¾Ð±Ð»Ð°ÑģÑĤ ÑıÑħ
ĠÑĤÐ¾Ð¿ Ð»Ð¸Ð²Ð°
ĠÐĺÐ·ÑĢÐ° Ð¸Ð»ÑĮ
Ð² Ð¾ÑģÑĤÐ¾ÐºÐµ
Ð· Ð¸ÑĢÐ¾Ð²
Ð¸ÑĤÐµÐ»ÑĮ Ð½ÑĥÑİ
ÑĦÐ¸ Ð¾Ð¿
ĠÑĢÑĥÑģ ÑģÐºÐ°Ñı
ĠÐºÐ¾Ð½ÑģÑĤÐ¸ÑĤÑĥ ÑĨÐ¸Ð¸
Ð³ Ð¾ÑĤ
ĠÐº Ð»Ð°Ð²
ĠÐ½Ð° ÑĨÐ¸ÑģÑĤ
ÑĢÐ¾ Ñī
200 2
ĠÑģÐ»ÐµÐ´ÑĥÑİÑī Ð¸Ñħ
ĠÑĤÐµÐ¿ Ð»Ð¾
ĠÑĦÐ°ÐºÑĥÐ»ÑĮÑĤ ÐµÑĤ
Ð» Ð¾ÑĢÐ°
Ð½Ð¾ ÑģÐ¸ÑĤ
ĠÐ£ Ñģ
Ð¼ÐµÑĢ ÑĤÑĮ
ĠÐ¿Ð¾Ð»Ð¸ÑĤ Ð¸ÐºÑĥ
Ð¸ÑĢÑĥ ÑİÑĤÑģÑı
ĠÐ¿ÐµÑĢ ÑģÐ¸Ð´
ĠÑĢÐµÑģÐ¿ÑĥÐ±Ð»Ð¸ ÐºÐ°
ĠÑģÐ¾ÑħÑĢÐ°Ð½Ð¸ Ð»Ð¸ÑģÑĮ
ÑĢ Ð¾Ð¶Ð´ÐµÐ½Ð¸Ñı
Ðº ÐµÑĢ
ĠÐ´ ÑĥÐ¼
or ld
Ð¾ÑħÑĢÐ°Ð½Ð¸ Ð»Ð¸
i x
ĠÐ² Ð¾ÑĢ
ÑģÑĤÑĮ Ðµ
ĠÐ¼ÐµÑĤ ÑĢÐ¾
ĠÐ¾Ð±ÑĢÐ°Ð·Ð¾Ð² Ð°Ð½Ð¸ÐµÐ¼
Ġ189 6
ĠÐ·Ð°Ñı Ð²Ð»Ñı
ÑĢÐ¾ÑģÑĤ Ð°Ð½
ĠÐ´ÐµÐ½ ÐµÐ³
ĠÑĥ ÐµÐ·Ð´Ð°
ĠÐľ ÐĵÐ£
ĠÐ½Ð°ÑħÐ¾Ð´ Ð¸Ð»Ð°ÑģÑĮ
ĠÐ¾ÑĤÐºÑĢÑĭ ÑĤÐ¾
ĠÐ»Ð¸Ð½ Ð¸Ð¹
ÑĤÐµÐ½ Ð°Ð½ÑĤ
ĠÐĶ ÐĿÐļ
ĠÐ²Ð¾Ð· Ð±Ñĥ
ÑĥÑīÐµ ÑģÑĤÐ²Ð¾
ĠÐºÐ° Ð±
Ðľ Ð¸ÑĢ
ĠÑģÑĥ Ð²ÐµÑĢ
ĠÐ¿ÑĢÐµÐ´ÑģÐµÐ´ Ð°ÑĤÐµÐ»ÐµÐ¼
ĠÐ¡Ð¸ÑĢÐ¸ Ð¸
ĠÐ½Ðµ Ð¾Ð±Ñĭ
ĠÐºÐ¸Ð½Ð¾ ÑĤÐµ
ĠÐ¿Ð°Ð¼ÑıÑĤ Ð½Ð¸ÐºÐ¾Ð²
ĠÐ·Ð¸Ð¼ Ð¾Ð¹
Ð»Ð° Ñı
Ñį Ð´
ĠÐĵ ÑĢÐ¸Ð³
ĠÐ·Ð° ÑĩÐ°ÑģÑĤÑĥÑİ
ÑĢÐ°Ð½ ÐµÐµ
ĠÑĢÑĥ Ð´
ĠÐĲÐ² ÑĤÐ¾ÑĢ
Ðķ Ð²
ĠÑĢÐµÑģÑĥÑĢ ÑģÐ¾Ð²
Ð±Ð°ÑĢ Ð´Ð¸ÑĢÐ¾Ð²
ĠÑģÐ¿Ð¾ÑĢÑĤ ÑģÐ¼ÐµÐ½
ĠÐł Ð¾Ð¶Ð´Ðµ
Ð¸Ð² ÑĪÐ¸ÑħÑģÑı
ĠÑģÑĬ ÐµÐ·Ð´Ð°
ĠÑĦÐµÑģÑĤÐ¸ Ð²Ð°Ð»ÑĮ
ĠÐ·Ð°ÑĢÐµÐ³Ð¸ÑģÑĤ ÑĢÐ¸ÑĢÐ¾Ð²
ĠÑģÐ¸Ð» Ð¾Ð¹
200 3
ĠÐºÑĢÐµÐ¿ Ð¾ÑģÑĤ
ĠÐ¢ÑĢÑĥ Ð´Ð°
Ð¸ ÑīÐµ
Ð» ÑĥÑĪ
Ð± Ð¸ÑĢ
ĠÐ¤ ÐµÐ´
20 12
Ġt o
Ð²Ð¸Ð´ Ñĥ
ĠÐ½ÐµÑĦ ÑĤÑı
ĠÐľÐµÐ½ Ð´ÐµÐ»
ÑĢÐµÑģÐ¿ Ð¾Ð½Ð´
Ð² ÐºÐ»ÑİÑĩ
Ð¾ÑĤ Ð¾
ĠÐ» Ð°Ð½Ð´
Ġ3 9
199 6
Ġ189 0
Ð°Ð¼Ð± Ð»Ðµ
ĠÐ±Ð°Ð½ ÐºÐ¾Ð²
ĠÐºÐ¾Ð½ÑĨÐµÐ¿ ÑĨÐ¸Ð¸
ĠÐ½Ð°Ð³ ÑĢÑĥÐ·
ĠÐ± ÑĢÐ¾Ñģ
Ð³Ð¾ ÑĢÐ°
Ġ4 2
ĠÑĢÐ°Ð² Ð½Ð¾Ð²
ĠÑģÑĩÐ¸ÑĤ Ð°Ð»Ð¸
ĠÐŃÐº ÑģÐ¿
ĠÐ´ÐµÐ¼Ð¾Ð½ ÑģÑĤÑĢÐ°
ĠÐľÐ¸Ð½Ð¸ÑģÑĤÐµÑĢ ÑģÑĤÐ²Ð°
ĠÐºÐ¸Ð»Ð¾Ð¼ÐµÑĤ ÑĢÐ¾Ð²
ÐµÐ» Ð»Ð¸
ĠÐ¼ ÑĥÐ´
ÑĦ Ð¸ÑĢ
ĠÐ£ Ð´
S t
ÐºÐ° ÐµÑĤ
ÐµÐ² Ð¾Ð³Ð¾
ĠÐĳ Ð»Ð°
ĠÐ¸ÑģÑĤ ÑĢÐµÐ±
ĠÑģÐº ÑĢÑĭ
ÑĢÐ°Ñī ÐµÐ½Ð¸Ðµ
ĠÐ°Ð²ÑĤÐ¾ÑĢ Ñĭ
ĠÑģÑĤÐ°ÑĤÑĮ Ñı
ĠÐ´ÐµÑĢÐµÐ² Ð½Ð¸
ĠÐ°Ð»ÑĦÐ°Ð² Ð¸ÑĤ
ĠÑģÐ¾Ð·Ð½ Ð°Ð½Ð¸Ñı
ĠÐ§ Ð°Ð¹
ĠÑģÑĢÐµÐ´ Ð½ÑıÑı
ÑĥÑİÑī Ð¸Ð¼Ð¸
ĠÐĸ Ð¸Ð²
ĠÐ²ÑĭÑģÐ¾Ðº Ð¾
ĠÐ¼Ð¸Ð½Ð¸Ð¼ ÑĥÐ¼
Ðº Ð°ÑĤ
Ð°Ð» Ð»Ð¸
Ġ( +
ĠÐ¡ Ð°ÑĢ
Ð°Ð´ ÑĨ
ĠÐ¾Ð±ÑĢÐ°Ð· ÑĥÐµÑĤ
Ð¾ÑĪ ÐµÐ½ÐºÐ¾
ĠM ar
ĠÑģÐ¿Ð¾ÑģÐ¾Ð± Ð½Ð¾ÑģÑĤÐ¸
ĠÑĥÑĩÐµÐ± Ð½ÑĭÑħ
ĠÐ³ ÑĢÐ¾Ð¼
ÐµÐ¼ ÑĥÑİ
ĠÐ²ÑģÐµ Ð¾Ð±Ñī
ĠÑģÐ¾Ð´ÐµÑĢÐ¶ Ð°Ð½Ð¸Ñı
ĠÐ¡ÑĢÐµÐ´ Ð¸Ð·ÐµÐ¼
ĠÑĤÑĢÐ°Ð¼ Ð²Ð°Ð¹
ĠÐ¡ ÑĥÑħ
ĠÑģÐ¾Ð± Ð»ÑİÐ´
ĠÑģÑĢÐµÐ´ ÑģÑĤÐ²Ð¾
200 9
ĠÐľÐµÐ´ Ð°Ð»ÑĮ
ĠÑģÐµÐ¼ÐµÐ¹ ÑģÑĤÐ²Ð°
ĠÑģÐ¾Ð¿ÑĢÐ¾ÑĤÐ¸Ð² Ð»ÐµÐ½Ð¸Ðµ
ĠÐ¸Ð½Ð¸ÑĨÐ¸Ð°ÑĤÐ¸Ð² Ðµ
f t
ÑĤ ÐµÑĢÐ°
ĠÐ± Ð°Ð·Ñĭ
ÑĨÐ¸ Ð½Ñĭ
Ð¾Ð¿ Ð¸ÑģÑĮ
ĠÐ½ÐµÐ¼ Ð½Ð¾Ð³Ð¾
ĠÐ¾ÑĤÐ´ Ð°Ð»
ĠÐ´Ð¸Ð¿Ð»Ð¾Ð¼Ð°ÑĤ Ð¸ÑĩÐµÑģÐºÐ¸Ðµ
ĠÐ²Ð¾Ð·Ð½Ð¸ÐºÐ½Ð¾Ð² ÐµÐ½Ð¸Ñı
Ñı Ñı
Ð· ÐµÐ½
Ñī Ð¸Ñħ
Ð¾Ð¶ Ð¸Ð´
ĠÐĳ Ð»Ð¸Ð¶
ĠÐļÐ¾ÑĢ Ð½
ĠÐ±ÑĢÐ¾Ð½ Ð·Ð¾Ð²
Ñī Ð¸Ð½Ñĭ
Ð°ÑĢ Ð¾Ð¼
ĠÐŁ ÑĢÐ°
ĠÐ¢ Ð¾Ð¿
ĠÑĤÐ°Ðº Ð¾Ð¼
ĠÐ¼ÐµÐ¶Ð´ÑĥÐ½Ð°ÑĢÐ¾Ð´ Ð½Ð¾Ð¹
ĠÐ°Ñį ÑĢÐ¾Ð´
ÐµÐ½ ÑģÑĤÐ²Ð¾
Ð»Ð° Ð¼Ð°
ĠÐ½Ðµ ÑĢÐ°Ð²
ĠÐĹ Ð°Ð±
ĠÐĿÐ¾ÑĢÐ²Ðµ Ð³Ð¸Ð¸
ĠÐ¾ÑĤ Ð²ÐµÑĢÐ³
ĠÑģÐ°Ð¼ Ð°
ĠÑĩÐ°ÑģÑĤ Ð¾ÑĤ
ĠÐļÐ¸ÐµÐ² Ðµ
ĠÐ³Ð°ÑĢ Ð¼Ð¾Ð½
ĠÐ¡ÐĿ Ðĵ
Ñį Ð»
ĠÑĦ Ð¾Ð½Ðµ
ĠÑĢÐ°ÑģÐ¿ ÑĢÐ¾ÑģÑĤ
Ġ189 5
ÑĢÐµ Ð²Ð¾Ð»Ñİ
ÐµÑĢ Ð½ÑĭÐµ
Ñį Ð¿
ÐµÐº ÑĤÐ¾ÑĢ
ĠÐľ Ð¾Ð³
ĠÐ¸ÑģÑģÐ»ÐµÐ´Ð¾Ð² Ð°ÑĤÐµÐ»ÐµÐ¹
ĠÐ¾Ð±ÑĢÐ°Ð±Ð¾ÑĤ ÐºÐ¸
ĠÐ¾Ð±ÑıÐ·Ð°Ð½ Ð½Ð¾ÑģÑĤÐ¸
ĠÐ¸ÑģÐ¿Ñĭ ÑĤÑĭ
ĠÐĴ Ð·
ĠÑģÐ°Ð¼ Ð°Ñı
ĠÐ°Ð½Ð³ Ð»Ð¸Ñĩ
ĠÐŁÐµÑĢ ÑģÐ¾Ð½
ĠÐ¿Ð¾Ð³Ð¸Ð± ÑĪÐ¸Ñħ
ĠÐ¿Ð¾ÑĤÐµÑĢ Ð¿
ĠÑĤÑİ ÑĢÐº
Ð·Ð°Ð¿Ð°Ð´ Ðµ
ĠÐĵÐ¾Ñģ Ð¿Ð¾Ð´
ĠÑħÐ¾ÑĤ ÐµÐ»
Ġ ÑĢÐ¸ÑĤ
ĠÐ» Ð°Ð²
Ð¾Ñĩ ÐµÑĤ
Ð¸Ðº Ð¾Ð¹
ĠÑĥÐ± ÐµÐ´
ĠÑĪÐº Ð¾Ð»ÑĮ
ĠÐļÐ°Ð»Ð¸Ð½ Ð¸Ð½Ð³ÑĢÐ°Ð´
ĠMic ros
ĠÐ¾ ÑģÐ¸
ĠÐ° Ñģ
ĠÐ¸Ð·Ð± ÐµÐ¶
ĠÑĨÐ¸ ÐºÐ»Ð°
ĠÑģÐ¿ÑĥÑĤ Ð½Ð¸ÐºÐ¾Ð²
ĠÐ½Ð°ÑģÑĤ Ð¾Ð»ÑĮÐºÐ¾
! Â»
ÐµÐ´ ÐµÐ»ÑĮ
ĠÐł Ð°Ð¼
ÐĲ Ð»
20 11
or g
ĠÑģÐ¿Ð¾ÑģÐ¾Ð± Ð¾Ð¼
ÐµÐ½ ÑģÑĤÐ²Ð°
ÑĦ Ð°Ð½ÑĤÐ°
ĠÐĶ Ð²Ð°
ĠÐºÐ¾Ð¼ Ð¸ÑģÑģ
ĠÑĢÑĥ ÐºÐ°Ñħ
ĠÐ³Ð°Ð· ÐµÑĤ
ĠÐ¾Ð±Ð»Ð°ÑģÑĤ Ð½Ð¾Ð³Ð¾
Ġ j
ĠÐĵ Ð¸Ð±
ĠÐĵ Ð°Ð±
ĠÐ¼ÐµÑģÑĤ Ð½ÑĭÐµ
Ð¾Ð¶Ð´ ÐµÐ½Ð¸Ð¹
ÑĢÐµÑģ ÑģÐ°
ĠÐ¼Ð¸Ð»Ð»Ð¸ Ð¾Ð½Ð°
ĠÑĢÐµÐ¹ ÑĤÐ¸Ð½Ð³
Ð¼Ð¸Ð½Ð¸ÑģÑĤ ÑĢÐ¾Ð¼
Ñı ÑĩÐµ
ĠÑĤÐ°Ðº Ð¸Ð¼Ð¸
ĠÐ£ ÑĢÐ°
ÑģÐ» Ð°Ð½Ð´
ĠÐ¿ÑĢÐ¸Ð½Ñı ÑĤÐ¸Ñı
Ġ189 9
ĠÐĴÐµÑĢÑħÐ¾Ð² Ð½ÑĭÐ¹
ĠÐ²ÐµÐ»Ð¸Ðº Ð¾Ð³Ð¾
ĠÐŁÑĥÑĪ ÐºÐ¸Ð½Ð°
ĠÑį ÑĢÑĭ
ĠÑģÐ¾Ð± ÑĢÐ°Ð½Ð¸
ĠÐ¿Ð¸ÑģÐ°ÑĤÐµÐ»ÑĮ Ð½Ð¸ÑĨÐ°
ĠÐ²ÐµÐ´ ÑĳÑĤ
ĠÐ´ Ð¾Ñģ
ĠÐļ Ð»Ð°
ĠÐŀ Ð·
ĠÑĥÐ´ Ð¾ÑģÑĤÐ¾
ĠÐ´Ð°Ð² Ð»ÐµÐ½Ð¸Ðµ
ĠÐ¿Ð¾Ð´Ð¿Ð¸Ñģ Ð°Ð»
ĠÐ¿ÑĢÐµÐºÑĢÐ° ÑĤÐ¸
ĠÑģÑĤÐ¸Ñħ Ð¸
ĠÐ³Ð°ÑĢ Ð½Ð¸Ð·
Ð°ÑĢ Ð¾Ð²Ð°
ĠÑģÑĤ ÑĢÐ¾Ð³Ð¾
ÑĥÑĢ Ð½Ð°Ð»
ĠÑħ Ð»ÐµÐ±
ĠÑģÐ¿ Ð»Ð°Ð²
ĠÐºÐ° Ð±Ð¸Ð½
Ġ189 8
ĠÐ¿ÐµÑĢÐµÐ²Ð¾Ð´ Ðµ
ĠÐ¿ÐµÑĢÐµÑħÐ¾Ð´ Ð°
ĠÑĦÐ¸Ð»ÑĮÐ¼ Ð¾Ð²
ĠÐ¿ÑĢÐ¸Ð½Ð¸Ð¼ Ð°ÑĤÑĮ
ĠÑįÐºÐ²Ð¸Ð²Ð°Ð» ÐµÐ½ÑĤ
Ġ x
ĠÐ² Ð±Ð»Ð¸Ð·Ð¸
ÐºÐ¾Ð² Ð¾Ð³Ð¾
ĠÑĢÐ°Ð· ÑĥÐ¼
Ð°Ñģ Ð¾Ð²
ĠÐĲÑĦ Ð³Ð°Ð½Ð¸
B M
ĠÐº Ð»ÑİÑĩ
ĠÑģÐ¾Ð²ÑĢÐµÐ¼ÐµÐ½ Ð½Ð¾Ð¼
ĠÑģÐ¿ÐµÑĨÐ¸Ð°Ð»ÑĮ Ð½ÑĭÑħ
ĠÑģÑĤÑĢÑĥÐºÑĤ ÑĥÑĢÑĥ
ÐµÐ½ ÑģÐ°
Ġ190 2
ĠÐ²ÑģÐ¿ Ð¾Ð¼
Ñĩ Ð½Ð¾ÑģÑĤÑĮ
ĠÐ¡ Ð¾Ð»Ð¾Ð²
ĠÐ¿ÑĢÐ¸ ÐºÐ»Ð°Ð´
ĠÐ¸ÑģÐ¿ ÑĢÐ°Ð²
ĠÐ¦ Ð°ÑĢÑĮ
ĠÐ¾Ð±Ñī Ð¸Ð½
ĠÐŁÑĢÐµÐ´ Ð¿Ð¾Ð»
ĠÐ²ÑĭÑĢÐ°Ð¶ ÐµÐ½Ð¸Ðµ
ĠÐ¼ÑĥÐ½Ð¸ÑĨÐ¸Ð¿ Ð°Ð»ÑĮÐ½Ð¾Ð³Ð¾
ag e
ĠÐĽÐ°ÑĤÐ² Ð¸Ð¸
ĠÐ¿ÑĢÐ¸Ð² Ð»ÐµÑĩ
ĠÑģÐ¾Ð¿ ÐµÑĢ
ĠÐ²Ð½ÑĥÑĤÑĢÐµÐ½ Ð½ÐµÐ¹
ĠÐŁÐµÑĤÑĢÐ¾Ð² Ð¸Ñĩ
ĠÑģ Ð¾ÑģÑĥÐ´
Ð°Ð» Ð¸Ð¹
ĠÐ½Ð° ÐºÐ¾Ð¿
ĠÐ¿ÑĢÐ¸ Ð²ÐµÑģÑĤÐ¸
Ð»ÐµÐ½ Ð½Ð¾Ð³Ð¾
ĠÑģÑĤÑĢÐ°Ð½Ð° Ð¼Ð¸
ĠÐ¿ÑĢÐ¾ÐµÐº ÑĤÑĥ
ĠÐ¿Ð¸ÑģÑĮ Ð¼Ðµ
ÑģÐ¾ ÐµÐ´Ð¸Ð½
Ñģ Ð°Ð¼Ð¸
ĠÐ² Ð°Ð½
ĠÐ¸ Ð½Ð¾Ð¹
ÑĢÐ¸ Ð±Ñĥ
ĠÐº Ð¾Ð´Ð°
ĠÑĢÐ° ÑĨÐ¸Ð¾Ð½Ð°Ð»ÑĮ
ĠÑĢÐ° Ð±Ð¾
ĠÐ¾ÑĤ ÐµÑĩÐµ
ĠÐŀ Ð½Ð¾
Ð³Ð¸ Ð¾Ð½
Ð»Ð¾Ð¶ ÐµÐ½Ð¸Ðµ
200 7
ĠÑģÑĤÑĢÑĥÐºÑĤ ÑĥÑĢÐµ
ĠÐ´Ð¾ÐºÑĥÐ¼ÐµÐ½ÑĤ Ð¾Ð²
ĠÐŁÑĢÐµÐ·Ð¸Ð´ÐµÐ½ÑĤ Ð°
ĠÐ²Ð¾ÐµÐ½Ð½Ð¾ ÑģÐ»ÑĥÐ¶
ĠÐľÐĵ ÑĨ
ĠÐ¾Ð±Ð¾ Ð¸Ñħ
ĠÐ± Ð¾Ð»Ð¾ÑĤ
Ð»Ð¸ Ð²Ð°ÐµÑĤ
ĠÐ¿ÑĢÐµÐ´ Ð»Ð°Ð³
ĠÐ·Ð½Ð°Ñĩ ÐµÐ½Ð¸Ð¹
ĠÑĨÐµÐ½ÑĤ ÑĢÑĭ
ĠÐĴÐ¾ ÐµÐ½Ð½Ð¾
ĠÐ¿Ð¾ÑıÐ² Ð¸Ð»Ð¾ÑģÑĮ
ĠÑģÑĬ ÐµÐ·Ð´
/ /
M L
Ð· Ð½
ĠÐ²Ñĭ ÑĢÐ°Ð±Ð¾ÑĤ
ÑĥÑĤ Ñĭ
ĠÐ¾Ð¿ ÑĢÐ°Ð²
ÑĨÐ¸Ð¾Ð½ Ð½ÑĥÑİ
ÑĤÐ¾ÑĢÐ¸ Ñı
ĠÐ´Ð¾ÑģÑĤ Ð¾
ĠÑĩÐµÐ¼Ð¿Ð¸Ð¾Ð½ Ð°ÑĤÐ°
ÑĥÐ¼Ð°Ð½ Ð¸ÑĤÐ°ÑĢ
ĠÑĩ ÑĳÐ¼
ĠÑĤÐ°Ðº Ð°Ñı
ĠÐ§ ÐµÐ»Ñı
ĠÑĦÐ¸Ð· Ð¸ÑĩÐµÑģÐºÐ¾Ð¹
ĠÐĳÐ¾Ð»ÑĮÑĪ Ð¾Ð³Ð¾
Ð¸Ð½ Ð´
ĠÐ¿ÑĢÐ¾Ð³ÑĢÐ°Ð¼ Ð¼Ñĥ
Ġ190 1
ĠÐ¼Ð°Ð³ Ð¸ÑģÑĤÑĢÐ°
ĠÐ½Ð°ÑģÑĤÑĥÐ¿ Ð»ÐµÐ½Ð¸Ðµ
ĠÐ¡Ð¸ ÑĨÐ¸
ĠÐĴÐ¸Ð·Ð°Ð½ ÑĤÐ¸Ð¸
ÐµÐ» ÑĳÐ½Ð½ÑĭÐµ
Ð½Ð° Ð¹
ĠÐĹ ÐµÐ²
ĠÑĢÐµÑĪ ÐµÐ½Ð¸Ð¹
ĠÐ°Ð¼ÐµÑĢÐ¸ÐºÐ°Ð½ ÑģÐºÐ¾Ð¹
ĠÑĤÑĢÐ°Ð½ÑģÐ¿ Ð¾ÑĢ
ĠÑħÑĥÐ´Ð¾Ð¶ Ð½Ð¸ÐºÐ°
ĠÐ¡ÑĤÐ°Ð» Ð¸Ð½
ĠÐ¸Ð·Ð¾Ð±ÑĢÐµÑĤ Ð°ÑĤÐµÐ»ÑĮ
ÐĻÐ¾ÑĢ Ðº
i al
ĠÐĵ Ð¸Ð¼
Ðļ Ð¾ÑĢ
ĠÐºÐ°Ð¶Ð´ Ð¾Ð¼
ĠÑģÑĤÐ¾Ð» Ð¸ÑĨÐµ
ĠÐ¼ÐµÐ¶Ð´ÑĥÐ½Ð°ÑĢÐ¾Ð´ Ð½ÑĭÐ¹
ĠÐ¾ÐºÐ°Ð· Ð°Ð»Ð°ÑģÑĮ
ĠÐ²ÑĭÐ¿Ð¾Ð»Ð½ ÐµÐ½Ð¸Ñı
ĠÐ¿Ð¾Ð´ÑĤÐ²ÐµÑĢ Ð¶Ð´
ĠÐŃÑĤÐ¸Ð¼ Ð¾Ð»Ð¾Ð³Ð¸Ñı
ĠÐ®Ð³ Ð¾ÑģÐ»Ð°Ð²
Ð¾Ñģ ÐµÐºÑģÑĥ
Ð¾Ðº Ð¾Ð½
ĠÐ¾ÑģÐ½Ð¾Ð² Ð¾Ð¿Ð¾Ð»Ð¾Ð¶
ĠÐ½ÐµÐ¼ÐµÑĨ ÐºÐ¾Ð¹
ĠÐ± ÑĢÐ¸Ð³
ĠÐ¿ÑĢÐ¸ Ð´ÐµÑĢÐ¶
ĠÐ¸Ð½ Ð´ÐµÐ¹
Ð´Ð¸ Ñİ
ĠÐ°Ð½ Ð°Ð»Ð¸ÑĤ
ĠÑĢÐ°Ð±Ð¾ÑĤ Ð°Ñħ
ĠE x
ĠÐ¿ÑĢÐ°Ð·Ð´ Ð½Ð¾Ð²
ĠÐ¼Ð¸ÑĤ ÑĢÐ¾Ð¿Ð¾Ð»
ĠÐĳ Ñĥ
ĠÐ¿Ð¾Ñģ Ð¾Ð»ÑĮ
ĠÐ¥ ÑĢÐ¸ÑģÑĤÐ¸Ð°Ð½
Ðķ Ð´Ð¸Ð½
ĠÐ±ÐµÑĢÐµ Ð³Ð°
ĠÑĥÑĤÐ²ÐµÑĢÐ¶Ð´ Ð°Ð»
ĠÐ½Ð°Ñĥ ÐºÐµ
ĠÑģÐ¾Ð³Ð»Ð°ÑĪ ÐµÐ½Ð¸Ñı
ĠÐ³Ð¾Ð²Ð¾ÑĢÐ¸ Ð»
ĠÑģÐ¿ÑĢÐ°Ð² ÐµÐ´Ð»Ð¸Ð²
ĠÐ¿Ð¾Ð»ÑĥÐ¾ÑģÑĤ ÑĢÐ¾Ð²
ĠÐ¿ÑĢÐ¸Ð±Ð»Ð¸Ð· Ð¸ÑĤÐµÐ»ÑĮÐ½Ð¾
m ent
Ð¾Ð¿ Ð¾Ð´
ĠÐĳ ÑĢÑĥ
Ðŀ ÑĤ
ĠÐ¾ÑĤÐºÑĢÑĭ Ð»
ĠÐ¾Ð±ÑĢÐ°Ð·Ð¾Ð² Ð°Ð½
ĠÑĥÐ³ Ð»Ð¾Ð²
ĠÑģ Ð¸Ð´
ĠS h
ĠÐ·Ð°ÑĤ ÑĢÑĥÐ´
ĠÑģÑĤÐ¾Ð» Ð¸ÑĨÑĥ
Ð°Ð½ Ñĩ
Ñĳ Ð¼Ñĭ
ÑģÑģ Ñĭ
ĠÐ¿ÑĢÐ¾ÑĤ ÐµÐºÐ°
ĠÐ¸ÑģÑĤÐ¾ÑĢÐ¸ ÑĩÐµÑģÐºÐ¾Ð¹
ĠÐ²ÑĭÑģ Ð¾ÑĤÑĭ
Ð¸Ð³ ÑĢÑĭ
ĠÐ½ÐµÐºÐ¾ÑĤÐ¾ÑĢ ÑĭÐ¼
ĠÐ¸ÑģÑģÐ»ÐµÐ´Ð¾Ð² Ð°Ð½Ð¸Ðµ
ĠÑģÐ» Ð¾Ñı
ĠÑģÑĤÑĢÐ° Ð´
ĠÑĤÑĢÐµÐ± ÑĥÐµÑĤÑģÑı
ĠÑĢÐµÐ³Ñĥ Ð»Ð¸ÑĢÐ¾Ð²
ĠÐ²Ð½Ð¸Ð¼ Ð°Ð½Ð¸Ñı
ĠÐ¡ÑĤÐµ ÑĦ
y s
á ¼
ÑĤ ÑĢ
ĠÑģ Ð»Ð°
Ð»Ñı Ñı
Ðľ Ð¾ÑģÐº
ĠÐ¿ÑĢÐ¾ÑĤÐ¸Ð² Ð¾ÑģÑĤÐ¾Ñı
ĠÐļÐ¾Ð¼ Ð¼ÐµÐ½ÑĤ
ro m
ĠÐ½ÐµÐ·Ð°Ð²Ð¸ÑģÐ¸Ð¼ Ð¾
ĠÑıÐ² Ð»ÐµÐ½Ð¸Ðµ
ÑĢÐ° ÑĦ
Ñİ ÑĢÐ¸
ĠÐ¶ ÑĳÐ»
ÑĥÑĤ ÑģÑı
ĠÐ¿Ð¾ÑĤ ÐµÑĢÐ¸
ĠÐµÐ² ÑĢÐ¾
ĠÐłÑĥÑģ ÑģÐºÐ¸Ðµ
ĠÑģÐµÐºÑĢÐµÑĤ Ð°ÑĢÑĮ
ĠÑģÐ¿ÐµÑĨÐ¸Ð°Ð»Ð¸ÑģÑĤ Ð¾Ð²
ĠÐ¿Ð¾Ð´ÑĩÑĳÑĢ ÐºÐ¸
Ð² Ð°Ð»ÑģÑı
ĠÐ´ Ð°ÑĤÑĮ
ĠÐ° Ð´Ð°Ð¿
ĠÐŁ ÑĢÐ¾Ð±
ĠÐ¾ÑĤ ÑĩÑĳÑĤ
ĠÐł Ð°Ð±
ĠÐ¤ÑĢÐ°Ð½ Ðº
200 1
ĠÐ²ÐµÐ»Ð¸ ÐºÐ¸Ð¹
ĠÑĢÐ°ÑģÐº ÑĢÑĭ
ÑĪ Ñĥ
ĠÐļ Ð°Ñģ
ĠÐľ Ñĭ
Ð¾Ð·Ð´ ÑĥÑĪ
ĠÑĢÐ°Ñģ ÑģÐµ
ĠÐ¿ÑĢÐ¾Ð¸Ð·Ð²Ð¾Ð´ ÑģÑĤÐ²Ðµ
ĠÐ½ ÑĥÐ¶Ð´
ĠÐ¿ÑĢÐµ Ð¾Ð´Ð¾Ð»
ĠÐ²ÑĭÑģ Ð¾ÑĤÐµ
ĠÑĩÐ°ÑģÑĤ Ð½ÑĭÑħ
ĠÐ´ÐµÐ¹ÑģÑĤÐ² Ð¸ÑĤÐµÐ»ÑĮÐ½Ð¾
ĠÑįÐ»ÐµÐºÑĤ ÑĢÐ¾Ð´
ĠÑģÐºÐ¾ÑĢ Ð¾ÑģÑĤÑĮÑİ
ĠÐĲÐ´ Ð°Ð¼
ĠÐ¿Ð»Ð¾ÑĤ Ð½Ð¾ÑģÑĤÑĮ
ĠÐ»Ð¸Ðº Ð²Ð¸Ð´Ð°
ĠÐ´Ð¸ÑĢÐ¸Ð¶ ÑĳÑĢ
ĠÑĢÐ°ÑģÐ¿ÑĢÐ¾ÑģÑĤ ÑĢÐ°Ð½Ð¸
Ð± ÐµÐ¶
Ð¾Ð´ Ð¾Ð²
Ð¾Ð¼ Ð¾ÑĢÑĦ
ĠÐĳ Ð¾Ð½
Ð¸Ð² ÑĪÐµÐ³Ð¾
ĠÐ¥ Ð°ÑĢÐ°ÐºÑĤ
ÑĤÐ¸ÑĩÐµ ÑģÐºÐ¸Ð¼
ĠÑĢÐ°ÑģÐ¿ÑĢÐ¾ÑģÑĤÑĢÐ°Ð½ ÐµÐ½Ñĭ
ĠÑĢÐµÐ²Ð¾Ð»Ñİ ÑĨÐ¸Ñı
ĠÐ²Ð»Ð°Ð´ ÐµÐ»ÑĮ
ĠÐ¿ Ð°ÑģÑĤ
ĠÐĴ Ð¾Ð»Ð¾Ð³
ÑģÑĤÐ²Ð° Ð¼Ð¸
ĠÐ½Ð¾ÑĢ Ð²ÐµÐ¶
ĠÐ·Ð°Ð½Ð¸Ð¼ Ð°Ð»ÑģÑı
ĠÑĦÐ¾Ð»ÑĮ ÐºÐ»
ĠÐ´ Ð¾Ð³
Ð¸Ð¼ Ð¾Ð¹
ĠÑģÐº ÑĢÐ¸Ð¿
ĠÑĥÑĩÐ°ÑģÑĤÐ¸ ÐµÐ¼
Ð² Ð°ÑĤÑĮÑģÑı
Ñī Ð¸ÐºÐ°
Ð°ÑĢ Ð½Ð°Ñı
ĠÐĽ Ð¸Ð±
Ð¼Ð° Ð³
ĠÐ¿Ð¾ÑĤ ÐµÐ½ÑĨÐ¸Ð°Ð»ÑĮ
ĠÐ²Ð¾Ð´ Ð¾
ĠÐºÐ°Ð½ Ð°Ð»Ð°
ĠÑģÐ½Ð¸ Ð·
ĠÐĲÑĢÑħ Ð°Ð½Ð³ÐµÐ»ÑĮ
ĠÐĶÑĢÐµÐ² Ð½ÐµÐ¹
ĠÐ±ÑİÐ´Ð¶ ÐµÑĤ
r am
ĠÑĥ Ð¶
Ð¸Ð· Ð°ÑĨÐ¸Ñı
ĠÑģÐ¿ ÐµÑĨ
ĠÑģÐ¾Ð± ÑģÑĤÐ²ÐµÐ½Ð½Ð¾Ð¹
Ðľ Ð°Ð½
ĠÐ¯ Ð²Ð»Ñı
Ġ8 00
ĠÐ¶ÐµÐ» ÑĥÐ´
ĠÐ¡Ð²ÑıÑĤ Ð¾Ð¹
ĠÐºÐ¾Ð½ÑĦÐ»Ð¸ ÐºÑĤÐ°
ĠÐĴÐ¾Ð¹ Ð½Ð°
ÑĢÐ¸ÑĦ Ð¼ÐµÑĤ
ĠÐ¯ Ð·Ñĭ
ĠÐ¿Ð¾Ð·Ð²Ð¾Ð» ÑıÑİÑĤ
ĠÐ¾ÐºÑĢÑĥÐ³ Ðµ
ĠÐºÐ»Ð°ÑģÑģÐ¸ ÑĦÐ¸ÐºÐ°ÑĨÐ¸Ð¸
ĠÐ·Ð½Ð°ÑĩÐ¸ÑĤÐµÐ»ÑĮ Ð½Ð¾Ðµ
ĠÐ¾ÑĤÐ´ÐµÐ» ÐµÐ½Ð¸Ðµ
ĠÐĶÐµÐ¿ÑĥÑĤ Ð°ÑĤÑĭ
ÐµÐ´ Ð½ÐµÐ²
ĠÑģÑĤ ÑĢÐ¾Ð³
Ð°Ð½Ð¾Ð² Ð¸Ñĩ
ĠÐ¼ÐµÑģÑĤ Ð¾Ð¼
ĠÐ¿ÑĢÐµÐ´Ð¿ÑĢÐ¸ ÑıÑĤÐ¸Ðµ
ĠÑģÑĤÐ°Ð½Ð¾Ð² ÑıÑĤÑģÑı
ĠÐ¿Ð¾Ð´ÑĢÐ°Ð· ÑĥÐ¼
Ð»Ð¸ Ñģ
ĠÐ¡ Ð¸Ð»ÑĮ
ĠÑģÐ²ÑıÐ· ÐµÐ¹
ĠÐ¶Ð¸Ð²Ð¾Ð¿Ð¸Ñģ Ð¸
ĠÐ¾ÑĦÐ¸ÑĨ ÐµÑĢÐ¾Ð²
ĠÐ¿ÑĢÐ¾Ð» Ð¸Ð²
Ð´ Ð°Ð½
ĠÑĥ ÑħÑĥÐ´
ĠÑį Ð»
ĠÐ´ÐµÐ» Ð¸ÑĤÑģÑı
ĠÐ´Ð¾Ð» Ð»
ĠÐ²ÑĭÑģÑĤÑĥÐ¿ Ð»ÐµÐ½Ð¸Ñı
Ð»ÐµÐ² Ð¾
ĠÐ¶ ÐµÐ½Ñĭ
ĠÑĢÐ°Ð·Ð»Ð¸Ñĩ Ð¸Ñı
ĠÐ½ÐµÐ´ ÐµÐ»Ð¸
ĠÐĵÐ¾ÑģÑĥÐ´Ð°ÑĢ ÑģÑĤÐ²ÐµÐ½Ð½Ð¾Ð³Ð¾
ĠÐ¿Ð»Ð¾ÑģÐº Ð¾ÑģÑĤÐ¸
ĠÑĤ ÐµÑģÑĤ
ĠÐ¸Ð· Ð¾Ð±ÑĢÐ°Ð·
ÐºÑĥ Ð´Ð°
ĠÐ²Ð¾Ð¿ÑĢÐ¾Ñģ Ð¾Ð²
ĠÐ´Ð¸Ð²Ð¸Ð· Ð¸Ð¸
a in
Ġ !
Ðº Ð°Ð»ÑĮ
ÐµÐ½ Ð¾Ñģ
ÑĢÐµ Ð³Ñĥ
ĠÐĲ Ð±Ñĥ
ĠÑģÑĤ ÐµÐ½Ñĭ
ĠÐ¸Ð¼ ÐµÐ½Ð¾Ð²
ĠÐŀÐ´ Ð½Ð°
ĠÐ¼Ð°Ðº ÐµÐ´Ð¾Ð½
ĠIn tern
ĠÐĳÐ¾Ð»Ð³ Ð°ÑĢÐ¸Ð¸
Ð°Ð» ÐºÐ¸
ÐµÐ» Ð»Ð°
Ð»Ð¸ Ð³
ĠÑĢÐ°Ð· ÑĢÑı
Ðļ Ð¾Ð½
ĠÑģÐ¾Ð± ÑģÑĤÐ²ÐµÐ½Ð½ÑĭÐµ
ÑĢÐ¾Ñģ Ð°
199 5
ÐµÐ½ÑĤÐ¸ ÑĢÐ¾Ð²Ð°Ð½
ĠÐ¢ÑĢÐ° Ð´Ð¸
ĠÐ°Ð¼ÐµÑĢÐ¸ÐºÐ°Ð½ ÑģÐºÐ¸Ñħ
ĠÐ¾Ð· ÐµÑĢÐ¾
Ð°Ñī Ð¸Ðµ
ĠÐĵÐµÐ½ ÑĢÐ¸
ĠÐºÑĢÐ°Ð¹ Ð½ÐµÐ¹
ĠÐ±Ð¸ÑĤ Ð²Ð°
b o
Ð· Ð¾ÑĢ
ĠÐ» Ð¸Ð¼
ĠÐł ÐµÐ¹Ð½
ĠÑĢÐµ ÑĨÐµÐ¿
ĠÐ¿ÑĢÐ¾ÑĪ ÐµÐ´
Ġ187 0
ĠÐ¾ÑĤÐ»Ð¸ ÑĩÐ°ÑİÑĤÑģÑı
. Â»
ĠÐļ Ð½Ñı
ÑģÑĤÐ¸ ÐºÐµ
ĠÐ¼Ð¾Ð³ Ð»Ð¾
ĠÑĢÐ°Ð·Ð²Ð¸ÑĤ Ð¸ÐµÐ¼
ĠÐ¸Ð½ÑĤÐµÑĢ ÑĦÐµÐ¹
ĠÑĦÐ¸Ð½Ð°Ð½ ÑģÐ¸ÑĢÐ¾Ð²
ĠÐŁÑĢÐ°Ð²Ð¸ÑĤÐµÐ»ÑĮ ÑģÑĤÐ²Ð°
ĠÐ¾Ð¿Ð¿Ð¾Ð· Ð¸
ĠÐºÐ¸Ð½ÐµÐ¼Ð°ÑĤ Ð¾Ð³ÑĢÐ°ÑĦ
Ð°Ð»Ð¸ Ñİ
ĠÐ²Ð¾ ÑĪÐ»Ð°
ĠÐ¾Ð±Ð»Ð° Ð´Ð°
Ð»Ð¸Ð¹ ÑģÐºÐ¸Ð¹
ĠÑģÐ¿ÐµÑĨÐ¸Ð°Ð»ÑĮ Ð½Ð¾
ĠÐ¾ÑĤÐºÑĢÑĭÑĤ ÑĭÐ¹
ĠÑģ Ð¾ÐºÑĢÐ°
ĠÐ± Ð°ÑģÐºÐµÑĤ
ĠÐĶÐ¶ Ð¾Ð½Ð°
ĠÐŀÐ´ Ð½Ð¾Ð²ÑĢÐµÐ¼ÐµÐ½Ð½Ð¾
us s
Ġ188 0
ĠÐ¿Ð¾ÑħÐ¾Ð´ Ð°
ĠÐ¡ÑĤÐ°Ð» Ð¸Ð½Ð°
ĠÐ²ÐµÐ» Ð¾ÑģÐ¸Ð¿
E T
Ðº ÑĥÑĢ
ĠÐº ÑĢÐµÐ¹
ÑĪ ÐµÐ²
ĠÐ± Ð°ÐºÑĤ
ĠÐ¾ÑĤ Ð²Ðµ
Ð¸ÑĤÐµÐ»ÑĮ Ð½ÑĭÐ¼Ð¸
ĠÐ¿Ð»ÐµÐ¼ ÐµÐ½Ð°
ĠÐ¿Ð¾ÑģÑĤÑĥÐ¿ Ð¸Ð»
ĠÐ»ÑĳÑĤ ÑĩÐ¸Ðº
ĠÐ¾ ÐºÐ°Ð·ÑĭÐ²
ÑĨÐ¸ Ð·Ð¼Ð°
ĠÐ³Ð»Ð°Ð² Ð¾Ð¹
ĠÐ±ÐµÑģÐ¿ Ð»Ð°ÑĤ
ĠÐŁÐ¾Ð± ÐµÐ´Ñĭ
ĠÐ¸Ð·Ð´ÐµÐ» Ð¸Ð¹
I X
ĠÐ½ Ð¸Ñĩ
Ð°Ð» Ð¾Ð½
ĠÑĢÐµ ÐºÑĥ
en ce
is s
ĠÑģÐµÐ»ÑĮ ÑģÐºÐ¸Ñħ
ĠÑģ ÐºÐ°
Ð°Ð» Ð°Ð¼
ĠÐĺ Ð»
ĠÐ¿Ð¾Ð² Ðµ
ĠÐ¾ÐºÑĢÑĥÐ¶ Ð½Ð¾ÑģÑĤÐ¸
ĠÐ¿Ð¾Ð¿ÑĥÐ»ÑıÑĢ Ð½Ð¾ÑģÑĤÑĮ
ĠÑĤÐµÐ»ÐµÐ² Ð¸Ð·Ð¸Ð¾Ð½
ĠÑģÐ¾Ð±ÑģÑĤÐ²ÐµÐ½ Ð½Ð¾ÑģÑĤÐ¸
ĠÐ½Ð¸ÐºÐ°Ðº Ð¸Ñħ
ĠÐ¡ Ð¡
ĠÑĦ ÐµÑĢÐ¼
ĠÐºÐ¾Ð½ ÑĦÐ¸
ĠÐµÐ²ÑĢÐ¾Ð¿ÐµÐ¹ ÑģÐºÐ¾Ð¹
ĠÑħÐ°ÑĢÐ°ÐºÑĤÐµÑĢÐ¸Ð· ÑĥÐµÑĤÑģÑı
ĠÐ¿ÑĢÐ¾Ð¼ÐµÐ¶ Ñĥ
l and
ÑĢÐ° ÑģÐ¾Ð²
Ð¿ ÑĢÐµÐ·Ð¸Ð´ÐµÐ½ÑĤ
ÑĨ Ð°Ñħ
ÐºÐ° Ñģ
ĠÑį ÑģÐºÐ°Ð´
ĠÐĵ Ð¸Ð´
ÐµÑĨ ÐºÐ¾Ð³Ð¾
ĠÐ¾ÑģÑĤ Ð°Ð»ÑģÑı
l in
ĠÐĴ Ð¾Ð»ÑĮ
ĠÐĺ Ð´Ðµ
Ð¡ ÐµÐ²ÐµÑĢ
ĠÐķ Ð»ÐµÐ½Ð°
ĠÐ²Ð¾Ð´ Ð¾ÑħÑĢÐ°Ð½Ð¸Ð»Ð¸
ĠÐ¼Ð°ÑĢÑĪÑĢÑĥ ÑĤ
ĠÐ²Ð¾ÑģÑĮ Ð¼Ð¸
ÑĢÑĥ Ð¶Ðµ
ĠÑĦ Ð°ÑĢ
ĠÐ¿Ð¾Ð» Ð½Ð¾Ðµ
ĠÐ¼ÐµÑĤ Ð¾Ð´Ð°
ĠÐ¿Ð¾ÑıÐ² Ð»ÐµÐ½Ð¸Ðµ
ĠÐĺÐ¾Ñģ Ð¸ÑĦ
ÑĤ ÐµÐº
Ð» ÑĳÑĤ
ĠÐ¿ÑĢ Ð¾Ð·Ð°
ĠÑĤÑĢÐ°Ð´Ð¸ ÑĨÐ¸Ð¾Ð½Ð½Ð¾
ĠÐ±Ð¾ÑĢÑĮ Ð±Ð°
ĠÑĤ Ð¾Ðº
ĠÐł ÐµÐ¶
Ðł Ðĵ
ĠÐ°Ð½ ÑģÐ°Ð¼Ð±
ĠÐ´ÐµÐ¹ÑģÑĤÐ² Ð¸ÑĤÐµÐ»ÑĮÐ½Ð¾ÑģÑĤÐ¸
ĠÐºÐ°ÑĢ Ð´Ð¸Ð½
ĠÐ²ÑģÑĤÑĢÐµ ÑĩÐ°
ĠÐŁÐ¾Ð´ Ð¾Ð±
ĠÐ¸ÑģÑĤÐ¾Ñĩ Ð½Ð¸Ðº
ĠÐ¿ÑĢÐ¾ÑĪ Ð»Ð°
ĠÐºÐ»Ð°ÑģÑģ Ð¾Ð²
ĠÐ½Ð°Ð· Ð½Ð°
ÑģÑĤ ÑĢÐ¸ÑĢÐ¾Ð²
ĠÐ² Ð¸ÑĢÑĤÑĥ
Ñī ÐµÐ½Ð¸Ðµ
Ð°Ð½Ð´ Ð°ÑĢÑĤ
Ð¸ÑĢÐ¾Ð² Ð°Ð»Ð¸
ĠÐ¿ÑĢÐ¾Ð´ Ð¾Ð²Ð¾Ð»ÑĮ
ĠÐ²ÑģÑĤÑĢÐµ ÑĤÐ¸
ĠÐ·Ð°Ð¿Ð°Ð´ Ð½ÑĭÑħ
ĠÐ»Ð¸ÑĤÐµÑĢÐ°ÑĤÑĥÑĢ Ð½ÑĭÐ¹
ĠÐ¾ÑĨÐµÐ½ ÐºÐ¸
ĠÑģÐ²ÑıÑī ÐµÐ½Ð½Ð¾Ð¼
Ð² Ð¾Ðº
ĠÐ¿ Ð¾Ð³ÑĢÐ°Ð½Ð¸Ñĩ
ĠÐ° ÑĢÐµ
Ñĳ ÑĢÐ¾Ð¼
ĠÐł Ð°ÑģÑĤ
ĠÐ²ÑĭÑģÐ¾Ðº Ð¸Ð¼
ĠÐķÐºÐ°ÑĤÐµÑĢÐ¸ Ð½Ñĭ
ĠÑħÑĢÐ°Ð½ ÐµÐ½Ð¸Ñı
ÐµÐ¼ ÑĭÐ¼Ð¸
ĠÐ¾Ð± ÐµÐ·
ÑıÑĤ Ð¾Ð¹
ĠÐķ ÑģÑĤÑĮ
ĠÑĥÐ³ Ð¾Ð»
ÐŃ Ð½
ĠÑģÐ¿ÐµÑĨÐ¸Ð°Ð»ÑĮ Ð½ÑĭÐµ
ĠÐĽÐ°ÑĥÑĢÐµ Ð°ÑĤÑĭ
Ð± Ð¾Ð»ÑĮÑĪ
ĠÐ¡ Ð¸Ð´
ĠÑĦ Ð¾Ð½Ð´
Ð¼Ðµ ÑģÑĤÐ¸Ð¼
ĠÑĪ Ð²ÐµÐ¹ÑĨ
ÑĥÑħ Ð¸
ĠÐ·Ð² ÑĥÐºÐ°
ĠÐ¿ÑĢÐµÐ´Ð¼ÐµÑĤ Ð¾Ð²
o h
ĠÑģ ÑĦÐ¾ÑĢÐ¼Ñĥ
ĠÐ° Ð²Ð°
Ð½Ðµ ÑģÑĤÐ¸
ĠÑģÐ²Ð¾Ð±Ð¾Ð´ Ñĥ
ĠÐ¿Ð°Ð¼ÑıÑĤ Ð½Ð¸ÐºÐ¸
ĠÐķÐºÐ°ÑĤÐµÑĢÐ¸ Ð½Ð°
ĠÐĺÐ¸Ñģ ÑĥÑģÐ°
Ð¾Ð´ Ð¾ÑĢÐ¾Ð´
ĠÐ¿ÑĢÐµÐ´ Ð²Ð°ÑĢÐ¸ÑĤÐµÐ»ÑĮ
20 14
ĠÐ½Ð°Ð¿ Ð¾Ð¼Ð¸Ð½Ð°
ĠÐ¿ÑģÐ¸Ñħ Ð¾Ð»Ð¾Ð³Ð¸Ð¸
ĠÐº Ð¸Ð¿
Ð¾ÑĢ Ð¾
ĠÐ½Ðµ Ð¿ÑĢÐ°Ð²
ĠÑħ Ð°Ð»Ð¸
ÐĿ Ðµ
Ð°ÑĪ Ð°
ĠL a
ĠÐ¿ÑĢÐ¸ÑĢÐ¾Ð´ Ð½ÑĭÑħ
ĠÐ¿ÑĢÐ¾Ð¶ Ð¸Ð²
ĠÐ¥Ð°ÑĢÑĮ ÐºÐ¾Ð²
p e
ĠÐ° Ð»ÑİÐ¼Ð¸Ð½
ĠÐ²Ð¸Ð´ Ñĥ
Ð¿Ñĥ ÑģÑĤ
ĠÑģÐ»Ð¾Ð¶ Ð½Ð¾ÑģÑĤÐ¸
ĠÑģÐ°Ð¼Ð¾ÑģÑĤÐ¾ÑıÑĤÐµÐ»ÑĮ Ð½Ð¾
Ðº ÑĥÐ»ÑĮÑĤÑĥÑĢ
ĠÐ¿ Ð°Ð»Ðµ
Ð¼Ð¸ Ð½Ñĭ
ÐµÐ² ÑĢÐ¾Ð¿ÐµÐ¹
Ð¸Ð² Ð°ÑĤÑĮÑģÑı
ĠÐ§ ÐµÐ±
ĠÐ¾Ð¿ÑĢÐµÐ´ÐµÐ» ÑĳÐ½Ð½ÑĭÑħ
ĠÑįÐ½ÐµÑĢÐ³ Ð¸Ñı
ĠÑģÐ¿ÐµÐºÑĤ Ð°Ðº
ĠÐĵÐµÐ¾ÑĢ Ð³Ð¸
ĠÑģ Ð¾Ð½
ĠÐĵ ÑĥÑģ
ĠÐ¶ Ð°ÑĢ
ĠÐ¸ÑģÐ¿ Ð¾Ð²ÐµÐ´
ic e
ĠÐ¿ÑĢÐ°Ð²Ð¸ÑĤÐµÐ»ÑĮ ÑģÑĤÐ²Ð¾Ð¼
ĠÐ²ÑħÐ¾Ð´ Ð¸Ð»Ð¸
ĠÐ»Ð¸ÑĨ Ð¾
ĠÐ¿ÑĢÐµÐºÑĢÐ° Ñģ
Ð±ÐµÑĢ Ð³Ð°
A T
ĠÐ² ÐµÑģÑĤ
Ð¸Ð½ ÐºÐ°
ĠÐ¡ ÑĥÐ¼
ĠÐĵ ÐµÐ¹
ĠÐ¾Ðº ÑģÐ¸
Ġ4 6
ĠÐ¦ Ð°ÑĢ
199 3
ĠÑĦÐ¾ÑĤ Ð¾Ð³ÑĢÐ°ÑĦÐ¸Ð¸
ĠÐ½Ð°Ð½ ÐµÑģ
ĠÐ³Ð¾Ð²Ð¾ÑĢÐ¸ ÑĤÑĮ
ĠÐĿÐ°Ð³ÑĢÐ° Ð´Ñĭ
ĠMicros oft
ĠÐ¼ ÑĥÐ»ÑĮÑĤÐ¸
ĠÐŁ ÑĮÐµÑĢ
ĠÐļ Ð°Ð¹
ĠÐ¾ÑĤ ÑĢÐ°Ð²
Ð¾Ð¿ ÑĥÑĤ
ĠÐ²Ð¾Ð· Ð»Ðµ
ĠÐ¼ÐµÑĤ Ðµ
ĠÑĢÐµÐ· ÐµÑĢÐ²
ĠÐ²ÐµÑīÐµ ÑģÑĤÐ²Ð¾
ĠÑĦÐ¾ÑĢÐ¼Ð¸ÑĢÐ¾Ð² Ð°Ð½Ð¸Ðµ
p r
Ð¿ ÑĢ
ĠÐ» Ð°Ð·
ÐµÐ· Ñĥ
ĠÐ½Ð°Ð´ ÑĳÐ¶
ĠÐ´Ð¾ÑģÑĤ Ð¾Ð²ÐµÑĢ
ĠÐ½ÐµÐ¾Ð±ÑħÐ¾Ð´Ð¸Ð¼ Ð¾ÑģÑĤÑĮ
ĠÐĴÑģ ÐµÐ²
ĠÐ²Ð½ ÐµÐ´
ĠÐ»ÑİÐ´ ÑıÐ¼
Ñĥ ÑģÑĤÐ¸
Ñĩ Ð½Ð¾Ð¼
ÐµÑĢ Ñı
ĠÐ´ ÐµÐ»ÑĮ
Ð¾Ð»ÑĮ Ð´
ĠÑĦ ÐµÐ½Ð¾Ð¼
ĠÑģÐ¾Ð± ÑģÑĤÐ²ÐµÐ½Ð½ÑĭÑħ
ĠÑĢÑĥÐºÐ¾Ð²Ð¾Ð´ ÑģÑĤÐ²Ð°
ĠÑıÐ² Ð»ÐµÐ½Ð¸Ð¹
ĠÐ¼ÑĥÐ½Ð¸ÑĨÐ¸Ð¿ Ð°Ð»ÑĮÐ½ÑĭÑħ
ĠÐ²ÑĭÐ´ÐµÐ»Ñı ÑİÑĤ
ĠÐ±Ð¾Ð¼ Ð±Ð°ÑĢÐ´Ð¸ÑĢÐ¾Ð²
c l
Ð¸Ð½ ÑģÐºÐ¸Ð¼
ĠÐĲ Ðŀ
ĠÐ¢ Ð°ÑĤÐ°ÑĢ
Ð½Ðµ Ð·
ĠÐ·Ð°Ð¿ Ð¾Ð²ÐµÐ´
ĠÐ²Ð¾Ð´ Ð¾ÑĢÐ¾Ð´Ð°
ĠÑĥÑħÑĥÐ´ ÑĪ
ĠÐ± ÑĢÐ°Ðº
Ð¸Ð¼ Ð¾Ð²
ÑĢÐ¾Ð² ÐµÐ´
Ð¾ÑĢÐ¸ Ð¹
ĠÐ·Ð½ Ð°ÑĤ
ĠÑģÑĤÐ°Ð´ Ð¸Ð¸
ĠÐ±Ð°ÑģÑģ ÐµÐ¹
ĠÐŁ ÐµÑĩ
Ð»Ñı Ñħ
ĠÐ¾Ð±ÑīÐµ Ð¾Ð±ÑĢÐ°Ð·Ð¾Ð²
ĠÐ½Ð°Ð·ÑĭÐ²Ð° ÐµÐ¼ÑĭÐµ
ĠÑĩÐ°Ñģ Ð°
ĠÐ°Ð¿Ð¿Ð°ÑĢÐ° ÑĤÐ°
ĠÐ¿ÐµÑĢÑģÐ¾Ð½Ð° Ð¶
ĠÑĤÑĳ Ð¿Ð»
ĠÑģ Ð³Ð¾
Ñħ Ð°Ð¹
ĠÐ½Ð° Ð¾Ð±Ð¾ÑĢÐ¾ÑĤ
ĠÐĵ Ð¾Ð´
ĠÐ¿Ð¾Ð» Ðº
ĠÐ£ Ð¾Ð»
er t
ĠÐ²ÑĭÑģÐ¾Ðº Ð°Ñı
ĠÐ¼Ð¾ÑĢ ÑģÐºÐ¸Ñħ
ĠUn ivers
ĠÐ§Ð°ÑĢ Ð»ÑĮ
ĠÐº Ð²Ð°Ð»Ð¸
Ð½Ð¸ Ð³
ÐµÐ´ Ð¸Ñı
ĠÐļ ÑĢÐ¾Ð½
ĠÐł Ðļ
ÑĤÐ¸Ð² Ð½ÑĭÑħ
ar y
ĠÐ·Ð°ÐºÐ»ÑİÑĩ ÐµÐ½Ð¸Ñı
Ð³ÑĢÐ° ÑĨÐ¸Ð¸
ĠÐ²Ð»Ð° ÑģÑĤÐµÐ¹
ĠÐ¶ÐµÐ»ÐµÐ· Ð°
ĠÐºÐ°Ð· Ð°Ñħ
ĠÑĢÐµÐ¹ Ñħ
ĠÐ´ÑĥÑĪ Ð¸
ĠÐ³Ð¸Ð± ÐµÐ»Ð¸
ĠÐĴÐ¾Ñģ ÑģÑĤ
Ð¼ Ð¾Ð»
ĠÐĵ Ð°Ð»Ð¸
ĠÐ²ÐµÑĢ Ñĭ
ĠÐ´ÐµÑĤ Ð¸
ĠÐ³Ð°Ð· Ð¾Ð²
ÑĭÐ²Ð° ÑİÑĤ
199 2
ĠÐ²Ð°Ð¶ Ð½ÑĭÐ¼
ĠÑģÐ¿ÐµÑĨÐ¸ Ð°Ð»Ð¸Ð·Ð¸ÑĢÐ¾Ð²
ĠÐ½ÐµÑĦ ÑĤÐµÐ¿
ĠÐĿÐ°Ñģ ÐµÐ»ÑĳÐ½Ð½ÑĭÐµ
ĠÐŁÑĢÐ¸Ð¼ÐµÐ½ ÐµÐ½Ð¸Ðµ
Ð¼ ÑĥÑĢ
Ð»Ð° Ð·
ĠÐ¡ Ð¸Ð³
ĠÐĳ Ð¾Ñģ
ĠÐ¢ Ð°Ð´Ð¶
ÐºÐ¾Ð² ÑĭÐ¹
Ð¸ÑĤÐµÐ»ÑĮ Ð½Ð¾Ð¼
ĠÐºÐ°Ðº Ð¸Ñħ
on g
ĠÐ¡ÑĢÐµÐ´ Ð½Ðµ
ĠÐŀÑģÐ½Ð¾Ð² Ð½Ð¾Ð¹
ĠÑģÑĤÐ¾ÑĢÐ¾Ð½ Ð½Ð¸ÐºÐ¾Ð²
ĠÑģÐµÐ² ÐµÑĢÐ°
ĠÐ¿Ð¾ÑģÐ»ÐµÐ´Ð¾Ð²Ð°ÑĤÐµÐ»ÑĮ Ð½Ð¾ÑģÑĤÐ¸
ĠÐłÐµÐ² Ð¾Ð»Ñİ
Ð» ÑĭÐ¹
ÑģÑĤÐ² Ð¸ÐµÐ¼
ÐµÐ¼ Ð¾Ð½
ĠÐ¿ÐµÑĢÐµ ÑĪÑĳÐ»
ĠÐ¢ÑĥÑĢ Ðº
ĠÐ¿ÑĭÑĤ Ð°Ð»ÑģÑı
ĠÐ³ÐµÐ¾Ð¼ÐµÑĤ ÑĢÐ¸
Ñĩ ÐºÐ°
ĠÐ½ Ð¸ÑĤ
ĠÐĲ ÑĢÐ°Ð±
ÐĹ Ð²
ĠÐ¸Ð³ ÑĢÐµ
ĠÐ¡Ð¾ÑĨÐ¸Ð°Ð»Ð¸ÑģÑĤÐ¸ÑĩÐµ ÑģÐºÐ¾Ð³Ð¾
ĠÐ½Ð°ÑĤ ÑĢÐ¸Ñı
ĠÐ·Ð´ÑĢÐ°Ð²Ð¾Ð¾ÑħÑĢÐ°Ð½ ÐµÐ½Ð¸Ñı
ĠÑģÐ²ÑıÑīÐµÐ½Ð½Ð¾Ð¼ ÑĥÑĩÐµÐ½Ð¸
Ġ '
Ñĥ ÑĢÐ¾Ð²
ÑĢÐ¸ Ð´Ð¶
ĠÐ± Ð¾Ðµ
ĠÐĴ Ð°Ð³
ĠÐľ Ð¾Ð»Ð¾Ð´
ĠÐ²Ñĭ Ð²
ÐµÐ· Ð´Ð¾Ð²
ĠÑĩÐ¸Ñģ Ð»Ð¾Ð¼
ĠÐ¼Ð¸Ð½ ÐµÑĢÐ°Ð»ÑĮ
ĠÐ¿Ð¾ÑģÑĤÑĢÐ¾ ÐµÐ½Ñĭ
ĠÑģÐ²Ð¾Ðµ Ð¾Ð±ÑĢÐ°Ð·
Ð¸ÑĦ ÑĢÐ¾Ð²
ĠÐ¡ÐµÑĢÐ³ ÐµÑı
ĠÐ´Ð²Ð¸Ð³ Ð°ÑĤÐµÐ»Ñı
ĠÐ½Ð°Ð¹ Ð´ÐµÐ½
ĠÐ¡Ð¸ÑģÑĤÐµÐ¼ Ð°
Ð¼ Ð°Ðº
ĠÐĽ Ð¸Ð¿
ÑĥÐ» ÐµÐ¼
ĠÐ¿ÑĢÐ¸Ð¼ÐµÐ½ ÑıÑİÑĤÑģÑı
ĠÐŀÑĢ Ð»Ð¾Ð²
ĠÑģÑĤÑĢÐ¾Ð¸ÑĤÐµÐ»ÑĮ ÑģÑĤÐ²Ðµ
ĠÑħÑĥÐ´Ð¾Ð¶ Ð½Ð¸ÐºÐ¾Ð²
ĠÑģÑĥÑīÐµÑģÑĤÐ²Ð¾Ð² Ð°Ð»Ð¾
ĠÑģÑĢÐ°Ð²Ð½ Ð¸ÑĤÐµÐ»ÑĮÐ½Ð¾
ĠÐ±Ð¸ÑĤ Ð²Ñĭ
ĠÐ¶Ð°Ð½ ÑĢÐ°
ĠÐ¸Ð½ÑĤÐµÐ»Ð»ÐµÐº ÑĤÑĥ
ÑĥÐ± Ð¸Ð¹
ÐĽ Ñİ
ĠÑĢÐµÐ·ÑĥÐ»ÑĮÑĤ Ð°ÑĤÐ¾Ð²
ĠÐ¸Ð·ÑĥÑĩ ÐµÐ½Ð¸Ðµ
ÑİÑīÐ¸Ð¼ ÑģÑı
ĠÐŁÑĢÐµ Ð¼Ð¸Ñı
ĠÐ² Ð¾Ð¶Ð´
Ñī ÐµÐ½ÐºÐ¾
ĠÐŁ Ð»Ð¾ÑĤ
ĠÐ¾Ð± ÑĢÑı
ÑĢÑı Ð½
ĠÐ¾Ð±ÑĬ ÑıÐ²Ð»Ñı
ĠÐ¿ÑĢÐ¾ÑĪ Ð»Ð¾Ð¼
ĠÐŁÐ¾Ñı Ð²
Ġ la
Ð½ ÑıÑĤÑĮ
ĠÐ´ ÑĥÐ¼Ñĭ
ĠÐ¡ ÑĤÐ¸Ð²
Ð¼Ð¸ ÑģÑĤ
ĠÐ§ ÑĥÐ²Ð°ÑĪ
ĠÑģÐ¾Ð·Ð´ Ð°Ð½Ð¾
ĠÑĤÐ¸Ð¿ Ñĭ
ĠÑĦÐ¸Ð· Ð¸ÑĩÐµÑģÐºÐ¸Ñħ
ĠÐłÐ¾ÑģÑģÐ¸Ð¹ ÑģÐºÐ°Ñı
ĠÐºÐ¾Ð»Ð¸ÑĩÐµ ÑģÑĤÐ²Ð¾Ð¼
ĠÑįÑĦÑĦ ÐµÐºÑĤÐ°
ĠÐ¿ÑĢÐ¾Ð¸Ð·Ð¾ÑĪ Ð»Ð°
Ñħ ÑĤ
ÑĬ ÐµÐ·Ð´
ĠÐ²ÑĭÑģ Ð°Ð´
ĠÐ¸Ð¼Ð¿ ÐµÑĢ
ĠÐ°Ðº ÑģÐ¸
ĠÐĹÐµÐ¼ Ð»Ñı
ĠÐ¾ÑĤÑģÑĥÑĤÑģÑĤÐ² ÑĥÐµÑĤ
ĠÑģÐ¼Ðµ ÑģÐ¸
ĠÐ¾Ð±ÑĢÐ°Ñī ÐµÐ½Ð¸Ñı
ĠÐĶÐ¾ÑģÑĤ Ð¾ÐµÐ²
ĠÐ½ ÐµÐ²ÐµÑĢ
ĠÐ± Ð°Ñģ
ĠÐĶ Ð°Ð½
ĠÑģÑĢÐµÐ´ Ð½Ð¸Ñħ
ĠÐ¿Ð¾Ð¿ ÑĢÐ°Ð²
ĠÑįÐºÐ¾Ð½Ð¾Ð¼ Ð¸ÑĩÐµÑģÐºÐ¸Ñħ
ĠÐ·Ð°Ð±Ð¾Ð»ÐµÐ² Ð°Ð½Ð¸Ñı
Ð° ÑģÑĤÐ¸
Ñĥ Ð»Ñİ
ĠÐºÐ¾Ð¼Ð¿ Ð°ÐºÑĤ
ĠÑģÑĤÐ°ÑĢ ÑĪÐ¸Ð¹
ĠÑĥÑĩÐ°ÑģÑĤ Ð¾Ðº
Ġf or
ĠÑįÐºÐ·ÐµÐ¼Ð¿ Ð»Ñı
ĠÐ± Ð¾ÑĤÐ°Ð½Ð¸
ĠÐĴ Ð¸Ð»
ĠÐĳ ÑĥÑĤ
Ġ4 7
Ð¾ÑĪ ÑĳÐ»
ÑģÑĤÐ²Ð¾Ð² Ð°Ð»Ð°
ĠÐ²Ð¾Ð» Ð½Ð¾Ð²
ĠÑģÑĤÑĢÐµ Ð¼Ð¸
ĠÑģÑĦ ÐµÑĢÑĭ
ĠÐºÐ¸ÑģÐ» Ð¾ÑĢÐ¾Ð´
ĠÑģ ÐµÑĢÐ¸Ñı
Ð³ÑĢÐ° Ð´Ðµ
ĠÑĢÐµÐ· Ð¸Ð´
ĠÐĲÑĢ Ð¼ÑıÐ½
Ġâ Ĩ
ĠÑĨÐ¸ Ðº
Ðķ Ð¡
ĠÑĢÐµÐ·ÑĥÐ»ÑĮÑĤÐ°ÑĤ Ð°Ð¼
ĠÐŁÑĢÐ¾Ð¸Ñģ ÑħÐ¾Ð¶Ð´ÐµÐ½Ð¸Ðµ
ĠÐ£Ð·Ð±ÐµÐº Ð¸ÑģÑĤ
Ñģ ÐµÐº
ÑĮ ÑĳÐ²
ÐµÑĤ Ð¸ÐºÐ°
ĠÐĴ Ð¾Ð¿ÑĢÐ¾Ñģ
ĠÐ²Ñĭ ÑħÐ¾Ð´Ð¸ÑĤ
Ð»ÐµÐ½ Ð´
ĠÑĪ Ð¾Ñģ
Ġd es
ĠÐ²ÑĭÐ± Ð¸ÑĢÐ°
ĠÑĢÑĭ ÑĨ
ĠÐ¼Ð°Ð» ÑĭÑħ
ĠÐļÐ½Ð¸ Ð³Ð°
ÐµÐ½ ÐµÐ¹
ĠÐĺ ÑĢÐ°Ðº
Ð»Ð°Ñģ Ð¸Ð»
ĠÐ¿ÑĢÐ¸Ð½Ñı Ð»Ð°
ĠÐ¿Ð¾ÑıÐ²Ð»Ñı ÑİÑĤÑģÑı
ĠÐļÐ°Ð¶Ð´ ÑĭÐ¹
ÐµÐº ÑģÐ°
Ð¸Ð¼ Ð¾Ð¼Ñĥ
ĠÑĢÐ¸ ÑģÐº
ĠÐľÐ°Ðº ÑģÐ¸
ĠÐ³Ð°Ð» Ð°Ðº
ĠÐ¿Ð¾Ð» Ð½Ð¾Ð³Ð¾
Ð»ÐµÐ½ Ð½Ð°Ñı
ĠÐ½ÐµÐ´ Ð°Ð²
ĠÐ·Ð°Ð½ ÑıÐ»Ð¸
ĠÐ·Ð°Ð» Ð¸Ð²Ð°
ĠÐ¡ÐµÐ² Ð°ÑģÑĤ
ĠÐº Ð°Ð»Ð¸
ĠÑģÐ» ÑĥÑĪ
ĠÐķ ÑĢ
ĠÑģÑĤÑĢÐ° Ñħ
ĠÑģÑĭ Ð½Ð¾Ð¼
ĠÐºÐ½Ð¸ Ð¶
ĠÐ¾Ñħ Ð²Ð°ÑĤÑĭ
Ġ186 0
ĠÑģÑĩÐ¸ÑĤÐ° ÑİÑĤÑģÑı
ĠÐºÑĢÑĥÐ¿Ð½ÐµÐ¹ ÑĪÐ¸Ð¹
ĠÐ³ÑĢÐ°Ð½Ð¸ÑĨ Ñĥ
ÑĢÐ°Ð¹ Ð¾Ð½
ĠÐŁÐ¾Ð»ÑĮÑĪ Ðµ
av a
ĠÐĴÐĴ Ð¡
Ð¾ÐºÐ¾Ð¼Ð¾ÑĤ Ð¸Ð²
ĠÐ³ Ð¾ÑĢÐµ
ĠÐ¾Ð± ÑģÑĤÐ°Ð½Ð¾Ð²
ĠÐĵ Ð¸Ð»ÑĮ
Ð½Ð¾Ð² ÑģÐºÐ¸Ð¹
ĠÑĢ Ð¾Ð·
ÑĳÐ½ Ð½Ð¾Ð¼Ñĥ
ÑĦÑĦ ÐµÐºÑĤÐ¸Ð²
ĠÐ»ÐµÐ³ ÐµÐ½Ð´
ĠÑĤÐ²Ð¾ÑĢ ÑĩÐµÑģÑĤÐ²Ð¾
ĠÐŁÐµÑĢÐµ Ð²Ð¾Ð´
ĠÑģÑĥÐ¿ ÐµÑĢ
ĠÑģÐ² ÐµÐ´
ÐºÐ¾Ð² Ð°Ñı
ĠÐºÐ°ÑĢ ÑĤÑĭ
ĠÑĤÐµÐº ÑģÑĤÑĭ
ĠÐ¿ÑĢÐ¾ÑģÑĤ ÑĭÑħ
ĠÐ²ÑĭÑĩÐ¸Ñģ Ð»Ð¸ÑĤÐµÐ»ÑĮ
ĠÐ´Ð¸ÑģÐº ÑĥÑģ
ĠÐ³Ð¾ÑģÑĤ Ð¸Ð½
yst em
ÐµÑĢ Ð¾Ð³
ÑĦ ÑĢÐµÐ´
ĠÐ°Ð² ÑģÑĤÑĢÐ°
ĠÐºÐ¾Ð¼Ð¿ Ð°Ð½Ð¸ÐµÐ¹
ĠÐ¼Ð½ ÐµÐ½Ð¸Ñı
ĠÐ´ÐµÐ¹ÑģÑĤÐ² Ð¾Ð²
ĠÐ§ÐµÑħ Ð¾ÑģÐ»Ð¾Ð²
Ï Ĥ
ĠÐĳ ÐµÑĢÐµ
ĠÐ¨ Ð°Ð½
Ġ4 1
ĠÐ°ÐºÑĤÐ¸Ð² Ð½Ð¾ÑģÑĤÐ¸
ĠÑħÑĢÐ¸ÑģÑĤÐ¸Ð°Ð½ ÑģÑĤÐ²Ð°
ĠÑĪÑĤ Ð°ÑĤÐ°
ĠÐ¾Ð±ÑĥÑĩ ÐµÐ½Ð¸Ðµ
ĠÐ¿ÑĢÐ¾ÑĦÐµÑģÑģ Ð¾ÑĢÐ°
Ðº Ð²Ð°ÑĢ
Ð°Ð» Ð¾Ð³Ð¾Ð²
ĠÐł ÐµÐ´
ĠÐ¿ÑĢÐµÐ´ ÑģÐºÐ°Ð·
19 18
ĠÐºÐ¾Ð¼Ð¿ Ð¸Ð»Ñı
ĠÐ·ÐµÐ¼ Ð»ÐµÐ´
ĠÐ²ÐµÑĤ ÑĢÐ°
ĠÐķÐ³Ð¸Ð¿ ÑĤÐµ
ĠÑĢÑĭÐ½ ÐºÐ°
Ñħ ÑĢÐ¾Ð½
ÐµÑĤ Ð¾Ð½
ĠÐ± Ð»Ð¸
ĠÐ¡ ÐµÐ»ÑĮ
ĠÑĦ ÑĥÐ½
ĠÐ¸ÑģÐ¿Ð¾Ð»ÑĮÐ· ÑĥÑı
ĠÐ²Ñģ ÑĳÐ¼
ĠÐ½ÐµÐ¼ ÐµÐ´
ĠÐºÐ¾Ð½ÑĤ ÐµÐº
ĠÑģÑĤÐ¾Ð» ÐµÑĤÐ¸Ñı
ĠÐ²ÑĭÑĢÐ°Ð¶ ÐµÐ½Ð¸Ñı
ĠÐŀÐº Ð¾Ð½Ñĩ
ĠÐºÐ¾Ð½Ñģ ÑĥÐ»ÑĮ
ĠÐ¾Ð¿Ð¸ÑģÑĭÐ²Ð° ÐµÑĤ
ÑĳÑĢÑĤ Ð²
ĠÐļ Ð°ÑĤÐ¾Ð»
ĠÐĲ ÑģÑĤÑĢÐ°
ĠÐ²Ð¾Ð· Ð²ÐµÐ´
ĠÑıÐ²Ð»Ñı Ð»Ð¸ÑģÑĮ
ĠÐ¿Ð¾Ð²ÐµÑĢÑħ Ð½Ð¾ÑģÑĤÑĮ
ĠÑģÑĤÑĢÐµ Ð»ÑĮ
ĠÐºÐ¾ÑģÐ¼Ð¸ ÑĩÐµÑģÐºÐ¸Ñħ
ĠÐ¿ÑĢÐ¾Ñĩ Ð¸Ñħ
ĠÐļÐ°Ð·Ð°Ñħ ÑģÑĤÐ°Ð½
ĠÐ´Ð¸ÑģÑģ ÐµÑĢÑĤÐ°
Ð¿ Ð»Ð°Ð²
Ð¾Ð» Ð½Ñı
ĠÑĤ ÐµÑĤ
ĠÐĴ ÐµÐ¹
Ð¾Ðº ÑĥÑģ
Ð³Ð¾ ÑĢÐ¸
ĠÐ¾Ð±Ñī Ð¸Ð¹
ĠÐ²ÑĭÑģÐ¾Ðº Ð¸Ð¹
ĠÑģÐ»ÐµÐ´ÑĥÑİÑī ÐµÐ¼
ĠÑĪÐ¸ÑĢÐ¾Ðº Ð¾Ðµ
ĠÐ¼ÐµÐ½ÑĮ ÑĪÐµÐ¹
ĠÐ¾ÑĤÑĢÐ°Ñģ Ð»Ð¸
ĠÐ¿ ÑĢÐ°
Ð± ÑĥÐ½
ÑģÑĤÐ² Ð¸Ð¹
Ð°ÑĪ Ð¸ÑģÑĤ
ĠÐ¿ÑĢÐ¾Ð¸Ð·Ð²Ð¾Ð´ ÑģÑĤÐ²Ñĥ
ĠÑħÐ¸Ð¼Ð¸ Ðº
ĠÐļÑĢÐ°Ñģ Ð½Ð¾Ð³Ð¾
ĠÐ¿ÑĢÐ¸Ð½Ð¸Ð¼ Ð°Ð»
ĠÑĦÐ°ÐºÑĥÐ»ÑĮÑĤ ÐµÑĤÐ°
ĠÐ¡Ñĭ Ð½
ĠÐºÐ¾Ð½ÑĨÐµÐ½ÑĤÑĢÐ° ÑĨÐ¸Ð¸
ĠÐºÐ¸ÑĢ Ð¿
ĠÐ½Ð° ÑĪÐ¸Ñħ
ĠÐĶ ÐµÐ½Ð¸
ĠÐĶ Ð¸Ð¾Ð½
ĠÐ£ ÑģÑĤÐ°Ð½Ð¾Ð²
Ð¾ÑĦ Ð¸Ð·
ĠÐ´Ð¸ Ð°Ð»Ð¾Ð³
ĠÑģÐ»ÑĥÐ¶ Ð¸ÑĤÑĮ
ĠÐ¾ÑģÑĤÐ°Ð² Ð°Ð»ÑģÑı
ĠÐ¼ÐµÑħÐ°Ð½Ð¸ ÐºÐ¸
ĠÐºÐ¾ÑĢÐ¾Ð»ÐµÐ² ÑģÑĤÐ²Ð°
ĠÐ¿ÑĢÐµÐ´Ð»Ð¾Ð¶ ÐµÐ½Ð¸Ñı
ĠÑģÐ¾Ñģ Ð»Ð¾Ð²
ĠÑĥÐ¼ Ð½Ð¾Ð¶
ĠÐ²Ð»Ð°Ð´ ÐµÐ½Ð¸Ñı
ĠÐ±Ð°ÑĪ ÐºÐ¸ÑĢ
ĠÐ»Ð¸Ð´ ÐµÑĢÐ¾Ð²
Ð¾Ð¶Ð´Ðµ ÑģÑĤÐ²
ĠÐĴ Ðĺ
ĠÑĥ Ð½
ĠÐŀ Ð¿Ð¸Ñģ
ĠP ar
ĠÑħÐ¸Ð¼Ð¸ ÑĩÐµÑģÐºÐ¾Ð¹
âĢľ ,
ĠÐ¼Ð½Ð¾Ð³Ð¾ÑĩÐ¸ÑģÐ»ÐµÐ½ Ð½ÑĭÑħ
ĠÐ¡ÑĤÐ°Ð² ÑĢÐ¾Ð¿
Ð± Ð»Ð¾Ðº
ĠÐ²Ñĭ ÑıÑģ
Ð¸Ðº Ð¾Ð¼
Ð·Ð° ÑĨÐ¸Ñİ
ĠÑįÐº ÑģÑĤ
Ð·ÑĭÐ²Ð° ÐµÑĤÑģÑı
ĠÐºÐ°ÑĢ ÑĤÐ¾
ĠÐ¿Ð¾Ð¿ÑĭÑĤ ÐºÐ°
ĠÐ°Ð²ÑĤÐ¾Ð¼Ð¾Ð± Ð¸Ð»ÐµÐ¹
ĠÐ½ÐµÐ¸Ð· Ð¼ÐµÐ½
ĠÐ¶Ð¸Ð´ ÐºÐ¾ÑģÑĤÐ¸
ĠÑģÐ¾Ð¾ÑĢÑĥÐ¶ ÐµÐ½Ð¸Ñı
ĠÐŁÑĢÑĥÑģ ÑģÐ¸Ð¸
A S
Ñ £
ÐºÑĥ Ð»Ñı
ĠÐ¿ÑĢÐ¾Ð² ÐµÑģÑĤÐ¸
it h
199 9
ĠÐ¿Ð¾Ð´Ð¿Ð¸Ñģ Ð°Ð½
ĠÐ±Ð¾ÑĢÑĮ Ð±Ñĥ
ĠCom p
Ñģ Ð¾ÑĢ
Ðº Ð¾ÑĤ
ÑĦ Ð¸Ð»
ÐµÐ»ÑĮ Ð´
ĠÐ¾Ð± Ð¾Ð³
ĠÐ²ÑĤÐ¾ÑĢ Ð³
Ð»Ñĥ Ð³Ð¸
ÑĢÐ°Ð·Ð´ Ð½Ð¸ÐºÐ¸
Ð±ÑĥÑĢÐ³ Ðµ
ĠÑĤÐµÑĢÐ¼ Ð¾Ð´Ð¸Ð½Ð°Ð¼Ð¸
ĠÐ²Ð² ÑĳÐ»
ĠÑĩÑĢÐµÐ·Ð²ÑĭÑĩÐ°Ð¹ Ð½Ð¾
Ð» ÐµÑģ
ÑĢÐ¸ Ð±
Ð°Ð» ÐµÐºÐ¾
ĠÐĵ ÐŃÐ¡
ĠÐĳ Ðµ
ĠÐ¤ Ð¾ÑĤ
Ð¼ÐµÐ½ Ð°
Ð³Ñĥ Ð½Ð°
ĠÐ¿Ð¾Ð»Ð¸ÑĤ Ð¸ÑĩÐµÑģÐºÐ¸Ðµ
ic s
ĠÐĿÐ¾Ð² Ð¾Ð³Ð¾
Ð¸Ð·Ð¼ Ð¾Ð¼
ĠÐŀ Ñħ
Ð¸Ñĩ Ð½Ð°Ñı
Ð°ÑĢÐ¸ ÑĦ
ĠÑĦÐ¾ÑĤ Ð¾Ð³ÑĢÐ°ÑĦ
ĠÐ½Ð°Ð±Ð»ÑİÐ´ ÐµÐ½Ð¸Ñı
Ð¾Ð´ ÑģÑĤÐ²Ð¾
ĠÐ¿ÑĢÐµÐ´ ÑĥÐ¿
Ð¼Ñĥ Ð·Ñĭ
ĠÑĥÑĤ ÑĢÐ°
ĠÐ·Ð°Ñī Ð¸ÑĤÑĥ
ĠÐ¿Ð¾ÑģÑĳÐ» ÐºÐ°
ĠÑĩÐµÐ»Ð¾Ð²Ðµ ÑĩÐµÑģÑĤÐ²Ð°
ĠÐ´Ð¸Ð°Ð» ÐµÐºÑĤ
ĠÐ¡Ð°Ðº ÑģÐ¾Ð½
ÑĤ ÐµÐ»
ĠÐł ÐµÐº
ĠÐ¿Ð¾Ð» ÐµÐ¼
ÐĲ Ð¹
Ð»Ð¸Ð· Ð¾Ð²
ĠÑĥÑģÑĤÐ°Ð½Ð¾Ð² Ð»ÐµÐ½Ñĭ
ĠÑĢÐµÐ³ Ð¸ÑģÑĤ
ĠÐŁÐ°Ð» ÐµÑģÑĤ
ĠÐ³ Ð¾ÑĤ
ÑĦ Ð°Ð»ÑĮ
Ñį ÑĢÐ°
ĠÐļ Ð¾Ð»ÑĮ
ÐµÐ»ÑĮ Ð½ÑĭÑħ
Ð¾Ð· Ð°Ð²
ĠÐĳ Ð¸ÑĤÐ²Ð°
ĠÑĨ Ð°ÑĢÐ¸
Ġ4 9
ĠÐŀÐ´ ÐµÑģ
ĠÐ³Ð¾Ð» ÑĥÐ±
ĠÐ¨Ð²ÐµÐ¹ÑĨ Ð°ÑĢÐ¸Ð¸
ĠÐŁÐµÑĢÑģÐ¾Ð½ Ð°Ð»Ð¸Ð¸
e k
ÐµÐ½ ÑĤÐ¸ÑĢÐ¾Ð²
Ñī Ð¸ÐºÐ¸
Ð½Ð¸ ÑģÑĤ
ĠÐ¿ÑĢÐ¸ ÑģÑĤÐ°Ð²
Ð½Ñı Ð¼Ð¸
ĠÑĢÐ°Ð±Ð¾ÑĤ Ð½Ð¸ÐºÐ¾Ð²
ĠÐ¸Ð·Ð²ÐµÑģÑĤ Ð½ÑĭÐ¼
ĠÐºÐ½ÑıÐ· ÐµÐ¹
ĠÐ¼ÑĥÐ·ÑĭÐº Ð°Ð»ÑĮÐ½ÑĭÐ¹
ĠÑģÐ¾ÑĩÐ¸Ð½ ÐµÐ½Ð¸Ñı
ĠÑĥÑĩÑĳÑĤ Ð¾Ð¼
ĠÑıÐº Ð¾Ð±Ñĭ
ĠÐº Ð¾Ð²
ĠÐ½Ð° ÑĢ
ĠI P
ÑĤÐ¸Ð² Ð½Ð°Ñı
ĠÑĥÑģÑĤ ÑĢÐ°Ð½
ĠÑĢÐ°ÑģÑģ Ð¼Ð¾ÑĤÑĢ
ĠÐ½Ð°ÑĢÑĥÑĪ ÐµÐ½Ð¸Ñı
ĠÐ¿ÑĢÐµÐ¿Ð°ÑĢÐ° ÑĤÐ°
ĠÑģÐ°Ð¼Ð¾Ð»ÑĳÑĤ Ð¾Ð²
ĠÐ² ÐµÐ±
ĠÐĴ ÐµÐ»
ĠÐ´ÑĢÐµÐ² Ð½ÐµÑĢÑĥÑģ
ĠÑĢÐ°Ð´Ð¸ ÑĥÑģ
Ð±ÑĥÐ´ ÑĮ
Ð¾ÑĤ ÐµÑħ
ĠÑĩ ÐµÑĢÑĤ
Ð¾Ð± Ð»Ð°Ð´
ĠÐŀ Ð¿ÐµÑĢÐ°
Ð¸Ð¿ ÐµÐ»
ĠÐ¿Ð¾ÐºÐ°Ð· Ð°Ð»
ĠÐ´Ð¾ÑģÑĤÑĥÐ¿ Ð°
ĠÐ±Ð°Ð½ ÐºÐ°
ĠÐ¿ÑĥÑĤÐµ ÑĪÐµÑģÑĤÐ²ÐµÐ½
ĠÐ¾Ð±Ð»Ð°Ð´ Ð°ÑĤÐµÐ»ÑĮ
ĠÐ² Ð°ÑĢ
ĠÐĴ Ð°ÑĤ
ĠÐ½Ðµ Ð¾ÑĤ
ĠÐĵ Ð¾Ð³
ĠÐ¤ ÑĢÐµÐ´
ĠÐ¿ÑĢÐµÐ´ ÑĪÐµÑģÑĤÐ²ÐµÐ½
ĠI BM
ĠÑĢÑĥÑģ ÑģÐºÐ¸Ð¼
ĠÑįÐºÑģÐ¿ Ð¾Ð·
ĠÐĳÐ¾Ð³ Ð¾Ð¼
ĠÑĥÐ²ÐµÐ»Ð¸Ñĩ ÐµÐ½Ð¸Ðµ
ĠÐ²Ð²ÐµÐ´ ÑĳÐ½
ĠÐ¾Ð±Ð¾ÑĢ Ð¾ÑĤ
ĠÑĢÐµÐ³ÑĥÐ»ÑıÑĢ Ð½Ð¾
ĠÑįÐ»ÐµÐºÑĤÑĢÐ¾ ÑįÐ½ÐµÑĢÐ³
ĠÑĦÑĥÑĤÐ±Ð¾Ð»ÑĮ Ð½ÑĭÐ¹
ÑĤ Ð°Ñı
Ð² ÑĪÐ¸Ñħ
ĠÐ² Ð¸ÑĤ
ĠÐ³ Ð¸Ð³
Ð°Ðº Ð¸Ð¸
ĠÐľ Ð¸ÑĪ
ÑĢÐ¾Ð² ÑģÐºÐ¸Ð¹
ĠÐ¿ÑĢÐ¸Ð·Ð½ Ð°Ð²
198 0
ÐµÑĢÐ°ÑĢ Ñħ
Ð°ÑĤÐµÐ»ÑĮ ÑģÑĤÐ²
ĠÐ°Ð¼ÐµÑĢÐ¸ÐºÐ°Ð½ ÑģÐºÐ¾Ð³Ð¾
ĠÑĢÐ°Ð² Ð½
ĠÐļÐ¾Ð¼ Ð°Ð½Ð´
ĠÑħÐ°ÑĢÐ°ÐºÑĤÐµÑĢÐ¸ ÑģÑĤÐ¸ÐºÐ¸
ĠÐ¾ÐºÐµ Ð°Ð½
ĠÑĤÐµÑĢÑĢÐ¾ ÑĢÐ¸
ĠÐ£Ð»ÑĮ ÑıÐ½Ð¾Ð²
ĠÐ¿ÑĢÐ¾ÑĤÐ¸Ð²Ð¾Ð¿ Ð¾ÑģÑĤÐ°Ð²
Ñĭ Ð¿
ĠÐ¿ Ð¾Ð¹
ĠÐŁ ÑĢÐµÐ¼
Ð¸Ð· Ð²ÐµÑģÑĤ
ÑĢÐ¾Ð¼ ÐµÑĤ
ĠÐ¾Ð±Ñī Ð¸Ð¼
ĠÐ½Ð°Ð·ÑĭÐ²Ð° ÐµÑĤ
199 4
ĠÐ¾Ð±ÑĢÐ°Ñī ÐµÐ½Ð¸Ðµ
Ð¾ÑģÐ¿ Ð¾ÑģÐ¾Ð±
ĠÐ±ÐµÐ¶ Ð°Ð»
ĠÐłÐµÐ»Ð¸ Ð³Ð¸Ð¾Ð·
ĠÐ¡ Ð²ÐµÑĢÐ´
ĠÐĿ Ðļ
Ð»ÑĮ Ð½ÑĭÐµ
ĠÑĤÐµÐ» ÐµÑģ
ĠÑĦÑĢÐ°Ð½ÑĨÑĥÐ· ÑģÐºÐ°Ñı
ĠÐ´Ð¾ÑģÑĤÐ¸ Ð¶
ĠÐ¿Ð»Ð¾ÑīÐ°Ð´ ÑĮÑİ
ĠÐ¿ÑĢÐµÐ±Ñĭ Ð²Ð°Ð½Ð¸Ñı
ĠÑģ Ð¾Ð´ÐµÐ¹ÑģÑĤÐ²
ĠÐ¼ Ð¾Ð±Ð¸Ð»ÑĮ
ĠÐ·Ð° ÑĢÐ°Ð±Ð¾ÑĤ
Ð¸ÑģÑĤ ÐºÐ°
ĠÐ¿ÐµÑĢÐµ ÑħÐ¾Ð´Ð¸ÑĤ
ĠÐ¿Ð°ÑĢ Ð¾Ð²
ÑĢÐ°ÑĤ Ð¸ÑĤÑĮ
ĠB r
ĠÑĥÑĤ Ð¾Ð¿
ĠÐ¾ÐºÑĢÑĥÐ³ Ð¾Ð²
Ġ- >
ĠÐ½Ð¾ÑĢ Ð¼Ñĭ
ĠÑģÑĥ ÑĤÐ¸
ĠÑĤ ÑĢÐµÐ¼Ñı
ÐµÐº ÑĤÐµ
ÑĢÐ°Ð»ÑĮ Ð½ÑĭÐ¹
ĠÐłÑĥÑģ ÑģÐºÐ¸Ð¹
ĠÐ¶ÐµÐ½Ð¸ Ð»ÑģÑı
ÐľÐ¾ÑģÐº Ð²Ð°
Ð½ Ð¾ÑĢ
Ð² Ð¾Ð±Ð¾Ð´
ĠÐ· Ð¾
ĠÐŀÑģ ÐµÐ½ÑĮÑİ
ĠÐ½Ð°Ð¿ Ð¸ÑĤ
ĠÐŀÑĤÐµ ÑĨ
ĠÐĵÐ¾ÑĢ Ð±Ð°
ĠÐ¾ÑĢÐ´ÐµÐ½ Ð¾Ð¼
ĠÑĤÐµÑĢÐ¼ Ð¸Ð½Ð°
ĠÐļÑĢÑĥÐ¿ Ð½ÐµÐ¹
ĠÐ»Ð¸Ð½Ð³ Ð²Ð¸
ĠÑĪÑĤÐ° Ð±Ð°
ĠÐĴ ÑıÑĩÐµ
ĠÐ¿Ð¾Ð´ Ð²Ð¸Ð¶
Ð¾ÑĦ Ðµ
ĠÐ¾ÑĤÐºÑĢÑĭ Ð»ÑģÑı
ĠÑĦÑĥÐ½Ðº ÑĨÐ¸Ñİ
ĠÑĤÐ¾Ð» ÐºÐ¾Ð²
ĠÐ´ÐµÐº Ð¾ÑĢÐ°
ĠÐ¿ÑĢÐµÐ¿Ð¾Ð´Ð¾Ð± Ð½Ð¾Ð³Ð¾
ÑĤ Ð¾Ð³Ð¾
ÑĢÐ° ÑĨÐ¸Ð¸
Ð°Ð² ÑĪÐ¸ÑģÑĮ
ĠÐ·Ð°Ð² Ð¸
199 8
ĠÐłÐµÑģÐ¿ÑĥÐ±Ð»Ð¸ ÐºÐµ
ĠÑįÐ»ÐµÐºÑĤÑĢÐ¾Ð½ Ð½Ð¾Ð¹
ĠÑģÐ²ÑıÑĤ ÑĭÑħ
ĠÑĤÑĢÐµÑĤÑĮ ÐµÐ¹
ĠÐ¾ÑĤÐ¼ÐµÑĩ Ð°Ð»
ĠÐ¿Ð°Ð´ ÐµÐ½Ð¸Ñı
ĠÐ³ÑĥÐ±ÐµÑĢÐ½ Ð°ÑĤÐ¾ÑĢ
ĠÐ¿Ð¾ÐºÐ¾Ð» ÐµÐ½Ð¸Ñı
- -
Ã ³
Ðº ÑĢÐ¾Ð²
ÐµÐ»ÑĮ Ð½ÑĭÐ¹
Ðŀ Ñģ
Ð¼Ð°ÑĤ Ð¸Ð²
ĠÐ´Ð¾ÑĢÐ¾Ð³ Ðµ
ĠÐ¾ÐºÐ°Ð· Ð°Ð»Ð¾ÑģÑĮ
ĠÐĺÑĤ Ð°Ð»Ð¸Ñı
ĠÐ³Ð»Ð° Ð·Ð°
ĠÐ²Ð¾ÐµÐ½Ð°ÑĩÐ°Ð»ÑĮ Ð½Ð¸Ðº
Ð¸ ÑĦÐ°
ĠÐ¼ ÑıÑģ
ĠÐ¤ ÑĥÐ½Ðº
Ð»ÐµÐ½ Ð½Ð¾Ðµ
Ð´Ðµ ÑģÑıÑĤ
ĠÐ¿ÑĢÐ¾Ð¼ ÑĭÑģ
ĠÐ¿ÑĢÐµÐ´Ð¿ÑĢÐ¸ Ð½Ñı
ĠÐºÐ°ÑĢ ÑĤÐ¸Ð½Ñĭ
ĠÐĲÑĢÑħ Ð¸ÑĤÐµÐº
ĠÐ·Ð°ÑħÐ²Ð°ÑĤ Ð¸Ð»Ð¸
ĠÐ¿ÐµÑĢÑģÐ¾Ð½Ð° Ð¶ÐµÐ¹
ĠÑģÑİÐ¶ ÐµÑĤ
ĠÐĳÐ¸Ð±Ð»Ð¸ Ð¸
Ñĩ Ð½ÑĭÐ¼Ð¸
ĠÐ± Ð¸ÑĢ
ĠC l
ĠÐ·Ð°Ð¼ ÑĥÐ¶
ĠÐ¼Ð½Ð¾Ð¶Ðµ ÑģÑĤÐ²
ĠÐĵÑĢÐ°Ð¶Ð´Ð°Ð½ ÑģÐºÐ¾Ð¹
ĠÐ¿ÑĢÐ¸Ð½ÑĨÐ¸ Ð¿Ð¸
ĠÑĥÐ³Ð»ÐµÑĢ Ð¾Ð´Ð°
ĠÑģÐ¾Ð·Ð² ÐµÐ·Ð´
Ñĩ ÐºÐ¸
Ð± Ð°Ð½
ĠÐ¿Ð¾ÑģÑĤ ÑĢÐ°Ð´
Ð°ÑĤÐµÐ»Ñı Ð¼
ĠÐ¿ÑĢÐ¾Ð²Ð¾Ð´ ÑıÑĤÑģÑı
ĠÐµÐ¿Ð¸ÑģÐºÐ¾Ð¿ Ð°
ĠÑĤÐ¸ ÑĢÐ°Ð¶
ĠÑģÐºÐ¾Ð½Ñĩ Ð°Ð»ÑģÑı
Ð°Ð½ Ð½Ð¾
Ð½Ð¸ Ð±ÑĥÐ´ÑĮ
ĠÐ¾Ð± Ñģ
Ð¾Ð¿ ÑĢÐ¾Ð²Ð¾Ð´
ĠÐ¿Ð¾Ð» Ð¸ÑĨÐ¸Ð¸
ĠÐ°Ð½ Ð°ÑĢÑħ
ĠÐ¸Ð´Ðµ Ñİ
ĠÐ¡Ð¿ Ð¾ÑĢÑĤ
ĠÐ±Ð¾Ð»ÑĮ Ð½ÑĭÑħ
ĠÐºÐ°Ð¼Ð¿ Ð°Ð½Ð¸Ð¸
ĠÐŀÑģÐ¼Ð°Ð½ ÑģÐºÐ¾Ð¹
Ð¾Ð½ Ð³
Ġ1 10
Ñī Ð¸Ð½Ð°
ĠÐŁ Ð°ÑĤ
ĠÑģÐ¸Ð³ Ð½
ĠÐľÐ°ÑĢÑĤ Ð¸Ð½
ĠÐĺÑģÐº ÑĥÑģ
Ð²ÐºÐ»ÑİÑĩ Ð°Ñı
. );
ĠÐ± Ð¾ÑĢÑĤÑĥ
ĠÐĲ Ð»Ðµ
ÑģÐ¸ Ðµ
ĠÐ¿ÐµÑĢÐµ ÑĪÐ»Ð¸
20 16
ĠÑģÑĭ ÑĢ
ĠÐ²ÑĭÑģÐ¾Ðº Ð¾Ð³Ð¾
199 7
ĠÐ·Ð½Ð°ÑĩÐ¸ÑĤÐµÐ»ÑĮ Ð½ÑĭÐµ
id e
ĠÐ´Ð²Ð¾ÑĢ ÑĨÐ°
ĠÑģÑĤÐ¾ Ð¸Ð¼Ð¾ÑģÑĤÑĮ
ĠÑĥÑģÐ¸ Ð»Ð¸Ñı
ĠÐº Ð²Ð°
ÐµÐ¼ Ð¾Ð¼
ĠÐ· ÐµÑĢÐº
Ð¾Ð¿ Ð¾Ð»Ñı
Ð²Ð° Ð¶
ĠÑģÐ¾Ð²ÐµÑĤ ÑģÐºÐ¸Ðµ
ÑıÑī Ð¸Ð¼
ĠÑģÐµÐº ÑĥÐ½
ĠÐ²ÑĭÐ¿Ñĥ ÑģÑĤ
Ð°ÑĤÐ°ÑģÑĤÑĢÐ¾ ÑĦÐ°
ĠÑįÐ½ÑĨÐ¸ÐºÐ»Ð¾Ð¿ÐµÐ´ Ð¸Ñı
ĠPr ess
Ð¸ ÑĢÐµ
Ñĩ Ð¶
ĠÐ° ÐºÑĥ
ĠÑĢÐµ Ð°Ð³
ĠÐ¿Ð¾Ð» ÑĥÑĪ
ĠÐ³ÑĢÐ° ÑĦÐ°
20 13
ĠÐ·ÐµÐ¼ Ð½Ð¾Ð¹
ĠL inux
ĠÐºÑĢÐ¸ÑĤÐ¸ ÐºÐ¾Ð²
ÑģÐ¾Ð¼ Ð¾Ð»ÑĮ
ĠÑĢÐ°ÑģÑģÑĤÐ¾Ñı Ð½Ð¸Ñı
ĠÐļÐ¾Ð¼Ð¼ÐµÐ½ÑĤ Ð°ÑĢÐ¸Ð¸
C P
ĠÐ¡ ÐµÐº
Ð¡ Ð¸Ð±Ð¸ÑĢ
ĠÐ¿Ð¾Ð» Ð¸Ð¼
ÑĤ ÐµÐ»ÐµÐ¹
Ñı Ð²Ð¸Ð»Ð°
ĠÐº Ð¸ÑĢÐ¸
ÑĦ Ð°Ð³
ĠÐļ Ñį
ĠÐ¿ÐµÑĢÐµ Ð¿ÑĢÐ°Ð²
ĠÐ¾ÑģÐ½Ð¾Ð² Ð½Ð¾Ð³Ð¾
ĠÑĢÐµÑĪ ÐµÐ½Ð¸ÐµÐ¼
is ch
ĠÐĲÐ»ÐµÐºÑģÐµ Ñı
ĠÐ±ÑĢÐ°ÑĤÑĮ ÐµÐ²
ĠÐ²Ñĭ Ð¶
ĠÐ¢ ÐĴ
ĠÐ³Ð¾ÑģÑĥÐ´Ð°ÑĢÑģÑĤÐ²ÐµÐ½ Ð½ÑĭÐµ
ÐŃ Ð»ÐµÐºÑĤ
ĠÐ¿ÑĢÐ¾Ð´Ð¾Ð»Ð¶ Ð°Ð»
ĠÐłÐ°Ð· Ð²Ð¸ÑĤ
ĠÐĳÑĭ Ð»Ð¸
ĠÐĴÐ°ÑģÐ¸ Ð»Ð¸Ñı
ĠÑģÐµÑĢÐ´ ÑĨÐ°
Ñĳ Ð¶Ð¸
ĠÐ¿ÑĢÐ¸ ÑĪÐ»Ð¸
Ð»ÐµÐ¼ Ð°
ar e
ĠÐ¿Ð¸Ñģ Ð°ÑĤÐµÐ»Ð¸
ĠÐ¿ÐµÑĢÐµÐ´ Ð°Ñĩ
Ð°ÑĢÐ´ Ð¾
ĠÐŁÑĢÐ°Ð²Ð¸ÑĤÐµÐ»ÑĮ ÑģÑĤÐ²Ð¾
ĠÑģÑĥÑĤ ÐºÐ¸
ĠÐ·Ð°Ð¼ÐµÑģÑĤ Ð¸ÑĤÐµÐ»ÑĮ
ĠÐ¾Ð±ÑģÑĥ Ð¶Ð´
ĠÑĤÑĢÐ¾Ð»Ð»ÐµÐ¹Ð± ÑĥÑģ
I S
ÑģÑĤ ÑĢÐ°Ð½
ĠÐ¿ÑĢÐ¸ ÑĳÐ¼Ð°
ĠÐ¿ÑĢÐ°Ð² Ð»ÐµÐ½Ð¸Ðµ
Ð¾Ð»Ð¾Ð³ Ð¾Ð²
ĠÑĥÑĩ ÑĢÐµÐ´
ĠÐ¾Ð±Ñī Ð°Ñı
ĠÐ²Ð¾Ð¿ÑĢÐ¾Ñģ Ñĥ
ĠÐ¿ÑĢÐ¸Ð±Ñĭ Ð»Ð¸
ĠÐļÑĥÐ± ÐºÐ°
Ð³ Ð¸ÑĤ
ĠÐ¡ ÑĤÐ¾
ĠÐºÐ¾Ð½ Ð´ÐµÐ½
Ð¸ÑĢÐ¾Ð² Ð°Ð½Ð½ÑĭÑħ
ĠÐ¿Ð¾Ð² ÐµÑģÑĤÐ¸
ĠÑĤÐµÐ¼ Ð°ÑĤ
ĠÑĥÐ¿ ÑĢÐ¾Ñī
ĠÐ²ÑĤÐ¾ÑĢ ÑĭÐ¼
ĠÐļÐ¾ÑĢ Ð¾Ð»
ĠÐ¾ÑĤÑģÑĥÑĤÑģÑĤÐ² Ð¸Ñı
ĠÐ²ÑģÐµÐ¼ Ð¸ÑĢ
ĠÑĢÐµÐ¶Ð¸ÑģÑģ ÑĳÑĢÐ°
ĠÐ¿Ð¾Ð» Ð¸
ÐĲ Ð¡
ÑĢÐ¾Ð¼ Ð°ÑĤ
ĠÐ½Ð°Ð´ Ð¾
ĠÑįÐºÐ¾Ð½Ð¾Ð¼ Ð¸ÐºÐµ
ĠÑĦÐ¸Ð· Ð¸ÐºÐ¾
ol d
198 9
ĠÐ¾Ð±Ñĭ ÐºÐ½Ð¾Ð²
ĠÐ¼Ð»ÐµÐºÐ¾Ð¿Ð¸ÑĤÐ° ÑİÑīÐ¸Ñħ
ĠÐ½Ð° ÐºÐ¾Ð½ÐµÑĨ
ĠÐļ Ð¾Ðº
ĠÑģÑĤ Ð°Ð´Ð¸
ĠÐ¿ÐµÑĢÐµ ÑĪÐ»Ð°
ĠÑģÐ¾Ð± ÑģÑĤÐ²ÐµÐ½Ð½Ð¾Ð³Ð¾
ĠÐ¡Ð¾Ð²ÐµÑĤ ÑģÐºÐ°Ñı
ÑĭÐ² Ð°Ð»
ĠÐ²ÑĭÐ´ Ð²Ð¸Ð½
ĠÐļÐ°Ð·Ð°Ñħ ÑģÑĤÐ°Ð½Ð°
ĠÑģÑĭÐ³ÑĢÐ° Ð»
ĠÐ§Ð¸Ñģ Ð»ÐµÐ½Ð½Ð¾ÑģÑĤÑĮ
ĠÐ² Ð°ÐºÑĥ
Ñĩ Ð½ÑĥÑİ
Ð°ÑĤ Ð¾ÑĢÐ¸Ð¸
ĠÐ· ÑĥÐ±
ĠÐ²ÑĭÑģ ÑĪÐµÐ¹
Ġ9 5
ĠÐ¾Ð±ÑĢÐ°ÑĤ Ð½Ð¾
ĠÐ·Ð°Ð±Ð¾Ð»ÐµÐ² Ð°Ð½Ð¸Ð¹
ĠÐłÐ°ÑģÐ¿ Ð¾Ð»Ð¾Ð¶
ĠÐ²ÑĭÑģÐ¾ÑĤ Ð¾Ð¹
w w
ÑĢ Ð¾Ðµ
Ð² Ð°ÑĤÐ°
ĠÐ¿ Ð¸Ðº
ĠÐĲ ÑĢÐ°Ð²
ĠÐľ ÑİÐ½
ÐĲ Ð»ÑĮ
on s
ĠÐ¿ÑĢÐ¸Ð· Ð½Ð°Ð»
ĠÐ¡Ð¾Ð²ÐµÑĤ ÑģÐºÐ¸Ð¹
ĠÑĢÐ°Ð·ÑĢÐ°Ð±Ð¾ÑĤ ÐºÐµ
ĠÐłÑĥ ÐºÐ¾Ð²Ð¾Ð´
ÑİÑīÐµÐµ ÑģÑı
ĠÐ²ÐµÐ»Ð¸Ñĩ Ð¸Ð½Ð°
ĠÐ¿Ð°Ð¿ Ð°
ĠÐ¦ÐµÐ· Ð°ÑĢÑĮ
ĠÐĴÐµÑģ Ð½Ð¾Ð¹
ĠÐ°ÑĤÐ¼Ð¾ÑģÑĦ ÐµÑĢÑĭ
ĠÐļÐ°Ð»Ð¸ ÑĦÐ¾ÑĢ
ĠÐŁÐµÑĢÐ¸ Ð¾Ð´
c om
ĠÑģ Ð½Ð°ÑĢÑı
Ð°Ð»ÑĮ Ð´
ĠÐºÐ¾Ð»Ð¸ÑĩÐµ ÑģÑĤÐ²Ñĥ
ĠÐ¾Ð¿ÐµÑĢÐ° ÑĨÐ¸Ñı
ĠÐ½Ð°Ð¿ ÑĢÐ¾ÑĤÐ¸Ð²
ĠÐŀÑģÐ½Ð¾Ð² Ð½Ð°Ñı
ĠÑįÑĤÐ° Ð¿Ðµ
ĠÐĹÐµÐ¼ Ð»Ðµ
ĠÐ½ÐµÐ±Ð¾Ð»ÑĮÑĪ Ð¸Ñħ
oc k
ĠÑģÐ²Ñı Ð·ÑĭÐ²
ĠÐ³Ð¾Ð²Ð¾ÑĢ Ñı
ÑĤ Ð°Ð¼
Ñĩ ÑĥÐº
ĠÑģ Ð°Ðº
ÑĦ ÐµÑģÑĤ
Ð¾Ð± ÐµÑĢÐµÐ¶
Ð¼Ðµ ÑĪ
ĠÐ¾Ñģ ÐµÑĤ
ĠÑĪ Ð¾ÑĤÐ»Ð°Ð½Ð´
ĠÐ³ÑĢÐ° Ð½Ð¸ÑĨÐ°
Ð¾Ð³ÑĢÐ°ÑĦ Ð¸ÑĩÐµÑģÐºÐ¸Ðµ
ĠÐ²Ð»Ð° Ð¶
ĠÑĦÐ°Ðº ÑĤÐ¾ÑĢÐ¾Ð²
ĠÐ½Ð°Ð± ÐµÑĢÐµÐ¶
ĠÐ¸ÑģÑĤÐ¾Ñĩ Ð½Ð¸ÐºÐ°
ĠÐĲÐ´ ÑĢÐ¸
ĠÐ¿ÑĢÐµÐ´ÐµÐ» Ñĭ
ĠÐ´ÐµÑģÑı ÑĤÑĮ
Ð· Ð¼Ðµ
ĠÐ´ Ñĥ
Ð¸Ð» Ð¸ÑĤ
ĠV ol
ĠÐ¿Ð¾Ð´ÑĤÐ²ÐµÑĢ Ð¶
ĠÐ¾ÐºÐ°Ð·ÑĭÐ²Ð° ÐµÑĤÑģÑı
ĠÐ±Ð°ÑģÑģ ÐµÐ¹Ð½Ð°
Ð°ÑĢ ÑĤÐ°
Ð¾Ð»ÑĮ Ð½ÑĭÐ¹
Ð½Ð° ÑĨÐ¸Ð¾Ð½Ð°Ð»ÑĮ
Ġ18 12
ĠÐºÐ¾Ð» ÐµÑģ
ĠÐ¿Ð¾Ð»ÑĥÑĩ Ð¸Ð»Ð¾
ĠÐ´Ð¾Ðº Ð»Ð°Ð´
ĠÑģÐ¾ÑĨÐ¸Ð°Ð»ÑĮ Ð½Ð¾Ð³Ð¾
ĠÐ»ÐµÐ³ ÐµÐ½
ĠÑĦÐ¾ÑĢÐ¼ Ð°Ð»ÑĮÐ½Ð¾
ĠÐ²ÑĭÑĪ Ð»Ð¸
ĠÐ¼Ð¾Ð»Ð¾Ð´ ÑĳÐ¶
ĠÐ²Ð´ Ð¾Ñħ
ĠÐ²Ð¾Ð·Ð´ÐµÐ¹ÑģÑĤÐ² Ð¸Ñı
ĠÐ¿Ð¾Ð»Ð½Ð¾Ð¼Ð¾Ñĩ Ð¸Ð¹
ĠÐĶ Ð¾Ð¿
ĠÐ¾ÑĤÐ½Ð¾ ÑģÑıÑī
ĠÐ¾ÑĤÐ¼Ðµ ÑĩÐ°ÐµÑĤÑģÑı
ĠÐ½Ð°ÑĩÐ°Ð»ÑĮ Ð½Ð¸Ðº
ĠÐ³ÐµÑĢÐ± Ð°
ĠÑģÐ¾ÑĤÑĢÑĥÐ´Ð½Ð¸ÑĩÐµ ÑģÑĤÐ²Ð°
ĠÐ² Ð°Ðº
Ñħ Ð²Ð°ÑĤ
Ġ( â
ĠÐ¿ÑĢÐ¸ Ð»Ð°Ð³
ĠÑħ Ð¸ÑĢÑĥ
ĠÐŃ Ð¼
ĠÐ¿Ð¾ÑĤ Ð¾Ðº
ĠÐ¸Ð·Ð²ÐµÑģÑĤ Ð½Ð¾Ð³Ð¾
ĠÐ²ÑĭÐ¿Ñĥ ÑģÑĤÐ¸
ĠÑĢÐ°ÑģÑģÐ¼Ð°ÑĤÑĢÐ¸ Ð²Ð°ÐµÑĤÑģÑı
ĠÑĢÐ°ÑģÑģÑĤÐ¾Ñı Ð½Ð¸Ð¸
ĠÐ¿ÑĢÐ¸ÑģÑĥÑĤÑģÑĤÐ² ÑĥÐµÑĤ
ĠÑįÐºÑģÐ¿Ð»ÑĥÐ°ÑĤÐ° ÑĨÐ¸Ñİ
ĠÐ¿Ð¾Ð»ÑĥÐ¾ÑģÑĤ ÑĢÐ¾Ð²Ð°
ĠÐĴÑģÐµÐ» ÐµÐ½Ð½Ð¾Ð¹
Ñĩ Ð°Ð¹
ĠÐľ Ð°ÑĪ
ĠÐ¾ÑģÐ¾Ð± Ð¾
ĠÐĵÐµÑĢÐ¼ Ð°Ð½
ĠÐ½Ð°ÑĥÑĩ Ð½Ð¾Ð³Ð¾
Ġ189 1
ĠÐ¿ÑĢÐ¾Ð±Ð»ÐµÐ¼ Ð°
ĠÐ¿Ð»Ð° ÑģÑĤÐ¸Ð½
ĠÐ´Ð°Ð» ÐµÐºÐ¾
ĠÐ¿Ð¾Ð´Ð¾Ð± Ð½ÑĭÑħ
ĠÑĢÐ°Ðº ÐµÑĤÑĭ
ĠÐ¿ÑĢÐ¸ÐºÐ°Ð· Ð°Ð»
ĠÐ¿Ð°Ð´ ÐµÐ¶
ĠÐŁÑĢÐ¾Ð´ Ð¾Ð»Ð¶
Ð´ Ð¸Ñı
ĠÐº Ð¾Ð³
ĠÐ¿ÑĢÐ¸ Ð²Ñĭ
ĠÐ²Ñĭ Ð³Ð¾Ð´
ĠÐ³Ð¾Ð´Ð° Ð¼Ð¸
Ġ188 9
ĠO p
ĠÐ²Ð¾Ð·Ð´ÑĥÑħ Ðµ
ĠÐ°ÑĦ ÑĢÐ¸ÐºÐ°Ð½
ĠÐºÐ¸ÑģÐ» Ð¾ÑĢÐ¾Ð´Ð°
Ð°Ð½ ÐºÐ¸
ĠÑĥ ÑģÑĤÐ°Ð²
ĠÐ¾ÑĤ Ð¾Ð¶Ð´ÐµÑģÑĤÐ²
ĠÐĶ Ñĥ
Ð¿Ð¾Ð» ÐºÐ¾Ð²
ĠÐ´Ð¾Ð» Ð³Ð¾Ðµ
ĠÐºÑĢÐµÐ´ Ð¸ÑĤ
Ñĩ Ð¸Ð½Ð°
ĠÐ½Ðµ ÑģÑĤ
ĠÑĢÐµ ÑĦÐ¾ÑĢÐ¼
ĠÐ¤ Ð»Ð°Ð²
ÐŁ Ð¾Ñģ
ĠÐ´Ðµ Ð¿ÑĢÐµÑģ
ĠÐ¶Ð¸Ð² ÑĭÑħ
ĠÐ·Ð½ Ð°Ð½Ð¸Ð¹
ĠÑģÐ¾Ð¿ÑĢÐ¾ÑĤÐ¸Ð² Ð»ÐµÐ½Ð¸Ñı
ĠÐ°ÑĢÑĤÐ¸Ð»Ð»Ðµ ÑĢÐ¸Ð¹
ĠÐ¾Ð± Ð»Ð¸
Ð¸Ð¼ ÑĭÐµ
ÐºÐµ Ð¿
Ð¾Ð»Ð¾Ð³ Ð¸ÑĩÐµÑģÐºÐ¸Ð¼
ĠÐ¸ÑģÑĤÐ¾ÑĢÐ¸ ÐºÐ¾
âĢ¦ Â»
ĠÐ¿Ð¾Ð´ÑĩÐ¸Ð½ ÐµÐ½Ð¸Ñı
Ð¾Ð»Ñİ Ð±
ĠÑĥÑĢÐ°Ð²Ð½ ÐµÐ½Ð¸Ð¹
ĠÐ¿Ð¾Ð·Ð¸ ÑĨÐ¸Ñİ
ĠÑģÑĤ Ð¸Ð»Ð¸
ĠÐĽ Ð¾Ð³
ĠÐ´ÑĢÑĥÐ³ Ñĥ
Ġ5 8
or e
197 0
ĠÐ¢Ð¸Ð¼ Ð¾ÑĪÐµÐ½ÐºÐ¾
ĠÐ¿ÑĢÐµÑģÑĤÑĥÐ¿ Ð»ÐµÐ½Ð¸Ñı
ĠÐĽÐµÐ¹ Ð±
ĠÐ²Ð¾Ð¿ Ð»Ð¾Ñī
ÐµÐ¼ Ð¸Ð½
ĠÑĢÐ° ÑģÑģÐ»ÐµÐ´Ð¾Ð²
ĠÐ¾ÑģÐ½Ð¾Ð² Ð°Ð»
ĠÐ¾Ð¿ÑĢÐµÐ´ÐµÐ» ÑĳÐ½Ð½Ð¾Ð¹
ĠÑĢÑĭ Ð½Ð¾Ðº
ĠÐĵÐµÑĢ Ð¾Ñı
ul t
ĠÑĤÐµÐ»Ðµ ÑģÐºÐ¾Ð¿
ĠÐ¿ÑĥÐ±Ð»Ð¸ÐºÐ° ÑĨÐ¸Ð¸
ĠÐ´ÐµÐ± ÑİÑĤ
Ġ re
Ñģ Ð°Ð½
Ñı ÑīÐµÐµ
ĠÐ¢ Ð¾Ðº
ÐµÐ½ÑĮ Ðµ
Ġ5 6
ĠÐ¿Ð¾Ð»Ð¸ÑĤ Ð¸ÐºÐµ
Ġ189 2
ĠÐ²Ð°Ð¶ Ð½ÑĥÑİ
ĠÑĢÐ¸Ð¼ ÑģÐºÐ¾Ð³Ð¾
Ð°Ð»Ð¸ÑģÑĤ Ð¾Ð²
Ð¡Ð¿ Ð°ÑĢÑĤ
ĠÑĤÐµÐ°ÑĤÑĢÐ°Ð»ÑĮ Ð½ÑĭÐ¹
ĠÑĢÐµÐ±ÑĳÐ½ ÐºÐ°
ĠÐ¿ ÑĥÑĪ
Ð³ Ð¸Ð±
ĠÐ» Ð¸ÑģÑĤ
Ð¸ÑĨ ÐºÐ¸Ð¹
ĠA ir
ĠÑįÐºÑģÐ¿ Ð¾ÑĢÑĤ
ĠÐ¿Ð¾Ð½ ÑıÑĤÐ¸
Ġ189 4
ĠÐ²ÑĭÑģÑĤÑĥÐ¿ Ð°Ð»
ĠÑĤÑĢÐµÑĤÑĮ ÐµÐ³Ð¾
ĠÑĢÑĭÐ½ ÐºÐµ
ĠÐŁÑĥÑĤ Ð¸Ð½
S D
ĠÐ¤ Ð»Ð¾ÑĢ
Ð°Ð¹ Ð´
Ġ5 2
ĠÐ´ÐµÐ» Ð°ÑĤÑĮ
ĠÐ¿ÑĢÐ¾Ð¸Ð·Ð²Ð¾Ð´ Ð¸ÑĤÑģÑı
ĠÑĢÐ°ÑģÑģ Ð¼Ð¾ÑĤ
ĠÑĢÐ°Ð´Ð¸ Ð¾ÑģÑĤÐ°Ð½
ĠÐ¾Ð±Ð»Ð°ÑģÑĤ Ð½Ð¾Ð¹
ĠÐ²ÐµÑģ Ð½Ð¾Ð¹
ĠÐ²Ð·Ð°Ð¸Ð¼Ð¾Ð´ÐµÐ¹ÑģÑĤÐ² Ð¸Ðµ
ĠÐ² ÑĳÐ»
ĠÐ¸ Ð½Ð°ÑĩÐµ
ĠÐ¿ÑĢÐ¸ Ð³Ð¾Ð²Ð¾ÑĢ
ĠÐ½Ðµ Ð¾Ð¶Ð¸Ð´
ĠÐ¿Ð¾Ð» Ð½ÑĭÐ¹
Ð¾Ñĩ Ð½Ð¾Ðµ
ĠÐ´Ð² Ð¾ÑĢÐµ
ĠÑĢÐµÐ¶Ð¸Ð¼ Ðµ
V I
Ñĥ Ð¸
Ð· ÑĮ
ĠÐŁ Ð°Ñģ
ĠÐļ Ð¾ÑĢÐ°
Ð¾Ð· Ðµ
ÑĢÐ¾ ÑģÐºÐ¾Ð¿
ĠÐĿÐ° Ð¸Ð±Ð¾Ð»ÑĮÑĪ
Ð¸ÑĢÐ¾Ð² Ð°Ð½Ñĭ
ĠÐ¾ÑĤÐºÑĢÑĭ ÑĤÑĭ
ĠÐ´Ð¾ÐºÑĥÐ¼ÐµÐ½ÑĤ Ñĭ
ĠÐ¿ÑĥÑģÑĤ Ñĭ
ĠÑĥÐ¿Ð¾Ð¼Ð¸Ð½ Ð°Ð½Ð¸Ðµ
ĠÐ²ÑģÐ¿Ð¾Ð¼ Ð¾Ð³
Ð¾ ÑĨÐ¸Ð¸
ĠÐĵ Ð°Ð¼Ð±
ĠÐĽ Ð¾ÑĢÐµÐ½
ĠÐ¿Ð¾Ð´ Ð¼
ĠÐĹ Ð°Ð³
ĠÐĴÑĭ Ð±Ð¾ÑĢ
ĠÑģÑĥÐ¼ Ð¼Ð°
ĠÑĢÐµÐ³Ñĥ Ð»Ð¸
ĠÑģÐ¾Ð³Ð»Ð° ÑģÐ¾Ð²
ĠÐ¿ Ð¸ÑĢÐ°Ð¼Ð¸
ĠÐ·Ð² ÐµÐ·Ð´Ñĭ
ĠÑģÐ¾ÑħÑĢÐ°Ð½ ÐµÐ½Ð¸Ñı
ĠÐ¯Ð¿Ð¾Ð½ Ð¸Ñı
ĠÑįÐ»ÐµÐºÑĤÑĢÐ¾Ð½ Ð¾Ð²
op h
ĠÐ¿ÐµÑĢÐµÐ³Ð¾Ð² Ð¾ÑĢÐ¾Ð²
ĠÐ¿Ð¾Ð»Ð½Ð¾Ð¼Ð¾Ñĩ Ð¸Ñı
ÑĢÐ° Ð¼Ð°
ĠÐ¡ Ð¾Ð³
ĠÐ¡ Ð»Ð°Ð²
ÑĤÐ¸ ÑģÑĤ
ĠÐľ Ð°Ñı
ÑģÐ¿ ÐµÑĢÐ°Ð½
Ð¸Ñĩ Ð½Ð¾Ð³Ð¾
ÑĤÐ¸Ð² Ð½Ð¾Ð³Ð¾
Ġ5 1
Ġ5 4
ĠÐŁÐ¾ÑģÑĤ Ð°Ð½Ð¾Ð²
Ðµ Ð¾
Ð¾Ð½ Ð°Ð¼Ð¸
ĠÐĳ Ñİ
ĠÐ¿Ð¾Ð» Ð¾ÑĤ
ĠÐ¾Ð±Ñī Ð¸Ñħ
ĠÐ²Ð¿ Ð°Ð´
ĠÑģÐºÐ¾ÑĢ Ð¾ÑģÑĤ
ĠÐ¾Ð³ÑĢÐ°Ð½Ð¸Ñĩ ÐµÐ½Ð¸Ñı
ĠÐ·Ð°Ð½Ð¸Ð¼ Ð°Ð»
ĠÐ¼Ð¾Ð»Ð¾Ð´ ÑĳÐ¶Ð¸
ĠÐ¿Ð¾ÑģÑĤÑĢÐ¾Ð¹ ÐºÐ¸
ĠÐĴÐ»Ð°Ð´Ð¸Ð¼Ð¸ÑĢÐ¾Ð² Ð¸Ñĩ
A R
Ð¾Ð½ ÑģÐºÐ¸Ð¹
ĠÐļ ÐĿÐł
Ð°Ð² ÑĤÐ¾ÑĢ
Ð¸Ð¹ ÑģÐºÐ°Ñı
Ðĵ Ð¾ÑĢÐ¾Ð´
ĠÑĢÐµÐ·ÑĥÐ»ÑĮÑĤ Ð°ÑĤÐ¾Ð¼
ĠÐºÑĢÑĥÐ¿ Ð½ÑĭÐ¼
ÑĦÐ¾ÑĢÐ¼Ð° ÑĨÐ¸Ð¸
ĠÑģÐ¾Ð¾ÑĤÐ²ÐµÑĤÑģÑĤÐ² ÑĥÑİÑīÐ¸Ñħ
ĠÐ¿Ð¾Ð»Ð¾Ð² Ð¸Ð½Ð°
ĠÑĢÐ°Ð·Ð¼ ÐµÑĢÐ°
Ð¼ Ñı
ÐµÑĢ Ð¾Ð½Ð°
Ð¸Ð² Ð°Ð»Ð¸ÑģÑĮ
ĠÐ¸ÑģÑĤÐ¾ÑĢÐ¸ ÑĩÐµÑģÐºÐ¾Ð³Ð¾
ĠÐ²ÑĤÐ¾ÑĢ Ð¶ÐµÐ½Ð¸Ñı
ĠÐ¶ÐµÐ½Ñī Ð¸Ð½Ð°
ĠÐľÐµÐ´ Ð²ÐµÐ´
ĠÐ¿Ð°ÑĢÑĤÐ¸ Ñİ
Ð» ÑĭÐµ
ĠÐ³ ÑĥÐ¼
ĠÑĢÐ° ÑģÐºÐ¾Ð¿
ĠÐļ Ð°Ð»ÑĮ
Ð¸Ñģ Ð»Ð¾ÑĤ
ĠÐ²Ñĭ ÑĢÐ°Ñī
ĠÑĢÐ°Ð· Ð¾ÑĢ
ĠÐ¿Ð°ÑĢ Ñĭ
ĠÐ³Ð°Ð· ÐµÑĤÐµ
ĠÐ¶ÐµÐ½ Ð¾Ð¹
ĠÐĲÐ» ÑĤÐ°Ð¹
ĠÐłÐ¾Ð´ Ð¸Ð»ÑģÑı
ĠÐļÐ°Ð½ Ð°Ð´Ñĭ
ub l
ĠÐ²Ð·Ð³Ð»Ñı Ð´Ñĭ
ĠÐºÑĢÐ¸ÑģÑĤÐ°Ð» Ð»Ð¸
ĠÐºÑĢÐ¸Ð· Ð¸ÑģÐ°
ĠÑģÐµÐ³Ð¾Ð´Ð½Ñı ÑĪ
ĠÐ¡ ÐµÑĢÐ²
ÐµÐ² ÑģÐºÐ¾Ð¹
ĠÐ²ÑĭÐ·Ð² Ð°Ð»Ð¾
ĠÐ¡Ð¾Ð» Ð½Ðµ
ĠÐ¸Ð½Ð´Ñĥ ÑģÑĤÑĢÐ¸
ĠÐĴ Ð¾ÑģÑĤÐ¾Ðº
ĠÐĿ Ð°ÑĤ
ÑĢÐ¾Ð² Ð°ÑĤÑĮ
ĠÐ¿ÑĢÐ¾ÑĤ Ð¾Ðº
ĠÐ·Ð°Ð¿ ÑĢÐµÑĤ
ĠÑģÐ¾Ð·Ð´ Ð°ÑĤÐµÐ»ÑĮ
ĠÐĲÑĢ Ð¼Ð¸Ð¸
ĠÐ½ÐµÐ´ Ð¾Ð²Ð¾Ð»ÑĮ
ĠÑĤÐµÑĩ ÐµÐ½Ð¸Ñı
ĠÐºÐ°Ð· Ð°Ñĩ
ĠÐ¿Ð»ÐµÐ¼ ÑıÐ½
ĠÐ³Ð¸Ð´ ÑĢÐ¾
ĠÑģÑĤÐ¾Ð»Ð¸ ÑĨÐ°
Ð² ÑĤÐ¾ÑĢ
ÑģÑĤ Ð°ÑĢ
ÐµÐ½ Ð½Ð¾Ð¼Ñĥ
ĠÐ³ ÑĢÐ¾Ð·
ĠÐĺ ÑĢÐ°Ð½
ĠÐĽ Ð¾Ñģ
ĠÐĽ Ð°Ð±
ĠÑĢÐ°Ð· Ð½ÑĭÐ¼
ĠÐ¿ÑĢÐµ Ð»Ð¾Ð¼
ĠÐ® ÐĿ
ĠÐ¿Ð¾Ð»Ð¸ÑĤ Ð¸ÑĩÐµÑģÐºÐ¾Ð³Ð¾
ĠÐºÐ¾Ð½ÑĤ ÑĢÐ°ÐºÑĤ
ĠÑįÐºÑģÐ¿ Ð¾Ð½
ĠÐ¸Ð³ÑĢÐ° Ñħ
ĠÐ¿Ð¾Ð³Ð¸Ð± Ð»Ð¾
Ð¸ÑģÐ¿ ÑĭÑĤ
ĠÐ¼Ð¾ÑģÑĤ Ð°
ĠÐ³Ð¾Ñģ Ð¿Ð¸ÑĤ
ĠÑģÐµÑĢÐµ Ð±ÑĢÐ°
ĠÐ´ Ð¾ÑĩÐµÑĢ
ĠÐ¿Ð¾ ÐµÐ·Ð´Ð°
ÐĴ ÐµÐ»Ð¸Ðº
ĠÐ´ÐµÐ» Ð°Ð¼
194 4
ĠÐ¿ÑĢÐ¸Ð½ÑĨÐ¸Ð¿ Ñĭ
ĠÐĳÑĭ Ð»Ð¾
ĠÐ¾Ð¿Ð¿Ð¾Ð· Ð¸ÑĨÐ¸Ð¸
Ð½ ÐµÐ½Ð¸Ð¹
ĠÐ³ ÑĥÐ¼Ð°Ð½Ð¸ÑĤÐ°ÑĢ
ĠÐĴ Ð¾ÑģÑĤÐ¾ÐºÐµ
ĠÐ¡ ÑĥÐ½
ÐµÐº ÑĤÐ¸Ð²Ð°
ĠÑĢÐµ ÑĦ
ĠÐ¾ÑĤÐ½Ð¾ÑĪ ÐµÐ½Ð¸ÑıÑħ
ĠÐ¡ÐµÐ²ÐµÑĢ Ð½Ð°Ñı
ĠÑĤÐ¾Ð² Ð°ÑĢÐ¸
ĠÑĦÐ°Ð¼Ð¸ Ð»Ð¸Ñı
ĠÐ¤ÑĢ ÑįÐ½
Ñĥ ÑĤÐ°
ĠÐ¡ Ð¾Ð±ÑĭÑĤÐ¸Ñı
Â» );
ĠÐ¢ Ð²Ð¾ÑĢ
Ð¸Ð± Ð»ÐµÐ¹
ĠÐ¦ Ð¸ÑĨ
ĠÐ¿Ð» Ð°Ð½Ðµ
ĠÐŀÑĤ Ñģ
Ġ188 7
ĠÑģÐºÐ°Ð· Ð°ÑĤÑĮ
ĠÐ¿Ð¾ÑģÑĤÐ°Ð½Ð¾Ð² Ð»ÐµÐ½Ð¸Ðµ
ĠÑĦÐ°Ð±ÑĢÐ¸ ÐºÐ°
ĠÐ¡Ð¼Ð¾Ð» ÐµÐ½
ĠÐ½ Ð¸Ð´ÐµÑĢÐ»Ð°Ð½Ð´
Ð°Ð½ ÑģÐ°
ĠÐŁ ÐµÐº
ĠÐĺÐ½ ÑģÑĤÐ¸ÑĤÑĥÑĤÐ°
ĠÐ¸Ð·Ð²ÐµÑģÑĤ Ð½Ð¾ÑģÑĤÑĮ
ĠÑģÑĤÐ°ÑĤ ÑĥÑģÐ°
ĠÐ²ÑĭÐ± Ð¾ÑĢÐ°
ĠÐ¼Ð¸ÑĢÐ¾Ð² Ð¾Ð³Ð¾
ĠÐĴÑĭ Ð¿
Ð°ÑĢÐ¼ Ð°Ðº
ÑĦ Ð¸Ñģ
ĠÐ¾ÑĤ Ñĩ
Ð°ÑĢÐ° ÑĤ
ĠÐ³Ð»Ð°Ð² Ð½Ð¾ÐºÐ¾Ð¼Ð°Ð½Ð´
ĠÐ´Ð²Ð¸Ð¶ ÐµÐ½Ð¸Ð¸
ĠÐ¼ÑĥÐ·Ñĭ ÐºÐ°
ĠÐľÑĥ Ð·ÑĭÐºÐ°
ĠÐ¾Ð±Ð¾ÑĢÑĥÐ´ Ð¾Ð²Ð°Ð½Ð¸Ðµ
ĠÑĢÐµÑģÑĥÑĢ ÑģÑĭ
ĠÐ±ÑĥÐ´ÑĥÑī ÐµÐ¼
r on
Ð¿ Ð¾Ð±
ĠÐĶ Ð¶Ðµ
ĠÐ¿ÑĢÐµÐ´ Ð²Ð¾Ð´
ĠÐ·Ð½Ð°Ñĩ Ð¸ÑĤ
ĠÐ¡Ð¾ ÑĨÐ¸Ð°Ð»ÑĮ
ĠÐŁÑĢÐ¾ ÑĦ
ĠÐĽÐ¸ÑĤ Ð²Ñĭ
ĠÑįÐ²Ð¾Ð»Ñİ ÑĨÐ¸Ð¸
ĠÐĵÐ¸ÑĤ Ð»ÐµÑĢ
ĠÐ°ÑĢÐ¸ÑģÑĤ Ð¾ÐºÑĢÐ°
ÑĮ Ð¼
ÑĦ ÑĥÐ½Ðº
ĠÐ¾Ð± Ð»ÐµÐ³
ĠÐ¢ ÐµÑĢÐµ
ĠÐĽ Ð¸Ñģ
ĠÐ¿Ð¾Ð´ Ð»Ð¸Ð½
Ð½Ðµ ÑĦ
ÑĢÑı Ð¶
ĠÐ¥ ÑĢÑĥ
Ġ8 5
ĠÐļÐ¾Ð¼ Ð¼ÑĥÐ½Ð¸
ĠÐ°ÐºÐ°Ð´ÐµÐ¼ Ð¸Ñı
ĠÑĤÐµÑħÐ½ Ð¾Ð»Ð¾Ð³Ð¸Ñı
e p
Ð¿ ÑģÐ¸Ñħ
Ð³ Ð¾ÑģÑĥÐ´Ð°ÑĢ
ĠÐĿ Ð°ÑĤÐ°Ð»ÑĮ
ĠÐ¢ ÐµÐ¿
ĠÐ¤ Ð¾Ð½
ĠÐĿÐ° ÑħÐ¾Ð´
ÑıÐ· ÑĮ
Ð¸ÑĪ ÑĮ
ĠÑģÐ¾Ð´ÐµÑĢÐ¶ Ð¸ÑĤÑģÑı
ĠÐ´ÑĢÐµÐ² Ð½Ð¾ÑģÑĤÐ¸
ĠÐ¾ÑĤÐ½Ð¾Ñģ Ð¸ÑĤÐµÐ»ÑĮÐ½Ð¾ÑģÑĤÐ¸
ĠÐŃÐ½ ÑĨÐ¸ÐºÐ»Ð¾Ð¿ÐµÐ´
ĠÐ¼Ð¾Ð»ÐµÐº ÑĥÐ»
ĠÑģ Ð¾Ð»Ð¸
ĠÐ¡ Ð°Ð»ÑĮ
ĠÐ¾ÑĤ ÐºÑĥÐ´Ð°
ĠÐ£ Ð¿
ÑĦÐ¸ Ð»Ð°Ðº
ĠÑĩÐµ ÑĢÐµÐ¿
ĠÑģÑĤÑĢÐ° Ð½Ð¾Ð¹
Ð¾Ð³ÑĢÐ°ÑĦ Ð¸ÑĩÐµÑģÐºÐ°Ñı
ĠÑįÐºÑģÐ¿ ÐµÑĢ
ol l
ĠÑĢÐ°Ð±Ð¾Ñĩ Ð¸Ð¹
ĠÐĶÐµÐ¼ Ð¾ÐºÑĢÐ°
Ð½Ð°Ð´ÑĨ Ð°ÑĤÑĮ
ÐµÐ¹ ÑģÐºÐ¾Ð³Ð¾
ÐºÐ° Ð²
ÐµÐ² ÑģÐºÐ°Ñı
ĠÐĳ ÑĢÐ°Ð½
ĠÑħ Ð²Ð¾ÑģÑĤ
ĠÐ´Ð² ÐµÐ½
ĠÐ¿Ð¾ÑģÐ»ÐµÐ´ ÑģÑĤÐ²Ð¸Ñı
Ð²Ð¸Ð´ Ð¸Ð¼Ð¾Ð¼Ñĥ
ĠÐ·Ð°Ð½Ð¸Ð¼Ð° ÐµÑĤÑģÑı
ĠÑıÐ¿Ð¾Ð½ ÑģÐºÐ¸Ð¹
Ð¾Ð½ Ð°Ñħ
ĠÑĤ Ð¾ÐºÑģÐ¸
ÑĢÐ¾Ð² ÑĭÑħ
ĠÐ¸Ð¼ ÑĳÐ½
ÐºÐ¾ Ð½Ñĭ
Ðľ Ð°ÑĢ
ÐĿ Ð¾Ð²
Ð¦ ÐµÐ½ÑĤ
ĠÐĴÐ¸Ðº ÑĤÐ¾ÑĢÐ°
ĠÐĶÐ°Ð» ÐµÐµ
ĠÐ´Ð²ÐµÐ½ Ð°Ð´ÑĨ
Ð² ÑĭÑģ
ĠÑģ ÑĨ
ĠÑĤ ÑĢÐ¾Ð½
ĠÑĢÐµ Ð¼ÐµÑģ
Ġ7 00
ĠÐ²Ð¾Ñģ ÐµÐ¼ÑĮ
ĠÐ·Ð² ÐµÐ·Ð´Ð°
ĠÐ¸Ð·Ð´ Ð°Ð»
ĠÐĳÐ¾Ð³ Ð¾ÑĢÐ¾Ð´
ĠÐ¿Ð¾ÑģÐµÐ» ÐµÐ½Ð¸Ð¹
ĠÐºÐ°ÑĢÑĤ Ð¸Ð½
ĠÐ´ÐµÑĢÐ¶ Ð°Ð²
ĠÐ¿ÐµÑĢÐµÐ¸Ð¼ÐµÐ½Ð¾Ð² Ð°Ð½
ĠÑģÐ¾ÐºÑĢÐ° ÑĤÐ¸
Ð½ ÑģÐºÐ¾Ð³Ð¾
ĠÐ½ ÑĥÐº
Ð¾Ð» ÐµÐ¹
ĠÐ´ Ð°ÑĤÐ°
Ð¾Ñģ Ñĭ
ĠÐ¿ÑĢÐ¾ ÐµÐºÑĤÐ¾Ð²
ĠÑģÐ¾Ð± Ð¾ÑĢÐµ
ĠÐ½Ð°ÑĢÐ¾Ð´ Ñĭ
ĠÐ¿ÑĢÐ¾ÑĨ ÐµÐ½ÑĤ
ĠÐ²Ð· ÑıÑĤÑĮ
ĠÐ¿Ð¾Ð´Ð´ÐµÑĢÐ¶ ÐºÐ°
Ġ189 3
ĠÐĵÐµÐ½ Ð½Ð°Ð´
ĠÐ½Ð°ÑĩÐ¸Ð½Ð° ÑİÑĤ
ĠÐĳÐ¾ÑĢÐ¸ ÑģÐ°
ĠÐ¡Ð»Ð¾Ð² Ð¾
Ð¾Ð² Ð°Ð½Ñĭ
ĠÐŁ Ð¸Ð»
ĠÐļ Ð°ÑĢÑĤ
Ð¸Ð² ÑĪÐ¸Ð¼
ĠÑħ Ð¸Ñī
Ð¸Ñĩ Ð¸
ÑģÑĤÐ²Ð¾Ð² Ð°Ð½Ð¸Ðµ
ĠÐ½ÐµÐ· Ð°ÐºÐ¾Ð½
ĠÑģÐ½Ð¸ Ð¶ÐµÐ½Ð¸Ðµ
ĠÐłÐ°Ð¹ Ð¾Ð½
F C
ĠÑĤ ÑĢÐ¾Ð¹
20 20
Ð¿ÑĢÐµ ÑģÑģ
ĠÐ°Ð²ÑĤÐ¾ÑĢ Ð¾Ð¼
ĠÐĺÐ¾Ð³Ð°Ð½ Ð½
ĠÐ¢ÐµÑĢÑĢÐ¸ÑĤÐ¾ÑĢÐ¸ Ñı
ĠÐľ Ð¸ÑĦ
ĠÐºÐ¾Ð¼ Ð±Ð¸Ð½Ð°
ĠÐ²Ð¾Ð´ Ð¾ÑĢÐ¾Ð´
ĠÐ½Ð°ÑĢÐ¾Ð´ Ð½Ð¾Ð¹
ĠÐ³Ð¾ÑĢ Ð½ÑĭÑħ
ĠÐ²Ð¾ÑģÑĤÐ¾Ñĩ Ð½ÑĭÑħ
ĠÐ¿Ð¾ÑģÐµÑĤ Ð¸Ð»
ĠÐºÐ¾Ð¼Ð±Ð¸Ð½ Ð°ÑĤ
ĠÐ§Ð°ÑģÑĤ Ð¾
ĠÐ¿ Ð°ÑĢÐ¸
Ð°Ð½ ÑĤÐ¾Ð¼
ĠÐĵ Ð¾ÑĤ
ĠÐºÐ¾Ð¼ Ð½
Ð°Ð»Ð° ÑĪ
Ðŀ ÑĢ
ÑĦÐ¸ Ð½Ñĭ
ĠÐ® ÑĢÑĮ
ĠÐ¸Ð·Ð²ÐµÑģÑĤ Ð½Ð°
ĠÐ¾ÑģÑĤÐ°Ð² Ð¸Ð»
ĠÐºÑĢÐ¸ÑĤÐ¸ ÐºÐ¸
ĠÐ¿ÑĢÐ¸ÐºÐ°Ð· Ñĥ
ĠÐ¿Ð¾Ð´Ð²ÐµÑĢ Ð³Ð°
Ðµ Ð³Ð¾Ð²
ĠÐ² ÑģÑĤ
ĠÐº ÑĢÑĥÐ¶
ĠÐĴ Ð¡
ĠÐĳ Ð°ÐºÑĥ
ĠÑĤÐ¾ÑĢÐ³Ð¾Ð² ÑĭÑħ
ĠÐ°Ð· ÐµÑĢÐ±Ð°Ð¹Ð´Ð¶
ĠÐłÐµÐ· ÑĥÐ»ÑĮÑĤ
ĠÐĳÑĥÐ» Ð³
ĠÑįÐºÐ¸Ð¿Ð°Ð¶ Ð°
ĠÐ»Ð¾ÑĪ Ð°Ð´
Ð· Ð¸Ð½
ÑĨ Ð¸ÑĤ
ÐµÑĢ ÑģÐºÐ¸Ð¹
ĠÐ³ Ð¾ÑĢÐ°
ĠÐ¡ Ð¾Ð¼
ĠÐ° ÑĢÐ¸ÑĦÐ¼ÐµÑĤ
ĠÐºÐ°Ðº Ð¸Ðµ
ĠÐ¸Ð¼Ðµ ÑİÑīÐ¸Ñħ
ĠÐ¾Ð±ÑīÐµ ÑģÑĤÐ²ÐµÐ½Ð½Ð¾Ð¹
ĠÑįÐ¿ Ð¸Ð´ÐµÐ¼
ĠÑģÐ¸Ð½ ÑĤÐ°Ðº
ĠÑģÑĤÐ°Ð½ ÑĨÐ¸Ð¹
ĠÐ¡ÐµÐ¼ ÑĮÑı
ĠÐ²Ð¾Ð·Ð½Ð¸ÐºÐ° ÑİÑĤ
ĠÐ¿Ð¸ Ð°Ð½Ð¸ÑģÑĤ
ĠÐ»ÑİÐ±Ð¾Ð² ÑĮ
u c
ĠÐ¥ ÑĥÑģ
ĠÑģÐº Ð¾Ð»ÑĮÐºÐ¾
ĠÐ¾ÑģÑĤ Ð°Ð»Ð¸ÑģÑĮ
ĠÐºÑĢÐ° Ðµ
ĠÐ½Ð°ÑĥÑĩ Ð½ÑĭÐµ
ĠÐļÐ¾Ð» Ð¸ÑĩÐµÑģÑĤÐ²Ð¾
ĠÐ¾ÑģÑĥÑīÐµÑģÑĤÐ² Ð»ÑıÐµÑĤ
Ġ188 5
ĠÐ¾Ñħ ÑĢÐ°Ð½Ñĭ
ĠÑģÐ»ÐµÐ´Ð¾Ð² Ð°ÑĤÐµÐ»ÑĮÐ½Ð¾
Ð¾Ð½ Ñģ
Ð°Ð¼ Ð¼Ð°
ĠÐĳ ÑĢÐ¾Ð´
ĠÐĺ ÑĥÐ´
ĠÑı Ð¹
ÐŁ Ð¾
ÑĥÑī Ð¸Ð¼
ĠÐ¼Ð°Ñģ ÑģÐ¸
ÐµÑī Ð°Ð½Ð¸Ðµ
ĠÑĩÐµÐ¼Ð¿Ð¸Ð¾Ð½ Ð°ÑĤ
ĠÐ¾Ð³ Ð½Ñı
ĠÐ²Ð»Ð¸ ÑıÑĤÐµÐ»ÑĮ
Ð°ÑĤ ÑĭÐ¹
ĠÐĶ Ð²Ð¾ÑĢ
ĠÐ¢ ÑĥÐ»ÑĮ
ĠÐ¢ Ð°Ð±
ĠÐĲÐ½ Ð½Ñĭ
ĠÐ²ÐµÑĢ ÑģÐ¸Ð¹
ĠÐ´ÐµÐ» ÑıÑĤÑģÑı
Ð¿Ð¾Ñģ Ð»Ðµ
ĠÑģÑĥ ÑĦÑĦÐ¸Ðº
ĠÐ´ÐµÑģÑıÑĤ ÐºÐ¾Ð²
ĠÐŁÐ¾ÑħÐ¾ÑĢÐ¾Ð½ ÐµÐ½Ð½ÑĭÐµ
Ð¾Ð¿ÑĢÐ¸Ð¼ÐµÑĩÐ°ÑĤÐµÐ»ÑĮ Ð½Ð¾ÑģÑĤÐ¸
Ð² Ð¾ÑģÑĤÐ¾Ðº
âĢ ĵ
ĠÐĴ Ð¸Ð´
Ð°Ð² ÑĤ
Ð¸Ð² Ð°Ð»ÑģÑı
ĠÐ¾Ñģ Ð½Ð°
ÑĢÐ¾ Ð½Ñĭ
ĠÑģÐ¿ Ð¸ÑģÐº
Ġ5 3
ĠÑģÐ¾Ð¿ Ð¾ÑģÑĤÐ°Ð²
ĠÐ¾ÑĦÐ¸ÑĨÐ¸Ð°Ð»ÑĮ Ð½ÑĭÐ¼
ĠÑģÐ¾Ð·Ð´Ð° ÑĳÑĤ
ĠÐļÐ°Ð² ÐºÐ°Ð·Ð°
ĠÑħÐ¾ÐºÐºÐµ Ð¸ÑģÑĤ
ĠÐ·Ð°ÑĦÐ¸Ðº ÑģÐ¸ÑĢÐ¾Ð²
Ð¸ ÑģÐºÐ°
ÑĮ ÐµÐ¼
ÐµÐ½ Ð´Ð¾Ð²
ÑĢÐ° Ð½Ð¸Ðµ
ĠÑģ ÐºÐ¸
ĠÐ¼ Ñı
Ð¸Ð»Ð¸ Ð¹
Ð»Ð¾Ð² Ð¾
ÐĴ ÐĶ
an n
Ð¾Ð³ÑĢÐ°ÑĦ Ð¸ÑĩÐµÑģÐºÐ¸Ð¹
ĠÐ¿ÑĢÐ¾Ð´Ð¾Ð»Ð¶ Ð°ÐµÑĤ
ĠÑĢÐ°ÑģÑģ ÑĩÐ¸ÑĤ
ĠÐ²ÑģÑĤÑĢÐµ ÑĩÐ¸
ĠÑĦÐ¾Ð½ Ð´Ð°
ĠÐĴÐ¾Ð» Ð³Ð¸
ĠÐĴÐ¾ÑģÑģÑĤ Ð°Ð½Ð¸Ðµ
Ð° ÑĨÐ¸ÐµÐ¹
Ð¸Ð½ ÑĤÐµÑĢÐµ
ĠÐļ ÑĢÐµÑģÑĤ
Ð°Ð¼ ÐµÐ½
ĠÐ¶ Ð¸ÑĤÑĮ
ĠÐ¿Ð¾Ð»ÑĥÑĩ Ð°
ĠÐ¡ÑĢÐµÐ´ Ð½ÐµÐ²ÐµÐº
ĠÐ¿Ð¾ÐºÐ°Ð· Ð°ÑĤÐµÐ»ÑĮ
ĠÐ²Ð¾Ð·Ð½Ð¸Ðº Ð»Ð°
ĠÐ²Ð²ÐµÐ´ ÐµÐ½Ð¸Ñı
ĠÑĥÑģÑĤÑĢÐ¾Ð¹ ÑģÑĤÐ²
ĠÑģÑĢÐ°Ð¶ ÐµÐ½Ð¸Ðµ
ĠâĨ Ĵ
Ñī ÐµÐ½Ð¸Ñı
ĠÐĿ ÐµÐ±
Ð¸ÑĢÐ¾Ð² ÐºÐ°
ĠÑģÐ¾ÑģÑĤÐ°Ð² Ð¸Ð»Ð¸
ĠÐĲÐ½ Ð°Ð»Ð¾Ð³
ĠÑĢÐ°Ð±Ð¾ÑĤ Ð°Ð»Ð¸
ĠÐºÐ¾Ð»Ð¾Ð½ Ð¸
ĠÐ¸Ð·Ð³Ð¾ÑĤÐ¾Ð² Ð»ÐµÐ½Ð¸Ñı
ĠÐ·Ð°ÑģÐµÐ´ Ð°Ð½Ð¸Ð¸
ĠÐ¼ÐµÐ´Ð¸ ÑĨÐ¸Ð½Ñĭ
ĠÐ¿Ñĭ ÑĤÐ°
I V
ĠÑģ Ð¼Ð¾ÑĤ
ĠÐĴ Ð¸ÐºÐ¸
ĠÐĴ ÐļÐŁ
Ð¸Ð· Ð½
ĠÐŀ Ð»Ð¸Ð¼Ð¿Ð¸
ĠÐ¢ ÑĢÐµ
ĠÐ¿ÑĢÐ¾ÑĤ ÐµÐº
Ð°Ð¿ Ð¿Ð°ÑĢÐ°
ĠÐ°Ðº ÑĨÐ¸Ð¹
ĠÑĩÐ»ÐµÐ½ Ð°Ð¼Ð¸
ĠÐļÐ° ÑĢÐµ
Ġ188 2
ĠÐ¼Ð¾Ñī Ð½Ð¾ÑģÑĤÐ¸
ĠÐ´ÐµÑģÑıÑĤÐ¸ Ð»ÐµÑĤÐ¸Ñı
ĠÐļÐ²Ð¸Ð½ ÑĤ
m a
ĠÐ² Ð¾ÑĤ
Ð½Ð¾Ð² ÐµÐ½Ð¸Ðµ
Ðĳ Ð¾Ð»ÑĮÑĪ
ĠÐ¿ÑĢÐ¸Ð· ÑĳÑĢ
ĠÐ·Ð½Ð°ÑĩÐ¸ÑĤÐµÐ»ÑĮ Ð½ÑĥÑİ
ĠÐ¿ÑĢÐ°Ð·Ð´ Ð½Ð¸Ðº
ĠÑĦÐ¸Ð³ ÑĥÑĢÑĭ
ĠÐ¾ÑĤÐ²ÐµÑĢ ÑģÑĤÐ¸
ĠÑĢÐ°Ð±Ð¾ ÑĩÐµÐ³Ð¾
ĠÐºÐ¸ÑĢÐ¸ Ð»Ð»Ð¸
ÑĤ ÑĢÐ°Ð½
Ð´ Ð°Ð»ÑĮ
ĠÐ¡ Ð°Ð¹ÑĤ
ĠÐ¿Ð¾Ð´ Ð¾Ð·
ĠÑģÐ» Ð¾
ÑĨÐ¸Ð¾Ð½ Ð½Ð¾Ð¼
Ð³ÑĢÐ° ÑĢ
ĠÐ¸Ð¼Ðµ ÑİÑīÐ¸Ðµ
ĠÐ¼ÐµÑĤÐ¾Ð´ Ð¾Ð¼
194 0
ĠÑģÑĥÑīÐµÑģÑĤÐ²Ð¾Ð² Ð°Ð»Ð¸
ĠÐĵÑĢÐ¸Ð³ Ð¾ÑĢÑĮ
ĠÐ½Ð° Ð·ÐµÐ¼
ÐµÐ¹ ÑģÐºÐ¸Ð¹
ĠÐĵ Ð¾Ð²
ĠÑĢ Ð¾Ð¶Ð´Ð°
ĠÐ¿Ð¸Ñģ Ð°ÑĤÑĮ
ĠÐŁÑĢÐ¾ ÑĨÐµÑģÑģ
ĠÑħÐ°ÑĢÐ°ÐºÑĤÐµÑĢÐ¸ ÑģÑĤÐ¸ÐºÐ°
ĠÐ³ÐµÑĢÑĨÐ¾Ð³ Ð°
ĠÑģÑĭÐ½Ð¾Ð² ÐµÐ¹
ĠÐŁÐ»ÑĥÑĤ Ð°ÑĢÑħ
ÑĤ Ð¾Ðº
Ð¼ Ð°Ð»
ĠÐ¸ ÐµÑĢÐ°ÑĢÑħ
ĠÑĤ ÐºÐ°Ð½Ð¸
ĠÐĴ Ðľ
ĠÐ¿Ð¾Ðº Ð¸Ð½Ñĥ
Ðĳ Ð°Ð»
Ð»Ð¸Ñı Ð½Ð¸Ðµ
Ð²Ð¸Ð¶ ÐµÐ½Ð¸Ñı
ĠÐ²Ð¾ÐµÐ½ Ð½Ð¾Ðµ
ĠÐºÐ°Ð¶Ð´ Ð°Ñı
ĠÐºÐ¾ÑĢÐ°Ð± Ð»Ð¸
ĠÐļÐ¾Ð½ÑģÑĤÐ°Ð½ÑĤ Ð¸Ð½Ð°
ĠÑħÑĥÐ´Ð¾Ð¶Ðµ ÑģÑĤÐ²ÐµÐ½Ð½ÑĭÐ¹
ĠÐ·Ð°Ð¿Ð°Ñģ Ñĭ
ĠÐ½ÐµÐ¾Ð¿ ÑĢÐµÐ´ÐµÐ»
ĠÐ¡ÐµÐ¼Ñĳ Ð½Ð¾Ð²
ĠÐ° Ð¼Ð¿
ĠÑį ÑĦÐ¸ÑĢ
ĠÐ¿ÑĢÐ¸ Ð³Ð¾ÑĤÐ¾Ð²
ĠÑĦ Ð°Ñģ
Ð»ÑĮ Ð½Ð°Ñı
ĠÐ¿ÑĢÐµÐ´ÑģÑĤÐ°Ð² Ð¸ÑĤÐµÐ»ÑıÐ¼Ð¸
ĠE d
ĠÐ²Ð¸Ð´Ðµ Ð¾
ĠÐĴÑģ Ñĳ
Ġ188 1
Ġ188 6
ĠÐ¿Ð¾ÐºÐ°Ð· Ð°Ð»Ð¸
ĠÐ²ÑĭÐ´ÐµÐ» Ð¸ÑĤÑĮ
ĠÐ¾ÑĨÐµÐ½ ÐºÐ°Ð¼
ĠÑģÑĢÐµÐ´ÑģÑĤÐ²Ð° Ð¼Ð¸
ĠÐ²Ð¾Ð·Ð³Ð»Ð°Ð² Ð»Ñı
ĠÐŁÐ¾ÑģÐ»ÐµÐ´ Ð½Ð¸Ð¹
ĠÐ¾ÑĤÑĢÑı Ð´Ð°
ĠÑĨÐµÑĢÐº Ð²ÐµÐ¹
ÑĤ Ð°Ð²
ĠÐ¸ ÑĥÐ´
Ñħ Ð°Ð½Ð°
ĠÐ· Ð¾Ð½Ð°
ĠÐ¾Ñģ ÐµÐ½ÑĮÑİ
ĠÑĨ ÐµÐ½Ð·
Ð¸Ñĩ Ð½ÑĭÐ¼
Ð¿ÑĢÐµ Ð¶
ĠÑįÐ»ÐµÐºÑĤ ÑĢÐ¾ÑģÑĤÐ°Ð½
ĠÑĥÑģ Ð»ÑĥÐ³Ð¸
ĠÐ¡Ð² Ð¾Ð¹
ĠÐ¿ÑĢÐ¸Ð·Ð½ Ð°Ð½Ð¸Ðµ
ĠÑģÐ»Ð°Ð² Ñĭ
ĠÑĥÑĩÐ°ÑģÑĤÐ²Ð¾Ð² Ð°Ð»Ð¸
ĠÐ¨Ð¾ÑĤÐ»Ð°Ð½Ð´ Ð¸Ð¸
ĠÐĴÐ°ÑĢÑĪ Ð°Ð²
Ð¿ ÑĢÐ¾Ð¼
ĠÐ¡ Ð¼ÐµÑĢÑĤÑĮ
ĠÐŁ Ð°ÑĢÐº
ĠÐĵ ÑĳÑĤ
ĠÐ²Ñĭ Ð²ÐµÐ´
ÐŁ ÑĢÐ°Ð²
ĠÐ»ÑİÐ± ÑĭÑħ
ĠÐ¾Ð±ÐµÑģÐ¿ÐµÑĩ Ð¸ÑĤÑĮ
ĠÐļÑĢÐ°Ñģ Ð½Ð¾Ð´
ĠÐ½Ð°Ð·ÑĭÐ² Ð°ÑĤÑĮ
ĠÐĺÐ½Ð´ Ð¾Ð½
ĠÑĦÐ¾ÑĢÐ¼Ñĥ Ð»Ð¸ÑĢÐ¾Ð²
ĠÐ¿Ð¾ÐºÐ¸Ð½ ÑĥÐ»
C O
Ðº ÐµÑĤ
Ðº Ð¾ÑĤÐ¾ÑĢ
ĠÐĺ Ð±
ĠÐ¤ Ð¸Ð´
ĠÐ¾ÑģÐ½Ð¾Ð² Ð°ÑĤÐµÐ»ÐµÐ¹
ĠÑĤÐ¾Ñĩ ÐºÑĥ
ĠÐ²Ð°Ð¶ Ð½ÑĭÑħ
ĠÑĢÐ°ÑģÑģÐ¼Ð°ÑĤÑĢÐ¸ Ð²Ð°ÑĤÑĮ
ĠÑģÐ²Ð¾Ð¹ÑģÑĤÐ²Ð° Ð¼Ð¸
ĠÐĿÐ°ÑĢÐ¾Ð´ Ð½ÑĭÐ¹
ĠÑģÐ¼Ð¾Ð³ Ð»Ð¸
ĠÐºÐ¾Ð¼Ð¼Ñĥ Ð½Ð¸ÐºÐ°
ĠÐ¿ ÐµÑī
Ð¿ ÑĢÐ¾Ð´
ĠÐ± Ð»Ñİ
Ð½Ð¸ Ð»Ð¸
ĠÐ¿ÑĢÐ¸ Ð±Ð¾ÑĢ
ĠÐ¨ Ð»Ð¸
ĠÑĥÑģÑĤ ÑĢÐ°
ĠÑĩÐ°ÑģÑĤ ÑıÑħ
ĠÑİ Ð³Ñĥ
ĠÐĵÐµÑĢÐ¼ Ð°Ð½Ð¸ÐµÐ¹
ĠÐ¡Ð¾Ð²ÐµÑĤ Ð¾Ð²
ĠÑħÑĢÐ¸ÑģÑĤÐ¸Ð°Ð½ ÑģÑĤÐ²Ð¾
ĠÐ·Ð½Ð°Ðº Ð¾Ð²
ac e
ĠÐ¦ÐµÐ½ÑĤÑĢÐ°Ð»ÑĮ Ð½ÑĭÐ¹
ĠÑĥÑĢÐ°Ð²Ð½ ÐµÐ½Ð¸Ðµ
ĠÑĥÐ±Ð¸Ð¹ ÑģÑĤÐ²Ð°
ĠÐ¶ÐµÑģÑĤ Ð¾Ðº
ĠÐµÐ¶ ÐµÐ´Ð½ÐµÐ²
ÑĢÐ° Ð·Ñĭ
Ð· Ð°Ðº
Ð°ÑĤ Ð¾Ð³Ð¾
ĠÐ¿ÑĢÐ¸ ÑģÐ¿Ð¾ÑģÐ¾Ð±
ĠÑģÐ» Ð¾Ð±Ð¾Ð´
Ð»Ð¸Ð½ Ð´
ĠG o
ĠÐ²ÐµÑĢÑħ Ð½ÐµÐ¹
ĠÐ±Ð¾Ð»ÑĮ Ð½Ð¸ÑĨÐ°
ĠÐ½Ð°Ð»Ð¸Ñĩ Ð¸Ð¸
ĠÐŀÐºÑĤ Ð°Ð²Ð¸
ĠÐ±ÑİÐ´Ð¶ ÐµÑĤÐ°
) )
e v
Ð°ÑĢ ÑĳÐ¼
ÑĩÐµ ÑģÐºÐ¾Ð¼Ñĥ
ĠÑį ÑĦÐ¸
ĠÐĲ Ð²Ð¸
ĠÑĥÐ¿ Ð°Ð´
ic k
ĠÐ°ÑĢÑħ Ð¸Ð¿ÐµÐ»
ĠÑĥÑģÑĤÐ°Ð½Ð¾Ð² ÐºÐ¸
ĠÐ¾Ð±Ð½Ð°ÑĢÑĥÐ¶ ÐµÐ½Ñĭ
ĠÑĩÐµÐ»Ð¾Ð²Ðµ ÑĩÐµÑģÐºÐ¾Ð³Ð¾
Ð¿ Ð°Ð½
ÐµÑĢ Ð²Ð°
ÐµÐ¼ Ð»ÐµÐ¼
ĠÐŁ Ð°Ð»Ðµ
ĠÐļ Ð²
ÐĴ Ð¾Ð»
ĠÐºÐ¾Ð½ÑĨ Ð¾Ð²
ĠÐ°ÑĤÐ¾Ð¼ Ð°
ĠÐ·Ð¾Ð»Ð¾ÑĤ Ð¾
ĠÐ¿Ð¾Ð²ÑĭÑĪ ÐµÐ½Ð¸Ðµ
ĠÐ´ÑĥÑĪ Ñĥ
ĠÑģÐ¾Ð¾ÑĢÑĥÐ¶ ÐµÐ½Ð¸Ð¹
ĠÐ½Ð°Ð³ ÑĢÐµÐ²
ĠÐ¿Ð¾Ð·Ð½ Ð°Ð½Ð¸Ñı
ĠÐĴÐ¾Ð·Ð¼Ð¾Ð¶ Ð½Ð¾
Ð°Ð» Ð°Ð¼Ð¸
ÑĪ Ð°Ñħ
ĠÐ± Ð»Ðµ
ĠÐ¡ ÐµÐ³
ÑģÑĥ Ð°
ĠÐ·Ð°Ð²Ð¸ÑģÐ¸Ð¼ Ð¾ÑģÑĤÑĮ
ĠÑĥÐ¿Ð¾ÑĤÑĢÐµÐ± Ð»Ñı
ĠÑĢÐ°ÑģÑĪÐ¸ÑĢ ÐµÐ½Ð¸Ñı
ĠÐ¡Ð²ÐµÑĢÐ´ Ð»Ð¾Ð²
Ðº Ð¾ÑĢÑĤ
Ñħ Ðµ
ÐµÐ»ÑĮ Ð½Ð¾
Ð¾Ð»ÑĮ Ð½ÑĭÐµ
ĠÐł Ð¾Ðº
ÐŁ Ðŀ
ĠÐ¿Ð¾Ð¿ Ð°Ð´
ĠÐ¼ÑĥÐ·Ñĭ ÐºÑĥ
ĠÐ»ÐµÑģ Ð¾Ð²
ĠÐ¿Ð¾Ð´Ð¿Ð¸Ñģ Ð°Ð»Ð¸
Ð¾ÑĢÑıÐ´ Ð¾Ñĩ
ĠÐºÑĢÐ°ÐµÐ² ÐµÐ´
ĠUnivers ity
Ġ ÑģÑĤÐ²
ÑĦ ÐµÑģÑĤÐ¸
ĠÑģÑĤ ÑĢ
ĠÑĢÐµ Ð¶Ðµ
ÑĢÐµÐ½ Ð±ÑĥÑĢÐ³
ĠÐ³ÑĢÐµ ÑĩÐµÑģÐºÐ¾Ð³Ð¾
ĠJ ava
ĠÑģÑĥÐ¼ Ð¼Ñĥ
ĠÐ¼Ð¾Ð»Ð¾Ð´ ÑĭÑħ
ĠÐ³ÑĢÐ°Ð½Ð¸ÑĨ Ð°Ñħ
ĠÐºÐ¾Ð¼Ð¸Ñģ ÑģÐ¸Ñı
e ar
Ð¼ Ð¼
ĠÑģ ÑĦÐµÑĢ
ÑģÐº ÑĢÐ¸Ð¿
Ð»Ð° Ð´Ðµ
ĠÐļ Ð¾ÑĪ
ĠÐĵ Ð»Ð°Ð²Ð°
ĠÐ¿ÐµÑĢÐµ Ð¿Ð¸
ĠÐ¿ÑĢÐ¾Ð¸Ð· Ð²
Ðľ Ðŀ
ĠÐ´Ð¾Ð» Ð³Ð¾
ĠÐłÑĥÑģ ÑĮ
ĠÐ±Ð»Ð°Ð³ Ð¾Ð´
ĠÐľÐµÐ¶Ð´ÑĥÐ½Ð°ÑĢÐ¾Ð´ Ð½Ð¾Ð¹
ĠÐŀÑģÐ¾Ð± ÐµÐ½Ð½Ð¾
ĠÐ´Ð²ÑĥÐº ÑĢÐ°ÑĤÐ½ÑĭÐ¹
Ð½ ÐµÑĢÐ°
Ñģ ÑĢÐµÐ´
ĠÐ½Ð° ÐºÐ»Ð¾Ð½
Ð»Ð° Ð¶
ĠÐ¡ Ð±Ð¾ÑĢ
Ð°Ð² ÑĪÐµÐµ
ĠÑĢÐµ Ð°Ð»ÑĮÐ½Ð¾ÑģÑĤÐ¸
ĠÐĺ Ð¾ÑĢÐ´
19 30
ĠÑģÐ¾Ð² ÑģÐµÐ¼
ĠÑįÐº Ñģ
ĠÐ²ÑĭÑģ Ð¾ÑĤÐ°
Ð¸Ð³ Ðµ
ĠÑĢÐµÑĪ ÐµÐ½Ð¸Ñİ
ĠÑĦÐ¾ÑĤ Ð¾Ð¼
ĠÐ¼Ð¾Ð»ÐµÐº ÑĥÐ»ÑıÑĢ
Ð½ Ð°ÑĢÐ¾Ð´
Ðº Ð½ÑĥÑĤ
ĠÐļ Ð°ÑĪ
Ð¾Ðº Ð°Ð·
ĠÐľ Ð¾Ð´
ĠÐĶ Ð¸Ðº
ĠÐŀÑģ ÐµÑĤÐ¸Ð¸
ĠÑĨÐµÐ» Ð¾ÑģÑĤ
ĠÐĽÑĥ Ð½Ñĭ
ĠÐ¿ÑĢÐµÐ¼Ð¸ Ñİ
ĠÑĢÐ¾Ð¼ Ð°Ð½Ðµ
ĠÐ²Ð°ÑĢÐ¸ Ð°Ð½ÑĤÐ°
ÑĪÐ¸ ÑĢÑı
ĠÐ¸ÑģÐ¿Ð¾Ð»Ð½ ÐµÐ½Ð¸Ñı
ĠÑģÐ¿Ð¸ ÑģÐºÐµ
ÐĹÐ¾Ð»Ð¾ÑĤ Ð¾Ð¹
ĠÐ´Ð¸ÑģÑĨÐ¸Ð¿ Ð»Ð¸Ð½
ĠÐ¡ÑĤÐ°Ð½Ð¸ ÑģÐ»Ð°Ð²
Ð½Ð¾ ÑĪÐµ
Ð¸Ð¼ Ð¾Ð³Ð¾
ĠÐ§ Ð»ÐµÐ½
ĠÐµÐ´Ð¸Ð½ Ð¾Ð³Ð¾
ĠÑĥÑģÑĤÐ°Ð½Ð¾Ð² Ð¸ÑĤÑĮ
ĠÐ¡Ð°Ð¼ ÑĭÐ¹
ĠÑģÐ¾Ð» Ð´
ĠÐºÐ¾Ð»Ð¾Ð½ Ð¸Ð¸
ÐķÐ¡ ÐļÐŀ
Ġ on
ĠÑģ ÐµÑĢÐ¸Ð¹
ÑĤÐ¸ Ð·
ÑĤÐ° ÑĨÐ¸Ñı
Ð²ÐµÑĢ Ð¶ÐµÐ½
ĠÐ´ÑĢÑĥÐ³ ÑĥÑİ
ĠÑĦÐ¸Ð»Ð¾ÑģÐ¾ÑĦ Ð¸Ñı
ĠÑĦÐ¸Ð»ÑĮ Ð¼Ñĭ
ĠÐ®Ð¶ Ð½Ð°Ñı
ĠÐ¼Ð¾Ñī Ð½Ð¾ÑģÑĤÑĮ
ĠÑħÑĥÐ´Ð¾Ð¶Ðµ ÑģÑĤÐ²ÐµÐ½Ð½Ð¾Ð¹
ĠÐľÐ°ÑĤ ÐµÐ¼Ð°ÑĤ
Ð¿ Ð°Ð½Ð¸Ñı
ĠÐ³ Ð¸
ĠÐļ ÑĥÐº
Ð¸Ð¹ ÑģÐºÐ¸Ñħ
ĠÐ¿Ð¾ÑģÑĤ Ð°
ĠÐ¿Ð¾Ð· Ð²Ð¾Ð½
ĠÐ¿ÑĢÐ¸Ð² ÐµÐ»Ð°
ĠÐ±Ð»Ð°Ð³ Ð¾Ð¿ÑĢÐ¸ÑıÑĤ
ĠÑĥÑĩÐ°ÑģÑĤÐ¸ Ð¸
ct ion
ĠÐ¿ÑĢÐ¸Ð¾Ð± ÑĢÐµ
ĠÐĳÑĢÐ°Ð·Ð¸Ð»Ð¸ Ð¸
ĠÐ´Ð¾ÑģÑĤÐ¾ Ð¸Ð½
p l
Ġ {
Ñİ Ðº
ĠÐ½Ðµ ÑĢÐ°Ð·
ÐĲ Ð¢
ĠÐ¿Ð¾ÑģÑĤ Ñĥ
ĠÑĥÐ³ Ð»Ñı
ĠÐ¼Ð¾Ð½ ÐµÑĤÑĭ
ĠÐºÐ¾ ÑĩÐµÐ²
ĠÐ¸Ð½ÑģÑĤÑĢÑĥÐ¼ÐµÐ½ÑĤ Ð¾Ð²
ĠÐ¾Ð»Ð¸Ð¼Ð¿Ð¸Ð¹ ÑģÐºÐ°Ñı
ĠÑįÐºÑģÐ¿Ð»ÑĥÐ°ÑĤÐ° ÑĨÐ¸Ð¸
ĠÐ°Ð²ÑģÑĤÑĢÐ¸Ð¹ ÑģÐºÐ¸Ð¹
- ,
Ð¸Ð½ Ð³Ð°
Ð¾ÑĤ ÑĢÐ¾Ð¿
Ð°ÑĢ Ð´Ð¾Ð²
ĠÑĢÐ°Ð·Ð² Ð¸Ð²Ð°ÐµÑĤÑģÑı
ÑĮÑı Ñħ
ĠÑįÐ»ÐµÐºÑĤ ÑĢÐ¾Ð¿
ĠÑĢÐ¾Ð´ Ð¾Ð²
Ġ188 8
ĠÑĥÑĤÐ²ÐµÑĢÐ¶Ð´ ÑĳÐ½
ĠÐ²Ð½ÐµÑĪ Ð½Ð¸Ñħ
Ð½Ð¾Ñģ Ð»Ð°Ð²ÑıÐ½
ĠÐ²Ð¾ÑģÑģÑĤÐ°Ð½Ð¾Ð² Ð»ÐµÐ½Ð¸Ñı
ĠÐ¿ÑĢÐµÐ¿Ð°ÑĢÐ° ÑĤÐ¾Ð²
ĠÐ°ÑįÑĢÐ¾Ð¿ Ð¾ÑĢÑĤÐ°
ĠÐłÐ°Ð½ ÐµÐµ
Ð°ÑĤ Ð¸Ñı
ĠÐ¡ Ð¾ÑģÑĤÐ°Ð²
Ð°Ñı Ð½
ÑĢÐ°Ð· Ð¸Ð»ÑĮ
ĠÐºÑĥÐ»ÑĮÑĤÑĥÑĢ Ð½Ð¾Ð³Ð¾
ĠÐŀÑģÐ½Ð¾Ð² Ð½ÑĭÐ¼Ð¸
ĠÐ°Ð²ÑĤ Ð¾Ð´
im e
Ð¿ÑĢÐ¾ Ð¸Ð·
ĠÐłÐ°ÑģÐ¿ ÑĢÐ¾ÑģÑĤÑĢÐ°Ð½
ĠÐĹÐ°ÐºÐ¾Ð½ Ð¾Ð´Ð°ÑĤÐµÐ»ÑĮ
ĠÑĤÐµÑģ Ð½Ð¾
ĠÑĢÐµÑĦÐµÑĢ ÐµÐ½Ð´Ñĥ
ĠÐ£ÐºÐ°Ð· Ð¾Ð¼
ĠÑĤÐ²Ð¾ÑĢÑĩÐµ ÑģÑĤÐ²Ðµ
y n
Ð° Ð¾
Ð³ ÑĥÐ±ÐµÑĢÐ½
ÐµÑĢ Ð½Ð¾Ð³Ð¾
ĠÐ¾ÑĤ Ð»Ð¾Ð¶
ĠÐĲ Ñį
ĠÑĨ ÐµÐ½Ð½Ð¾
19 17
ĠÐŁÑĢÐ¾ Ð¸Ð·
ĠÑĨÐ°ÑĢ ÑĳÐ¼
ĠÐ°Ð´Ð¼Ð¸Ð½Ð¸ÑģÑĤÑĢÐ°ÑĤÐ¸Ð² Ð½ÑĭÐ¹
ĠÐ¼ÐµÐ´Ð¸ÑĨ Ð¸Ð½Ðµ
ĠÐ¿Ð¾Ð»ÑĮÐ·Ð¾Ð² Ð°ÑĤÐµÐ»ÐµÐ¹
ĠÐ¿ÑĢÐ¸ÑģÑĥÑĤÑģÑĤÐ² Ð¸Ð¸
ÐµÑĢ Ð½ÑĭÑħ
Ð¾Ð½ Ð¸Ð¹
ĠÐŁ ÑĢÐ°Ðº
ÑĤÐ¸ Ð²Ð¸
ĠÐĵ Ðŀ
ÑĨÐ¸Ð¾Ð½ Ð½ÑĭÐ¼Ð¸
ĠÐ¾Ð±ÑĢÐ°Ð·Ð¾Ð² Ð°Ð½Ð¸Ð¸
ÐŃ Ðº
ĠÐ¿Ð¾Ð³ ÑĢÐµÐ±
ĠÐ¿ÑĢÐ¾Ð´Ð¾Ð»Ð¶ Ð¸ÑĤÐµÐ»ÑĮÐ½Ð¾ÑģÑĤÑĮ
ĠÐłÑĥÑģ ÑģÐºÐ°Ñı
ĠÐ¸Ð³ÑĢÐ° ÑĤÑĮ
ĠÐĴÐ»Ð°Ð´ Ð¸Ð²
Ð°ÑĤ ÑĥÑĢÑĭ
Ġ1 15
ĠÐ¿Ð¾Ñģ Ð¾Ð±
ĠÐ²ÑĢÐµÐ¼ ÐµÐ½
ÑĢÐ¾Ñģ Ð¸Ð»
ĠÐĲÐ»ÐµÐºÑģÐ°Ð½Ð´ ÑĢÐ¸Ð¹
ĠÐ¿ÑĢÐ¸Ð¼ÐµÐ½ ÑıÑİÑĤ
ĠÐ½ÐµÐ±Ð¾Ð»ÑĮÑĪ Ð¸Ðµ
ĠÑĤÐµÑħÐ½Ð¸ÑĩÐµ ÑģÐºÐ¸Ñħ
ĠÐ²Ð¸Ð½ ÑĤÐ¾Ð²
ĠÐºÐ°Ð»ÐµÐ½Ð´ Ð°ÑĢÑĮ
ĠÐ½Ð°Ð³ÑĢÐ°Ð¶Ð´ ÑĳÐ½
ĠÑĥÑī ÐµÑĢÐ±
ÑĦ ÑĢÐ°Ð½
Ðł Ðŀ
ĠÐ°Ðº Ðº
ĠÐ²Ð¾ÐµÐ½ Ð½ÑĥÑİ
ĠÐľÐ°ÑĢ ÐºÐ°
Ð¾ÐµÐ² ÑĢÐ¾Ð¿ÐµÐ¹
Ġ187 8
ĠÐĴÐ¾Ð» Ð³
ĠÐ°Ð· Ð¾ÑĤ
ĠÐ¿ÑĢÐµÑģÑĤ Ð¾Ð»Ð°
ĠÐ¿Ð¾Ð»ÐºÐ¾Ð²Ð¾Ð´ ÐµÑĨ
Ð» ÐµÑĢÐ¾Ð²
ĠÐ³ Ð»Ð¸Ð½
Ð¾Ð½ Ð¾Ð²Ð°
ĠÐ¡ Ð°Ð¹
ÐµÑĩ ÐµÐ½Ð¸Ðµ
ĠÐºÐ¾Ð»Ð¸ÑĩÐµ ÑģÑĤÐ²Ðµ
ĠÐ·Ð°Ñħ Ð²Ð°ÑĤÑĭ
ĠÐ²Ð¾Ð·Ð²ÑĢÐ°Ñī ÐµÐ½Ð¸Ñı
ĠÐŁÐ»Ð°ÑĤ Ð¾Ð½Ð°
ĠÐ²ÐµÑĢÐ½ÑĥÑĤÑĮ ÑģÑı
Ð¼ Ð°Ñģ
Ð¼Ð° ÑĪ
Ð»ÐµÐ½ Ð½ÑĭÐ¼
ĠS ch
Ġ9 9
ĠÐĲÑĢ ÑĤÑĥÑĢ
ĠÐ¼Ð½Ð¾Ð³ Ð¾Ð»ÐµÑĤ
Ð½ÐµÐ² Ð¾ÑģÑĤÐ¾Ñĩ
ĠÐ²Ð½ÑĥÑĤÑĢÐµÐ½ Ð½ÐµÐ³Ð¾
ĠÑģÐµÑĢÐµ Ð±
ĠÐĶÐ°Ð² Ð¸Ð´
ĠÐĺÑģÐ¿Ð¾Ð»ÑĮÐ· Ð¾Ð²Ð°Ð½Ð¸Ðµ
Ð¾Ð± ÑĬ
ĠÐ¾ÑĤ Ð¼ÐµÐ½Ð¸
ÐµÐ² ÑĢÐ°Ð»ÑĮ
ĠÐºÐ°Ðº Ð¾Ð³Ð¾
ÑĦÐ¾ÑĢ Ð¼Ñĭ
ĠÐ½ÐµÐºÐ¾ÑĤÐ¾ÑĢ ÑĭÐ¼Ð¸
ĠÐ¼Ð¾Ð» Ð¸ÑĤ
ĠÐ³ÐµÑĢ Ð¾ÐµÐ²
ĠÐłÑĥÑģ ÑģÐºÐ¾Ð³Ð¾
ĠÑĤÑĢÑĥ Ð´Ñĭ
ĠÐ±ÐµÑĢÐµ Ð¼ÐµÐ½
ĠÐ·Ð°Ñħ Ð¾ÑĢÐ¾Ð½
ĠÐ¿Ð¾Ð´Ð³Ð¾ÑĤÐ¾Ð² ÐºÐµ
ĠÐ°Ð· Ð¾ÑĤÐ°
ĠÐ´ÐµÑģÑıÑĤÐ¸ Ð»ÐµÑĤ
ĠÑģÐµÐ³ Ð¼ÐµÐ½ÑĤ
ĠÑģÐ¾Ð¾Ð±ÑīÐµ ÑģÑĤÐ²Ð°
ĠÐºÐ¾ÑįÑĦÑĦÐ¸ÑĨÐ¸ ÐµÐ½ÑĤ
Ð¸ ÑģÑı
ĠÑģ Ð½Ð¾
ĠÐ¿ÑĢÐ¸ Ð¼Ðµ
ĠÐĿ ÐµÑģÑĤ
ĠÐ²Ñĭ Ð³Ð»ÑıÐ´
ĠÐ·Ð° Ð³Ð¾Ð²
ĠÐ¿Ð¾Ð´ Ð»ÐµÐ¶
ĠS er
ĠÐ£ÐºÑĢÐ° Ð¸Ð½Ñĥ
ÑıÐ½Ð° Ð¼Ð¸
ĠÑįÐ½ÑĨÐ¸ÐºÐ»Ð¾Ð¿ÐµÐ´ Ð¸Ð¸
ÑĢÐ° Ð»Ð¸
ĠÐ³ Ð¾ÑĢÐ°Ñħ
ÑĪ ÐµÐ½Ð¸
Ð»Ð° Ð´Ð°
ĠÐĳ Ð°Ð·
ĠÑĢ Ð¾Ð¶Ð´
ĠÐºÐ°Ðº Ð¸Ð¼
ĠÐ¸ÑģÑĤÐ¾ÑĢÐ¸ ÑĩÐµÑģÐºÐ¸Ð¹
Ð¾Ñħ Ð°
ĠÑĤÐµÐ°ÑĤ ÑĢÐµ
Ġ186 3
ĠÑģÐ¾ÑĤÑĢÑĥÐ´ Ð½Ð¸ÐºÐ¾Ð²
ĠÑģÑĢÐ°Ð¶ ÐµÐ½Ð¸Ð¸
ĠÐĴÐ¿ ÑĢÐ¾ÑĩÐµÐ¼
ĠÐ¾Ð±Ð¼ÐµÐ½ Ð°
ĠÐ¸Ð·Ð´ÐµÐ» Ð¸Ñı
Ñĩ Ð¸ÑĤÐ°ÐµÑĤÑģÑı
ĠÐ¡ Ð°ÑĤÑĥÑĢ
Ð¾ÑģÑĤ Ð°Ð½Ð¾Ð²
ÐµÑģ ÑĥÑį
ĠÐ¸Ð·Ð²ÐµÑģÑĤ Ð½Ð¾Ð¹
ĠÐ¾Ð±ÑıÐ· Ð°ÑĤÐµÐ»ÑĮÐ½Ð¾
ĠÐ¾Ð±ÑĬÑıÐ² Ð»ÐµÐ½Ð¾
ĠÐ¡Ð¾Ð» Ð¾Ð¼
ĠÐŁÐ°Ð¿ Ð°
Ð»ÑĮ Ð½ÑĭÐ¼
ĠÐ£ ÑģÑĤÑĮ
ĠÐ§ ÑĤÐ¾
Ġ6 3
ĠC D
ÑĢÐ°Ñī ÐµÐ½Ð¸Ñı
ĠÐ½Ð°Ð´ Ð¿Ð¸ÑģÑĮ
ĠÐ¼Ð¾Ð´ ÐµÑĢÐ½Ð¸
ĠÑĥÑĩÐ°ÑģÑĤ ÐºÐ¸
ĠÐ¡Ð¾Ð± Ð¾ÑĢ
ÑĥÑģÐºÐ° ÐµÑĤÑģÑı
ÐĻÐ¾ÑĢ ÐºÐµ
Ñĥ ÑģÑĤÐ¸Ð¼
ĠÑĤ Ñī
Ð¼Ð° Ð¼Ð¸
ĠÐŁÑĢÐ¸ Ð¼Ð¾ÑĢ
ÐĴ Ðŀ
ĠÑģÐ¾ÑģÑĤÐ°Ð²Ð»Ñı Ð»
ĠÐ¿ÑĤÐ¸ ÑĨÑĭ
ĠÐ°ÑģÑģÐ¾ÑĨÐ¸ Ð°ÑĨÐ¸Ð¸
ĠÑĪÐ¾Ñģ ÑģÐµ
ĠÐ®ÐĿ ÐķÐ¡ÐļÐŀ
S S
Ð² Ð°Ð»Ð°ÑģÑĮ
ĠÑĤ ÑĢÐ¾
ĠÐĺ ÑĢÐ°Ð½Ð°
ÑĥÑĩ ÐµÐ½Ð¸Ðµ
ĠÐ´Ð¾Ð» Ñİ
ĠÑģÐ¾Ð²ÐµÑĢÑĪ ÐµÐ½
ĠÐ´Ð¸ÑģÑĤ Ð°Ð½
ĠÐ¿ÑĢÐµÑĤ ÐµÐ½Ð´
Ð¼ ÑĥÑİ
ĠÐ² ÐµÑĢÐ¸
ĠÐ² ÑĥÐ·Ð¾Ð²
ĠÐĴ Ð¸ÑĢ
ĠÐ» Ð¸Ð²
ĠÑĩÐµÐ¼ Ñĥ
ĠÐ´Ð° ÑİÑĤ
ÑĥÑģÑĤ ÑĢÐ¾Ð¹
ĠÐ°ÐºÑĤÐ¸Ð² Ð½Ð¾ÑģÑĤÑĮ
ĠÑĢÐµÐ´Ð°Ðº ÑĤÐ¾ÑĢ
ĠÐ¡Ð¾Ð²ÑĢÐµÐ¼ÐµÐ½ Ð½ÑĭÐµ
ĠÐ°ÑĥÐ´ Ð¸ÑĤ
ĠÐ°Ð½Ð³Ð»Ð¸Ñĩ Ð°Ð½
c ol
ĠÐ´ ÐµÑģ
ĠÐļ ÐĵÐĳ
ĠÐ¾Ð±ÑĬ ÑıÐ²Ð¸Ð»Ð°
ĠÑĥÐ³ Ð»ÐµÐ²
ĠÐºÑĢÐ¸ Ð¿
ÑģÑĤÐ¾Ñı Ñī
ĠÑĢÐ°ÑģÐ¿Ð¾Ð»Ð¾Ð¶ ÐµÐ½Ð¾
ĠÐ¿ÐµÑĢÐµÐ²Ð¾Ð´ Ð°
198 4
ĠÐ²Ð°ÑĢÐ¸ Ð°Ð½ÑĤÑĭ
ĠÐķÐ»Ð¸Ð·Ð°Ð² ÐµÑĤÐ°
ĠÐĲÐ±Ð´ ÑĥÐ»
ĠÐ¿ÑģÐµÐ²Ð´ Ð¾Ð½Ð¸Ð¼
ĠÐ·Ð°ÑħÐ²Ð° Ñĩ
Ã Ĺ
Ð¾Ð² ÑĭÐ¼Ð¸
ĠÐļ Ð¾Ð±
Ð°Ð² ÑĪÐµÐ¹ÑģÑı
ĠÐľ Ð½Ð¾Ð³Ð¾
ĠÐĵ ÐĶÐł
Ġ18 30
ĠÐ¨ ÐµÐº
ĠÑģÐ¸Ð¼Ð²Ð¾Ð» Ð¾Ð¼
ĠÑĢÐ°ÑģÑĤ ÐµÐ½Ð¸Ñı
ĠÐ½Ð¸Ð· ÐºÐ¾Ð¹
ĠÑĢÐ¸Ð¼ Ð»Ñı
ĠÐ·Ð½Ð°Ðº Ð¸
ĠÐĺÐ¼ Ñı
ĠÐ³Ð¾Ð¼ Ð¾ÑģÐµÐºÑģÑĥ
ĠÐ£ÑĩÐ°ÑģÑĤ Ð½Ð¸ÐºÐ¸
Ġ Å
ĠÐº ÐµÑĢÐ°Ð¼Ð¸
Ð¾Ð»Ð¾Ð³ Ð¸ÑĩÐµÑģÐºÐ¸
ĠÐ½Ð°Ð·Ð² Ð°Ð½Ð°
ĠÐ½ÐµÐ¼ ÑĨÐµÐ²
ĠÐ¿Ð¾ÑģÐ»ÐµÐ´ ÑĥÑİÑīÐ¸Ðµ
ĠÐ½ÐµÐ´ Ð°Ð»ÐµÐºÐ¾
ĠÐ¿Ð¾ÑģÑĤÐ¾ÑıÐ½ Ð½Ð¾Ð¹
ĠÐºÐ¾ÑģÐ¼Ð¾Ð½Ð°Ð² ÑĤÐ¾Ð²
ĠÐ´ÐµÑĢÐµ Ð²Ð¾
Ð² ÑĪÐ°Ñı
ĠÐ½Ð° Ð³ÑĢÐ°Ð´
ĠÐŁ ÑĢÐµÑģ
ÐµÐ´ Ðµ
ĠÐļ Ð°ÑģÑĤ
ĠÐ» ÑİÑĤ
ĠÐ³Ð¾ÑĢÐ¾Ð´ ÑģÐºÐ°Ñı
ĠÑĩÐµÐ»Ð¾Ð²ÐµÐº Ñĥ
ĠÑĤÑĢÐ¸ ÑĥÐ¼
ĠÐ²ÐµÐ´ ÑĥÑīÐ¸Ñħ
ĠÑģÐ¾Ð¾Ð±Ñī Ð¸Ð»
ĠÑĤÑĥ ÑĢÐµ
ĠÑĢÐµÐ³Ð¸Ð¾Ð½ Ð°Ñħ
ĠÐ»ÑĳÐ³ ÐºÐ¸Ñħ
ÑĢÐ° Ñı
ĠÐºÐ¾Ð½ ÑģÑĤÑĢÑĥÐºÑĤÐ¾ÑĢ
ĠÐ£ ÑĤ
ĠÐ¿Ð¾Ð»Ð¾Ð¶ ÐµÐ½Ð¸Ð¸
ĠÐ´Ð°Ð² Ð»ÐµÐ½Ð¸ÐµÐ¼
ĠÑĢÐ°Ð²Ð½Ð¾Ð² Ðµ
? Â»
ĠÐ² Ð¾ÑĢÐ¾ÑĤ
Ñį ÑĪ
ĠÑĩ ÑĥÑĤÑĮ
ĠÐĽ Ð¸Ð´
ĠÐ¿Ð¾Ð´ ÑĬÑĳÐ¼
ĠÐ°ÐºÑĤ Ñĥ
ĠÐ¿ÑĢÐµÐ·Ð¸Ð´ÐµÐ½ÑĤ ÑģÐºÐ¸Ñħ
ĠÐ·Ð°Ð²Ð¾Ð´ Ðµ
ĠÑĦÐ¾ÑĢÐ¼ Ð¾Ð¹
ĠÑĦÑĥÑĤÐ±Ð¾Ð» Ñĥ
ĠÐºÐ½ÑıÐ¶Ðµ ÑģÑĤÐ²Ð¾
Ð¶Ñĥ Ð°Ð·
ĠÑģÐ¾ÑĩÐµÑĤ Ð°Ð½Ð¸Ð¸
ĠÑįÐºÑģÐ¿ÐµÐ´Ð¸ ÑĨÐ¸Ñı
ĠÐ£Ð½Ð¸Ð²ÐµÑĢÑģÐ¸ÑĤ ÐµÑĤ
ĠÐ¿ ÑĢÑĥÑģ
ĠÑĤ Ð¸ÑĤÑĥ
ĠÐŁ ÑĢÐ¾ÑģÑĤ
ĠÐ¿Ð°ÑĢ Ð¾ÑħÐ¾Ð´
ĠÐ²ÑĭÑģ ÑĪÐµÐµ
ĠÐ½Ð°Ð·Ð² Ð°ÑĤÑĮ
ĠÐ½Ð°Ð¿ÑĢÐ°Ð² Ð»ÐµÐ½Ð¸Ð¹
ÑĭÐ²Ð° ÑİÑĤÑģÑı
ĠÑģÐ»Ð¾Ð¶ Ð½ÑĭÑħ
Ġ184 8
ĠÐ¿ÑĢÐ¸ÑĤ Ð¾Ðº
ĠÐ¦ÐµÐ· Ð°ÑĢÑı
ĠÐĳÐµÑĢÐ»Ð¸Ð½ Ðµ
ĠÂ« Â»
ĠÐļ ÑĥÑĤ
ĠÐĳ Ð¾Ð±
ĠÐ¢ ÐŃ
us e
ĠÐ¡ÐµÐ²ÐµÑĢ Ð½ÑĭÐ¹
ĠÐºÐ¸ÑģÐ»Ð¾ÑĤ Ð°
ĠÐ·Ð°ÑħÐ²Ð°ÑĤ Ð¸Ð»
Ð±Ñİ ÑĢÐ¾
ĠÐĿÐµÐº ÑĢÐ°ÑģÐ¾Ð²
ĠÐ°Ð½Ð¸ Ð¼Ðµ
ÐµÐ½ Ñĥ
ĠÐ· Ð»Ð¾
Ð¸Ð» ÐµÐ¼
ĠÐľ ÐµÐ¹
Ð¾Ð»ÑĮ Ð½Ð¾Ð¹
ĠÑħ Ð°
ÑĢÐ°Ð¶ ÐµÐ½Ð¸Ðµ
Ð¤ ÐĲ
ĠÑįÑĤÐ¸ Ð¼Ð¸
Ð¸Ð³ ÑĢÐ°Ð½
Ð¼ÐµÑĤ Ð°Ð»
Ð½Ð¸ÑĩÐµ ÑģÑĤÐ²Ð¾
ĠÐľÐ°ÑĢ ÑĪÐ°Ð»
ĠÐĲÐ»ÑĮ ÑĦÑĢÐµÐ´
ĠÐ¢Ðµ Ð°ÑĤÑĢ
ĠÐºÐ¸ÑĢ Ð³Ð¸Ð·
ĠÑĦ Ð»Ð°Ð³Ð°
ĠÐĽ ÑĥÐº
ĠÐ® ÑīÐµÐ½ÐºÐ¾
Ð¸ÐºÐ° Ð¼
ĠA s
ĠÐ±ÑĥÐ´ Ð´Ð¸Ð¹
ĠÐ¸Ð·Ð´ Ð°Ð²
ĠÐ¾Ñĩ Ð¸ÑģÑĤ
ĠÑģÐµÐ²ÐµÑĢ Ð½ÑĭÑħ
ĠÑĥÐ²ÐµÐ»Ð¸Ñĩ ÐµÐ½Ð¸Ñı
ĠÐ¿Ð»Ð¾ÑĤ Ð½Ð¾ÑģÑĤÐ¸
ĠÐ½Ð°Ð½ Ð¾Ñģ
ĠÐ¿ÑĢÑıÐ¼Ð¾ ÑĥÐ³Ð¾Ð»ÑĮ
ĠÐŀÐºÑĤÑıÐ±ÑĢÑĮ ÑģÐºÐ¾Ð¹
ĠÐĴÐĺ Ð§
Ð¸ ÑĢÐ°Ð½
ĠÐĳ Ð¸Ð±Ð»Ð¸Ð¾ÑĤ
ĠÑħ Ð°Ð·
Ð°Ð¼Ð¸ Ð»ÑĮ
ÑĤÐ¾Ð² ÑĭÑħ
ĠÐ¾Ð· ÑĳÑĢ
ĠÑįÑĦÑĦ ÐµÐºÑĤÑĭ
ĠÐ¿ÑĢÐ¾Ð´ÑĥÐºÑĤ Ñĭ
Ðº Ð½Ñĥ
ÐµÐ½ ÑĨÐ¸Ñİ
ĠÐ½ ÐµÐ»
Ð³ Ð¸Ð¹
Ð°ÑĢ Ñİ
ĠÂ« âĢ¦
ĠÐ·Ð° ÑģÐµÐ»
ĠH e
ĠÑģÐ¸Ð¼Ð²Ð¾Ð» Ñĭ
ĠÐ½ÐµÑģÐºÐ¾Ð»ÑĮ ÐºÐ¸Ð¼Ð¸
ĠÑģÐ¾ÑĨÐ¸ Ð°Ð»
ĠÐ»Ð¸ÑĤÐµÑĢÐ°ÑĤÑĥÑĢ Ð½Ð¾Ð³Ð¾
ĠÑĩÐµÐ»Ð¾Ð²Ðµ ÑĩÐµÑģÐºÐ¾Ð¹
ĠÐ¾ÐºÐ°Ð·ÑĭÐ²Ð° ÐµÑĤ
ĠÐĲÐ·ÐµÑĢÐ±Ð°Ð¹Ð´Ð¶ Ð°Ð½Ð°
ĠÑģÑĦÐ¾ÑĢÐ¼Ñĥ Ð»Ð¸ÑĢÐ¾Ð²
ã ģ
Ð½Ð¸ Ñģ
Ð¾ÑģÑĤ ÐµÐ¿
ĠÐ¶ Ð¸Ð»ÑĮ
Ð¾Ñĩ Ð°Ð¹
Ġ% ;
Ð´Ð¸Ð½ Ð³
ĠÐ·Ð½Ð°Ñĩ ÐµÐ½Ð¸Ð¸
ĠÐ°Ð½Ð³ Ð»Ð¾
ĠÑĥÑģÑĤÐ°Ð½Ð¾Ð² Ð»ÐµÐ½Ð¾
ĠÐ¿ÑĢÐ¾ÑģÐ¿ ÐµÐºÑĤ
ĠÑĢÐ°ÑģÑĪ Ð¸ÑĢÐ¸
Ã Ń
ĠÐ¸ ÑģÐºÐ°
ĠÐļ Ð¸Ð½Ð¾
ĠÐĲ ÐºÑĤ
ÐµÐ½ÑĤ Ðµ
ĠÐ¢ Ð¾Ð±
ĠÐ²Ð¸Ð´ ÐµÐ»
ÑĤÐ¸ÑĩÐµ ÑģÐºÑĥÑİ
Ð¸Ð²Ð° ÑİÑīÐ¸Ñħ
ĠÐĿÐ¾Ð² Ð¾Ðµ
ĠÑĪÐºÐ¾Ð» Ð°Ñħ
ĠÐ»ÑİÐ± Ð¾Ðµ
ĠW orld
ĠÑĢÐµÐ»Ð¸ Ð³Ð¸Ñı
ĠÑĢÐ°Ð½ ÐµÐ½
ĠÐ¾ÑĦÐ¸ÑĨÐ¸Ð°Ð»ÑĮ Ð½ÑĭÑħ
Ġ187 9
ĠÐ¾Ð³ Ð¾Ð½ÑĮ
ĠÐ®Ð¶ Ð½Ð¾
ĠÐĳÐµÐ»ÑĮ Ð³Ð¸Ð¸
ĠÐ¿ÐµÑĢÐµÐ²Ð¾ÑĢ Ð¾ÑĤ
ĠÐŁÑĢÐµÐ¿ Ð¾Ð´
ĠÐ¿ Ð¸ÑĢ
Ð¿ Ñģ
ĠÐº Ð¸ÐµÐ²
Ð½Ð¸ Ð³Ð¾Ð²
ĠÑģÑĤÑĢÐ¾ Ñı
il e
ĠÑıÐ´ÐµÑĢ Ð½Ð¾Ð³Ð¾
ĠÑģÐ»Ð° Ð±Ð¾
ĠÐ½Ð° Ð²Ð¾Ð´
ĠÐ¿ÑĢÐ¸ Ð¾ÑĢÐ¸ÑĤ
Ð¸Ð¼ Ñĭ
19 20
ĠÐºÐ¾Ð» Ð»Ðµ
ĠÐ²ÑĭÑģÐ¾Ðº Ð¸Ðµ
ĠÐ°ÑĤ Ð°Ðº
ĠÐ¾ÑĦÐ¸ÑĨÐ¸Ð°Ð»ÑĮ Ð½Ð¾Ð¹
Ð²Ð°Ð» Ñı
ĠÐºÐ¾Ð¼Ð¿ÑĮÑİÑĤ ÐµÑĢÐ¾Ð²
ĠÐ¼ÑĭÑģ Ð»ÑĮ
ĠÐ¿ÑĢÐ¾Ð¸ÑģÑħÐ¾Ð´ ÑıÑĤ
ĠÐĳÐ°ÑĪ ÐºÐ¾ÑĢÑĤ
ÑĢÐµ Ð²Ð°
ÐµÑĢ Ð½Ð°Ñı
ÑĦ Ð¸Ð»Ð¾ÑģÐ¾ÑĦ
ĠÐľ Ð°Ð¼
ĠÐĳ ÑĢ
ĠÐ¾Ð±ÑĢÐ°Ð· ÑĥÑİÑĤÑģÑı
ĠÐ·Ð°Ð² ÐµÐ´ÐµÐ½Ð¸Ñı
ĠÑĢÑĥÑģ ÑģÐºÐ¾
ĠÐŀÐ± Ð»Ð°
ĠÐ´ÐµÑıÑĤÐµÐ»ÑĮ Ð½Ð¾ÑģÑĤÑĮÑİ
Ð½Ð¸ÑĩÐµ ÑģÑĤÐ²Ð°
ĠÐ¿ÑĢÐ¸Ð¼ÐµÐ½ ÐµÐ½Ð¸Ð¸
ĠÑģÐ²Ð¾Ð±Ð¾Ð´ Ð½Ð¾Ð³Ð¾
ĠÐ´ÑĢ Ð¾Ð±
ĠÐ¿ÑĢÐµÐ´Ð¿Ð¾Ð»Ð¾Ð¶ Ð¸ÑĤÐµÐ»ÑĮÐ½Ð¾
ĠÑĥÑģÐ¸ Ð»Ð¸
ĠÐ§Ð¸Ñģ Ð»Ð¾
ĠÐºÐ°ÑĤÐ°ÑģÑĤÑĢÐ¾ ÑĦÐ°
ĠÑĢÐ°ÑģÑĤÐ²Ð¾ ÑĢÐ°
ĠÐ± ÑĥÐ»
ĠÐĵ ÑĢÐ¸Ð½
ÑģÐ¾Ð² ÐµÑĤÐ°
ĠÐ¿Ð¾Ð² ÑģÑĤÐ°Ð½
ĠÐĸ Ñĥ
Ð½Ð¾ÑģÑĤ ÑıÐ¼
ÑĭÐ² Ð°Ð»Ð¸
196 0
ĠÐ¼ÐµÐ» Ð¾Ð´
ĠÐ¿ÑĢÐ¾ÐµÐº ÑĤÐ¸ÑĢÐ¾Ð²
ĠÐ¥Ð°Ð± Ð°ÑĢÐ¾Ð²
Ñģ Ð±ÐµÑĢÐ³
ÑģÑĤÐ² Ð°Ð¼
ĠÐ¿ÑĢÐ¸ ÑģÑı
Ð´Ð° Ð¹
ĠÐ¤ Ð¸Ð»Ð°
ĠÑģÐ¿ Ð¸Ð½
ÐµÐ³ Ð°ÑĤÑĭ
ĠÐ·Ð°Ð¼ Ð¾Ðº
ĠÐķÐ²ÑĢÐ¾Ð¿ Ñĥ
ĠÐ½Ð°ÑĥÑĩ Ð½ÑĭÐ¹
ĠÑĥÑĩÑĳ Ð½Ð¾Ð³Ð¾
ĠÐ²Ð°Ð¶ Ð½ÐµÐ¹
ĠÐ½Ð¸Ðº ÑĤÐ¾
ĠÐ¾Ð±ÑĬÑıÑģÐ½Ñı ÐµÑĤÑģÑı
F F
l i
ĠÐ½ ÑĥÐ»
Ð°ÑĤ ÑĥÑĢÐ°
ĠÐ± Ð°Ð±
Ð½Ð¸ ÑıÑħ
ĠÐ¿Ð¾Ð´ ÐºÐ»ÑİÑĩ
ĠÐ¤ ÐłÐĵ
ĠÐĲÐ» Ð±
ĠÐ½Ð°Ð¿ÑĢÑı Ð¶ÐµÐ½Ð¸Ñı
ĠÐĴÑıÑĩÐµ ÑģÐ»Ð°Ð²
ĠÑģ ÐºÐµÐ¿
Ð¾Ð´ ÑĢÑĥÐ¶Ðµ
ĠÐŁ ÑĢÐ¾Ñģ
ĠÐ¾ÑĤ Ð½ÐµÑģ
ÐµÑģ Ð¾ÑİÐ·
ĠÐºÐ°Ð¼ ÐµÐ½ÑĮ
ĠÐ¸Ð·Ð±Ð¸ÑĢÐ° ÑĤÐµÐ»ÐµÐ¹
ĠÐľÐ¾ Ð¸Ñģ
ĠÐļÐµÐ¼ ÐµÑĢÐ¾Ð²
ĠÐ°Ð»Ð³ÐµÐ± ÑĢÐ°
ĠÐ¿Ð¾Ð·Ð½Ð°ÐºÐ¾Ð¼ Ð¸Ð»ÑģÑı
a u
Î »
ĠÐ² Ð²Ð¸Ð´Ñĥ
ĠÑĤ ÑĥÑĤ
ĠÐ° Ð¼Ð¸Ð½
ÐºÐ° Ð¹
ĠÑģÐº Ð°Ð½Ð´
ĠÐ²Ð¾ÐµÐ½ Ð½ÑĭÐ¼
ĠÐ¿Ð¾Ñĩ Ð²Ñĭ
ĠÐ±ÑĢÐ° ÐºÐ°
198 8
Ġ186 8
ĠÐ¿Ð¾Ð²ÑĭÑĪ ÐµÐ½Ð¸Ñı
ĠÐ³ÑĥÐ±ÐµÑĢ Ð½Ð¸Ñı
ĠÑĢÐ°Ð´Ð¸Ð¾ Ð°ÐºÑĤÐ¸Ð²
ĠÐ°ÐºÑģÐ¸ Ð¾Ð¼
Ð¸Ð½ÑĤÐµÑĢÐµ ÑģÐ¾Ð²
Ð² ÑĪÐ¸Ðµ
ĠÐ± ÐµÐ»ÑĮ
ĠÑį ÑģÑĤÐ¾Ð½
ĠÐ²ÐµÑĢ ÑĤ
ĠÑģÐ¾Ð²ÑĢÐµÐ¼ÐµÐ½ Ð½ÑĭÐ¹
ĠÑĩÑĤ ÐµÐ½Ð¸Ñı
ĠÐºÐ¾Ð¼Ð°Ð½Ð´ Ð¸ÑĢÐ°
ĠÐĵÐ¾ÑĢÐ¾Ð´ ÑģÐºÐ¾Ð¹
ĠÐ¿ÑĢÐ¾Ð²ÐµÐ´ ÐµÐ½Ð¸Ðµ
ĠÐ»Ð°ÑĤ Ð¸Ð½
ÑĪÑĥÑİ ÑģÑı
ĠÐ·Ð°Ð¼ÐµÑĤ Ð½Ð¾
ĠÑĦÐ¸ÑĢ Ð¼Ñĭ
ĠÑĥÑĢÐ¾Ð¶ Ð°Ð¹
ĠÐ¿ÑĢÐ¾Ð¿Ð¾ÑĢ ÑĨÐ¸Ð¾Ð½Ð°Ð»ÑĮ
Ð½ ÐµÐ½
ĠÐ½Ð° Ð´ÐµÐ»
ĠÐ¡ Ð°Ð±
ĠÐł ÐµÐ¼
ĠÐ£ ÑĢÐ°Ð»ÑĮ
ĠÐ§ ÐµÑĢÐ½
ĠÐ¾ÑĢÐ³Ð°Ð½Ð¸Ð·Ð° ÑĨÐ¸Ñİ
ĠÑģÐ¾Ð¾ÑĤÐ²ÐµÑĤÑģÑĤÐ² ÑĥÑİÑīÐ¸Ðµ
ÑĢÐ°Ð·Ð´ ÐµÐ»Ñı
ĠÐ²ÑĭÑĪ ÐµÐ´
ĠÐ±ÑĭÐ² ÑĪÐµÐ¹
ĠÐ¾Ð±Ð½Ð°ÑĢÑĥÐ¶ Ð¸Ð»
ĠÐ¿ÑĢÐ¾ÑħÐ¾Ð´ Ð¸Ð»Ð¸
ĠÑĢÐµÐ»Ð¸Ð³Ð¸Ð¾Ð· Ð½Ð¾Ð¹
ĠÑĥÑĩÐ¸Ð»Ð¸ ÑīÐ°
ĠÑģÑĤÑĢÐ¾Ðº Ð¸
ĠÐĽÐµÐ± ÐµÐ´
ĠÐ¢Ð°Ð´Ð¶ Ð¸ÐºÐ¸
ÑĢÐ¸ ÑĤÐ°
Ð¾Ð» Ð¾ÑģÐ¾Ð²
ĠÐĴ Ð¾Ð»ÑĮÑĦ
ĠÐ¡ ÐµÐ»
20 18
20 17
Ðĺ Ð·
ĠÑģÑĤÑĢÐ° Ð½Ð¸ÑĨ
ÐµÑĢÐ¼ Ð°Ð½
ĠÐ¾Ð±ÑĢÐ°Ð·Ð¾Ð² Ð°Ð½Ð°
ÐºÐ¾Ð» Ð°
ĠÐºÐ¾Ð½ÑĤ Ð°ÐºÑĤ
193 8
Ð¿ÑĢÐµÐ¶ Ð½ÐµÐ¼Ñĥ
ĠÐ½ Ð°Ð»Ð¸
ĠÐ´ Ð°ÑĢ
Ð¾Ñģ Ð¸ÑģÑĤÐµÐ¼
ĠÑģÐ² ÐµÑĢÐ³
ĠÑĢÐ°Ð· Ð³Ð¾Ð²Ð¾ÑĢ
Ġ5 7
ÑĥÐ» ÑģÑı
Ðľ Ðļ
ĠÑĩÐµ ÑĩÐµÐ½
Ġ6 8
ĠÑĤÐµÐ¼ Ñĥ
ĠÐ¿Ð¾Ð¿ Ð°Ð»
ĠÐ¿Ð¾ÑģÐ»ÐµÐ´ Ð½Ð¸Ð¼
ĠÐ¼Ð¾Ð½ Ð³Ð¾Ð»ÑĮ
ĠÐ²Ð¾Ð¿ÑĢÐ¾Ñģ Ð°
ĠÐĽÐ¸ÑĤÐµÑĢÐ° ÑĤÑĥÑĢ
ĠÐ¢Ðµ Ð°ÑĤ
ĠÑĨÐ²ÐµÑĤ Ð¾Ð²
ĠÐ°ÑĢÐµÑģÑĤ Ð¾Ð²Ð°Ð½
ĠÐ¾ÐºÑĢÐµÑģÑĤ Ð½Ð¾ÑģÑĤÑıÑħ
B C
ĠÐ» ÐµÑĤÐ°
ĠÐ±Ð¾Ð³ Ð¾Ñģ
ĠÐ´ÐµÐ¿ Ð°ÑĢÑĤ
Ġ186 4
ĠÑģÑĥÐ¼ Ð¼Ñĭ
ĠÐ¼Ð¾Ð»ÐµÐº ÑĥÐ»Ñĭ
Ð¿ Ð¾Ð¿
Ð± Ð¾Ð»ÐµÐµ
ĠÐļ Ð»Ð¸Ð½
ĠÐ¿Ð¾Ð» ÐµÐ¹
ĠÐ¾ÑģÐ½Ð¾Ð² Ð°Ð½Ð½ÑĭÐµ
ĠÐ½Ð°Ñģ Ð»ÐµÐ´Ð¾Ð²
ĠÐ»ÐµÑĤ Ð¾
ĠÑĤÑĢÐµ ÑĤÐ¸
ĠÐĽÑĥ Ð¸
ĠÐ´ÐµÑĢÐµÐ² Ð½Ðµ
ĠÐ³ÑĢÑĥ Ð½
ĠÐ¼ÐµÐ» ÐºÐ¸Ñħ
ĠÐŁÑĢÐ¸Ð¼ÐµÑĢ Ñĭ
Ð² Ð¸Ð½Ñĥ
ĠÐ² ÑģÑĤÑĢÐ¾
ÐµÐ»ÑĮ ÑĤ
ĠÐĵ Ð°Ð¼
ĠÐ¿Ð¾Ñģ Ð»Ð°Ð½
ÑĢÑı Ð¼
ĠÑĪ ÐµÑĢ
ÑĥÐ¼ Ð¾Ð²
Ð²Ð¾Ð´ Ð°
ĠÐ¿Ð°ÑĢ ÐºÐ°
on e
ĠÐ¡Ðº Ð¾ÑĢ
ĠÐºÐ°ÑĤ Ð°Ð»Ð¾Ð³
Ġ187 7
ĠÐ¾ÑĤÐºÑĢÑĭÑĤ ÑĭÐ¼
Ð°Ð»Ð¸ÑģÑĤ Ñĭ
ĠÑİÐ¶ Ð½ÑĭÑħ
ĠÐ¿Ð¾Ð´Ð¾Ð± Ð½ÑĭÐµ
ĠÐ¿ÑĢÐ¾ÑıÐ² Ð»ÐµÐ½Ð¸Ñı
ĠÐ´Ð¶ Ð°Ð·
ĠÐļÐ¸ÑĢÐ¸ Ð»
ĠÐ¤Ð¸Ð»ÑĮ Ð¼Ñĭ
ĠÐ ¹
Ð± ÑĭÑĪ
ĠÑĤ Ð°ÑĤ
ĠÐ¢ Ð¾Ð½
ĠÐĹ Ð¸Ð½Ð¾Ð²
Ð²Ð°Ð½ Ð³
ĠÐ£ÐºÑĢÐ° Ð¸Ð½ÑģÐºÐ¾Ð¹
ĠÑĢÐ°ÑģÐ¿Ð¾Ð»Ð¾Ð¶ ÐµÐ½Ð½ÑĭÐ¹
ĠÐ·Ð°Ð½ ÑıÐ»Ð°
193 9
ĠÐ¿Ð»ÐµÐ¼ ÐµÐ½Ð¸
ĠÐ°Ð»ÑĦÐ°Ð² Ð¸ÑĤÐ°
ĠÑģÑĥÐ±ÑĬ ÐµÐºÑĤÐ°
ĠÐŁÑĥÑĪ ÐºÐ¸Ð½
ÑĦ ÑĥÑĢ
Ð½Ð¸ Ð½Ñĭ
ĠÐ¢ ÐµÑģ
Ġ6 7
ĠÐ½Ð¾Ð² Ð¾Ð¼
ĠÐ¡ÑĤ ÑĢÑĥÐºÑĤ
ĠÐ¿ÑĢÐ¸Ð² ÑĳÐ»
ĠÐ´Ð¾Ð± Ð¸ÑĤÑĮÑģÑı
ĠÐŁÐµÑĢ Ñĥ
ĠÐ´Ð¾Ð¿Ð¾Ð»Ð½Ð¸ÑĤÐµÐ»ÑĮ Ð½ÑĭÐµ
Ñģ Ð°Ð»
ĠÐ± Ð»Ð¾ÐºÐ°
Ð¾Ð»ÑĮ ÑģÐºÐ¾Ð³Ð¾
ĠÐ¾Ñģ Ð»Ð¾Ð¶
Ð¾ÑĢÐ¸ Ð»
ĠÐ¸Ð¼ ÐµÐ»Ð¾
ĠÐ¦ ÐµÐ»ÑĮ
20 22
ĠÑģÐ»ÑĥÑĩÐ° Ð¸
Ġ188 4
Ġb y
ĠÑĢÐµÐºÐ¾Ð¼ ÐµÐ½Ð´Ð°
Ð° ÑİÑīÐ°Ñı
ÐµÐ½ ÑĨÑĭ
Ð°Ð² ÑĪÐ¸Ð¼Ð¸
ĠÐľ Ð¸ÑĢÐ¾Ð²
ÑĢÑĭ Ð¼
ĠÐ¼ÐµÑĤ ÑĢÐ¸
Ð¸ÑĤÐ° ÑİÑĤ
ĠÑĥÐ³ Ð¾Ð´
ĠÐ²ÐµÐ´ ÑĳÑĤÑģÑı
ĠÑģÐ¾ÐµÐ´Ð¸Ð½ Ñı
ĠÐ±Ð°Ð· Ð°
ĠÐ²ÑĢÐ° Ð¶Ð´
ĠÑĪÐ²ÐµÐ´ ÑģÐºÐ¸Ð¹
ĠÐĺÑĢ Ð»Ð°Ð½Ð´Ð¸Ð¸
ĠÐ¾Ð±ÑĢÐ°ÑĤÐ¸ Ð»ÑģÑı
ĠÐ¯Ð²Ð»Ñı ÐµÑĤÑģÑı
ĠÐľÑİÐ½ Ñħ
Ġ y
Ð¾Ð» Ð¸Ð½
ÐµÐ» ÐµÑģ
ĠÐ¡ Ðĺ
ĠÐļ ÑĥÑĢÐ³
ĠÐĲ ÑĦÐ¸Ð½Ñĭ
ĠÐ·Ð° Ð¶
Ð½Ð°Ñĩ Ð°Ð»Ðµ
ĠÐ¸Ð·Ð²ÐµÑģÑĤ Ð½Ð°Ñı
ĠÐ»Ð¸ÑĤÐµÑĢÐ° ÑĤÑĥ
ĠÐ¾ÐºÐ¾Ð½Ñĩ Ð°Ð½Ð¸Ð¸
ĠÐ´Ð°Ð»ÑĮ ÑĪÐµ
ĠÐ¿Ð¾ÐºÐ° Ð·ÑĭÐ²Ð°ÐµÑĤ
ĠÐºÐ¾Ð½ÐµÑĩ Ð½Ð¾Ð¼
ĠÐ¿ÐµÑħ Ð¾ÑĤ
ĠInt el
ĠÐ¾ÑģÐ½Ð° Ñī
Ð¾Ð½ ÑģÐºÐ¾Ð¹
ÐµÐ»ÑĮ Ð½ÑĭÐµ
Ð»ÑĮ Ð½Ð¾Ðµ
ĠÐ¿ÑĢÐµÐ´ Ð¿Ð¸Ñģ
ÐµÐ· Ð¸Ñı
Ð¸Ñĩ ÑĮ
ĠÐ¾Ð±ÑĢÐ°Ð· Ð°
20 15
ĠÑĢÐ°Ð·Ð»Ð¸Ñĩ Ð½ÑĭÐ¼
ĠÑģÐ¾ÑİÐ· Ð½Ð¸ÐºÐ¾Ð²
ĠÑĢÐµÐ°Ðº ÑĨÐ¸Ñı
ĠÐºÑĢÐ¸ÑĤÐ¸ ÐºÐµ
ĠÑĢÐ°Ð±Ð¾Ñĩ ÐµÐ¹
ĠÐ¾ÑĦÐ¸ÑĨ ÐµÑĢ
ĠÐºÐ¾Ð¼Ð¿Ð¾Ð½ ÐµÐ½ÑĤÐ¾Ð²
ĠÐ³Ð¸Ð¼Ð½Ð° Ð·Ð¸Ð¸
ĠÐŁÑĢÐµÐ´ÑģÐµÐ´ Ð°ÑĤÐµÐ»ÑĮ
ĠÐ¡Ð²ÑıÑī ÐµÐ½Ð½Ð¾Ð¹
ÑģÐ¾Ð²ÐµÑĢÑĪ ÐµÐ½
à ¤
ĠÐ¸ ÑĢÐ°Ð½
Ð¾Ð» Ñĩ
ĠÐ± Ð¸Ð½
ĠÑį ÑģÐ¿ÐµÑĢÐ°Ð½
ĠÑģÑĤ ÑĢÑĥ
Ð¡ ÐĶ
ÐµÑĨ ÐºÐ¾Ð¹
ĠÑİ Ð±
ĠÐ¾Ð±Ñī ÐµÐ½Ð¸Ñı
ĠÐ²Ð¾ÑģÐ¿ÑĢÐ¸ Ð½Ð¸Ð¼Ð°
ĠÐ¿ÑĢÐµÐ´Ð¿Ð¾Ð»Ð°Ð³ Ð°ÐµÑĤ
ĠÑĢÐ°ÑģÑģÐºÐ°Ð· Ð¾Ð²
ĠÐŁÑĥÐ±Ð»Ð¸ Ð¹
X X
Ð° ÑģÑĤÑĮ
ÑĪ Ð°ÑĦ
ĠÐŁ Ð¸ÑģÑĮ
ĠÑģÑĤ Ð¾Ð¹
ĠÐľ Ðµ
ĠÑĥÑĩ Ð¸Ð»ÑģÑı
ĠÐ·Ð² ÑĳÐ·
ĠÑģÐ¿Ð¾ÑģÐ¾Ð± Ð½Ñĭ
ĠÑĥÑĩÑĢÐµÐ¶Ð´ ÐµÐ½Ð¸Ðµ
ĠÐ¿ÑĢÐ¾Ð³ Ð¾Ð»Ð¾ÑģÐ¾Ð²
ĠÐ±ÑĥÐ¼Ð° Ð³Ð¸
ÑįÐ»ÐµÐºÑĤ ÑĢÐ¸
ĠÐ²ÑĢÐ°Ñī ÐµÐ½Ð¸Ñı
ĠÐĴÐ¾ÑĢ Ð¾ÑĪ
ĠÑģÐ¾Ð²Ð¾ÐºÑĥÐ¿ Ð½Ð¾ÑģÑĤÑĮ
ĠÐ¡ÐµÑĢÐ± Ð¸Ð¸
ĠÐ¡ÐµÐ¹ ÑĩÐ°Ñģ
ĠÐ² ÑģÑĤÐ°Ð²
Ð°Ð½ ÑģÐ¾Ð²
ĠÐŁ ÑĢÐ¾Ð²
ĠÐļ Ð°ÑĢÐ¸
Ð¾ÑĢÐ¸ ÑĤÑĮ
ĠÐ¿Ð¾Ñģ Ð²
ĠÐ¿ÐµÑĢÐµ Ðº
ĠÐ¼ÐµÑĤ ÑĢÐ°
Ð»Ð¾Ð¼ ÐµÑĢÐ°
ĠÐ½ÐµÐ¼ÐµÑĨ ÐºÐ¸Ðµ
ĠÐºÐ½ÑıÐ· ÐµÐ¼
ĠÑģÐ¾ÑĨÐ¸Ð°Ð»ÑĮ Ð½ÑĭÐµ
ĠÑģÑĤÐ¾ Ð¸Ð¼Ð¾ÑģÑĤÐ¸
ĠÑģÐ¾Ð·Ð´Ð°Ð² Ð°ÑĤÑĮ
ĠÐ¦Ð· Ð¸Ð½ÑĮ
ĠÑĨÐ¸Ð²Ð¸Ð»Ð¸ Ð·Ð°ÑĨÐ¸Ð¸
ĠÐ¿ ÐµÑĪ
ÐµÑĢ Ð½Ð¾Ð¹
ĠÐŁ Ð¸Ð½
ĠÐļ ÑĥÐ¿
Ð¸Ð¼ ÑĭÐ¹
ĠÐ¶ Ð°Ð»
ĠÐĽ ÐµÐ¼
ĠÑįÐº Ð²Ð°ÑĤ
ĠÐ¾ÑģÑĤ Ð°Ð»Ð¾ÑģÑĮ
ĠÑģÐ»ÐµÐ´ ÑĥÑİÑīÐµÐµ
ĠÑģÐ»ÐµÐ´ ÑģÑĤÐ²Ð¸Ðµ
ĠÐ²Ð· ÑıÐ»Ð¸
ĠÐ¾Ð±Ð¾Ð·Ð½Ð°Ñĩ ÐµÐ½Ð¸Ðµ
ĠÐ¤Ð¸Ð»ÑĮ Ð¼
ĠÐ² Ð½Ð¸Ð·
ĠÑģ ÑĥÑĪ
ĠÑģÑĤ Ñĭ
ÑĢÐ¾Ð² ÑĭÐµ
ĠÐĳ ÑĥÑħ
ĠÐĽ ÑĥÐ³
ĠÐ¾Ð´ Ð½Ð¾Ð·Ð½Ð°Ñĩ
ĠÑĪ Ð»Ð°
ÑĢÐ¾Ð¼ Ñĭ
ĠÑģÐ¾ÑģÑĤÐ°Ð² Ð¸Ð»Ð¾
ĠÐ¼Ð½Ð¾Ð³ Ð¸Ð¼Ð¸
ĠÐ¾Ð¿Ð¸Ñģ Ð°Ð»
ĠÐĵÐ¾ÑģÑĥÐ´Ð°ÑĢ ÑģÑĤÐ²ÐµÐ½Ð½Ð°Ñı
ĠÐ±Ñİ ÑĢÐ¾
ĠÐļÑĢÑĭ Ð¼Ð°
Ð¾Ð·Ð½ Ð°Ð½Ð¸Ñı
ÑİÑīÐ¸Ð¼Ð¸ ÑģÑı
Ð»Ñĳ Ð¹
ĠÐ¿ÑĢÐ¾ÑĤÐµÑģÑĤ Ð°Ð½ÑĤ
ĠÐ¼Ð¸Ñģ ÑģÐ¸Ð¾Ð½
ĠÐľ Ð°ÑĤÑĮ
Ð¸Ð² ÑĪÐµÐ¹
ĠÐ¸Ð½ ÑģÑĤÑĢÑĥÐº
ĠÐ® ÑĢÐ¸Ñı
ĠÐŁÐ¾Ñģ Ð¿Ð¾Ð»Ð¸ÑĤ
Ð°ÑģÑĤ Ð¾Ð²
ĠÐºÐ°ÑĢ Ð±
ĠÐ¿ÑĢÐµÐ¼Ð¸ Ð¹
ĠÐŃÐ½ Ð³ÐµÐ»ÑĮ
ĠÐ¼ÑĥÐ½Ð¸ÑĨÐ¸Ð¿ Ð°Ð»ÑĮÐ½ÑĭÐ¹
ĠÐļÐ°Ð¿ Ð¸ÑĤ
ĠÐŁÐ¾ÑģÐ»ÐµÐ´ Ð½Ð¸Ðµ
ĠÐ¿Ð¸ÑģÑĮÐ¼ÐµÐ½ Ð½Ð¾ÑģÑĤÐ¸
ĠÐºÐ»Ð¸Ð¼Ð°ÑĤ Ð°
ĠÐĵÐµÐ¾ÑĢÐ³ Ð¸Ñı
ĠÐ§ÐµÑħ Ð¸Ð¸
ĠÑįÐ»ÐµÐºÑĤÑĢÐ¾ÑįÐ½ÐµÑĢÐ³ Ð¸Ð¸
d e
Ġ1 18
Ð»Ð° Ð¼ÐµÐ½
ĠÑĢÐµ ÑģÑĤÐ°Ð²
ĠÐ³Ð¾ÑĢÐ¾Ð´ ÑģÐºÐ¸Ðµ
Ð¾Ð»Ð¾Ð³ Ð°
ĠÑģÐº Ð°Ð»
ĠÐŀÑģÐ½Ð¾Ð² Ð½ÑĭÐ¼
ĠÑģÐ²Ð¾Ð±Ð¾Ð´ Ð½Ð¾Ð¹
ĠÑĥÐ²ÐµÐ»Ð¸Ñĩ Ð¸Ð²Ð°ÐµÑĤÑģÑı
ĠÐ®Ð¶ Ð½Ð¾Ð³Ð¾
ĠÐĺÑĤ Ð°Ð»Ð¸Ñİ
ĠÑĥÑĤÐ²ÐµÑĢÐ¶Ð´ ÐµÐ½Ð¸Ðµ
ĠÐĿÐ°ÑĨÐ¸Ð¾Ð½Ð°Ð»ÑĮ Ð½Ð¾Ð¹
ĠÐ¸Ð½ÑĦ ÐµÐº
Ð»Ð°Ð¹ Ð½
ĠÐ¤ÐµÑĢ Ð´Ð¸Ð½
ĠÐºÐ°Ñģ Ð°ÐµÑĤÑģÑı
ĠÐ¥Ð¾Ð» Ð¼
ĠÐĶÑį Ð²Ð¸Ð´
ĠÐ±Ð»Ð¸ Ð¶Ðµ
ĠÑģ Ð¾Ð»ÑĮ
ĠÐľ Ð°Ð½Ð´
Ð¸Ð¼ ÑĭÐ¼
ĠÐ²Ñĭ Ð·Ð¾Ð²
ĠÐĽ Ð¸ÑĨ
Ð¸ÑģÑĤ Ð¾Ð¼
ĠÐ¿ÑĢÐµ Ð¾Ð±Ð»Ð°Ð´
ÐµÑĢÐ¼ Ð¾Ð½ÑĤÐ¾Ð²
ĠÐĸ ÑĥÑĢÐ½Ð°Ð»
ĠÐ½ÐµÐ¼ Ð½Ð¾Ð³
ĠÐ½Ð°Ð·ÑĭÐ²Ð° ÐµÐ¼ÑĭÑħ
ĠÐ¶ÐµÐ»ÐµÐ· Ð½ÑĭÑħ
ĠÐ³ÑĢÐ°Ð¶Ð´Ð°Ð½ ÑģÐºÐ¾Ð³Ð¾
ĠÐ°ÑĤ Ð°ÐºÐ¾Ð²
ĠÐ¾ÑģÐ¾Ð±ÐµÐ½Ð½Ð¾ ÑģÑĤÐµÐ¹
Ð½Ð¾Ñģ Ð¸ÑĤÑģÑı
ĠÐ²ÑĭÐ¸Ð³ÑĢÐ° Ð»
Ð° ÑİÑīÐµÐ¹
Ð°Ð¼ Ð¸Ð½Ð°
ĠÐĳ Ð¾ÑĤ
Ð¸Ñħ Ð°
ĠÑĢÐ°Ð· Ð½ÑĭÐ¼Ð¸
Ð»Ð¾Ð² Ð¸Ñĩ
ÑĤÐ¾Ð² Ð¾Ð¹
ĠÐ³ÑĢÐ°Ð¶Ð´Ð°Ð½ Ð¸Ð½
ĠÑĢÐ°Ð½ Ð½ÐµÐ³Ð¾
ĠÐ½Ð¾ÑĢ Ð¼Ð°ÑĤÐ¸Ð²
ĠÐ±ÑĭÐ² ÑĪÐ¸Ñħ
ĠÐĵÐ»Ð°Ð² Ð½ÑĭÐ¹
ĠÐľÐ¾Ð½ Ð³Ð¾Ð»
ÑĤÐ°Ðº Ð¶Ðµ
ĠÑĢÐ°Ð·ÑĢÐµÑĪ ÐµÐ½Ð¸Ñı
ĠÐ½Ð°Ð» Ð¾Ð¶
ĠÐ²ÐµÑī Ð¸
ĠÐŁÐ°Ðº Ð¸ÑģÑĤ
ĠÐĴ Ð°
ĠÑĥ ÑĢÐ°Ð½Ð°
ĠÐ¾ÑĤ ÑĩÐ°ÑģÑĤÐ¸
ĠÐĲ Ñģ
ĠÐĳ ÐµÐ¹
ĠÐĽ ÐµÐ³
Ð¾Ð»Ð¾Ð³ Ð¸ÐµÐ¹
Ġ15 00
ĠÑĥÐ´ ÐµÐ»Ñı
ĠÐ¾ÑĤÐ¿ÑĢÐ°Ð² Ð¸Ð»
ĠÐºÑĢÐµ ÑģÑĤÑĮ
ĠÐ½Ð°Ð·ÑĭÐ² Ð°Ð»
ĠÐ²Ð°ÑĢÐ¸ Ð°Ð½ÑĤÐ¾Ð²
ĠÐ¼ÐµÐ´Ð¸ÑĨ Ð¸Ð½ÑģÐºÐ¾Ð¹
ĠÑģÑĥÐ²ÐµÑĢ ÐµÐ½Ð¸ÑĤ
Ñĥ ÑģÐ¿
Ð»Ð¸ ÑģÑĤ
ÑģÑı ÑĤÐ¸
Ð¾Ðº Ð·
ÑģÐ¸ Ð»Ð¸ÑģÑĮ
ĠÐ¯ Ð²
ÑĢÐ°Ð±Ð¾ÑĤ ÐºÐ°
ĠÐĲÐ² ÑĤÐ¾Ð¼
ĠÑģÑĩÐ¸ÑĤ Ð°Ñı
ĠÐ¿Ð¾ÑģÑĤÑĢÐ¾ ÐµÐ½Ð¸Ñı
ĠÑĤÐ¾ÑĢÐ³Ð¾Ð² Ð»Ñı
ĠÐ¼Ð¾Ñī Ð½Ð¾ÑģÑĤÑĮÑİ
ĠÑĢÐ°Ð·Ð¼ÐµÑĢ Ñĭ
ĠÐ¶Ð¸Ð´ Ðº
ĠÐ´Ð¸ÑĢÐµÐº ÑĤÐ¾ÑĢÐ°
ĠÑģ ÑĢÐ°Ð²Ð½Ð¸
Ð¸Ð» Ñĭ
ĠÐ¿Ð¾Ð» Ð¸ÑĨÐµÐ¹
as h
ĠÐ³ÑĢÐ°Ð¶Ð´Ð°Ð½ ÑģÐºÐ¸Ñħ
ĠÑģÐ¾ÑĤ Ð½Ð¸
198 5
ĠÐ½Ð¸Ð· Ð¼ÐµÐ½
ĠÐ¼ÑĥÐ¶ ÑĩÐ¸Ð½Ñĭ
ĠÑģÑĬ ÐµÐ·Ð´Ðµ
ĠÑĥÐ¿Ð¾Ð¼ ÑıÐ½ÑĥÑĤ
t p
ĠÐº Ð¾ÑĢÐ¸
ĠÐ´ ÑĥÐ¼Ð°
ĠÑĦ Ð¾ÑģÑĦ
Ð´Ð° ÑĳÑĤÑģÑı
ĠÐ·Ð° Ð±Ð¾Ð»
ÐµÑĢÐµ Ð±ÑĢÑı
ĠÐ£ Ð¼ÐµÑĢ
ĠÐ¾ÑģÐ½Ð¾Ð² Ð½Ð°Ñı
ĠÐ¢Ð°Ðº Ð°Ñı
or s
ĠÐ¿ÐµÑĢÐµÐ´ Ð°Ð»
ĠÑģÑĤÐ°ÑĢ ÑĭÑħ
ĠÐ¿ÑĢÐ¾Ñģ Ð²ÐµÑĤ
ĠÐ½Ð°ÑĢÑĥÑĪ ÐµÐ½Ð¸Ðµ
ĠÐĲÐ»ÐµÐºÑģÐµ ÐµÐ²Ð¸Ñĩ
ĠÑĢÐ°ÑģÑĪÐ¸ÑĢ ÐµÐ½Ð¸Ðµ
Ð¾Ð¿Ð¾Ð» Ðµ
ÑĮ ÐµÐ²Ð°
ÐµÐ» Ñĭ
ĠÐ¿ÑĢÐ¾ ÐµÐºÑĤÑĭ
ĠÐ¿ÑĢÐµ ÑģÑģ
ĠÑĩÐ»ÐµÐ½ Ð°
ĠÐ¼Ð¸ÑĢÐ¾Ð² Ð°Ñı
ĠÐĿÐµ ÑģÐºÐ¾Ð»ÑĮÐºÐ¾
ĠÑĩÐ°Ñģ Ñĭ
ĠÐ²ÑĭÐ²Ð¾Ð´ Ñĥ
ĠÐ´Ð¾ÑħÐ¾Ð´ Ð¾Ð²
ĠÑįÐ¿Ð¸Ð· Ð¾Ð´
a i
Ñĥ ÑĤÐ¸
Ð¿ Ð°ÑĤÑĢÐ¸
ĠÐº Ð¸ÑĪ
ĠÐ¡ ÑĩÐ¸ÑĤÐ°ÐµÑĤÑģÑı
ĠÐŃ ÑĦÐ¸Ð¾Ð¿
Ðľ Ð¾ÑģÐºÐ¾Ð²
Ð¢ Ð£
ĠÐºÐ¾Ñģ Ð¼
ĠÐ¸Ð³ÑĢÐ° ÑİÑĤ
ĠÐĴÐ¾ÑģÑĤÐ¾Ñĩ Ð½Ð¾
ĠÐŃÑĢ Ð½
ĠÑģÑĥÑħ Ð¾Ð¿ÑĥÑĤ
Ġ(â Ħĸ
o x
ÐµÑģÑĤ Ðµ
ĠÐ²Ð¾ Ð¸Ð½Ð¾Ð²
ÐĲ Ð±
ĠÐ²Ð¾Ð· ÑĢÐ¾Ñģ
ĠÐ´ÑĢÑĥÐ³ Ð°Ñı
ĠÐ¿ÑĢÐ¾Ð²Ð¾Ð´ Ð¸ÑĤÑĮ
ĠÐ¿Ð¾Ð´Ð³Ð¾ÑĤÐ¾Ð² ÐºÑĥ
ĠÐ²ÑĭÑĩÐ¸Ñģ Ð»ÐµÐ½Ð¸Ñı
ĠÐ·Ð°ÑīÐ¸ÑĤ Ðµ
ĠÐ½Ð°Ð¼ Ð½Ð¾Ð³Ð¾
ĠÐ³Ð¸ÑĤ Ð°ÑĢÐ¸ÑģÑĤ
Ð» Ð¾Ð½Ð°
Ðº ÐµÐ¹
ĠÑĤ ÑĥÐ´Ð°
Ð°ÑĢ ÑģÐºÐ°Ñı
Ð¼Ð¸ ÑĢÐ¸
ĠÐĿ ÐµÑĦ
ĠÐ¢ Ð°ÑĢÐ°
ĠÐĹ ÐĲÐŀ
ĠÐ¡Ð¾ Ð¾ÑĤÐ²ÐµÑĤ
ĠÐ¿ÑĢÐ¾Ð¼ÑĭÑĪÐ»ÐµÐ½ Ð½Ð¾Ð³Ð¾
ĠÐºÐ¾ÑĢÐ¾Ð» ÐµÐ²Ð°
ĠÐ³Ð¾Ð²Ð¾ÑĢÐ¸ÑĤ ÑģÑı
ĠÐ¯Ð·Ñĭ ÐºÐ¸
Ġ á¼
Ð´ Ð°Ð»
Ġ( -
ĠÐ· Ð¼Ðµ
ĠÐľ Ð¾Ð½ÑĤ
Ð¾Ð¶ Ð´Ð°ÐµÑĤÑģÑı
ĠÐ¢ Ð°ÑĪ
ĠÐ¾Ð¿ ÐµÑĢÑĭ
ĠÐ¾Ð¿ ÑĥÑģÑĤ
Ð°ÑĤÐµÐ»ÑĮ Ð½ÑĥÑİ
ĠÑģÐ¾ÑģÑĤ Ð¾ÑıÑĤ
Ð»Ñİ Ñģ
Ġ5 9
ĠÐ´ÐµÐ» ÐµÐ½Ð¸Ñı
ĠÐ½Ð°Ð·ÑĭÐ²Ð° ÐµÐ¼Ð°Ñı
Ġ188 3
âĢľ Â»
ĠÐ¼ÑĥÐ·ÑĭÐº Ð°Ð»ÑĮÐ½ÑĭÑħ
ĠÑĤÐ¾Ð² Ð°ÑĢÑĭ
ĠÐ¼ÐµÑģÑĤÐ¾ÑĢ Ð¾Ð¶Ð´ÐµÐ½Ð¸Ð¹
ĠÐĺÐ·Ð²ÐµÑģÑĤ Ð½ÑĭÐµ
ĠÐ¿Ð°ÑĨÐ¸ ÐµÐ½ÑĤÐ¾Ð²
Ñĭ ÑĢ
Ð¾ÑĢ Ð¾ÑģÑģÐ¸Ð¹
ĠÐ³ Ð¾ÑĢÐ¾Ð¶
ĠÐŁ ÑĢ
Ð¸Ð´ Ð¶
ĠÐºÐ¾Ð½ Ð³ÑĢÐµÑģÑģ
ĠÐ¸Ð¼ Ð¼Ð¸
ÑĦÐ¸ ÐµÐ¹
ĠÑĢÐµÐ· Ð¾Ð½
ĠÑģÐ»Ð¾Ð² Ð¾Ð¼
ĠÐ½ÐµÐ´ ÐµÐ»Ñİ
ĠÐĽÑİ Ðº
Ġ187 5
194 1
ĠÐĿÐ°ÑĨÐ¸Ð¾Ð½Ð°Ð»ÑĮ Ð½Ð¾Ð³Ð¾
ĠÐ¿Ð¾ÑĢÑĤ ÑĢÐµ
ĠÐ´Ð¾Ð±Ñĭ ÑĩÐ¸
ĠÐºÑĢÐµÑģÑĤ Ð¾Ð½Ð¾Ñģ
ĠÐĴÐ¾Ð¾ÑĢÑĥÐ¶ ÑĳÐ½Ð½ÑĭÑħ
ĠÑĢÐ°Ð· Ð³Ð¾Ð²
ĠÐ²Ð¾Ñģ ÑħÐ¾Ð´
ĠM et
ĠÐļÐ¾Ð¼ Ð¸Ñģ
ÑģÑĤÑĢÐ° ÐºÑĤ
ĠÐ¿ÑĢÐ¾Ð¸Ð·Ð²ÐµÐ´ ÐµÐ½Ð¸ÑıÑħ
ĠÐ½Ð°ÑģÑĤÐ¾Ñı ÑīÐµÐ³Ð¾
ĠÑģÐ¾Ð¾Ð±Ñī Ð°ÐµÑĤ
Ġ187 6
ĠÐ¼ÐµÐ´Ð¸ÑĨ Ð¸Ð½ÑģÐºÐ¸Ñħ
ĠÑģÑħ Ð¾Ð¶
ĠÐ´Ð¸Ð°Ð³ Ð½Ð¾ÑģÑĤÐ¸
ĠÐ¾ÑĤÐ² ÐµÑĩ
ĠÐłÐµÐ»Ð¸ Ð³Ð¸Ñı
ĠÐĸÐµÐ»ÐµÐ·Ð½Ð¾Ð´Ð¾ÑĢÐ¾Ð¶ Ð½ÑĭÐ¹
ĠÐ±Ð°ÑģÐºÐµÑĤ Ð±Ð¾Ð»
Ġ Â
Ñİ Ñģ
ĠÐľ Ð»Ð°Ð´
ĠÐ» ÑĭÐ¶
Ð»Ðµ Ñı
ĠÐ²ÑĢÐµÐ¼ ÐµÐ½Ð½Ð¾
in a
ĠÐ¸ÑģÑĤÐ¾ÑĢÐ¸ ÑĩÐµÑģÐºÐ¸Ðµ
ic t
ĠÐ¶Ð¸Ð² ÑĥÑĤ
ÑģÐ¸Ð¼ Ð¼ÐµÑĤ
Ð¾ÑıÑĤ Ð½Ð¾
ĠÐ¿ÑĢÐ¾Ð³ Ð½Ð¾Ð·
ĠÐłÐ¾Ð¼ Ð°Ð½Ð¾Ð²
ĠÐ¾ÑĤÑĢÑı Ð´Ñĭ
ĠÑģÑĥÐ» ÑĤÐ°Ð½
Ð¿ Ð¾Ð¼
Ð± Ð¸ÑĢÐ°
ĠÐł Ð°Ð²
ĠÐºÐ¾Ð½ Ð³
ÐĴ Ðľ
ĠÐ¢Ð°Ðº Ð¾Ð¹
ĠÐ²Ð· ÑĢÑĭÐ²Ð°
ĠÑģÐ»ÑĥÐ¶ Ð±Ðµ
ĠÐ´Ð¾Ð¿ ÑĥÑģÐº
ĠÑģÐ¼Ðµ ÑģÑĮ
ĠÐ²ÐµÑī ÐµÐ¹
ĠÐ¾Ð±Ðµ Ð¸Ñħ
ĠÐºÐ¾Ð½ÑĤÐµÐº ÑģÑĤÐµ
Ð¼ Ð°Ð½Ð´
Ð¾Ð³ Ðµ
ĠÑĤ ÑıÐ³
ĠÐł ÐµÐºÐ¸
ĠÐ¾Ð¿ ÑĢÐ¾Ð²
ĠÑĢÑĥ Ð¼Ñĭ
Ġ6 6
ÑıÑī Ð¸Ð¼Ð¸
ĠÐ¾Ð¿ÐµÑĢÐ° ÑĤÐ¾ÑĢ
ĠÑģÐ¾ÑģÑĤÐ°Ð²Ð»Ñı Ð»Ð¾
ĠÐ¿Ð°ÑĢÐ»Ð°Ð¼ÐµÐ½ÑĤ ÑģÐºÐ¸Ñħ
ĠÐ¿ÑĢÐ¸Ð´ Ð²Ð¾ÑĢ
ĠÐŁÐµÑĤÐµÑĢÐ±ÑĥÑĢÐ³ Ðµ
ĠÐŁÑĢÐ¸Ð½ ÑĨÐ¸Ð¿
Ð¾Ð½ ÑģÐºÐ¾Ð³Ð¾
ĠÐ¡ Ð¾ÐºÑĢÐ°
Ð°Ð² ÑĪÐµÐ³Ð¾ÑģÑı
ĠÐĵ Ð°Ð²ÑĢÐ¸
ĠÑıÐ²Ð»Ñı Ð»Ð°ÑģÑĮ
ÑĤÐ¾Ð² ÑĭÐµ
ĠÑģÑĢÐµÐ´ Ð½Ðµ
Ġ6 2
ĠÑģÐ¾Ð²ÐµÑĤ ÑģÐºÐ¾Ðµ
ĠÐ²Ð¾Ð·Ð¼Ð¾Ð¶ Ð½ÑĭÑħ
ĠÐ¼ÐµÑģÑĤÐ¾ Ð¸Ð¼
ĠÑĥÑĩÐ°ÑģÑĤ Ð½Ð¸ÐºÐ¸
ĠÐ»Ð¸Ð± ÐµÑĢÐ°Ð»ÑĮ
Ġ187 1
ĠÐĹÐµÐ»Ð°Ð½Ð´ Ð¸Ð¸
ĠÐĽ ÑİÑĤ
en er
ĠÐĸ Ð°Ðº
ĠÑįÐºÐ¾Ð½Ð¾Ð¼ Ð¸ÑĩÐµÑģÐºÐ¸Ð¹
ĠÐłÐ¸Ñĩ Ð°ÑĢÐ´Ð°
Ä ģ
ĠÑĥ ÑģÑĤÑĮÑı
ĠÐĵ Ð°Ð»ÑĮ
ĠÐ¤ Ð°ÑĢ
ĠÐ½Ð°Ñĩ Ð°ÑĤÑĮ
Ðŀ Ðļ
ĠÐ·Ð°Ð¿ ÑĥÑģÐº
ĠÑĤÐµÐ¼ Ñĭ
ĠÑįÐ»ÐµÐ¼ÐµÐ½ÑĤ Ð°Ð¼Ð¸
ĠÐ¿ÐµÑĢÐµÐ²Ð¾Ð· ÐºÐ¸
ĠÑĥÐ²Ð¸Ð´ ÐµÑĤÑĮ
ĠÐ¸Ð»Ð»Ñİ ÑģÑĤÑĢÐ°
Ðµ ÑĨÐ¸Ð°Ð»ÑĮ
ĠÐ° ÑĨÐµÑĤ
ĠÐĳ ÑĢÐ¾Ð½
ÐºÐ¾Ð² Ð¸Ñĩ
ÑĥÑģ ÑĮ
ĠÐ¸Ð½ ÑĤÐµÐ³
ÐĲ Ðº
Ð°ÑĢÐ° Ð¼Ð¸
ĠÐ¿ÑĢÐ°Ð² Ð¸ÑĤÐµÐ»Ñı
Ġ7 2
ĠA d
ĠÑģÐ¾ÑģÑĤÐ¾Ñı Ð»
it ion
ĠÑĥÑģÐ¿ÐµÑħ Ð°
Ð¸ÑĤ ÐµÐ»Ñİ
Ð¾Ñģ Ñģ
ĠÑĥ ÑĤÐ¾Ñĩ
ĠÐ¿ÑĢÐ¸ Ð±ÑĢÐµ
ĠÐĶ ÑĢÑĥ
ÑĥÑģ Ð¾Ð¼
Ðļ Ð°Ð·
ĠÑĥÑĩ Ð¸ÑĤÐµÐ»ÑĮ
ĠÐ²Ð¸Ð´ Ð¾Ð¼
ĠS ystem
Ð½Ñĥ ÑĤÐ°
ĠÐ²Ð°Ð¶ Ð½ÐµÐ¹ÑĪÐ¸Ñħ
ĠÐ¦ÐµÐ½ÑĤÑĢÐ°Ð»ÑĮ Ð½Ð¾Ð³Ð¾
ĠÐ¾ÑĨÐµÐ½ ÐºÐµ
ĠÐºÐ°Ð½Ð°Ð´ ÑģÐºÐ¸Ð¹
ĠÐĴÐ°ÑĪÐ¸Ð½Ð³ ÑĤÐ¾Ð½
Ñĭ Ð³
ĠÐ² Ð°ÑģÑģ
Ð°Ñģ Ñĭ
Ġ18 50
ĠÐ¥ Ð°
ĠÑģÑĢÐµÐ´ Ð½Ð¸Ð¹
ĠÐ¿Ð¾ÑģÑĤÑĢÐ¾ Ð¸ÑĤÑĮ
ĠÑģÐ¾Ð¾Ð±Ñī ÐµÐ½Ð¸Ð¹
198 6
ĠÐ¿Ð¾Ð²ÐµÑĢÑħ Ð½Ð¾ÑģÑĤ
ĠÐ¾ÑĤÑģÑĥÑĤÑģÑĤÐ² ÑĥÑİÑĤ
ĠÐĴÑĭÑģ Ð¾Ðº
ĠÐ½Ð°ÑģÑĩÐ¸ÑĤÑĭ Ð²Ð°Ð»Ð¾ÑģÑĮ
ĠÐĲÐ±ÑħÐ°Ð· Ð¸Ð¸
ĠÐĹÐ°Ñģ Ð»ÑĥÐ¶
m e
Ð¾Ð· ÐµÐ¼
ĠÐł Ð°Ñħ
ĠÐ³Ð¾ÑĢÐ¾Ð´ Ð°Ð¼Ð¸
ÐŁ ÑĢÐ°Ð·Ð´Ð½Ð¸ÐºÐ¸
ĠÑĢÐ°Ñģ ÑĪÐ¸ÑĢÑı
ĠÐ¸ÑģÐ¿Ð¾Ð»ÑĮÐ·Ð¾Ð² Ð°Ð»Ð°ÑģÑĮ
ĠÐ´Ð¾Ðº ÑĤÑĢÐ¸
ÑĥÐ² ÑģÑĤÐ²
ĠÑģÐ¸Ð»ÑĮ Ð½Ð¾Ðµ
196 4
ĠÐĹÐ°Ðº Ð°Ð²ÐºÐ°Ð·
ĠÐ²ÑģÐ¿ Ð¾Ð¼Ð¸Ð½
ĠÐ²Ð´Ð¾Ñħ Ð½Ð¾Ð²
l l
ĠÐ ģ
Ñı Ðº
ĠÐ½Ð° Ð²
Ð»Ð¸ ÑĨÐ°
Ð°Ð· ÐµÐ¿
ĠÐŁÑĢÐ¸ Ð¼
ĠÐ¨ Ð²Ð°ÑĢ
ĠÑģÐµÐ²ÐµÑĢ Ñĥ
ĠÑģÐ²Ð¾Ð±Ð¾Ð´ Ð½Ð¾
193 7
ĠÐĳÐ¾ÑĢÐ¸ ÑģÐ¾Ð²
ĠÐŁÐ°ÑĢ Ð»Ð°Ð¼ÐµÐ½ÑĤ
ĠÐ¸Ð³ÑĢÐ¾Ðº Ð¾Ð²
ĠÐ¿ÑĢÐ¸Ð¾Ð± ÑĢÐµÑĤÐ°
ÐĺÑģÑĤ Ð¾ÑĢÐ¸Ñı
ĠÐ² Ð¿Ð¸Ñģ
ĠÐº Ð¸Ð±
ÑĨ Ð·Ñĭ
ĠÐ¾Ð´ Ð½Ð¾Ð¿
ĠÐ¾Ð±ÑīÐµ Ð¿ÑĢÐ¸
ar i
ĠÐ¶ÐµÐ»ÐµÐ· Ð½Ð°Ñı
ent er
ĠÐ¿ÑĢÐ¾ÑħÐ¾Ð´ Ð¸Ð»
ĠÐĹÐ¾Ð»Ð¾ÑĤ Ð¾Ð¹
ĠÐ§Ð°ÑĢÐ»ÑĮ Ð·
ÐºÐ¾Ð² ÑĭÐ¼
ÑģÑĤÐ²ÐµÐ½ Ð½Ð¾Ð¼Ñĥ
ĠÑħ Ð»Ð¾ÑĢÐ¸
ĠÐ¥ Ð¾Ðº
Ð¾ÑģÐº ÑĢÐµÑģ
ĠÐ¿Ð¾ÑģÑĤÑĢÐ¾ ÐµÐ½Ð¾
ĠÐ·Ð°Ð¿Ð°Ð´ Ð½Ð¾
Ġ186 1
ĠÐ²Ð¾Ð·Ð½Ð¸Ðº Ð»Ð¸
ĠÐ¿ÑĢÐ¸Ð½Ð°Ð´Ð»ÐµÐ¶ Ð°ÑĤ
ĠÐ·Ð°Ð´Ð° ÑĩÐ°
ĠÐ²Ð¾ÐºÐ· Ð°Ð»
ĠÐ»Ð¸ÐºÐ²Ð¸Ð´Ð° ÑĨÐ¸Ð¸
n a
Ð¼ ÑĥÐ·
ĠÐ± ÑĥÐ»ÑĮ
Ġ1 17
ĠÐĿ Ð¸Ð³
ĠÐĵÐ¾ÑģÑĥÐ´Ð°ÑĢ ÑģÑĤÐ²Ð°
194 3
ĠÐºÐ¾Ð¼Ð¿Ð¾Ð· Ð¸ÑĨÐ¸Ð¸
ĠÐ¾ÑĤÐ²ÐµÑĤ ÑģÑĤÐ²ÐµÐ½Ð½Ð¾ÑģÑĤÑĮ
ĠÐľÐ°Ð» Ð¾Ð¹
ĠÑĤÑĢÑĥÐ´ Ð½Ð¾
ĠÐ¤Ð¾ÑĢ Ð¼
ĠÐ°ÑģÑģ Ð¾ÑĨÐ¸Ð¸
ĠÐ½Ð°Ð³ÑĢÐ° Ð´Ñĭ
ĠÑĤÑĭÑģÑıÑĩÐµÐ» ÐµÑĤÐ¸Ñı
ÐµÑĢ ÑĳÐ´
ÐºÐ¸ Ð½Ð¾
ĠÑĪ ÑĢÐ¸ÑĦ
ĠÐłÐ¾ÑģÑģÐ¸Ð¹ ÑģÐºÐ¾Ð³Ð¾
ĠÐ²Ð½ÑĥÑĤ ÑĢÑĮ
am b
197 4
ĠÐ²Ð¾ÑģÐ¿ Ð¾Ð»ÑĮÐ·Ð¾Ð²
ĠÐľÑĥÑħÐ°Ð¼Ð¼ ÐµÐ´
ĠÐºÐ¾Ð°Ð»Ð¸ ÑĨÐ¸Ð¸
ĠÐ¿ÑĢÐµÐ´Ð¼ ÐµÑĤÑĭ
Ðº Ð°ÑĢÑĤ
ĠÐ¡ Ð¾ÑĢ
ĠÐŁ ÑģÐ¸Ñħ
Ð¸Ð» Ð»Ð°
ĠÐ¾Ð¿ Ð¾ÑĢ
Ð»Ñİ Ðº
Ð°Ð½Ð¾Ð² Ð¾
ĠÐ²Ð¾Ð·Ð¼Ð¾Ð¶ Ð½ÑĭÐ¼
ĠG N
ĠÐ¡ÑĢÐµÐ´ Ð½ÐµÐ¹
ĠÐ±ÐµÐ» ÑĭÐ¹
ĠÐ¿ÑĢÐ¸Ð·Ð½ Ð°Ð½
Ġ184 0
ĠÐºÐ¸ÑĤÐ°Ð¹ ÑģÐºÐ¸Ð¹
Ð²ÑĪÐ¸Ð¹ ÑģÑı
Ð°Ð²ÑĪÐ°Ñı ÑģÑı
Ð¼ÐµÑĢÑĤ Ð½Ð¾
A P
o ut
Ðº ÑĢÐ¾Ð¼Ðµ
Ñĥ Ð·Ð°
Ð± Ð°Ð½Ð¸
Ð³ Ð°ÑĢÐ¸
Ð¾ÑĤ Ð¾Ð½
ĠÑĦ Ð¸Ð»Ð¾Ñģ
Ð°Ð´ Ð¾Ð»Ð³Ð¾
ÑĳÐ½ Ð½Ð¾
ĠÐ® Ð»Ð¸
ĠÐ¿ÑĢÐ¾Ð²Ð¾Ð´ Ð¸Ð»Ð¸ÑģÑĮ
ĠÐ±ÐµÑģÐ¿ Ð¾ÑĢÑıÐ´
Ð²ÐµÑī ÐµÐ½Ð¸Ñı
Ð¼Ð°Ð¹ Ð¾ÑĢ
ĠÑĩÐµÑĤÐ²ÐµÑĢ ÑĤÐ¸
I n
ĠÐ¿ ÑĢÑĥ
ÑĨ Ð·
ĠÐĳ ÑĢÐµÑģÑĤ
ĠÐĽ Ð°Ð´
ĠÐĽ ÑĮÑİ
ÑĥÑĤ Ð¾Ð²
ĠÐ¿ÑĢÐ¾ Ñħ
Ð½Ñı Ðº
Ðł Ð°Ð·
ĠÑĢÐ°Ð±Ð¾ÑĤ Ð¾Ð¹
ĠÑĩÐ°ÑģÑĤ Ð¾ÑĤÑĭ
ĠÐ¿ÐµÑĢÐ¸ ÑĦ
ĠÐĴÐµÐ»Ð¸Ðº Ð°Ñı
ĠÑĦÑĢÐ°Ð½ÑĨÑĥÐ· ÑģÐºÐ¸Ñħ
ĠÑģÐ»ÑĥÐ¶ Ð±Ð°
ĠÐĳÐ¾Ð»ÑĮÑĪ Ð¾Ðµ
ĠÑħÑĢÐ¸ÑģÑĤÐ¸Ð°Ð½ ÑģÐºÐ¾Ð¹
ĠÐ¿ÑĢÐ¾Ð¸ÑģÑħ Ð¾Ð¶Ð´ÐµÐ½Ð¸Ð¸
ĠÑıÐ´ÐµÑĢ Ð½ÑĭÑħ
ĠÑĢÐµÐºÐ¾Ð½ÑģÑĤÑĢÑĥÐº ÑĨÐ¸Ð¸
Ñĩ ÐµÑĢÐº
Ð¿ ÑĢÐ¾ÑĤÐ¸Ð²
ĠÐĵ Ð»
ĠÐĳ ÐµÐº
ĠÐ¿ÑĢÐµÐ´ ÑĬ
Ð¸ÑĢÐ¾Ð² Ð°Ð½Ð°
ĠÐ¾Ð±ÑĬ ÐµÐºÑĤÐ¾Ð¼
Ð¼Ð°ÑĤ ÐµÐ¼Ð°ÑĤ
ĠÐ½ÐµÐ´ ÐµÐ»ÑĮ
ĠÐ¿Ð¾Ð´Ð´ÐµÑĢÐ¶ Ð¸Ð²Ð°ÐµÑĤ
ĠÑĢÐ°ÑģÐ¿Ð¾Ð»Ð¾Ð¶ ÐµÐ½Ð½ÑĭÑħ
Ġ186 5
ĠÐ·Ð°ÐºÐ»ÑİÑĩ ÑĳÐ½
ĠÐ²Ð²ÐµÐ´ ÐµÐ½Ð¸Ðµ
ĠÐ¦ÐµÐ½ÑĤÑĢÐ°Ð»ÑĮ Ð½Ð°Ñı
ĠÐ¿Ð»Ð¾ Ñħ
ĠÑĤÑıÐ¶ÑĳÐ» ÑĭÑħ
ĠÑģÑĤÐ¾ÑĢ Ð¾Ð½Ð°
ĠÑģÑĤÐ°Ð± Ð¸Ð»Ð¸
Ð¿ ÑĥÑĢ
ĠÐŀ ÐºÐµ
ĠÐ¤ Ñĥ
ĠÐ¾ÑģÐ½Ð¾Ð² Ð½ÑĭÐ¼Ð¸
ĠÐ¿Ð¾Ð² Ð»Ð¸Ñı
ÐµÐ¶ Ð´Ð°
ĠÐ¡ÑĢÐµÐ´ Ð½Ð¸Ðµ
ĠÐ¿ÑĢÐ¾ÑģÑĤ Ð¾Ð¹
Ð»ÐµÑĩ ÐµÐ½Ð¸Ñı
ÑĥÐ¹ Ð±ÑĭÑĪ
ĠÐĵÑĥ ÑģÑĤÐ°Ð²
ĠÐ¾ÑĪÐ¸Ð± ÐºÐ¸
ĠÐ²ÑĭÐ½ÑĥÐ¶Ð´ ÐµÐ½Ñĭ
ÑģÑĤ ÑĥÐ´
ĠÐ² Ð°ÑĢÑĮ
Ñİ ÑĪ
ĠÐ´ Ð°Ð»Ð¸
ĠÐ´ Ð½ÑĳÐ¼
ĠÑį ÑģÑĤÑĢÐ°
ĠÐ¿ÑĢÐ¾ Ð¸Ð³ÑĢÐ°
ÑĨÐµÐ² Ð°
ĠÐķÐ² ÑĢÐ°Ð·
ĠÑĢÐ°Ð·ÑĢÐ°Ð±Ð¾ÑĤ ÐºÐ°
ĠÐ¿Ð¾Ð±ÐµÐ´ Ð°
ĠÑĢÐµÑģÐ¿ÑĥÐ±Ð»Ð¸ ÐºÐµ
ÑĤÐ¸ÑĢÐ¾Ð² Ð°ÑĤÑĮ
ÑĪÐµÑģÑĤÐ² Ð¸Ðµ
ĠÐ¾ÑĤÐ¼ÐµÑĤ Ð¸Ð»
ĠÐµÐ³Ð¸Ð¿ ÑĤ
ĠÐ¼ÐµÑĤÐ° Ð±Ð¾Ð»
r at
Ð° ÑĨÐ¸Ð¹
Ð¾Ñģ Ð²ÑıÐ·
ĠÐ¿ÑĢÐ¸ ÑĢÐ¾ÑģÑĤ
ĠÐ¸Ð· ÑĬ
ĠÐ¿Ð¾Ð´ Ð°ÑĢ
Ð»Ðµ ÐºÐ°
ĠÐ¾ÑĤÐ´ÐµÐ»ÑĮ Ð½Ð¾
198 7
ĠÐ²ÐµÑĤ Ð²
ĠÐľÐµÐ¶Ð´ÑĥÐ½Ð°ÑĢÐ¾Ð´ Ð½Ð¾Ð³Ð¾
ĠÐ§ÐµÑĢ Ð½Ð¾Ð¼Ð¾ÑĢ
ĠÐºÐ¾Ð»ÑĮ ÑĨÐ°
ĠÑįÐ¼ Ð±
ĠÐ°Ð²ÑĤÐ¾ÑĢÐ¸ ÑĤÐµÑĤ
E S
ĠÑĥ Ð±Ñĭ
ĠÐĲ Ð·Ð¾Ð²
ĠÑģÑĤ Ð¾Ð»ÑĮÐºÐ¾
ĠÐ¸Ð· Ð±Ñĭ
ĠÐ·Ð° Ð¸Ð½ÑĤÐµÑĢÐµÑģÐ¾Ð²
Ð¾Ñĩ Ð½Ð¸Ðº
ĠÑħ Ð°Ð½Ð°
ĠÐ¿ÐµÑĢÐµ ÐµÑħ
it e
ĠÑĥÑģÑĤÐ°Ð½Ð¾Ð² Ð¸Ð»
ĠÐºÐ¾ Ð¾Ð¿ÐµÑĢÐ°
ĠÐ¼ÐµÑĤÐ°Ð» Ð»Ð°
ĠÑģÑĥÐ±ÑĬ ÐµÐºÑĤÐ¾Ð²
ĠÑģÑĤÐ°Ð´ Ð¸Ð¾Ð½
ĠÐŁÑĥÑĤ Ð¸Ð½Ð°
ĠÐ·Ð°Ð²ÐµÐ´ ÐµÐ½Ð¸Ð¹
ĠÐ´Ð¸Ð°Ð¿Ð°Ð· Ð¾Ð½Ðµ
ĠÐļÐ»Ð°ÑģÑģÐ¸ ÑĦÐ¸ÐºÐ°ÑĨÐ¸Ñı
ÐµÑĢÐ¾Ð³ Ð»Ð¸
Ñģ Ð¾Ð·Ð´
ĠÑģ ÐµÐ¿
ÑĢÐ¸ ÑĨÐ°
ÐµÐ² Ñĥ
ĠÐ» Ð¸ÑĢÐ¸
ĠÐ¿Ð¾Ñģ Ð»ÐµÐ²Ð¾
Ð»Ð¾ Ð½Ñĭ
ĠÑİ Ð³Ð°
Ð¾Ð»Ð¸ ÑĨÑĭ
ĠÐ¼ÐµÐ¶Ð´ÑĥÐ½Ð°ÑĢÐ¾Ð´ Ð½ÑĭÐµ
ĠÐ½Ð°ÑģÑĩÐ¸ÑĤÑĭ Ð²Ð°ÐµÑĤÑģÑı
ĠÐ¿Ð°ÑĢÐ°Ð¼ÐµÑĤ ÑĢÐ¾Ð²
ĠÑĤÐµÑĢÐ° Ð¿Ð¸Ð¸
E C
o y
Ñĩ ÐµÑĤ
ĠÐĵ Ð²
ĠÐ¼Ðµ ÑĪ
ĠÐ²ÐµÑĢ Ð¾
Ð¢ Ð¡
ĠÐ´ÑĢÐµÐ² Ð½ÐµÐ³Ð¾
ĠÐ½ÐµÐ¼ÐµÑĨ ÐºÐ°Ñı
ĠÐ²ÐºÐ»ÑİÑĩ ÐµÐ½Ñĭ
ĠÐļÐ½Ð¸ Ð³Ð¸
ĠÐ³ÐµÐ¾Ð¼ÐµÑĤ ÑĢÐ¸Ð¸
c ri
ĠÐ½Ð° ÑĪÐµÐ³Ð¾
ĠÑģÑĤ Ð°Ð²ÑĪÐ¸Ð¹
Ð¸Ð¼ Ð¾Ðµ
ĠÐŀ ÑģÐ¸
ĠÐ¾ÑģÐ½Ð¾Ð² Ð°Ð½Ð½ÑĭÐ¹
ĠÐ¿Ð¾Ñĩ Ð¸ÑĤ
ĠG e
ĠÐºÑĥÐ»ÑĮÑĤÑĥÑĢ Ð½ÑĭÑħ
ĠÐ¾Ð±ÑĭÑĩ Ð½ÑĭÑħ
ĠÑĩÐµÐ¼Ð¿Ð¸Ð¾Ð½ Ð°ÑĤÐµ
ĠÐ±ÐµÐ» ÑĭÑħ
ĠÑĥÐºÐ°Ð· Ð¾Ð¼
ĠÐ±ÑĢÐ¸ÑĤ Ð°Ð½ÑģÐºÐ¾Ð¹
ĠÐ¿ÑĢÐ¸ÑħÐ¾Ð´ Ð¸Ð»Ð¾ÑģÑĮ
ĠÐºÑĢÑĭ Ð¼
ĠÐ´Ð¸ÑĦÑĦÐµÑĢ ÐµÐ½ÑĨÐ¸
ĠÐĵÑĢÑĥÐ¿Ð¿ Ð°
Ðº Ð¼
ÑģÑĤ ÑĢÐ¸Ñı
ĠÐ² Ð¾Ð»Ð¸
ĠÐ¸ Ð±Ð¾
ÑĢÐµ ÐºÐ¸
ÑĢÐ¸ Ð»
ĠÐº ÑĥÐ»ÑĮÑĤ
Ð¾Ð½ Ð¾ÑģÐ¾Ð²
ĠÐĶ ÑĥÐ¼Ñĭ
ĠÑģÐ¸Ð¼Ð²Ð¾Ð» Ð¸Ð·
ĠÐ¿Ð¾ÑģÑĤÐ¾ÑıÐ½ Ð½Ð¾Ð³Ð¾
ÑĥÑį ÑĢ
ĠÐ³ÑĢÐ°Ð½Ð¸ÑĨ ÐµÐ¹
ĠÐ¡Ð¸Ð¼ Ð²Ð¾Ð»
ĠÑĥÑĩÐµÐ½Ð¸ ÐºÐ¾Ð²
ĠÐĿÑĮÑİÑĤ Ð¾Ð½Ð°
Ð¾ Ð¾ÐºÐµ
ĠÐ¿ Ð¸Ð¾Ð½
ÑĢÐ° ÑĨÐ¸Ñı
Ð¿ Ð¾ÑĤ
ÑĢÐ¸ ÐµÐ¹
ĠÐº ÑĥÑħ
ÐµÑĢ ÐºÑĥ
Ð»Ñı Ð»Ð¸ÑģÑĮ
Ð¾Ð· Ð·
ĠÐĽ ÑĥÑĩ
ĠÐ® Ð»Ð¸Ñı
ĠF re
ĠÑģÑĤÐ°ÑĤÑĮ Ñİ
ĠÐºÐ¾Ð¼Ð¿Ð¾Ð· Ð¸
ĠÐ¿ÑĢÐ¾ÑĢ Ð¾ÐºÐ°
ĠÐĲÐ½ÑĤ Ð°ÑĢÐº
ÑĦÐµÐ»ÑĮ Ð´
ĠÐ¿ÑĢÐµÐ´Ð¿Ð¾Ñĩ ÑĤ
ĠÐ¿ÐµÑĢÐµÐ²Ð¾ÑĢ Ð¾ÑĤÐ°
ĠÑĦÑĢÐ°Ðº ÑĨÐ¸Ð¸
ĠÐĿÐ¸Ð´ÐµÑĢÐ»Ð°Ð½Ð´ Ð¾Ð²
: //
Ñı ÑĤÐ°
ĠÐ¼ ÐµÐ·
ĠÐ¼ Ð°Ð½Ð´
ĠÐľ Ð¾ÑĢÐ¸
ĠÑģÐ¿ Ð¾ÐºÐ¾Ð¹
ĠÐ¥ ÐµÑĢÑģÐ¾Ð½
Ðļ Ð°ÑĢ
ĠÐºÑĢÑĥÐ¿ Ð½Ð¾Ð³Ð¾
ĠÐ¼ÑĥÐ· ÐµÐµ
ĠÐ´ÐµÑĢÐµÐ² ÑĮÐµÐ²
197 9
196 9
ĠÐ¼Ð¾Ð»Ð¾Ð´ Ð¾Ð¹
ĠÐ³ÑĥÐ±ÐµÑĢÐ½ Ð°ÑĤÐ¾ÑĢÐ°
ÐµÐ½Ð¸Ð½ Ð³ÑĢÐ°Ð´
ÑĤ ÑĭÐµ
Ñĥ Ð»Ðµ
ĠÐŁ Ð¾Ð»Ñı
Ð¾Ñĩ Ð½ÑĭÐ¼
ĠÐ´Ðµ ÑĦ
ĠÐ·Ð°Ð¿ Ð¾Ð»Ð½
ÐĶ Ð¡
ĠÑģÑĩÐ¸ÑĤ Ð°Ð»Ð¾ÑģÑĮ
ĠÐ²ÐºÐ»ÑİÑĩ ÑĳÐ½
ĠÑĦÐ¾Ð½ ÐµÑĤ
Ð¼Ð¸ÑĤ Ð¸Ð²
ĠÐ³Ð¸Ð´ ÑĢÐ¾Ðº
ĠÐ½Ð°Ð¿ÑĢÑı Ð¼ÑĥÑİ
ĠÐ¾ÑĪÐ¸Ð± Ð¾Ðº
ĠÐºÐ¾Ð¼Ð¿ÑĮÑİÑĤÐµÑĢ Ð½ÑĭÑħ
ĠÑįÐ½ÐµÑĢ Ð³Ð¸Ñİ
ĠÐ¸ÑĢ Ð»Ð°Ð½Ð´
ĠÐ²ÐµÑĢÑĤ Ð¾Ð»ÑĳÑĤ
Ñĩ Ð¸ÑģÑĤ
Ð°Ð½Ð° Ð´Ð°
ĠÐ¼ÐµÑģÑĤ Ð½Ð¾Ð¹
ĠÐ¿Ð» Ð°Ð½Ð°
ĠÑĢÑĥÑģ ÑģÐºÐ¸Ð¼Ð¸
Ð»ÐµÐºÑģ Ð°Ð½Ð´
ĠÐ¿ÑĢÐ¸Ð½ ÐµÑģ
ĠÐ°ÐºÑĤÐ¸Ð² Ð½Ð¾Ðµ
ĠÑĥÐ· Ð½
ĠÐ¿Ð¾Ð»Ð¾Ñģ Ñĭ
ĠÐ´ÑĢÑĥÐ· ÐµÐ¹
ĠÐ´ Ð°ÑĤÑĭ
ĠÐµ ÑĢÐµ
ĠÐ¤ÑĢÐ°Ð½ ÑģÑĥÐ°
Ð¸ÑĢÐ¸ Ð½
ĠÐŁÐ¾Ð»ÑĮÑĪ Ð°
ĠÑģÐµÑģÑĤ ÑĢÐ°
ĠÑĦÐ°Ð¹ Ð»Ð°
ĠÐ¼ÐµÑĤÑĢÐ¾Ð¿Ð¾Ð»Ð¸ÑĤ ÐµÐ½Ð°
ĠÑįÐ¼Ð¾ ÑĨÐ¸Ð¾Ð½Ð°Ð»ÑĮ
Ð´ Ð¸Ð²
ÑĨ ÐºÐ¾Ð¹
Ð¾Ð¿ ÑĢÐµÐ´ÐµÐ»
ĠÐĿ ÐµÐ¹
Ð¸Ð² Ð°Ð»Ð°
ĠÑħ ÑĢÐ°Ð½Ð¸
ĠÐºÐ¾ÑĢ ÑĢÐµ
ĠÐ¸ÑģÑĤÐ¾ÑĢÐ¸ ÐºÐ¸
ĠÐ»ÑİÐ± Ð¾Ð¼
ĠÐ¼ÑĥÐ·Ñĭ ÐºÐµ
ĠÑĤÐ¾ÑĢÐ³Ð¾Ð² ÑĭÐµ
ĠÑħÐ°ÑĢÐ°ÐºÑĤÐµÑĢ Ð½Ñĭ
ĠÐ²ÐµÑĤ Ð²Ð¸
ĠÑĢÐµÐ°Ð»Ð¸Ð· Ð¾Ð²
ĠÐ¿Ð¾ÑģÑĳÐ» ÐºÐµ
ÑĨÐµÐ½ÑĤ ÑĢÐ¸
ĠÐ´Ð¾Ð¿Ð¾Ð»Ð½Ð¸ÑĤÐµÐ»ÑĮ Ð½ÑĭÑħ
ĠÑģÐ¾Ð²Ð¿ Ð°Ð´Ð°ÐµÑĤ
ĠÐ¥ÑĥÐ´ Ð¾Ð¶Ðµ
ĠÐ²Ð¾ÐµÐ½Ð½Ð¾ÑģÐ»ÑĥÐ¶ Ð°ÑīÐ¸Ñħ
ĠÐ± Ð°ÑĤÐ°
Ð¼Ð¸ Ð¹
ĠÐ½Ðµ Ð¿Ð¾Ð»
ĠÐĳ ÑĭÐ²
ĠÑįÐº ÑĢÐ°Ð½
ĠÐ·Ð°Ð¿ ÑĢÐ¾Ñģ
Ġ6 9
ĠÑĢÐ°Ð·Ð² Ð¸Ð²Ð°
ĠÑĥÐ¿ÑĢÐ°Ð² Ð»ÐµÐ½Ð¸ÐµÐ¼
Ġ186 7
196 8
ĠÐľÐµÐ¶Ð´ÑĥÐ½Ð°ÑĢÐ¾Ð´ Ð½ÑĭÐµ
ĠÐ´Ð»Ð¸Ð½ Ñĥ
ĠÑĢÐµÐ»ÑĮ ÐµÑĦ
ĠÐŁÐ°ÑĤÑĢÐ¸ Ð°ÑĢÑħ
ĠÐ¡ÑĢÐµÐ´Ð½Ðµ Ð³Ð¾Ð´
ĠÐ¿ Ð½ÐµÐ²
Ð¾Ð² Ð¾Ð¼
Ð¾Ð² ÑĥÑİ
Ñħ Ð°ÑĢ
ĠÐ³ ÑĢÐ¾Ð±
ĠÐ± ÑĢÐ°Ð·Ð¸Ð»ÑĮ
ĠÐ¸Ð· Ð¾Ð»
ĠÑĦ ÑįÐ½
ĠÐĵ ÑĥÐ´
Ð¸Ð· Ð¾ÑĦ
ĠÐ¿Ð¾Ð» Ð°
ĠÑĪ Ð¸ÑĦ
ÑĥÐ½ ÑĤ
ĠÑĨÐµÐ» ÑĭÐ¹
ĠÐ¸Ð·ÑĥÑĩ ÐµÐ½Ð¸Ñİ
ĠÐ¸Ð³ÑĢÐ° Ð»
ĠÐ²ÐµÐ»Ð¸Ñĩ Ð¸Ð½Ðµ
ĠÐ½Ð°ÑĩÐ°Ð»ÑĮ Ð½Ð¸ÐºÐ°
ĠÑĥÐ»ÑĮ ÑĤÑĢÐ°
ĠÐ²Ð¾Ð² ÑģÐµ
ĠÑģ Ð¸Ð½Ð³
ĠÐº Ð¾Ð³Ð¾
ĠÐ¿ÑĢÐ¸ Ð»ÐµÐ³Ð°
ĠÑĢÑĥ ÐºÐ¾Ð¿
ĠÐļÐ¾Ð½ Ð³Ð¾
ĠÐºÑĢÑĥÐ³ Ð°
ĠÐ¿ÑĢÐ¾Ð³ÑĢÐ°Ð¼Ð¼ Ð½Ð¾Ð³Ð¾
ĠÐ½ÐµÐ¹ÑĤ ÑĢÐ°Ð»ÑĮ
ĠÐ²Ð¾ÐºÐ· Ð°Ð»Ð°
ĠÐ¸ Ð½ÑĭÐµ
ĠÐŁ ÐµÐ½
ĠÐĳ ÐµÑģÑģ
ĠÑĤÐµÑħ Ð½Ð¸ÐºÐ°
Ð¿Ð¾Ð´ Ð¾Ð±
ro w
ĠÑħÐ¸Ð¼Ð¸ ÑĩÐµÑģÐºÐ¾Ð³Ð¾
ĠÐºÐ°Ð· Ð°ÐºÐ¾Ð²
ĠÐ¾ÑĦÐ¸ÑĨÐ¸Ð°Ð»ÑĮ Ð½ÑĭÐ¹
ĠÐ¾ÑĤÐ´ÐµÐ» Ð°
ĠÐºÐ¾Ð½Ñģ ÑĥÐ»
Ð¸Ð½Ð°Ð¼ Ð¾
g er
Ð´ ÑĳÑĤ
ĠÑģ ÑĥÐ»ÑĮÑĦ
ĠÐ¸ ÐºÐ¾Ð½Ñĭ
ĠÐ¼ ÐµÐ¼
ĠÑĩ ÑĥÐ²Ð°ÑĪ
ĠÐ³Ð¾Ð´ Ð°Ð¼
ĠÐĽ Ð¸Ñħ
ÐŁ Ð¾Ð´
Ð¢ Ðĺ
ed ia
ĠÐĽÐµÐ½Ð¸Ð½ Ð³ÑĢÐ°Ð´Ð°
ĠÐ¿ÑĢÐµÐ¼ ÑĮÐµÑĢÐ°
ĠÑĩÐµÑĢ ÑĤÐµ
ĠÐ¸ÑģÐ¿Ð¾Ð»Ð½ ÐµÐ½Ð¸Ðµ
ĠÐľÐ¸Ð½Ð¸ÑģÑĤ ÑĢÐ¾Ð²
ht tp
ĠÐ¿ÑĢÐ¸Ð·Ð½Ð°Ðº Ð¸
ĠÐ¿Ð¾ÑģÐ»ÐµÐ´Ð¾Ð²Ð°ÑĤÐµÐ»ÑĮ Ð½Ð¾ÑģÑĤÑĮ
ĠÐ¿ÑĢÐ¾Ð· Ð²Ð¸
Ð¼Ð¿Ð¸ ÑĢÐ¸
ĠÐĿÐ°Ð¿Ð¾Ð»Ðµ Ð¾Ð½Ð°
ĠÐºÐ¸Ð½Ð¾Ð°ÐºÑĤ ÑĢÐ¸ÑģÐ°
ĠÐ¿ÑĢÐµÐ´Ð¿ÑĢÐ¸Ð½Ð¸Ð¼ Ð°ÑĤÐµÐ»ÑĮ
Ð½Ð¾Ð¶Ðµ ÑģÑĤÐ²Ð¾
ĠÐ¸Ð·Ð±ÐµÐ¶ Ð°ÑĤÑĮ
I N
ÑģÐº ÑĢÑĭ
ÐµÐ» Ð¸Ðµ
ĠÐ³ ÑĢÐµÐ±
ĠÐ° Ð³ÑĢÐ°ÑĢ
ĠÑĩ ÐµÑĢÐ½
Ð¾Ð· Ð°Ð¿
ĠÑĢÐµ Ð¿ÑĢÐµÑģ
ĠÐ¢ Ð¸
Ð¡ ÐŁ
ĠÐĽ Ð°Ð·
ĠC O
ĠÑĥÑģÑĤÐ°Ð½Ð¾Ð² Ð¸Ð»Ð¸
ĠÐ¡Ð°Ð¼ Ð°Ñı
ĠÑģÑĤÐ°ÑĢ ÑĪÐµ
ĠÐ¿Ð°Ð¼ÑıÑĤ Ð½Ð¸ÐºÐ°
ĠÐ¼Ð¾ÑĢÐµ Ð¿Ð»Ð°Ð²
ĠÑįÐ»ÐµÐºÑĤÑĢÐ¸ ÑĩÐµÑģÐºÐ¾Ð³Ð¾
ĠÐľÐ°ÐºÐµÐ´Ð¾Ð½ Ð¸Ð¸
ĠÐ´Ð¸Ð· Ð°Ð¹
ĠÐ¾Ð´ÐµÑĢÐ¶ Ð°Ð»
ĠÑĢÐ°ÑģÑģÐºÐ° Ð·Ñĭ
ĠÑħÐ°Ð»Ð¸ ÑĦ
ĠÐ¿ÑĢÐµÐ»Ð¾Ð¼ Ð»ÐµÐ½Ð¸Ñı
M P
ĠÐĴ Ð°Ð´
ĠÐ¾Ð± Ð¾ÑģÑĤ
ĠÐ¾ÑģÐ½Ð¾Ð² Ð°Ð½Ð¾
ĠÐ¼Ð¾Ð½ ÑĥÐ¼ÐµÐ½ÑĤ
ĠÑĦÐ°Ðº ÑĤÑĭ
ĠÐĽÑĥ ÐºÐ°
ĠÐ´Ð°Ð² Ð½Ð¾
ra ph
ĠÑıÐ´ ÑĢÐ¾
ĠÑģÑĥÐ± Ð±Ð¾ÑĤ
ĠÐĿÐ°ÑĢÐ¾Ð´ Ð½Ð¾Ð¹
ĠÑģÐ¾ÑģÐµÐ´ Ð½Ð¸Ñħ
qu e
ĠÐľÐ¸Ð½Ð¸ÑģÑĤÐµÑĢ ÑģÑĤÐ²Ð¾
ĠÐłÐļ ÐļÐĲ
ĠÐ´ Ð¸Ð½
ĠÐļ ÑĢÐ°Ð¹
Ð½Ð° ÑĨÐ¸Ð¾Ð½
ĠÐ²Ð¾Ð· Ð¼Ñĥ
ĠÐ¸ÑģÑĤÐ¾ÑĢÐ¸ ÐºÐ¾Ð²
ĠÐ¾Ð±ÑĢÐ°Ð·Ð¾Ð² Ð°Ð½Ð¸Ð¹
ĠÑĢÐµÑĪ ÑĳÑĤ
ĠÑĢÐ¾ÑģÑģÐ¸Ð¹ ÑģÐºÐ¸Ðµ
ĠÐ³Ð¾ÑģÑĥÐ´Ð°ÑĢÑģÑĤÐ²ÐµÐ½ Ð½ÑĭÐ¼
ĠÑĦÐ¸Ð· Ð¸ÐºÐ°
ĠÐ¾Ð· Ð½Ð°Ð¼
ĠÐ·Ð°Ð½Ð¸Ð¼ Ð°ÑĤÑĮÑģÑı
ĠÐ»ÐµÐ² Ð¾Ð¼
ĠÑĥÐ±Ð¸Ð¹ ÑģÑĤÐ²Ð¾
ĠÐ³Ð¾Ð»Ð¾Ñģ Ð¾Ð²Ð°Ð½Ð¸Ñı
ĠÐļÐ¸ÑĢÐ³Ð¸Ð· Ð¸Ð¸
ĠÑģÑĭÑĢ ÑĮÑı
l y
Ð² Ð°Ð»Ðµ
Ð¾Ð² ÑģÐºÐ¾Ð³Ð¾
ĠÐ¸ ÐµÑĢÐ¾Ð³Ð»Ð¸
Ð¿ Ð¸Ñı
ĠÐ¡ Ðŀ
ÑĩÐµ ÑģÑĤÐ¸
ĠÐĽ ÐµÑĢÐ¼Ð¾Ð½ÑĤÐ¾Ð²
ĠÐ¤ Ð¸ÑĪ
ĠÐ°Ð½ Ð°ÑĤÐ¾Ð¼
an s
ĠÐºÐ°ÑĩÐµ ÑģÑĤÐ²Ð¾
ĠÑģÑĥÐ´ Ð¾ÑħÐ¾Ð´
ĠÐ¿ÑĢÐ¸Ð² ÑıÐ·
ĠÐ¸Ð·Ð¾Ð±ÑĢÐ°Ð¶ ÐµÐ½Ð¸ÐµÐ¼
ĠÐ·Ð¾Ð»Ð¾ÑĤ Ð¾Ð¹
ĠÐļÐ¸ ÐµÐ²Ð°
ĠÐ¾Ð´ÐµÐ¶Ð´ Ñĭ
ĠÐĴÐ½ÑĥÑĤ ÑĢÐµÐ½
ĠÑĤÐµÑħÐ½Ð¸Ðº ÑĥÐ¼
Ð° Ð¶Ð´
Ð° ÑĩÐ¸
Ð°Ð» Ð°ÑĤ
ĠÐ¼ Ð¸Ð»Ð¸
ĠÐ± Ð¾Ñİ
ĠÐ§ Ð¸ÐºÐ°
Ð¢ Ð¾Ð¼
ĠÐ¸ÑģÑĤÐ¾ÑĢÐ¸ ÐºÐ°
ĠÐ¢Ð°Ðº Ð¾Ðµ
Ġ16 0
ĠÐ½Ð°Ð·ÑĭÐ²Ð° ÐµÐ¼Ð¾Ð¹
ĠÐ½Ð°Ð¿ ÐµÑĩÐ°ÑĤ
ĠÐŁÑĢÐ¾ ÐµÐºÑĤ
ĠÑģÐ¿ÐµÑĨÐ¸Ð°Ð»ÑĮ Ð½Ð¾Ð¹
ĠÑģÐ²Ð¸Ð´ÐµÑĤÐµÐ»ÑĮ ÑģÑĤÐ²ÑĥÐµÑĤ
ĠÐ¾Ð¿Ñĭ ÑĤÐ°
ĠÐ¾ÑģÑĤÐ°ÑĤ ÐºÐ¸
ĠÐ¥ÑĥÐ´ Ð¾Ð¶
ĠÐ°Ð²ÑĤÐ¾Ð´ Ð¾ÑĢÐ¾Ð³
E R
ÑĮ Ñĳ
Ñĩ ÐµÐ»Ð¾Ð²
ÑĢÐ¸ ÑĢÑĥ
ĠÐŁ Ð¾Ð»Ð¾Ð¶
ÑģÑĤÑĮ Ñİ
Ð¸Ðº Ð»Ð¸Ð½
ĠÐ¿ÐµÑĢÐµ Ð¸Ð·
ÐŁ Ð¾Ð²
ĠÐ¿Ð» ÑĥÑĤ
Ð»Ð¸Ð½ ÑģÐºÐ¸Ð¹
ĠÐŀÑĤ Ð´ÐµÐ»ÑĮ
ĠÐºÐ¾Ð¼Ð°Ð½Ð´ Ð¾Ð²Ð°Ð½Ð¸Ðµ
Ð¿Ð¾Ñģ Ð»ÐµÐ´
ĠÐ¾ÑĤÑģ ÑĩÑĳÑĤÐ°
Ġ187 4
ĠÐ°ÑĢÑħÐ¸ÑĤÐµÐº ÑĤÐ¾ÑĢÐ°
ĠÐ¿ÑĢÐ¸Ñĩ Ð¸Ð½Ñĭ
ĠÐ¿Ð»Ð¾ ÑħÐ¾
ĠÑĢÐ°Ð·Ð¼ÐµÑĢ Ð¾Ð²
ĠÐ¼ÑĭÑĪ Ð»ÐµÐ½Ð¸Ñı
ĠÐ¤ÑĢÐ¸Ð´ÑĢÐ¸Ñħ Ð°
ĠÐłÐ°Ð·Ð²Ð¸ÑĤ Ð¸Ðµ
Ðµ Ñİ
Ð¶ Ð½ÑĭÐµ
ĠÐ¼ ÐµÐ»ÑĮ
Ð¸Ð½ Ð¸Ð¹
Ð¸Ð¼ Ð¸ÑĤ
ĠÐĳ ÐµÑĤ
ĠÐ¿Ð¾Ð´ ÑĢÐ°Ð·Ð´ÐµÐ»Ñı
ĠÐ³Ð¾ÑģÑĥÐ´Ð°ÑĢÑģÑĤÐ²ÐµÐ½ Ð½Ð°Ñı
ĠÐ¿ÑĢÐ°Ð²Ð¸ÑĤÐµÐ»ÑĮ ÑģÑĤÐ²Ñĥ
ĠÑĢÐ°ÑģÑģ ÑĩÐ¸ÑĤÑĭ
ĠÐ¡Ð°Ð¼ Ð¾
ĠÑĢÑıÐ´ Ñĥ
ĠÐ¿ÑĢÐ¾ÑĦ ÑģÐ¾
ĠÑħÐ°ÑĢÐ°ÐºÑĤÐµÑĢ Ð½Ð¾
ĠÐ±ÑĢÐ¸ÑĤ Ð°Ð½ÑģÐºÐ°Ñı
ĠÐ¿ÑĢÐ¸Ð½ÑĨÐ¸Ð¿ Ð¾Ð²
ĠÐ±Ð°ÑĢ Ð¾ÐºÐºÐ¾
ĠÐ¡ÐµÑĢÐ³Ðµ ÐµÐ²Ð¸Ñĩ
ĠÐĿÐµÐ· Ð°Ð²Ð¸ÑģÐ¸Ð¼
Ð» Ð°Ð½Ð¸
Ð´ Ð½ÐµÐ²
ĠÑģ Ñĳ
Ð³ Ð¾Ð»Ð¾Ð²
Ð¾Ð½ Ð¸ÐºÐ¸
ĠÐ±Ñĭ Ð²Ð°ÐµÑĤ
ĠÑĢÐµ ÑĦÐ¾ÑĢÐ¼Ð°
ĠÐ¡ÑĤ Ð¾Ð»
ĠÐµÐ´Ð¸Ð½ Ð¾Ð¹
ĠÐ¾Ð¿ÑĢÐµÐ´ÐµÐ» ÑĳÐ½Ð½Ð¾Ð³Ð¾
ÐºÐ¾Ð½ ÑĤ
ÑĤÐ¸ÑĢÐ¾Ð² Ð°Ð»
ac t
ĠÑģÑĥÐ¼ ÐµÐ»
ĠÑĥÐ¿Ð¾ÑĤÑĢÐµÐ± Ð»ÐµÐ½Ð¸Ñı
ĠÑĤÑĥÑĢÐ½Ð¸ ÑĢ
ĠÐ½ÐµÑĢÐ² Ð½Ð¾Ð¹
ĠÐŁÐµÑĤÑĢ Ð¾Ð³ÑĢÐ°Ð´
ĠÐ¿Ð¾Ð»ÑĥÐ¿ ÑĢÐ¾Ð²Ð¾Ð´
ĠÑĤ ÑĢÐµÐ²
Ð½Ð¾ ÑģÑıÑĤ
ĠÐļ Ð¾Ð´
ĠÐļ Ð°ÑĤÐ°ÑģÑĤÑĢÐ¾ÑĦÐ°
ĠÐĲ ÑĢÐ¸
ĠÑĤÐ°Ðº ÑĥÑİ
Ð»Ðµ Ð·
Ðľ ÐµÑĤ
ÑĢÐ°ÑĤ Ð½Ð°Ñı
ĠÑģÐ¾ÑģÑĤÐ¾Ñı Ð½Ð¸Ð¹
ÑĢÐ¾Ð²Ð°Ð½ Ð½ÑĭÐµ
ĠÐ¿ÑĢÐ¾Ð¸Ð·Ð¾ÑĪ Ð»Ð¸
ĠÑģÑĨÐµÐ½ Ðµ
ĠÐ±Ð°ÑĪ Ð½Ð¸
ĠÑĢÐ°Ð·Ð¼ ÐµÑĢÐµ
ĠÐ»Ð¸Ð½Ð³ Ð²
ĠÐ´ÐµÑĢÐµ Ð²Ð°
ĠÐ¾ÑĢÐ± Ð¸ÑĤÑĭ
c o
ĠÐ± Ð°ÑĢÐ°Ð±
ĠÐ¡ ÑĥÐ¿
ĠÐļ ÐµÐ½Ð½
ĠÐĲ ÑģÑģÐ¸
ĠÐĳ Ð°Ð´
ĠÐŁÑĢÐ¸ ÑĢÐ¾Ð´
Ð·Ð² ÑĥÑĩ
Ð»ÐµÑĤ Ð½ÐµÐ³Ð¾
is che
ĠH ist
ĠÐ²Ð¾ÑģÑģÑĤ Ð°Ð½Ð°Ð²
ĠÐ¿Ð°ÑĢÐ° Ð´
ĠÐ¿Ð¾Ð±ÐµÐ´ Ð¸Ð»
Ġ186 9
ĠÐ²Ð²ÐµÐ´ ÐµÐ½Ð°
ĠÐ²Ð¾ÑģÑģÑĤÐ°Ð½Ð¾Ð² Ð»ÐµÐ½Ð¸Ðµ
ĠÐľÐµÐ´ Ð¸ÑĨ
ĠÐ¿ÐµÑĢÐµÐ´Ð° ÑĩÐµ
ĠÐ´Ð²Ð¸Ð³ Ð°ÑĤÐµÐ»ÐµÐ¹
ĠÐ²Ð¾ÑģÐ¿ÑĢÐ¸ Ð½Ð¸Ð¼
ĠÐ¿ÑĢÐ¸Ð½Ð¸Ð¼Ð° ÑİÑĤ
ĠÐ²ÐµÑĢÑĪ Ð¸Ð½Ñĭ
ĠÐ¼ÐµÑĢÐ¾Ð¿ÑĢÐ¸ ÑıÑĤÐ¸Ð¹
ĠÐŁÑĢÐµÐ¼ ÑĮÐµÑĢ
ĠÐ¥ÑĢÑĥ ÑīÑĳ
Ð½ Ð´
ĠÐ± Ð¸Ð±Ð»ÐµÐ¹
ĠÐ¾Ð± ÑħÐ¾Ð´
ÑģÐ¸ Ð»Ð°
ĠÐĺ ÑģÐ»Ð°Ð½Ð´
ÐŁ ÐµÑĢÐ²
Ð¾Ð³ÑĢÐ° ÑĦÐ¸Ñİ
ĠÐ´Ð² Ð¾
ĠÐ¿Ð¾Ð»ÑĥÑĩ Ð°ÑĤÑĮ
ĠÐ¿Ð» Ð°Ð½Ñĭ
ĠÑĢÐ°Ð·ÑĢÐ°Ð±Ð¾ÑĤ Ð°Ð½
ĠÐļÐ¾Ð½ÑģÑĤÐ°Ð½ÑĤ Ð¸Ð½Ð¾Ð²
ĠÐĶÐ° Ð¶Ðµ
ĠÐ·Ð°ÐºÐ¾Ð½Ð¾Ð¼ ÐµÑĢ
ĠÐĲÑĢÐ¸ÑģÑĤÐ¾ÑĤ ÐµÐ»Ñı
ĠÐº ÐĴ
ĠÐľ ÐµÑĩ
ĠÑĢÑĥÐºÐ¾Ð²Ð¾Ð´ Ð¸ÑĤÐµÐ»ÐµÐ¹
ĠÐļÐ° ÑĦÐµÐ´
ĠÑĢÐ°Ð·ÑĢÐ°Ð±Ð¾ÑĤ Ð°Ð»
ĠÑģÐ¾ÐµÐ´Ð¸Ð½ ÐµÐ½Ð¸Ðµ
ĠÑĤÑĥ ÑĢÐ¸ÑģÑĤÐ¾Ð²
ĠÑģÑĥÑīÐµÑģÑĤÐ²Ð¾Ð² Ð°ÑĤÑĮ
ĠÐºÑĢÑĥÐ¿Ð½ÐµÐ¹ ÑĪÐ¸Ð¼
ĠÐĽÐ¸ Ð³Ð¸
ĠÐ»Ð¸ÑĤÐ¾Ð² ÑģÐºÐ¸Ð¹
ĠÐ¿ÑĮÐµÑģ Ñĭ
Ð»Ð¸ Ð²Ð°ÑİÑĤÑģÑı
ĠÐľ ÐµÐ»ÑĮ
ĠÐł ÐµÐ³
ĠÐ¢ Ð°Ð¼Ð±
ĠÐ¥ Ð°Ð¼
Ð¾ÑĢÐ° Ð´
ÐĴ Ñĭ
Ð´ÐµÐ» ÐµÐ½Ð¸Ðµ
ĠÐ²Ð¾Ð·Ð¼Ð¾Ð¶ Ð½Ð¾ÑģÑĤÐµÐ¹
ĠÑģÐµÐº ÑĥÐ½Ð´
ĠÑĢÐ°Ð½ Ð½Ð¸Ðµ
ĠÐ¿ÑĢÐ¾Ð²ÐµÐ´ ÐµÐ½Ð°
ĠÐ¾Ð±Ð»Ð°ÑģÑĤÑĮ Ñİ
ĠÑģÑĥÑīÐµÑģÑĤÐ²Ð¾Ð² Ð°Ð»Ð°
ĠÑĨÐµÐ½ÑĤÑĢÐ°Ð»ÑĮ Ð½ÑĭÑħ
ĠÐ°ÑĢÐ°Ð± ÑģÐºÐ¾Ð³Ð¾
ĠÐºÐ°Ð¿Ð¸ÑĤ Ð°Ð½
ĠÐ½Ð°ÑģÑĤÑĥÐ¿ Ð»ÐµÐ½Ð¸Ñı
ĠÐ¿ÑĢÐµÐ´Ð¼ÐµÑĤ Ð¾Ð¼
ĠÑģÐ¿Ð¾ÑĢÑĤÐ¸Ð² Ð½ÑĭÑħ
ĠÑģÐ°Ð¼Ð¸ Ð¼
ĠÐ¢Ð¾ÑĢ Ð³Ð¾Ð²
ĠÑĢÐµÑĦÐµÑĢ ÐµÐ½Ð´
ĠÑģÑĥÐ» ÑĤ
ĠOp en
I P
Ñģ Ð¾ÑĤ
ĠÐ¡ ÑĥÐ²
ĠÑĥ Ð¼Ð¸ÑĢÐ°
ĠÐļ Ð¾ÑĢÑĤ
ÑģÐ¿ Ð¾ÑĢ
ĠC on
ĠÐ¡Ð¼ Ð¸ÑĤ
ĠÑĥÐ´ Ð¸Ð²
ĠÐľÐ°ÑĢ ÑĪ
ĠÐ¡Ð¿ Ð¾ÑĢ
ĠÑıÐ² Ð½Ð¾
ĠÑģÐ¾ÑħÑĢÐ°Ð½ Ð¸ÑĤÑĮ
ĠÐ¾Ð¿ÑĥÐ±Ð»Ð¸ÐºÐ¾Ð² Ð°Ð½
ĠÑĢÐ°Ð·ÑĢÐµÑĪ ÐµÐ½Ð¸Ðµ
ĠÐŁÑĢÐ¾Ð¼ÑĭÑĪÐ»ÐµÐ½ Ð½Ð¾ÑģÑĤÑĮ
ĠÐľÐµÑģ Ð¾Ð¿Ð¾ÑĤ
Ð» Ð¾Ðµ
Ñİ ÑĢÐµ
ĠÑĥ ÑĪÑĳÐ»
ĠÐĵ ÑĢÐµÐ½
ĠÑĢÐ°Ð· Ð²ÐµÑĢ
ĠÑĢ Ð¾Ð±
ÐµÐ· Ð¸Ñģ
ĠÐ¾ÑģÐ½Ð¾Ð² Ð°Ð½Ð¸Ðµ
ĠÐ¿Ð¾Ð»ÑĥÑĩ ÐµÐ½Ð¸Ðµ
ĠÐ¾ÑģÑĤ Ð°ÑİÑĤÑģÑı
ĠÑĤÐ¾Ð¼ Ð°Ñħ
ĠÑģÐ»ÐµÐ´ ÑĥÑİÑīÐµÐ³Ð¾
ĠÐ¿ÑĢÐ°Ðº ÑĤÐ¸ÐºÐ¸
ĠÐ·Ð°ÐºÐ¾Ð½ Ñĥ
ĠÑĢÐµÑģÐ¿ÑĥÐ±Ð»Ð¸ Ðº
Ġ187 3
198 2
ĠÐ¾Ð±ÑĬÑıÐ² Ð»ÐµÐ½
ĠÐ¿Ð¾Ð´Ð¾Ð± Ð½Ð¾
ĠÐĲÐ¼ ÑĥÑĢ
ĠÑĢÐ°ÑģÐ¿Ð¾Ð»Ð°Ð³ Ð°ÑİÑĤÑģÑı
ĠÐ²Ð¾ÑģÐ¿ÑĢÐ¸ ÑıÑĤÐ¸Ñı
ĠÐ¤Ð¸Ð»Ð¸Ð¿Ð¿ Ð°
ĠÐ½Ð¸Ð¶ Ð½ÐµÐ¹
ĠÑģÑĤÐ° ÑĨÐ¸Ð¾Ð½
ĠÐ¾Ð±Ð¾Ð·Ð½Ð° ÑĩÐ°
ÑĦ ÐµÑĢÐ°
Ð°Ð² Ð»Ð¾Ð²
ĠÐ¢ ÑĥÐ»
ÑĥÑģ Ñĭ
an a
an k
Ð¼ÐµÑĤ ÑĢÐ¾Ð²
ĠÐ¾Ð±Ñī Ð¸Ðµ
ĠÐ³ÐµÐ½ÐµÑĢÐ° Ð»ÑĮÐ½ÑĭÐ¹
ĠÑĪÐ¸ÑĢÐ¾Ðº Ð¾Ð¼
ÑģÐ¾ ÑĨÐ¸
ĠÐ¿ÑĢÐ¾Ñĩ Ð¸Ðµ
ĠÐĿÐ¸Ð¶ Ð½Ð¸Ð¹
ĠÐŁÐ¾Ð± ÐµÐ´Ð°
ĠÐĺÐ·Ð´ Ð°ÑĤÐµÐ»ÑĮÑģÑĤÐ²Ð¾
ĠÐºÐ°Ð¿ Ð¸ÑĤÑĥ
ĠÐ½Ð°Ð¸Ð¼ÐµÐ½ Ð¾Ð²Ð°Ð½Ð¸Ðµ
Ð´ Ð¸Ñģ
ÑĢÐ° ÑĤÐ¾Ð²
ĠÐº Ð½
Ð¾ÑĢ Ð¾Ñģ
Ð¸Ñģ Ð»Ð¾Ð²
ĠÐ·Ð° Ð±Ð¾ÑĤ
ĠÑģÐº Ð¾ÑĤÐ°
ĠÐĺÑģÐ¿ Ð°Ð½Ð¸Ñı
ĠÐ°ÑģÑĤ ÐµÑĢÐ¾
ĠÐ¾ÑĤÐºÐ°Ð· Ð°ÑĤÑĮÑģÑı
ĠÐ¿Ð¾Ð»ÑĮ ÑģÐºÐ¾Ð³Ð¾
ĠÐ´Ð¾ÐºÐ°Ð· Ð°ÑĤÐµÐ»ÑĮÑģÑĤÐ²Ð°
ĠÐ¾Ð² Ð¾Ñī
ĠÐ´ÐµÐ»Ðµ Ð³Ð°
ĠÐŀÐ»ÑĮ Ð³Ð°
ĠÐº Ð°Ð½ÑĤ
ÐµÑĤ ÑģÐºÐ¸Ð¹
ĠÐ³ ÑĥÐ½
ĠÐ¼ ÑĥÐ»ÑĮÑĤ
ĠÐŁ ÑıÑĤ
ĠÐ» Ð°ÑĤÑĭ
ĠÐ¸Ð· Ð¾Ð±
ĠÐĳ ÐµÑĢÐ³
ĠÐ¥ Ð°Ñģ
ĠÐ¿ÑĢÐ°Ð² Ð´Ð°
Ġ7 4
ĠÐķÐ² Ð´Ð¾Ðº
ĠÐłÐ¸Ð¼ ÑģÐºÐ°Ñı
ĠÐ½Ð°Ð·Ð½Ð°Ñĩ Ð¸Ð»
Ġ187 2
ĠÐ®Ð¶ Ð½ÑĭÐ¹
197 5
ĠÐ¶ÐµÐ»ÐµÐ·Ð½Ð¾Ð´Ð¾ÑĢÐ¾Ð¶ Ð½Ð¾Ð¹
ĠÐĺÐ»ÑĮ Ñı
ĠÐĺÐ·Ð²ÐµÑģÑĤ Ð½Ð¾
ĠÐ²Ð¸Ð· Ñĥ
ĠÐ¤ ÐµÐ²ÑĢÐ°Ð»ÑĮ
ĠÐ® Ð½
ĠÐ® ÐĲÐł
ĠÑĥÑģÑĤ Ð°ÑĢÐµÐ²
ĠÐĲÐ² ÑģÑĤÑĢÐ¾
ĠÐ³Ð¾ÑģÑĥÐ´Ð°ÑĢÑģÑĤÐ²Ð° Ð¼Ð¸
ĠÐ¼Ð°Ð» Ð¾Ð¹
197 2
ĠÎ ±
ĠÐ¿ÑĢÐ¸Ð¾Ð± ÑĢÑĳÐ»
ĠÐ·ÐµÐ¼Ð»Ñı Ñħ
ĠÐĶÐµÐ» ÐµÐ³Ð°ÑĤÑĭ
Ð½ ÑĥÐ´
ĠÐ¿ ÑĪÐµÐ½Ð¸
Ð½Ð¸ Ð²
ĠÐĴ ÐµÐ±
ĠÐĴ Ð¦
ÐµÐ² Ð¾Ð´
Ð½Ð¾Ð² ÑĢÐµÐ¼ÐµÐ½
ÑĥÐ± Ð°
Ðļ Ð¾Ð»
ĠÐĲÑĢ Ðº
Ð¸ÑĢÑĥ ÐµÐ¼ÑĭÑħ
ĠÑĥÑģ Ð°Ð´ÑĮ
ĠÐ¤ÑĢÐ°Ð½ ÑĨÐ¸ÐµÐ¹
ĠÑĥÑĩÑĳ ÑĤÐ°
ĠÐ³ÑĢÐµ ÑĩÐµÑģÐºÐ¾Ð¹
ĠÐºÑĢÐ°Ñģ Ð½Ð¾
âĢľ Â».
ĠÐļÐ¾Ð½ÑģÑĤÐ¸ÑĤÑĥ ÑĨÐ¸Ñı
ĠÑī ÐµÐ»
ĠÐĵÑĢÐ°Ð¶Ð´Ð°Ð½ ÑģÐºÐ°Ñı
ĠÐ±Ð¸Ð·Ð½ÐµÑģ Ð°
ÑĨ ÐµÑĢ
ÑĨ ÐµÐ¹
Ð¾ÑĤ ÐºÑĢÑĭ
ĠÐ¿ÑĢÐ¸ Ð¾ÑģÑĤÐ°Ð½Ð¾Ð²
ÐµÐ² Ðµ
ĠÐĽ ÐµÐ½Ð½
ĠÑħ Ð»Ð¾ÑĢ
ĠÑĪ Ð¸
Ðŀ ÑģÐºÐ°ÑĢ
Ð¸ÑĢÐ¾Ð² Ð°Ð½Ð½ÑĭÐµ
ÑĥÑİÑī ÑĥÑİ
ĠÐŀÐ´ Ð½Ð¾Ð¹
Ð¾ÑģÐ¾Ð± ÐµÐ½Ð½Ð¾
ĠÐ²ÑĭÑģÐ¾Ðº ÑĥÑİ
ĠÐ¡ÐµÐ²ÐµÑĢ Ð½Ð¾Ð¼
ĠÐ¿Ð¾ÑģÐ»ÐµÐ´Ð¾Ð² Ð°ÑĤÐµÐ»ÑĮÐ½Ð¾
ĠÐ°ÑĤÐ¾Ð¼ Ð½Ð¾Ð¹
ĠÐ¾ÑĤÑĢÐ°Ð¶ ÐµÐ½Ð¸Ðµ
ÐµÑĢÐ°Ð»ÑĮ Ð´
ĠÑģÑĢÐ°Ð¶ ÐµÐ½Ð¸Ñı
ĠÐ¾ÐºÐºÑĥÐ¿ Ð°ÑĨÐ¸Ð¸
ĠÐ½ÐµÐ´Ð¾ÑģÑĤÐ°ÑĤÐ¾Ñĩ Ð½Ð¾
ĠÐĿÐ¸Ð¶Ðµ Ð³Ð¾ÑĢÐ¾Ð´ÑģÐºÐ¾Ð¹
ĠÐ²ÑĭÐ¿ÑĥÑģÑĤ Ð¸Ð»
Ðµ ÐµÐ²Ð°
Ð¾ÑĢ ÑģÐºÐ¸Ð¹
Ð¶ Ð½Ð¾Ð¹
ÐºÐ° Ð¿
ĠÑĪ Ð»Ð¸
Ð³ÑĢÐ° Ð±
ĠÑĤÐµÑĢ Ð¼Ð¸Ð½Ñĭ
ĠÐ¿Ð¾Ð»Ð¸ÑĤ Ð¸ÑĩÐµÑģÐºÐ°Ñı
ĠT e
ĠÐ¿Ð¾ÑģÐ²ÑıÑī ÑĳÐ½Ð½ÑĭÐ¹
ĠSt ud
ĠÐ¿Ð°Ð» ÐµÑģÑĤ
ĠÐ²ÑĭÐ´ÐµÐ»Ñı ÐµÑĤÑģÑı
ĠÐ½Ð¾Ð¼ ÐµÑĢÐ°
ÑıÑīÐ¸Ðµ ÑģÑı
Ġ #
Ñĥ Ð½Ð¸
ÑģÐº Ð¾ÑıÐ·Ñĭ
ĠÐº ÑĥÑģÑĤ
Ð°Ð» ÑİÑĤ
ÐµÐ¹ ÑģÐºÐ¾Ð¹
ĠÐŁ Ðŀ
Ñį ÑĤÐ¸
ĠÑĩ ÑĥÐ¶
ĠÐļ Ð°Ð¼Ð±
ĠÐ¿ÑĢÐ¸ Ð²ÐµÑĢÐ¶ÐµÐ½
ĠÐ¿Ð¾Ð´ Ð¿Ð¾Ð»ÑĮ
ĠÐºÐ¾ÑĢ Ð¾Ð»Ñİ
Ð°ÑĪ Ð¸
ĠÐ¿Ð¾Ð· Ð¸ÑĤÐ¸Ð²
ĠÑĥÐ¿ Ð¾ÑĢÑıÐ´Ð¾Ñĩ
ĠÑģÑĤÑĢÐ¾ ÐµÐ½Ð¸Ñı
ĠÑģÐ¾Ð²ÑĢÐµÐ¼ÐµÐ½ Ð½ÑĭÐ¼
ĠÑģÐ»ÑĥÐ¶ Ð°ÑĤ
ĠÑĢÐ°Ð·Ð´ÐµÐ» ÐµÐ½Ð¸Ðµ
ĠÐ·Ð°Ñħ Ð²Ð°ÑĤÐ°
Ġ186 2
ĠÐĶÐ¼Ð¸ÑĤ ÑĢÐ¸Ñı
ÑĪÐµÑģÑĤÐ² Ð¸Ñı
ĠY ork
ĠÐ¿ÐµÑĢÐµÑģÐµ Ñĩ
ĠÑģÑĥÐ¿ÑĢÑĥÐ³ Ð°
Ð² Ð¾Ñģ
ĠÐ½ ÑĥÐ»Ñİ
ĠÐ¸Ð· Ð²ÐµÑģÑĤÐ¸
ĠÐ²Ñĭ ÐºÑĥÐ¿
ĠÐ¿ÐµÑĢÐµ Ð±
Ð°ÑĢÐ¸ Ñİ
20 19
ÑĤÐ¸ÑĩÐµ ÑģÐºÐ¾Ð¼
Ġ8 8
ĠÑģÑĤÐ¾Ð» ÐµÑĤ
ĠÑģÑĤÐ°Ð½ ÐµÑĤ
ĠÑĨÐµÐ½ÑĤÑĢÐ°Ð»ÑĮ Ð½Ð¾Ð³Ð¾
ĠÐľÐµÐ¶Ð´ÑĥÐ½Ð°ÑĢÐ¾Ð´ Ð½Ð°Ñı
ĠÐļÑĥÐ· Ð½Ðµ
Ð² Ð¾Ðµ
ĠÐ¿ ÑĥÐ»ÐµÐ¼
ĠÐ½Ð° Ð²Ð¸Ð³Ð°
ĠÐļ ÑĥÑĩ
ĠÐľ ÐµÐº
ÐĲ ÐŁ
Ð¸ÑĤÐ° ÑĨÐ¸Ð¸
ÑģÑĭ Ð»Ð°
ĠÐĺÐ½ ÑĦÐ¾ÑĢÐ¼Ð°
ĠÐ·Ð°Ð¼ ÐµÐ´
ĠÑĢÐ°Ð± Ð¾Ð²
Ð°ÐºÐ¾Ð½ ÐµÑĨ
ĠÐ¿ÑĭÑĤ Ð°Ð»Ð¸ÑģÑĮ
ĠÑģÐ¸Ð½ÑĤÐµÐ· Ð°
ĠÐ²Ð·ÑĢÐ¾Ñģ Ð»ÑĭÑħ
ĠÐłÑĥÐ¼Ñĭ Ð½Ð¸Ð¸
ĠÑįÐ» Ð»Ð¸Ð½
y th
ÑĤ ÐµÐ¼
Ð» ÑĭÐ¼
ÐµÐ½ ÑĤÐ¸Ð¹
ĠÑģ Ð°
ĠÐ¾ ÑĢÐ°
ĠÐ³ ÑĥÑģÑĤ
ĠÐĵ Ð¸Ð½
ĠÐ¿Ð¾Ð´ Ð½Ð¸Ð¼Ð°
ĠÐ¾ÑĢ ÑĦ
ÐĿ Ð¸Ðº
ĠÑĩÐµ ÑĢÐµÐ´
Ð»ÐµÑĤ ÐºÐ¸
ĠÐ°Ð½ÑĤÐ¸ Ð´Ðµ
ĠÐ¿ÑĥÐ±Ð»Ð¸ ÐºÐ¾Ð²
ĠÐ§ÐµÑĢ Ð½Ð¸Ð³Ð¾Ð²
ĠÐŁÐ¾Ð¼ Ð¿
ĠÑĦÐ°Ð¼Ð¸ Ð»Ð¸Ð¸
ĠÑĥÑģÑĤÐ°Ð½Ð°Ð² Ð»Ð¸Ð²
ex t
ĠÐ¿Ð¾Ð´ÑĢÐ°Ð·Ð´ÐµÐ» ÐµÐ½Ð¸Ñı
ĠÐ»Ð°Ð±Ð¾ÑĢÐ° ÑĤÐ¾ÑĢÐ¸Ð¸
ĠQ u
Ð¼ Ð¸ÑĤÐ°
Ð¼Ð¸ Ð»Ð¸
ĠÑĥ ÑģÐ¾Ð²ÐµÑĢÑĪÐµÐ½
ĠÐ¾ÑĤ ÑĨÐ¾Ð¼
Ð´Ð° ÑĳÑĤ
ĠÐ¢ Ð°ÑĨ
ĠÑħ Ð¾Ð·Ñı
Ðļ Ðĳ
ĠÐ³Ð¾ÑģÑĥÐ´Ð°ÑĢ ÑģÑĤÐ²Ðµ
ĠP l
ĠÐ¾Ð¿ÑĢÐµÐ´ÐµÐ» ÑĳÐ½Ð½ÑĭÐµ
ĠÐ´Ð²Ð¸Ð¶ ÐµÐ½Ð¸Ð¹
ĠÐ¿Ð°Ð¿ Ñĭ
ĠÐĽÑĮ Ð²
ĠÑģÐµÐºÑĢÐµÑĤ Ð°ÑĢÑı
ĠÐ²Ð¾Ð·Ð´ÐµÐ¹ÑģÑĤÐ² Ð¸Ðµ
Ð² Ð¸Ð½Ð°
ÑĢÐ° ÑĤÑĭ
Ð¸ÑĤ ÐµÑĤ
Ġ1 12
ĠÑģÐ» Ð¾Ð¹
ĠÑģÐ¾Ð·Ð´ Ð°Ð»Ð¸
ĠÐ´ÑĢÐµÐ² Ð½Ð¸Ðµ
Ð·Ð¼ Ð¾Ð¼
ĠÐ¾Ð¿ÑĥÐ±Ð»Ð¸ÐºÐ¾Ð² Ð°Ð½Ð°
ĠÐ¿ÑĢÐ¸Ð½ÑĨÐ¸Ð¿ Ð°
Ġ185 9
ĠÑĥÑĩÐ°ÑģÑĤÐ²Ð¾Ð² Ð°ÑĤÑĮ
ĠÐºÐ¾Ð½ÑĨÐµÐ¿ ÑĨÐ¸Ñı
ĠÐ°ÑĢÑĤ ÐµÑĢÐ¸
ĠÐ½ÐµÐ¼ÐµÐ´ Ð»ÐµÐ½Ð½Ð¾
ĠÐ¨ÐµÐº ÑģÐ¿
s e
ĠÐ¼ Ð¾Ð·Ð³
Ð¸Ð½ Ð³Ð¾Ð²
ĠÐ¿ÑĢÐ¸ Ð¼Ñĭ
Ð°Ð´ Ð¾Ð²
Ð°Ð¹ ÐºÐ°Ð»ÑĮ
Ð¢ Ðµ
ĠC o
ĠÐ¿Ð¾ÑģÐ»ÐµÐ´ ÑĥÑİÑīÐ¸Ñħ
ĠÑĤÑĢÐ¸ Ð±ÑĥÐ½
ĠÐ»Ð¸Ð½ Ð¸Ñİ
ĠÐ½Ð°Ð±Ð»ÑİÐ´ ÐµÐ½Ð¸Ð¹
Ð¾ÑĢÐµÐ¼ Ð°
ĠÐ¿ÑĢÐ¾ÑıÐ²Ð»Ñı ÐµÑĤÑģÑı
ĠÐ½ÐµÐ¿ÑĢÐ°Ð² Ð¸Ð»ÑĮ
Ð¾ Ñĳ
Ðº Ð³
Ñı Ð»Ð°ÑģÑĮ
ĠÐº Ð¾ÑģÑĤÐ¸
Ñį ÑĤÐ¾
ĠÐľ ÐµÐ¼Ð¾ÑĢÐ¸
Ð¾Ð· Ð²
ĠÐŀ ÑĢÐµÐ½Ð±ÑĥÑĢÐ³
ĠÐĺ Ð±Ð½
ĠÐ¢ Ð°ÑĤÑĮ
ĠÐĽ Ð°Ð¿
Ð¸ÑģÑĤ ÑģÐºÐ¾Ð¹
ĠÐ¿ÐµÑĢÐµ ÑĩÐ¸Ñģ
Ð°ÑĢÐ¸ ÑĤ
ĠÐºÐ° Ð¶
ĠÐĶÐ¶ Ð¾Ð·ÐµÑĦ
ĠÐ²ÑĭÐ± ÑĢÐ°Ð½
ĠÐ²ÑħÐ¾Ð´ Ð¸Ð»
197 6
ĠÐ²Ð½ÐµÑĪ Ð½ÐµÐ³Ð¾
ĠÐ²Ð²ÐµÐ´ ÐµÐ½Ñĭ
ĠÐ¿Ð»Ð°ÑĤ Ð¾
ĠÐ¾Ð³ÑĢÐ¾Ð¼ Ð½Ð¾Ðµ
ĠÑģÐ°Ð¼Ð¸ Ñħ
ĠÐ¼Ð»Ð°Ð´ ÑĪÐ¸Ð¹
ĠÐĴÐµÐ½ ÐµÑģÑĥÑį
ĠÐķÐ²ÑĢÐ¾Ð¿ÐµÐ¹ ÑģÐºÐ¾Ð³Ð¾
ĠÐ¦Ð¸ Ð¾Ð»
ĠÐ¤ÐµÐ¾Ð´ Ð¾Ñģ
Ð² ÐµÐ»
ÑĮ ÐµÐ¹
ĠÐº Ð¾ÑĢÐµÐ¹
ĠÐľ ÐµÐ¶
ĠÐĵ ÑĢÐ°Ð½Ð¸
Ð³ÑĢÐ° Ð¼
ÐĿ ÐĲ
ĠÐ¾ÑĢÐ³ Ð°Ð½Ð¾Ð¼
Ð¾Ð±Ñĭ ÑĤ
ĠC or
ic ht
ĠÐ¼Ð¸ÑĢÐ¾Ð² ÑĭÑħ
Ġ186 6
ĠÐ´ÐµÐº Ð»Ð°ÑĢÐ°
ĠÑĢÐ°Ð·Ð¼ Ð½Ð¾Ð¶
ĠÐ¼Ð¸ÐºÑĢÐ¾ ÑģÐºÐ¾Ð¿
ĠÑĤÐ°Ð±Ð»Ð¸ ÑĨÐµ
ĠÐłÐµÐ»Ð¸Ð³Ð¸Ð¾Ð· Ð½ÑĭÐµ
Ñİ Ð¼
ĠÐ¡ Ð¼Ð¸ÑĢ
ĠÐĿ Ð°ÐºÐ¾Ð½ÐµÑĨ
ĠÐµ Ñİ
ĠÐ²Ñĭ Ð½ÐµÑģ
ĠÐ¥ Ð°Ðº
Ġ3 000
ĠÐ§ Ð¸Ð»Ð¸
ĠÐºÐ¾ÑĢ Ð¼
ĠÑĦÐ¾ÑĢ Ð¼Ð°Ñħ
ĠÐ±ÐµÐ· ÑĢÐ°Ð±Ð¾ÑĤ
ĠÐºÐ¾ÑģÐ¼Ð¸ ÑĩÐµÑģÐºÐ¸Ð¹
ĠÑĥÑģÐ¿ÐµÑħ Ð¾Ð¼
ĠÑģÑĤÑĢÐµÐ¼ Ð»ÐµÐ½Ð¸Ðµ
ĠÐ·Ð°ÑĢÑı Ð´
ÑįÐ»ÐµÐºÑĤ ÑĢÐ¾Ð½
ran s
ĠÐ¡ÐµÐ³ Ð¾Ð´Ð½Ñı
Ï ĥ
Ñģ ÑĥÐ´
ĠÐ½Ð° ÑĪÑĳÐ»
ĠÐĵ Ð£
Ð¸ÑģÑĤ Ð°Ð¼Ð¸
ĠÐ¤ ÑĢÐ°
ĠÑģÐº Ð¾Ð¿
ĠA pp
ĠÐ°Ðº ÑĨÐ¸Ð¸
ĠÐ¿ÑĢÐ¾Ð´Ð¾Ð»Ð¶ Ð°Ð»Ð¸
ĠÑģÐ¿ÐµÑĨÐ¸Ð°Ð»ÑĮ Ð½Ð¾Ð³Ð¾
Ð¾Ð½Ð°Ñĩ Ð°Ð»ÑĮ
ĠÑĢÐµÐ»Ð¸Ð³Ð¸Ð¾Ð· Ð½ÑĭÐµ
ĠÐ²ÐµÑĢÐ¾ÑıÑĤ Ð½Ð¾ÑģÑĤÑĮ
ĠÐ¿Ð»Ð¾Ð´ Ð¾ÑĢÐ¾Ð´
s on
Ð¾ ÑĨÐµÐ½
ÐµÑĢ Ð³Ð¾
ÑĩÐµ Ðµ
ĠÐļ ÑĢÐ°ÑĤ
ĠÐ¤ ÑĥÑĤ
ÐµÑĢÐ¸ Ðº
ĠÐ½Ð°Ñģ Ñĭ
ĠÑĤÐµÐ» ÐµÐºÐ¾Ð¼
ÐĽ Ðŀ
ĠÐµÐ´Ð¸Ð½ ÑģÑĤÐ²Ð°
ĠÑģÐµÐº ÑĤÐ¾ÑĢÐ°
ĠÐ²ÑĭÐ¿Ð¾Ð»Ð½ ÑıÑĤÑĮ
Ð±ÐµÑĢ ÑĤÐ°
ĠÐĶÑĢÑĥÐ³ Ð¾Ð¹
ĠÐĲÐ²Ð³Ñĥ ÑģÑĤÐ°
ĠÐ¼Ð°ÑģÑģ Ð¾Ð¹
ĠÐ°Ð½ÑĤ Ð¸ÑĤ
ĠÐĳÐ»Ð° Ð³Ð¾Ð²
cri pt
Ð» ÐµÐ½Ð¸
ĠÐ´ ÐµÑĢ
ĠÐ³ Ð°ÑģÑĤ
ÑĦ ÑİÑĢ
ĠÐļ ÐµÐ¹
ĠÑģÑĤ Ð°ÑĢÐ¸Ð½
ĠÐľ Ð°Ð²
ÐºÐ¸ Ð¸
ĠÐĶ Ð»Ð¸Ð½Ð°
Ð»ÑĮ Ñı
ĠÐ¨ Ð°Ð¼
ĠÐ¢Ðµ Ð¾Ð´
ĠÐ°Ð³ Ð»Ð¾Ð¼ÐµÑĢÐ°
ĠÐ¾ÑĤÐºÐ°Ð· Ð°Ð»Ð¸ÑģÑĮ
ĠÑĥÐ¿Ð¾ÑĤÑĢÐµÐ± Ð»ÐµÐ½Ð¸Ðµ
ĠÐ´Ð¾Ð±Ñĭ ÑĩÐ°
ĠÐ¢ÑĢÐ°Ð½ Ñģ
ĠÐ¸ÑģÐ¿ÑĭÑĤ Ð°Ð½Ð¸Ñı
ĠÐļÐ°Ð»Ð¸Ð½ Ð¸Ð½
ĠÐŀÑĢÐ³Ð°Ð½Ð¸ Ð·Ð°ÑĨÐ¸Ð¸
ĠÐ´Ð¸ÑĦÑĦÐµÑĢ ÐµÐ½ÑĨÐ¸Ð°Ð»ÑĮ
ĠÐĶÐ· ÐµÑĢÐ¶
ĠÐŁÑĢÐµÐ´Ð¿Ð¾Ð» Ð°Ð³
ĠÑĦÐ¸Ð»Ð¾Ñģ Ð¾
+ +
a il
ĠÑģ Ð»Ð¸Ñı
Ð¿ Ð¾Ð³
Ð¿ ÑĢÐ¾ÑĤ
ĠÐł Ð¸
ĠÐ·Ð° Ð±Ñĭ
ĠÑħ Ð»Ð¾Ð¿
ĠÑĪ ÑĳÐ»
ĠÐ·Ð°Ð¿ Ð°Ð´Ð°
ĠÐ·Ð°Ð¼ ÑĭÑģ
Ð°ÑģÑĤ ÐµÑĢ
ĠÐĿÐ¸Ðº Ð¸ÑĤ
ĠÑĤÐ¾Ñĩ ÐºÐ¾Ð¹
ĠÐ¸Ð·Ð± Ð°Ð²
ĠÐ²ÐµÐ´ ÐµÐ½Ð¸Ñı
la y
ĠÐ±Ð¾ÐµÐ² Ð¾Ð¹
ĠÐĽÑĮ Ð²Ð°
ĠÐ±ÑĥÑĢ Ð¶ÑĥÐ°Ð·
ĠÑģÑĤÐµÐº Ð»Ð°
ĠÐ½Ð°Ð»Ð¸ ÑĩÐ¸
ĠÐĽÑİÐº ÑģÐµÐ¼
Ð½ ÐµÐ²Ð°
ĠÐº ÑĥÐ·
Ð¾Ð½ ÑĤÐ°
ÑĪ Ð¸Ð½Ð°
ĠÐ· Ð½Ð°Ð»
ĠÐĿ Ð°Ñħ
ĠÑĪ Ð°ÑĢ
ĠÐ½Ð°Ð·Ð² Ð°Ð½Ñĭ
ĠÑĤÐµÑĢÑĢÐ¸ÑĤÐ¾ÑĢÐ¸ ÑıÑħ
ĠÐ¿ÐµÑĢÐµÐ´ Ð°ÑĤÑĮ
ĠÐ¼Ð°Ñģ ÑĪÑĤÐ°
ĠÐ¸Ð·Ð´ Ð°ÑĤÐµÐ»ÑĮÑģÑĤÐ²Ð¾
ĠÐ°Ð½Ð³Ð»Ð¸Ð¹ ÑģÐºÐ°Ñı
ĠÐ¡Ðº Ð¾ÑĤ
ĠÐ·Ð½Ð°ÑĩÐ¸ÑĤÐµÐ»ÑĮ Ð½ÑĭÐ¹
196 7
ĠÑģÐ°Ð¼Ð¾ ÑĥÐ±Ð¸Ð¹
ĠÑģÑĤÐ¸Ñħ Ð¾Ð²
ĠÐ³ÐµÑĢÐ¼ Ð°Ð½ÑģÐºÐ¸Ñħ
ĠÑĤÑĢÐ°ÐºÑĤ Ð¾Ð²
ĠÐ´Ð¾Ð³ Ð¼Ð°ÑĤ
ĠÐŀÐ¿Ð¸Ñģ Ð°Ð½Ð¸Ðµ
Ġ >
Ð³ Ð°Ð¼Ð¸
Ð½Ð¸ Ð¼Ð°ÑĤ
ĠÐĴ Ðŀ
ĠÐŁ ÐµÐ»
ĠÐļ ÐĿ
ĠÐ½Ðµ Ð¾ÑĦÐ¸ÑĨÐ¸Ð°Ð»ÑĮ
ĠÑħ Ð²Ð°ÑĤ
ĠÑĢ ÐµÐ½ÑĤ
ĠÑįÐ»ÐµÐºÑĤ ÑĢÐ¾Ð»
Ð¼Ð°Ð½ Ñĥ
ĠH T
Ð¼Ð¾Ð½ Ð¸Ñı
ĠÐºÐ½ÑıÐ· ÑĮÑı
ĠÐ½ÐµÑĦ ÑĤÑĮ
ĠÑģÐµÑĤ ÐµÐ¹
ĠÐ¿ÑĢÐ¾Ð²Ð¸Ð½ ÑĨÐ¸Ð¹
ĠÐ§ÐµÐ¼ Ð¿Ð¸Ð¾Ð½
ĠÐľÐµÑģÐ¾Ð¿Ð¾ÑĤ Ð°Ð¼Ð¸
I D
ÑĢÐ° Ð½Ð¾
ĠÐ¼ ÐµÐ¼Ñĥ
ĠÐĵ ÐµÐ»ÑĮ
ĠÐ²Ñĭ Ð·ÑĭÐ²Ð°
ĠÐĽ Ð¸ÑĪÑĮ
ĠÐ¿ÑĢÐ¾ÑĤ Ð¾ÑĤÐ¸Ð¿
ĠÑıÐ·Ñĭ ÐºÑĥ
ĠÐºÐ¾Ð» Ð¾Ðº
ĠÐ³ÑĢÐ° Ð½Ð¸Ñĩ
ĠÐ½Ð¾Ð² Ð¾Ð¼Ñĥ
ĠÐ¿ÐµÑĢÐµÐ´ Ð°Ð²
ĠÐĺÐ½ ÑĤÐµÑĢÐµ
ĠÐ¿Ð¾Ð½ ÑıÑĤÐ¸Ð¹
ĠÑıÐ½Ð² Ð°ÑĢÑĮ
ĠÐ¿ÑĢÐ¾ÑģÑĤ ÑĭÐµ
ĠÑģÐ»Ð¾Ð¶ Ð½ÑĭÐµ
ĠÑģÐ±Ð¾ÑĢ Ð½Ð¾Ð¹
ĠÐļÐ°Ð½ Ð°Ð´Ðµ
ĠÐ´Ð¸Ð°Ð» ÐµÐºÑĤÐ°
ĠÑįÐ¼Ð¸ Ð³ÑĢÐ°Ð½
ĠÐŁÐ¸Ñģ Ð°ÑĤÐµÐ»Ð¸
ĠÑĦÐµÐ½Ð¾Ð¼ ÐµÐ½
Ñħ Ð¾Ð¼
Ð°ÑĢ Ð¾
ĠÐ¾Ð± ÑģÐµÑĢÐ²
ÑĤÑĥ Ð´Ð°
ĠÐ½Ð°Ð·Ð² Ð°Ð½Ð¸Ð¹
ÐµÑĢÑĤ Ð²
ĠÐ½Ð°Ð±Ð»Ñİ Ð´Ð°
ĠÑĢÐµÐ°Ðº ÑĨÐ¸Ð¹
ĠÑĥÐºÑĢÐµÐ¿ Ð»ÐµÐ½Ð¸Ñı
ĠÐºÐ°Ð½Ð´Ð¸Ð´ Ð°ÑĤÐ¾Ð²
ĠÐľÐµÑĤ Ð¾Ð´
ĠÑĤÐµÐ»ÐµÐ²ÐµÐ´ ÑĥÑīÐ°Ñı
ĠÐĵÑĥÐ¼Ð¸ Ð»ÑĳÐ²
ÑĢÐµÑģÐ¿Ð¾Ð½Ð´ ÐµÐ½ÑĤ
ĠÐ¿ÑĢÐ¾Ð¶Ð¸Ð² Ð°Ð»Ð¾
ĠÐ¢ÑĥÑĢÐº Ð¼ÐµÐ½Ð¸
Ð¾Ð² ÑĮÑı
ÑĪ ÐµÐ»
ĠÐ¡ Ñİ
ÐµÐ¹ Ð·Ð°
ĠÐĳ Ð°Ð½
Ð¸Ð² ÑĪÐµÐ¹ÑģÑı
ĠÐ¤ ÑĥÑĢ
ĠÐ£ ÑĩÐµÐ±
Ð°ÑĤÐµÐ»ÑĮ Ð½ÑĭÐ¼Ð¸
Ġ18 00
ÐŁ Ð°
Ð¸Ð²Ð° ÑİÑīÐ¸Ðµ
ĠÐ½ÐµÐºÐ¾ÑĤÐ¾ÑĢ Ð¾Ð¹
ĠÑĤÐ¸Ð¿ Ñĥ
ĠÐ°Ð½Ð³Ð»Ð¸Ð¹ ÑģÐºÐ¾Ð¹
ĠÐ²Ð²ÐµÐ´ ÐµÐ½Ð¾
og le
ĠÐŁÐ¾Ð»Ð¸ÑĤ Ð±ÑİÑĢÐ¾
ĠÐŁÐ¾ÑĩÑĳÑĤ Ð½ÑĭÐ¹
ĠÐ£Ñĩ Ñĳ
ĠÐºÐ¾Ð»ÑĮ ÑĨÐ¾
ĠÐĵÐ°Ð³ Ð°ÑĢÐ¸Ð½Ð°
ĠÑģÐ¸Ð½Ð´ ÑĢÐ¾Ð¼
ĠÐ²Ð¾ÑĢ Ð¾ÑĤÐ°
ĠÑģ ÑĥÐ½
Ð± ÑĥÐ»
ĠÐ¼ Ð¾ÑĤÐ¾ÑĢ
ĠÑĢÐ°Ð· ÑĬ
Ðļ Ð½Ð¸
ÑĢÐ°Ð¶ ÐµÐ½Ð¸Ñı
ÐĶ Ð¾Ð½Ñĥ
Ġ9 6
ÐµÐ»Ð¸Ðº Ð¾Ð¼
ĠÐ³Ð¾Ð» Ð¾ÑģÐ°
ĠÐ´Ð¾ÑģÑĤÐ¸Ð³ Ð»Ð°
ĠÐºÐ°Ð» Ð¸Ñı
ĠÐ½Ð°Ð¿Ð°Ð´ ÐµÐ½Ð¸Ñı
ĠÐ¿ÑĢÐ¸Ð½ÑĨÐ¸ Ð¿Ñĥ
ĠÐ¿ÑĢÐ¾Ð·Ð° Ð¸Ðº
ĠÑģ Ð¸Ð±Ð¸ÑĢ
Ġ1 16
ĠÐ¿ÑĢ Ð¾Ð»ÐµÑĤ
ÑĥÐ¿ Ð¾ÑĤÑĢÐµÐ±
Ðļ Ð°Ð¼
Ð¸ÑĢÐ¾Ð² Ð°Ð½Ð½Ð¾Ð¹
ĠÐ´ÐµÐ» Ð°ÑİÑĤ
ĠÐ½Ð°ÑħÐ¾Ð´ Ð¸Ð»Ð¾ÑģÑĮ
ĠÐ´Ð¾Ð»Ð¶ Ð½Ð¾ÑģÑĤ
ĠÐ¸Ñģ ÑĩÐ¸Ñģ
ĠÐºÐ¾Ð¼Ð¿Ð¾Ð½ ÐµÐ½ÑĤ
Ð¤ÑĢÐ°Ð½ ÑĨÐ¸Ñı
olog y
Ð¼ Ð¾Ð·
ĠÑģ ÑĩÐ°
ĠÐ¾ ÑģÐ¿
Ð¾Ð» Ðº
ĠÐĴ ÑĢÐµÐ¼Ñı
ĠÐ¿Ð¾Ð´ Ð¿
Ð½Ðµ Ð³
ĠÐ¾Ñģ Ð°Ð´Ñĭ
ĠÑĨ Ð°ÑĢÐµÐ²
ĠÑĢÑĥ Ð´Ñĭ
ĠÑģÐ¾ÑģÑĤÐ¾Ñı Ð»Ð¸ÑģÑĮ
is m
ĠÐĿÐ¾Ð² Ð¾Ðº
ĠÐ°ÑĢÐ¼Ð¸ Ð¹
ĠÐ¼Ð°ÑģÑģÐ¾Ð² ÑĭÐµ
ĠÑĢÐ¾ÑģÑĤ Ð¾Ð¼
ĠÐ¿Ð¾ÑĢÐ¾Ð´ Ñĭ
ĠÐĺÑĢÐ° ÐºÐ°
k e
s h
Ġ ÑĳÐ¼
ÐµÐ½ÑĤ Ð°ÑĨÐ¸Ð¸
ĠÐ¤ Ðµ
ĠÑĢ Ð¾Ð³
ĠÐ¸Ñİ Ð»ÑĮ
ĠÐ¿Ð¾ÑĤ Ð¾ÐºÐ°
ĠÐ¿Ð¾ÑĢ Ð¾ÑĪ
ĠO r
ĠÑģÐ¾Ð±Ñĭ ÑĤÐ¸Ðµ
ĠÐ¿Ð¾Ð¿ÑĥÐ»ÑıÑĢ Ð½Ð¾ÑģÑĤÐ¸
ĠÐ¾Ð±ÑĬÑıÑģ Ð½Ð¸ÑĤÑĮ
ĠÐ¶ÐµÐ»ÐµÐ·Ð½Ð¾Ð´Ð¾ÑĢÐ¾Ð¶ Ð½Ð°Ñı
ĠÐ¾ÑĤÐ»Ð¸ ÑĩÐ°
ĠÐ¼Ð°ÑĢÑĪÑĢÑĥ ÑĤÐ¾Ð²
ĠÐ¿ÑĢÐµÐ´Ð¿Ð¾Ð»Ð¾Ð¶ ÐµÐ½Ð¸Ðµ
ĠÑģÐ¼ÐµÑĢÑĤÑĮ Ñİ
ĠÐ¾ÐºÐ¸Ñģ Ð»ÐµÐ½Ð¸Ñı
ĠÐ¤ÑĳÐ´Ð¾ÑĢÐ¾Ð² Ð¸Ñĩ
ĠÐ¸Ð¼Ð¿ÐµÑĢÐ°ÑĤÑĢÐ¸ ÑĨÑĭ
O H
ÑĢÐ° ÑģÑĤÐ°
ĠÐº Ð¾Ðº
ĠÐ± Ð°ÑĢÑĮ
ĠÐĿ Ð°Ð¼
ĠÐĵ ÐµÐ³
ĠÐĳ ÑĥÑĢÐ³
ĠÐĶ ÑĥÐ½Ð°
ĠÐ¿Ð¾Ð´ ÑĢÑıÐ´
ĠÐ¿Ð¾Ð»ÑĥÑĩ Ð¸Ð²ÑĪÐ¸Ð¹
ĠÐ½Ð°ÑģÐµÐ» ÑĳÐ½Ð½ÑĭÐµ
198 1
ĠÐ·Ð½ Ð°ÑĤÑĮ
ĠÐ¿Ð¾Ð¿ÑĭÑĤ ÐºÑĥ
ĠÐĴÐ¾Ð· ÑĢÐ¾Ð¶Ð´ÐµÐ½Ð¸Ñı
ĠÑĤÑĥÑĢÐ½Ð¸ ÑĢÐµ
ĠÐ³Ð²Ð°ÑĢÐ´ Ð¸Ñı
ĠÐ¿Ð¾ÐºÑĢÐ¾Ð² Ð¸ÑĤÐµÐ»ÑĮ
ÑĢ ÑĭÑħ
ĠÐ¿ Ð¾Ð±Ñĭ
ĠÐ½Ð° ÑģÑĤÐ°
Ð¾ÑĤ Ð¾Ð¹
ĠÐ¡ Ð¾Ð´ÐµÑĢÐ¶
Ð°ÑĢ Ð½ÑĭÐ¼
ĠÐļ Ð°Ð½ÑĤ
Ð¾Ð· Ð½Ð°Ñĩ
Ð¼Ðµ ÑģÑĤÐ¸
Ðł Ð¾ÑģÑģÐ¸Ð¹
ĠÐ¾ÑĢ ÑĤ
ĠÐ¿Ð» ÑĳÐ½
ĠÑİ ÑģÑĤÐ¸
Ð¸ÑĢÑĥ Ñģ
ĠÑĥÐ³ ÑĢÐ¾Ð¶
ĠÐłÐµÑģÐ¿ÑĥÐ±Ð»Ð¸ ÐºÐ¾Ð¹
ĠÐ±ÐµÐ» Ð¾Ð³Ð¾
ĠÐ¼Ð°ÑģÑģÐ¾Ð² ÑĭÑħ
ĠÑĥÐºÐ°Ð·ÑĭÐ²Ð° ÑİÑĤ
ĠÐ´ÐµÑģÑıÑĤ ÐºÐ¸
ĠÐºÐ¾Ð½ÑĦÐµÑĢ ÐµÐ½ÑĨÐ¸Ñı
ĠÐºÐ¸Ð½Ð¾Ð°ÐºÑĤ ÑĳÑĢ
ÑĢÐµÐ³Ñĥ Ð»Ð¸ÑĢÐ¾Ð²
ĠÐĵÐµÐ½Ð½Ð°Ð´ Ð¸Ð¹
e in
Ð´ ÐµÑĤ
ĠÐ² Ð²ÐµÑĢÑħ
ĠÐ° Ð¹
Ð¸Ñĩ Ð½Ð¾ÑģÑĤÑĮ
Ðł Ðĺ
Ð´Ðµ Ð³
ĠÑģÐ²Ð¾Ð¹ ÑģÑĤÐ²Ð¾
ĠÐ¡Ð°Ð¼ ÑĭÐµ
ĠÑĢÑĭ Ð½Ð¾
ĠÐ¸Ð·Ð¾Ð±ÑĢÐ°Ð¶ ÐµÐ½Ð¸Ð¹
ĠÑĢÐ¸Ð¼ ÑģÐºÐ¾Ð¹
ĠÐ¸Ð½ÑĤÐµÑĢÐµ ÑģÑĭ
ĠÐ¿Ð¾ÑģÑĤÐ°Ð² Ð¸Ð»
ĠÑģÐ»Ð°Ð²ÑıÐ½ ÑģÐºÐ¸Ñħ
ĠÑıÑĢ ÐºÐ¾
ĠÐ³Ð»Ð°Ñģ Ð½ÑĭÑħ
ĠÐ¼ÐµÑĢÐ¾Ð¿ÑĢÐ¸ ÑıÑĤÐ¸Ñı
ĠÐ½ Ð¾Ð¼Ð¸Ð½Ð°
Ð³ ÑĢÐ°Ð²
ĠÐ½Ð° ÑĪÐ»Ð¸
ĠÐ¿ÑĢÐ¸ Ð³Ð¾Ð´
ĠÐľ Ð°ÑģÑģÐ°
ĠÐ£ ÑĪ
ÑİÑī ÐµÐ¼Ñĥ
ĠÐ¿ÑĢÐ¾Ð´ ÐµÐ¼Ð¾Ð½
ĠÐ´ÐµÐ¹ÑģÑĤÐ² Ð¾Ð²Ð°ÑĤÑĮ
ĠÐ¾Ð±ÑĢÐ°Ð·Ð¾Ð² Ð°Ð½Ð¸Ñİ
Ð¼Ð°Ð½ Ð¾Ð¼
ĠÐ°Ð²Ð³Ñĥ ÑģÑĤ
ĠÐ¼Ð¾ÑĢ ÑģÐºÐ¾Ð³Ð¾
Ð¾Ð»Ð¸ ÑĨÐ°
ĠÐ¼ÐµÐ½ ÑıÐµÑĤÑģÑı
Ð»ÐµÐ¹ ÑĤÐµÐ½Ð°Ð½ÑĤ
ĠÐ¿ÑĢÐ¾Ð±Ð»ÐµÐ¼ Ñĥ
ĠÑĢÐ¸Ð¼ Ð»ÑıÐ½
ĠÑĢÐµÐ³Ð¸Ð¾Ð½ Ð°Ð»ÑĮÐ½Ð¾Ð³Ð¾
ĠÐľÐ°Ð¹ ÐºÐ»
ĠÑĤÑĥÑĢÐ½Ð¸ ÑĢÐ°
ĠÐĽÐ¾Ð¼ Ð¾Ð½Ð¾ÑģÐ¾Ð²
ĠÐ¤Ð¸Ð»Ð¾ÑģÐ¾ÑĦ Ð¸Ñı
ĠÐ¿ÑĢÐ¾Ð¼ÐµÐ¶ ÑĥÑĤ
ĠÐºÐ¾Ð½ÑģÐµÑĢÐ² Ð°ÑĤÐ¸Ð²
ĠÐļÑĳ Ð½Ð¸Ð³
ĠÐĶÐ² Ð¾ÑĢÐµÑĨ
ĠÐ¡ ÑĤÐ¾ÑĢ
ĠÐŁ Ð°ÑģÐº
ĠÐ¿ÑĢ Ð¾ÑģÐ»Ð°Ð²
ĠÐĿ Ð°ÑĢÑı
ĠÐĳ Ð°Ñģ
ĠÐ¿ÐµÑĢÐ² ÑĭÐ¼Ð¸
ÐºÐ°Ð½ ÑģÐºÐ¸Ð¹
ÐĶ Ð¾Ð½
Ġ7 1
ĠÐ¿ÑĢÐ¾ÑĤÐ¸Ð² Ð¾Ð²
ĠÐ´ÐµÑĤ ÑģÐºÐ¸Ñħ
ĠÑĦÑĢÐ°Ð½ ÐºÐ¾Ð²
ĠÑįÐºÐ¾Ð½Ð¾Ð¼ Ð¸ÐºÐ°
ÑĭÐ² Ð°Ð»Ð¸ÑģÑĮ
ĠÑĢÐ°Ð·Ð´ÐµÐ» ÐµÐ½Ð¸Ñı
ĠÐºÐ¾Ð¼Ð¿ÑĮÑİÑĤ ÐµÑĢÐ°
ĠÐ·Ð°Ð²Ð¾ÐµÐ² Ð°Ð½Ð¸Ñı
ÑĭÐ» ÐºÐ¸
ĠÑĨÐµÐ¿ Ð¸
ĠÑĤÑĥÑĢÐ¸ Ð·Ð¼Ð°
ĠÐ¿Ð¾Ð»Ð½Ð¾ ÑĨÐµÐ½
ĠÐ¡Ð¾Ñĩ Ð¸Ð½
Ð°ÑĢ ÐºÐ°
ĠÐļ Ð»
ĠÑįÐºÑģÐ¿ Ð¾ÑĢÑĤÐ°
Ð»Ð°Ð½ ÐµÑĤ
ĠÐ²Ð¾Ð» Ð½Ð°
ĠÐ¿Ð¾ÑıÐ² Ð»ÐµÐ½Ð¸ÐµÐ¼
ĠÐºÐ°Ð· Ð½Ð¸
ĠÐ±ÑĢÐ° ÑĥÐ·
ĠÐ»Ð¸ÑĨ Ð¾Ð¼
ĠÐ°Ð²Ð¸ Ð°ÐºÐ¾Ð¼
Ð¼Ð¸ÑĢÐ° Ð»Ð°
Ð¾Ð¿Ð¾Ð» ÑĥÑĩ
ĠÐ´ÐµÑıÑĤ ÐµÐ»ÐµÐ¹
ĠÐ¿ÑĢÐµÐ¾Ð±Ð»Ð° Ð´Ð°ÑİÑĤ
ĠÐŁÑĢÐµÐ¿Ð¾Ð´ Ð°Ð²
Ð´ Ð¾ÑĢ
Ð¶ Ð½Ð°Ñı
ĠÐł ÐµÐ½
ĠÐĶ ÐµÐ»ÑĮ
ĠÐ·Ð° Ð³Ð¾Ð²Ð¾ÑĢ
ĠÐ¸Ð¼ ÑĥÑīÐµÑģÑĤÐ²Ð°
ÐµÑĩ ÐµÐ½Ð¸Ñı
ĠÑĦÐ¾ÑĢ ÑĤÐµ
ĠÐ¯ ÑĢ
Ð¸ÐºÐ¸ Ð¹
ĠÐ¼Ð¸ÑĢÐ¾Ð² Ð¾Ð·Ð·
197 3
ĠÐ¿Ð¾Ð¿ÑĥÐ»ÑıÑĢ Ð½ÑĭÑħ
ĠÐ¿Ð¾Ð»ÑĮÐ·Ð¾Ð² Ð°ÑĤÐµÐ»Ñı
ĠÐ¿Ð¾ÐºÐ¸Ð½ ÑĥÑĤÑĮ
ĠÑģÑĤÐ¾Ð»ÐºÐ½Ð¾Ð² ÐµÐ½Ð¸Ñı
Ð¶ Ð¸Ð²
ĠÐ» Ð¾Ð²
ĠÐĵ Ð°Ð²
ĠÐĶ Ð¾Ð¼Ð¸Ð½
Ð¸ÑĤÐµÐ»ÑĮ Ð½Ð¾ÑģÑĤÑĮÑİ
ĠÑĨ ÐµÑħ
ĠÐĿÐ° ÑĨÐ¸Ð¹
ĠÑĢÐ°Ð·Ð² ÑĳÑĢ
ĠÐ¿ÐµÑĢÐ¸Ð¾Ð´ Ð¾Ð¼
ĠÐ°Ð´ Ð¼Ð¸ÑĢÐ°Ð»
ĠÐ¼ÐµÐ´ Ð°Ð»Ð¸
ĠÑĨÐ¸ Ð»Ð¸Ð½Ð´
ĠÐ²Ð½ÑĥÑĤÑĢÐµÐ½ Ð½Ð¸Ðµ
ĠÑģÑĥÐ¼ Ð¼Ð°ÑĢ
ĠÐĹÐ´ Ð°Ð½Ð¸Ðµ
ĠÐĴÐ¾Ð¹ ÑģÐºÐ°
ĠÐ½Ð¸ÐºÐ°Ðº Ð¾Ð³Ð¾
ĠÐ·Ð°ÑĢÑı Ð´Ð°
ĠÐłÐ°Ð±Ð¾ÑĤ Ð°
ĠÐ¿Ð°ÑĢÐ°Ð»Ð»ÐµÐ»ÑĮ Ð½Ð¾
ĠÐľÐĴ ÐĶ
ĠÐ®Ð³Ð¾ÑģÐ»Ð°Ð² Ð¸Ð¸
ĠÐ¿ Ð¸Ð²
Ð´Ð° Ð´
ĠÑı ÑĢÐº
Ð°Ð¹ ÑģÐºÐ¸Ð¹
Ð»ÐµÐ¼ Ñĭ
Ð¾Ð³ÑĢÐ°ÑĦ Ð¸ÑĩÐµÑģÐºÐ¾Ðµ
ĠÐĸ Ð¸Ð·Ð½ÑĮ
ĠÐ¿Ð¾ÑĢ ÑĤÐ°
ĠÐ±ÑĥÐ´ ÑĥÑīÐµÐµ
Ġ13 0
ĠÐ¼ÐµÐ½ ÐµÐ´Ð¶
ĠÐļÐ¾Ð» Ð¾Ð¼
ĠÐ½Ð°Ð·Ð½Ð°Ñĩ ÐµÐ½Ð¸Ðµ
197 1
ĠÐ·Ð°Ð´Ð° ÑĩÐµÐ¹
ĠÐ»ÐµÐº ÑĨÐ¸Ð¸
ĠÐ¿ÑĢÐ¾Ð²Ð¾Ð·Ð³ Ð»Ð°ÑģÐ¸Ð»
ĠÐĲÑĢÐ³ ÐµÐ½ÑĤ
ĠÐļÐµÐ½Ð½ ÐµÐ´Ð¸
Ñĥ Ð½Ðµ
ĠÐ¸ ÑģÑĤÐ¸Ð½Ñĭ
Ð¿ Ð°Ð½Ð¸Ð¸
ĠÐ´ Ð¾Ð·Ñĭ
Ð¾Ð½ Ð°Ñģ
ĠÑģÑĤ Ð°ÑĢÐ¸
ĠÐ¿ÐµÑĢÐµ ÐµÑħÐ°Ð»
ÐĲ Ðĵ
ĠÐ´ÐµÐ» Ñĥ
Ð£ ÐºÑĢÐ°
ĠÐĳÐµÐ» Ð³Ð¾ÑĢÐ¾Ð´
196 1
ĠÑĦÐµÐ´ÐµÑĢÐ° ÑĨÐ¸Ð¸
ĠÐ²ÑĭÐ´ÐµÐ»Ñı ÑİÑĤÑģÑı
ĠÐ¿Ð¾Ð´Ð°Ð² Ð»Ñı
Ð½Ð°ÑĢÑı Ð´Ñĥ
ĠÐ´Ð· ÑįÐ½
Ð¸Ñģ Ð¸
ĠÑĦ ÐµÐ»ÑĮÐ´
ĠÐ¿Ð¾Ð´ ÑĬ
ĠÐ¾Ñģ Ð¾Ð·Ð½
ĠÐ£ ÑģÑĤ
Ðŀ Ð¡
Ð³Ñĥ Ð°
ĠÑįÐº ÑģÐº
ĠÐ¼Ð°Ñģ ÑģÑĥ
et t
ĠÑģÑĢÐ°Ð²Ð½ ÐµÐ½Ð¸Ñı
ĠÐ¿ÑĢÐ°Ð²Ð¾ÑģÐ»Ð°Ð² Ð½ÑĭÑħ
ĠÑĢÐ°Ð·ÑĢÑĥÑĪ ÐµÐ½Ð¸Ñı
ĠÑĢÐ°ÑģÐ¿ÑĢÐµÐ´ÐµÐ» ÐµÐ½Ð¸Ñı
Ġ ch
Ð½ ÐµÐ´
ÑĪ ÐµÑĢ
ĠÐ¼ ÑĳÑĢÑĤÐ²
ÑĦ ÐµÐ½
ĠÐ¡ Ð¾ÑĤ
ĠÐ£ Ð¼
ĠÐķ Ð¼Ñĥ
ĠÐ¾Ð±ÑĢÐ°Ð· ÑĨÐ¾Ð²
ĠÐ´Ð°Ð½ Ð½Ð¾Ðµ
ĠÐ²Ð¾ÐµÐ½ Ð½Ð°Ñı
ĠÐ´ÐµÑĤ ÑģÐºÐ¸Ð¹
ĠW ar
ĠÐ¿ÑĢÐµÐ´ÑģÑĤÐ°Ð²Ð»Ñı Ð»
ĠÑģÑĢÐ¾Ðº Ð°
ÑĤÐµÐ· Ð¸
ĠÑĤÑıÐ¶ÑĳÐ» Ð¾Ð¹
ĠÐ¿Ð¾Ð·Ð¸ ÑĨÐ¸Ð¹
ĠÐ¿ÑĢÐ¸Ð·Ð½Ð°Ðº Ð¾Ð²
ĠÐºÐ°Ð´ ÑĢÐ¾Ð²
ĠÐ°ÑĤÐ¼Ð¾ÑģÑĦ ÐµÑĢÐµ
ĠÐ¥Ñĥ Ð°Ð½
ĠÐ¾ÑĢÐ³Ð°Ð½Ð¸Ð·Ð¼ Ð¾Ð²
ĠÐ¾Ð¿ÑĤÐ¸ Ð¼Ð¸
ĠÐ¿ÑĢÐµÐ´ÑĥÐ¿ ÑĢÐµÐ¶Ð´
ĠÑĤ ÐµÐ½Ð·
Ġ1 14
ĠÐ¾ÑĤ ÑĢÐ°Ð·
ĠÐ´Ðµ ÑĦÐ¸ÑĨ
ĠÐ¾ÑģÑĤ Ð°Ð»Ð°ÑģÑĮ
ĠÐ³Ð¾ÑģÑĥÐ´Ð°ÑĢÑģÑĤÐ²ÐµÐ½ Ð½Ð¾Ð¼
ĠÑģÐ¾Ð¾ÑĤ Ð½Ð¾ÑĪ
ĠÑģÐ¸Ð¼ ÑĦÐ¾Ð½
un t
ĠÑĥÐ½Ð¸Ð²ÐµÑĢÑģÐ¸ÑĤÐµÑĤ Ð¾Ð²
ĠÑĥÐºÑĢÐ° Ð¸Ð½ÑģÐºÐ¾Ð³Ð¾
ĠÐ´ÐµÐ¿ÑĥÑĤ Ð°ÑĤÑĭ
ĠÑģÐ¾ÑħÑĢÐ°Ð½Ð¸ Ð»Ð¾ÑģÑĮ
ĠÐ¼Ð°ÑĢÑĪ Ð°Ð»
ĠÐ¿ÑĢÐ¾Ð¶ Ð¸Ð²Ð°ÐµÑĤ
ĠÐ¸Ð½ÑģÑĤÑĢÑĥÐ¼ÐµÐ½ÑĤ Ñĭ
ĠÐ½Ð°Ð¸Ð¼ ÐµÐ½ÑĮ
ĠÑħÑĢÐ¾Ð¼ Ð°ÑĤ
ĠÐ¼Ð°ÑĤÑĢÐ¸ ÑĨÑĭ
ĠÐĿÐ°ÑĤÐ°Ð»ÑĮ Ñı
" ,
a x
Ð» Ð¸ÑĤÑĮ
ÑĢÐ° Ð´Ð¸
Ñĩ Ð¾Ðº
ĠÐ¸ ÑģÑģ
Ð¾ÑģÑĤ Ð°ÑĤ
Ð¸Ð² ÑĪÐµÐ³Ð¾ÑģÑı
ĠÐĶ Ð¾Ð³Ð¾Ð²Ð¾ÑĢ
Ġ7 8
ĠÐ²Ð¾Ð´ Ñı
ÑĢÐ¾Ðº Ð°
ĠÐ°ÑĤ ÑĢÐ¸Ð±
ĠÐ¼Ð¾Ð¼ÐµÐ½ÑĤ Ñĥ
ĠÑģÑĥÑīÐµÑģÑĤÐ²Ð¾Ð² Ð°Ð»
ĠÐ¿Ð¾Ð½Ð¸Ð¼ Ð°Ð½Ð¸Ðµ
ĠÐ¾ÑĤÐ¼ÐµÑĤ Ð¸ÑĤÑĮ
ĠÐĹÐ² ÐµÐ·Ð´Ð°
ĠÐĺÑģÑģÐ»ÐµÐ´Ð¾Ð² Ð°Ð½Ð¸Ñı
ĠÐĽÐ¾Ð¼ Ð¾Ð½Ð¾Ñģ
ĠÑĦÐ¸Ðº ÑģÐ¸ÑĢÐ¾Ð²Ð°Ð½
ĠÐ¼ÑĥÐ»ÑĮÑĤÐ¸ Ð¿
ĠÑģÐµÐ³Ð¾Ð´Ð½ÑıÑĪ Ð½Ð¸Ð¹
ĠÐĿÐ°ÑĢÑı Ð´Ñĥ
Ð¾ ÑĢÐ°Ð½
Ð´ ÑĤÐ°
ÐµÐ½Ð¸ ÑĢÐ¾Ð²
Ġ1 13
ĠÐ¾ÑĤ ÑĤÐµÐ½
ĠÐĵ Ð¾Ð»Ð¾Ð²
ĠÑĢÐµ Ð¾ÑĢÐ³Ð°Ð½Ð¸
ÑĢÐ°Ð· Ð²
19 22
Ðľ Ð°Ð»
ĠÑĢÐµÐ· Ð¾Ð»Ñİ
ĠÐ¼Ñĥ Ð¶Ðµ
ĠÐ¼Ð¾Ð´ ÐµÐ»ÐµÐ¹
ĠÑģÑĤÑĢÐ¾Ð¸ÑĤÐµÐ»ÑĮ Ð½ÑĭÑħ
ĠÐ¾ÑĤÐ´ÐµÐ»ÑĮ Ð½ÑĭÐ¹
Ð±Ðµ Ð¶Ðµ
ĠÐļÐ°Ð· Ð°Ð½Ð¸
ĠÐºÐ°ÑĢÑĤ Ð¸Ð½Ð°
ĠÐĺÑģ Ð¼Ð°
ĠÐºÐ¾Ð½ÑĤÑĢÐ¾Ð» ÐµÐ¼
ĠÐ¡Ð¾Ð»Ð½ ÑĨÐµ
ĠÐ§ÐµÐ»Ñı Ð±Ð¸Ð½
ÐºÐ²Ð°ÑĢ ÑĤÐ¸
ĠÐ¿ Ð»Ñı
ÑĦ Ð¸Ð¼
ĠÑĥ ÑĢ
ÑĥÑĤ Ðµ
ĠÐ¾Ð´ Ð½Ð¸
ĠÐ£ ÑģÑĤÐ°Ð²
ÑĥÑĪ Ð°
ĠÐ¶Ð¸Ð² ÑĳÑĤ
ÑĮÐµ Ð³Ð¾
ĠÐ¸Ð½ÑģÑĤÐ¸ÑĤÑĥÑĤ Ðµ
ĠÐŁÐ¾Ñĩ ÑĤÐ¸
ĠÑĤÑĢÐ°Ð½ÑģÐ¿Ð¾ÑĢÑĤ Ð½ÑĭÑħ
ĠÐµÐ²ÑĢÐµÐ¹ ÑģÐºÐ¾Ð³Ð¾
ĠÐ¼Ð¸ÑĤ ÑĢÐ¾Ð¿Ð¾Ð»Ð¸ÑĤ
Ð¾ÑĤÐ² Ð¾ÑĢÐ¸ÑĤÐµÐ»ÑĮ
ĠÐĶÐ¾Ðº ÑĥÐ¼ÐµÐ½ÑĤ
ĠÐ¡ÑĤÑĢÐ¾ Ð¸ÑĤÐµÐ»ÑĮÑģÑĤÐ²Ð¾
ĠÑģÐ½Ð°Ð± Ð¶
ĠÐłÐµÐ¶ Ð¸ÑģÑģÑĳÑĢ
ĠÑįÐºÐ·ÐµÐ¼Ð¿Ð»Ñı ÑĢÐ¾Ð²
N S
Ð± ÐµÑĤ
ĠÑģÑĤ ÑĢÑĥÐ½
ĠÐ¿ÐµÑĢÐµ Ð¿Ð¸Ñģ
Ð°ÑĢÐ° Ñħ
ĠÐ²ÑĢÐµÐ¼ ÐµÐ½Ð½ÑĭÑħ
ĠÐºÐ¾ÑĢ Ð¾Ð½
ĠÐ¯ Ð»
ÐĶ Ð¸Ð½Ð°Ð¼Ð¾
ĠÐ¿Ð¾Ð² ÐµÑģÑĤÑĮ
Ð¿Ð¿ Ð°
ĠÐĲÐ»ÑĮ Ð±ÐµÑĢÑĤ
ĠÐ±ÑĢÐ¸ÑĤ Ð°Ð½ÑģÐºÐ¾Ð³Ð¾
ÑģÑĤÑĢÐ¾Ð¹ ÐºÐ°
ĠÐºÐ°ÑĤÐµÐ³Ð¾ ÑĢÐ¸Ð¹
ĠÐ»ÐµÐ¶ Ð°ÑĤ
ĠÐ°Ð±ÑģÐ¾Ð»ÑİÑĤ Ð½Ð¾
ĠÐ¥Ð¾ÑĢ Ð²Ð°ÑĤ
ĠÐ´ÑĭÑħ Ð°Ð½Ð¸Ñı
ĠÑĦÐ¾ÑĤÐ¾ Ð°Ð¿Ð¿Ð°ÑĢÐ°
Ð¿Ð¾Ð»ÐºÐ¾Ð² Ð½Ð¸Ðº
ĠÐ¿ÑĢÐµÐ´Ð²Ð¾Ð´ Ð¸ÑĤÐµÐ»ÑĮ
a w
Ð¾ÑĢ Ð¶
ÐµÑĢ Ð´
ĠÐ¼ Ð¾Ð±Ð¸Ð»Ð¸
Ð»Ñı ÑĤ
ĠÐ¼Ð°ÑĢ Ð¾Ðº
ĠÐ²Ð¿ ÐµÑĢÑĳÐ´
ĠR FC
ĠÐºÑĢÐ° ÑģÐ¸Ð²
ÑģÐµÐ´ Ð½ÐµÐ²
ĠÑĤÑĢÐ°Ð´Ð¸ ÑĨÐ¸Ð¾Ð½Ð½ÑĭÑħ
ĠÐ±Ð»Ð°Ð³ Ð¾ÑĢÐ¾Ð´
ĠÐ¿ÑĢÐ¾ÑĪ Ð»Ð¾Ð³Ð¾
ĠÐ¿ÑĢÐ¾Ð¿ ÑĥÑģÐº
ĠÐľÑĥ Ð½Ð¸ÑĨÐ¸Ð¿
ĠÐ½ÐµÐ¸Ð· Ð±ÐµÐ¶
ĠÐ²Ð¸Ð´Ð° Ð¼Ð¸
ĠÐ¿ÑĢÐ¸ÑģÑĥÑĤÑģÑĤÐ² ÑĥÑİÑĤ
ĠÐĲÐ»ÐµÐºÑģÐµ ÐµÐ²
ÐµÑħÐ½Ð¸ÑĩÐµ ÑģÐºÐ¸Ð¹
ĠÑģÐµÑĢÐ´ ÑĨÐµ
ĠÐ¿Ð¾Ð»ÐºÐ¾Ð² Ð½Ð¸Ðº
ĠÐ²Ð»Ð°ÑģÑĤ ÑıÐ¼Ð¸
ĠÐ°Ð²ÑģÑĤÑĢÐ° Ð»Ð¸Ð¹
ÑĢ ÑģÐºÐ¸Ð¹
ĠÐ½Ð° ÑģÑĤÐ°Ð²
ĠÐ¼ Ð¾ÑĢÐµÐ¼
ĠÐ± ÑĢÐ¸
Ð¾ÑĤ ÑĢÐ°Ð½
ĠÐļ Ð»Ðµ
ĠÐºÐ¾Ð½ Ð²
ĠÑģÐ¾Ð± ÑģÑĤÐ²ÐµÐ½Ð½ÑĭÐ¹
ĠÐ²ÐµÐº Ñĥ
ĠÐĺÐ· Ð½Ð°ÑĩÐ°Ð»ÑĮÐ½Ð¾
ĠÑĥÐ³ Ð»Ð°
ĠÐ²Ð¾Ð» ÐµÐ¹
ĠÑĤÑĢÐ°Ð´Ð¸ ÑĨÐ¸Ñı
ĠÑģÐ´ÐµÐ» Ð°Ð»Ð¸
ĠÐ¿ÑĢÐ¾Ð²ÐµÐ´ ÐµÐ½Ð¸Ð¸
ĠÐĳÑĭ Ð»Ð°
ĠÑĢÐµÐ³Ð¸Ð¾Ð½ Ð°Ð»ÑĮÐ½ÑĭÑħ
ĠÐ¿Ð¾Ð½Ð¸Ð¼ Ð°Ð½Ð¸Ñı
ĠÑģÐµÑĢÐ² Ð¸Ñģ
ĠÐ²ÑĭÐ¿ÑĥÑī ÐµÐ½
ĠÐĴÐ¸ÑĪ Ð½Ñĥ
ĠÐĲÑģÑĤÑĢÐ° Ñħ
r es
Ñ Ĺ
Ñı Ð¼Ð°
Ð¼ ÑĥÐ´
Ð¼ Ð°Ð½Ð¾Ð²
Ð´ Ð·Ðµ
ĠÐļ Ð»Ð¾Ð´
ÐŁ Ð£
ĠÐ·Ð°Ð¿ ÑĥÑī
Ġ7 3
ĠÑĩÐ°ÑģÑĤ Ð¾ÑĤÐ°
ĠÐ¿ÑĢÐ¾Ð´Ð¾Ð»Ð¶ Ð¸Ð»
ĠÑģÑĤÐ°ÑĢ Ð¾Ð³Ð¾
ĠÐ²Ð·Ð°Ð¸Ð¼ Ð¾Ð¾ÑĤ
ĠÐµÑģÑĤÐµ ÑģÑĤÐ²ÐµÐ½Ð½ÑĭÑħ
ĠÑĢÐµÐ´Ð°Ðº ÑĨÐ¸Ð¸
ĠÐ¿ÑĢÐ¾ÑĤÐµÑģÑĤ Ð°
ĠÐ²Ð¾Ð·Ð´ÑĥÑĪ Ð½ÑĭÑħ
ĠÐ¾ÑĢÐ¸ ÐµÐ½ÑĤÐ¸ÑĢÐ¾Ð²
ĠÑĥÐ³Ð»ÐµÐ² Ð¾Ð´Ð¾ÑĢÐ¾Ð´
A C
u ro
ÑģÑĤ ÑıÐ¼Ð¸
ĠÐ¿ Ð°Ð½Ðº
ĠÑĤ Ð¾Ð¶Ð´Ðµ
ÑĨÐ¸ Ð°Ð½
Ð¾Ðº Ð¸ÑģÐ»Ð¾ÑĤ
ĠÑĪ ÑĥÐ¼
ĠÐ£ Ð²
ĠÐ¼Ð°ÑĤ ÐµÑĢÐ¸Ð¸
ĠÐ²Ð¾Ñģ ÑģÑĤÐ°Ð²
ĠÐ±ÐµÐ» ÑĭÐµ
ĠÐĹÐ°Ð¿Ð°Ð´ Ð½Ð¾
ĠÑĥÐ¼ÐµÑĢ ÐµÐ½Ð½Ð¾
ĠÑģÑĤÑĥÐ´ Ð¸Ð¸
ĠÐľÐ°Ð³ Ð½Ð¸ÑĤ
ĠÐ¾Ð±Ð¾Ð·Ð½Ð° ÑĩÐ°ÐµÑĤÑģÑı
Ð¾ ÑĦÐ¾ÑĢ
ĠÐ¸ ÑĥÐ´Ð°
Ð°Ð½ ÑĤÐµ
ĠÐ½Ð° ÑĢÑĥÐ¶
ĠÐ¾ÑĤ ÑĤ
Ð¸Ð» Ñİ
ĠÐĽ Ð¾Ðº
ĠÐ¾Ð´ Ð½Ð¾ÑĢÐ¾Ð´
ÑģÑĤÑĢÐµ Ðµ
ĠÑĢÐ¸ ÑģÐ¾Ð²
ÐµÐ½Ð´ Ð¸Ðº
ĠÐĴÐ¾Ð· Ð½Ð¸Ðº
ĠÐºÐ°Ð½Ð´Ð¸Ð´ Ð°ÑĤÐ°
Ð½Ð¾Ð¿ ÑĢÐ°Ð²
ĠÐ»Ðµ ÑĩÐµÐ±
ĠÐ´Ð· Ñİ
ĠÐ¿ÑĢÐ¾ÑģÑĮ Ð±Ð¾Ð¹
ĠÐĽÐ¾Ð¼Ð¾Ð½Ð¾Ñģ Ð¾Ð²Ð°
Î ¼
ÑģÑĤ ÐµÑĢÐ°
ĠÐ¾ ÑĩÐ¸
ĠÐ· Ð°Ð»Ðµ
ĠÑĨ ÐµÐ»Ð¸ÐºÐ¾Ð¼
ĠÐ£ Ð±
ĠÐ¿ÐµÑĢÐµ ÑģÑĤ
ÑĢÐ¾Ð´ ÐµÑĤ
ĠÐ²ÐµÑĢ ÑģÐ¸Ñİ
ÑıÑĤÐ¸ Ð¸
ĠÑįÐ½ ÑĤÑĢÐ¾Ð¿
ĠÐ²Ð¾Ð·Ð½Ð¸Ðº Ð»Ð¾
ĠÐ·Ð°Ð½Ð¸Ð¼ Ð°Ð»Ð¸ÑģÑĮ
ĠÐºÐ¾ÑģÐ¼Ð¸ ÑĩÐµÑģÐºÐ¾Ð¹
ĠÐ±Ð¾ÐµÐ² ÑĭÐµ
ĠÐ¿Ð¾ÑĢÑĤ ÑĢÐµÑĤ
ĠÐ¾Ð¿Ð¸ÑģÑĭÐ²Ð° ÐµÑĤÑģÑı
ĠIntern ational
ÑĦ Ð¾ÑĢÐ°
Ð¾ÑĤ Ð°Ð²
ĠÐĴ Ð¸Ð·Ð°Ð½ÑĤÐ¸Ð¹
ĠÐ¡ Ð°ÑĤ
ĠÐ¿ÑĢÐµÐ´ ÑĪÐµÑģÑĤÐ²
19 19
19 29
ĠÐķ Ð¶ÐµÐ³Ð¾Ð´
ĠÑĢÑĥ Ð±ÐµÐ¶Ðµ
ĠÐ§ ÐµÐ»Ð¾Ð²ÐµÐº
ÑģÑĤÑĥÐ¿ Ð»ÐµÐ½Ð¸Ðµ
ĠÐ¼Ð°ÑĤ ÑĩÐµ
ĠÑģÐ¾ÑģÑĤÐ¾Ñı Ð»Ð°
ĠÐ¿ÑĢÐ¸Ð¼ÐµÐ½ ÑıÑĤÑĮ
ĠÐ°ÑĤ Ð°ÐºÐ¸
am e
ĠÐ¿ÑĢÐ¾Ð²ÐµÐ´ ÐµÐ½Ñĭ
ĠÑįÐ»ÐµÐºÑĤÑĢÐ¾Ð½ Ð½ÑĭÑħ
ĠÐºÐ¾ÑĢÐ¾Ð»ÐµÐ² Ñĭ
ÑĨÐµÐ½ÑĤ ÑĢ
ĠÐĲÑĢÐ¼ ÐµÐ½Ð¸Ñı
Ð²Ð°Ð»ÑĮ Ð´
ĠÐĸÑĥÐºÐ¾Ð² ÑģÐºÐ¸Ð¹
ĠÐĹÐ½Ð°Ð¼ ÐµÐ½Ð¸
ĠÐĲÐ½Ð° ÑģÑĤÐ°
ĠÐ¿ Ð»Ðµ
ĠÐ² Ð¸
ÐµÐ½ ÐµÑĨ
Ñħ Ð¾ÑĤÑı
ĠÐº Ð»Ð°
ĠÐ¿Ð¾ Ð¸ÑģÐºÐ°
Ð¡ Ð°Ð¼
Ð¾ÑĢÐ¸ ÑģÑĤ
19 50
ĠÐ¿ÑĢÐ°Ð² Ð°Ñħ
Ð¾ÑĪ Ð»Ð¸
ĠÑįÐ»ÐµÐºÑĤ ÑĢÐ¾Ð½Ð°
ĠÐ»ÑİÐ± ÑĭÐµ
ĠÑįÐºÐ¾Ð½Ð¾Ð¼ Ð¸ÑģÑĤ
ĠÑģÐ¸Ð½ ÑĤÐµÑĤ
ĠÑģÐµÐ»ÑĮ ÑģÐºÐ¾Ðµ
ĠÑĨÐµÑĢÐºÐ¾Ð² ÑĮÑİ
ĠÐºÐ¾ÑĢÐ°Ð± Ð»Ðµ
Ð½Ð¾Ð³ Ð»Ð°
ĠÐ¿ÑĢÐ¸Ð½Ð°Ð´Ð»ÐµÐ¶ Ð½Ð¾ÑģÑĤÐ¸
ĠÐ³Ð¾Ð»Ð¾Ð² Ð½Ð¾Ð³Ð¾
ĠÐ¿ÑĢÐ¸Ð½Ð¸Ð¼ Ð°Ð»Ð¸
ĠÑĥÐ¿Ð¾Ð¼Ð¸Ð½Ð° ÐµÑĤ
ĠÐ¾Ð¶ Ð¸Ð´Ð°
ĠÐ²ÑĭÐ¿ÑĥÑī ÐµÐ½Ð°
ĠÐ¾Ð±ÑģÐ»ÑĥÐ¶ Ð¸Ð²Ð°Ð½Ð¸Ñı
ĠÐľÑĥÑĢ Ð¼Ð°Ð½
Ð´ Ð·Ð¸
ÐµÐ» Ð¸Ð¸
ĠÑģÑĤ ÐµÑĢÐµ
ÑģÐ¸ ÑĢÑĥ
ĠÐĳ Ð»
Ð¸ÑģÑĤ ÑĭÐµ
ĠÐ§ ÐµÑĤ
ĠÐºÐ¾ÑĢ ÑĢÐµÐº
Ġ6 1
Ð¢ ÑĢÐ¸
ĠÐ¿Ð¾Ðº Ð¾ÑĢ
ĠÑģÑĤÑĢÐ° ÑĤÐµ
Ġ8 7
ĠÐ·Ð°Ð¼ ÐºÐ½ÑĥÑĤ
ĠÑģÑĥÐ´ Ñĭ
ĠE r
ĠÐ½Ð°Ð¿Ð¸Ñģ Ð°Ð½Ð¸Ñı
ĠÐ°ÑģÑĤ ÑĢ
ĠÐĿÐ°ÑĨÐ¸Ð¾Ð½Ð°Ð»ÑĮ Ð½Ð°Ñı
ĠÐ¿ÑĢÐ¸ÑħÐ¾Ð´ Ð°
ĠÐ»Ð°ÑĤ Ð¸Ð½ÑģÐºÐ¾Ð³Ð¾
ĠÐ´Ð¾Ð³Ð¾Ð²Ð¾ÑĢ Ñĥ
ĠÐ¾Ð¿Ð°Ñģ Ð½Ð¾ÑģÑĤÐ¸
ĠÐ»Ð¸Ð´ ÐµÑĢÐ°
ĠÐ¿Ð¾Ð»ÑĳÑĤ Ð¾Ð²
ĠÑģÐ¾ÑĤÑĢÑĥÐ´Ð½Ð¸ÑĩÐµ ÑģÑĤÐ²Ðµ
Ð¡Ð¿Ð°ÑĢÑĤ Ð°Ðº
k a
u al
Ð´ ÐµÑĢÐµÐ²
ÑĳÐ½ Ð½Ð¾ÑģÑĤÑĮÑİ
ĠÐ¥ Ð°Ð»
ĠÐ¿ÑĢÐ°Ð² Ð¸ÑĤÐµÐ»ÐµÐ¼
Ð¾Ð»Ð¾Ð³ Ð¸ÑĩÐµÑģÐºÐ¾Ð¼
ĠÐ¨ ÐµÐ»
ĠÐ½Ð°Ñģ ÐµÐºÐ¾Ð¼
ĠÑģÐº Ð°Ð½Ð´Ð¸Ð½Ð°Ð²
ĠÐ¸Ð¼Ðµ Ñı
ĠÑĤÐµÑħ Ð½Ð¸ÐºÐµ
ĠÐ´Ð¾Ð» Ð¸Ð½Ðµ
ĠÑģÐ¸Ð¼ Ð¿Ð°ÑĤ
ĠÐ´Ð¾Ð± ÑĢÐ°
ĠÐ²Ð½Ðµ Ð·Ð°Ð¿
ĠÐ¾Ð±ÑĬÐµÐ´Ð¸Ð½ ÐµÐ½Ñĭ
Ð°Ñī Ð¸ÑĤ
ĠÐºÐ°ÑĤ Ð°Ð»Ð¸Ð·
ĠÐºÑĥÑĢ ÑģÐ°
ĠÐ»ÑĥÑĩ ÑĪÐ¸Ð¹
ĠÐ²ÑĭÐ¿ Ð°Ð´Ð°ÐµÑĤ
ĠÐ¿Ð»Ð° ÑģÑĤ
ÑģÐµÐ¼ ÐµÑģÑĤ
ĠÐ´Ð¸Ð°Ð» ÐµÐº
ĠÐ²ÑĭÑģÑĤÐ°Ð² ÐºÐ¸
ĠÐŁÑĢÐ°Ð²Ð¾ÑģÐ»Ð°Ð² Ð¸Ðµ
ĠÑģÐ¾ÑģÑĤÐ¾ÑıÑī Ð¸Ð¹
ĠÑĤÐ°Ð» Ð°Ð½ÑĤ
ĠÐŁÐ¾ÑģÐ¿Ð¾Ð»Ð¸ÑĤ Ð¾Ð¹
ÑĢÐµ Ð²Ðµ
Ð³ Ð°Ð¼
ĠÐľ Ð°Ð½Ð¸
ĠÐºÐ°Ðº Ð¾Ðµ
ĠÐ¾Ð´ Ð½Ð¾Ð²ÑĢÐµÐ¼ÐµÐ½
ÑĦÐ¾ÑĢ Ð¼Ð¸
ĠÐ¯ Ð·ÑĭÐº
ĠÐ¡ÑĤ ÑįÐ½
ĠÐ¾Ð±ÑīÐµ ÑģÑĤÐ²ÐµÐ½Ð½Ð¾
ĠÑĥÐ¿ Ð¾ÑĢ
ÑĢÐ¾Ðº Ð¸
ĠÑģÐ¿Ð¾ÑģÐ¾Ð± ÑģÑĤÐ²ÑĥÐµÑĤ
ĠÐ¿ÑĢÐ¸Ð¼ÐµÐ½ ÐµÐ½Ð¸ÐµÐ¼
ĠÐ¿ÑĢÐ¾Ð²Ð¾Ð´ Ð¸ÑĤ
ĠÐ¿ÑĢÐ¸Ð·Ð½ Ð°Ð½Ð¸Ñı
ĠÐ·Ð°ÑıÐ² Ð»ÐµÐ½Ð¸Ðµ
ĠÐ·Ð½ Ð°Ð½Ð¸Ðµ
ĠÐ¿ÑĢÐ¾Ð²Ð¾Ð·Ð³ Ð»Ð°
ĠÐ±Ð¾Ð»ÐµÐ· Ð½ÑĮ
ĠÐ°ÑģÑĤÑĢÐ¾Ð½Ð¾Ð¼ Ð¸Ð¸
ĠÐ¿ÐµÑĢÐµÐ¼ÐµÐ½ Ð½ÑĭÑħ
ĠÐŁÑĥ ÑģÑĤÑĮ
XV II
ĠÐºÐ°Ð²Ð°Ð» ÐµÑĢÐ¸Ð¹
ĠÐ¿ÑĢÐ¾Ð²ÐµÑĢ ÐºÐ¸
ĠBe at
ĠÐ¤Ð»Ð°Ð² Ð¸Ð¹
Ð¸ Ð°Ð½
Ñĥ Ð³Ñĥ
Ð² ÑıÑĤÐ¾Ð¹
ÑģÑĤ Ð¾Ñĩ
Ð³ ÐµÐ½Ð¾Ð²
Ð½Ð¸ Ð»Ð¾ÑģÑĮ
ĠÐŀ ÑĨÐµÐ½
ĠÑĪ Ð¸Ð·Ð¾ÑĦ
ÐŁ Ð°ÑĢ
ĠÐ»ÐµÑĤ Ð¾Ð¿Ð¸ÑģÐ¸
ĠÐ²Ð¾Ñģ Ñħ
ĠÑĤÐµÑĢÑĢÐ¸ÑĤÐ¾ÑĢÐ¸ ÐµÐ¹
ĠÐķÐ² ÑĢÐ¾Ñģ
Ð¼Ð¾Ð¶ ÐµÑĤ
ĠÐ¿Ð¾Ñį ÑĤÐ¾Ð²
ĠÐ¾ÑģÐ¾Ð± Ð¾Ðµ
ĠÐ¾ÑģÐ¾Ð± ÑĭÐ¹
ĠÐ¼ÐµÐ´ Ð»ÐµÐ½Ð½Ð¾
196 2
196 5
ĠÐ¶Ð¸Ð²Ð¾ÑĤ Ð½ÑĭÐµ
ĠÐ¼Ð°ÑģÑĤ ÐµÑĢÐ°
ĠÐĲÐ¼ ÑĥÐ½Ð´
ĠÐºÐ»Ð°ÑģÑģ Ñĭ
ĠÐ²Ð¾Ð·Ð³Ð»Ð°Ð² Ð»ÑıÐ»
ĠÐºÐ¾Ð¶ Ð¸
ĠÐ½ÐµÐ¿Ð¾Ð´ Ð²Ð¸Ð¶
ĠÐ»Ð°Ð½Ð´ ÑĪÐ°ÑĦ
ĠÐĴÐ¸ÐºÐ¸ Ð¿
ĠÐ¡Ð²Ð¾Ð¹ ÑģÑĤÐ²Ð°
ĠÐ±Ð¾Ð³Ð¾Ñģ Ð»ÑĥÐ¶
ĠÐ½Ð° ÑģÐ¸
Ġ3 50
ĠÐ¿ÑĢÐµÐ´ÑģÑĤÐ°Ð² Ð»ÐµÐ½Ð¸Ð¹
ĠÐ¼Ð°ÑĢ ÑĤ
Ġ9 00
ĠÑģÐ¾Ð¾ÑĤ Ð½Ð¾ÑĪÐµÐ½Ð¸Ðµ
ĠÐ¿ÑĢÐ¸Ð½ ÑĥÐ´
ĠÐ´Ð¾Ð» Ð³Ð¾Ð²
Ð´ÐµÐ½ Ð±ÑĥÑĢÐ³
ĠÐĲÐ» Ð»Ð°
ĠÐ¿ÑĢÐ¸ÑĢÐ¾Ð´ Ð½Ð¾Ð³Ð¾
ĠÑģÐ¾Ñĩ ÐµÑĤÐ°
ĠO S
ĠÑĩÑĳÑĢ Ð½Ð¾Ð¹
ĠÐĲÐ½Ð´ÑĢÐµ ÐµÐ²Ð¸Ñĩ
ĠÑģÐ¾Ð³Ð»Ð°Ñģ Ð¸Ð»ÑģÑı
ĠÐ»Ð°Ð³ ÐµÑĢÑĮ
ĠÐĽÑİÐ´ Ð²Ð¸Ð³
ĠÐºÐ¸Ð½Ð¾ÑĤÐµ Ð°ÑĤ
Ð¾Ð¿Ð¾Ð´ Ð¾Ð±
ÑĤ ÐµÐ¹
Ð² Ð°Ð½Ð°
ĠÐ¿Ð¾Ð» Ð¸Ð³
ĠÑĤÐ°Ðº ÑģÐ¸
ĠÑħ Ð»Ðµ
ĠÐ·Ð°Ðº Ð°Ð½Ñĩ
ĠÑĢÑĭ Ð±Ñĭ
ĠÐ¾ÑĦÐ¸ÑĨÐ¸Ð°Ð»ÑĮ Ð½Ð¾Ð³Ð¾
ĠÐ¿Ð»ÐµÐ¼ ÐµÐ½
195 6
ĠÑĦÑĢÐ¾Ð½ ÑĤÐµ
ĠÑĦÐ¾ÑĢÐ¼Ñĥ Ð»Ð°
ĠÑģÐ²Ñı Ð·ÑĭÐ²Ð°ÑİÑĤ
ĠÑĢÐ°ÑģÑħÐ¾Ð´ Ñĭ
ĠÑħÐ°Ð½ ÑģÑĤÐ²Ð°
XV III
ĠÐ¶Ð¸Ð»Ð¸ Ñī
XI X
ĠÐ»Ð¸ÑĤÐµÑĢÐ°ÑĤÑĥ ÑĢÐ¾Ð²ÐµÐ´
ĠÑİÑģÑĤÐ¸ ÑĨÐ¸Ð¸
ĠÐ² Ð¾ÑģÑĤ
Ñĩ ÑĳÐ²Ð°
ĠÐĶ ÐµÐ½
ÐĴ ÐµÐ½Ð³
ĠÑģÑĢÐµÐ´ Ð½ÐµÐµ
ĠÐºÐ¾Ð» Ð»ÐµÐ³
ĠÐ´Ð¸ ÑĦ
ÐµÑĢÐ³ Ð¸Ñı
ĠÐ²Ð¾Ñģ Ð¿ÑĢÐ¾Ð¸Ð·Ð²Ð¾Ð´
ĠÐļÐ¾Ð½ ÑģÑĤÐ°Ð½
ĠÐĶÐ¶ ÐµÐº
ĠÐ¼Ð½Ð¾Ð³Ð¾ Ð¾Ð±ÑĢÐ°Ð·
ĠÑĥÑĩÐ°ÑģÑĤ ÐºÐµ
ĠÐ¾Ñħ Ð»Ð°
ĠÐºÐ°ÑĤ Ð¾Ð»Ð¸
ĠÐ¿Ð¾ÑĤÑĢÐµÐ± Ð¾Ð²
ĠÐ¼ÐµÐ» ÐºÐ¸Ðµ
ĠÐºÐ¸ÑĤÐ°Ð¹ ÑģÐºÐ¾Ð¹
ĠÐ²ÑĭÐ¿Ð¾Ð»Ð½Ñı ÐµÑĤÑģÑı
ĠÐ¸Ð·Ð»ÑĥÑĩ ÐµÐ½Ð¸Ðµ
ĠÑģÐ¾ÑĢÐµÐ²Ð½Ð¾Ð² Ð°Ð½Ð¸Ñı
ĠÐľÐ¾Ð¶ Ð½Ð¾
ĠÐ£Ð¿ÑĢÐ°Ð² Ð»ÐµÐ½Ð¸Ðµ
n al
ĠÐ½ Ð¾Ð¶
ĠÐ´ Ð¾ÑĢ
ĠÐ½Ð° ÑĪ
ÐµÐ¼ Ð±
ĠÐ¡ Ð¾Ð´ÑĢÑĥÐ¶Ðµ
ĠÐľ Ð°Ð·
ĠÐ¤ ÐµÑĢÐ½
ÐµÑĢÐ¸ Ð°Ð»
ÑģÐµ Ñı
ĠÐ¥ Ð¾Ð´
Ð´Ð¸ Ð³
ĠÐŀÐ´ Ð½Ð¾
ÑĦÑĦ ÐµÐºÑĤ
ĠÐ¼ÐµÑĤÐ¾Ð´ Ð°Ð¼Ð¸
ĠÐ¿Ð¾ÐºÐ°Ð· Ð°ÑĤÐµÐ»Ð¸
ĠÐ²Ð¾ÑģÑģÑĤÐ°Ð½Ð¾Ð² Ð¸ÑĤÑĮ
ĠÐ·Ð°Ð²ÐµÑĢÑĪ ÐµÐ½Ð¸Ñı
ĠÑģÑĤÑĥÐ´ ÐµÐ½
ĠÐ¿ÑĢÐ°Ð²Ð¸Ð»Ð° Ð¼
ĠÐ´Ð¸ÑĢÐ¸Ð¶ Ð°Ð±
ĠÐ±Ð¾Ð»ÑĮÑĪÐµÐ² Ð¸ÐºÐ¾Ð²
i en
i et
ĠÐĳ Ð¾Ð´
ÑĥÐ¼ Ñĥ
ÑĥÐº ÑĢÐ°
ÑģÐ¾Ð² Ð°
ĠÐ¸ÑģÑĤÐ¾ÑĢÐ¸ Ð¾Ð³ÑĢÐ°ÑĦÐ¸Ð¸
ĠÑĤÑĢÐ¸ Ð±Ñĥ
ĠÐ¸Ð·Ð´ Ð°Ð½
ĠÐ±Ð¸ Ð¾Ð³ÑĢÐ°ÑĦ
ĠÑģÑĩÑĳÑĤ Ð¾Ð¼
ĠÐĵÐ¸ÑĤ Ð»ÐµÑĢÐ°
ĠÐłÐµÑĩ Ð¸
ĠÐ³Ð¾ÑĢÐ¾Ð¶ Ð°Ð½
Ð°Ð½ Ð½Ð¾ÑģÑĤÑĮ
ĠÐ± Ð¸Ð»
ĠÐļ Ð¸Ð½Ð³
ÐºÐ¾Ð² ÑģÐºÐ°Ñı
ĠÐķ Ð½Ð¸
Ð»Ð¾ ÑĪ
ÑĪÐµ Ð±
ĠÑģÐ¾Ð·Ð´ Ð°Ð½Ð½ÑĭÐ¹
ĠÑįÐ»ÐµÐºÑĤ ÑĢÐ¾Ð²
ĠÐºÑĢÑĥÐ¿ Ð½ÑĭÐ¼Ð¸
ĠÑģÐ¾Ð¾ÑĤÐ²ÐµÑĤÑģÑĤÐ² ÑĥÑİÑĤ
ĠÐ¿ÑĢÑıÐ¼ Ð¾Ð³Ð¾
ĠÑĥÐ· ÐµÐ»
ĠÐ²Ð½ÐµÑĪ Ð½Ðµ
ĠÐ±Ð¾Ð»ÑĮ Ð½Ð¸ÑĨÑĭ
ĠÐ³Ð¾Ð»Ð¾Ð² Ñĭ
ĠÐ¿ÑĢÐ¸Ð½ÑıÑĤ Ñĭ
ĠÑĢÐ°ÑģÑĤÐ² Ð¾ÑĢÐ¸Ð¼
Ð¾ÑĤÐµ Ð·Ñĭ
ĠÐ¿Ð¸Ñī Ð¸
ĠÐ·Ð°ÑĢÐµÐ³Ð¸ÑģÑĤ ÑĢÐ¸ÑĢÐ¾Ð²Ð°Ð½
ĠÐ¼ÐµÐ´Ð°Ð»ÑĮ Ñİ
ĠÐ¡ Ð¾Ð¿
ÐµÐ² Ð°ÐµÑĤ
ĠÐĵ Ð¾ÑĢÐ°
ĠÐ¿Ð¾Ð´ Ð´
Ġ7 6
ĠÐ¿ÐµÑĢÐ¸Ð¾Ð´ Ñĭ
ĠÐ´Ð¾Ð» Ð¸Ð½Ñĭ
ĠÐ°Ð» Ð»
ĠÐĲÐ´ Ð¾Ð»ÑĮÑĦ
ĠÐ½Ð¾Ñģ Ð¸Ð»Ð¸
Ð¾Ð¿Ð°Ñģ Ð½Ð¾ÑģÑĤÐ¸
ĠÑĢÐ°Ð±Ð¾Ñĩ Ð¸Ðµ
ĠÐºÐ¾ÑĢÐ¾Ð»ÐµÐ² ÑģÐºÐ¾Ð¹
ĠÑĢÐ°Ð·Ð± Ð¸Ð»
ĠÐļÑĥÐ± Ð¾Ðº
ĠÐĿÐ¾Ð²Ð³Ð¾ÑĢÐ¾Ð´ Ð°
ĠÑħÑĢÐ°Ð¼ Ð¾Ð²
ĠÐĿÐ°Ð¿Ð¾Ð»Ðµ Ð¾Ð½
ĠÐĳÐ°Ð»ÑĤÐ¸Ð¹ ÑģÐºÐ¾Ð³Ð¾
ĠÐ¿ÑĥÐ½Ðº ÑĤÐ°
ĠÑĢÐµÐ¹ÑĤÐ¸Ð½Ð³ Ðµ
ĠÐ²ÑĭÐ¿ÑĥÑģÑĤÐ¸ Ð»Ð°
Ð¿Ð¾Ð± ÑĢÐ°ÑĤÐ¸
Ð° ÑĢÐµÐ¹
Ðº Ð»Ñİ
Ðº Ð°ÑĤÐ¾Ð»
ĠÑĥ ÑĢÐµÐ³ÑĥÐ»Ð¸ÑĢÐ¾Ð²
ĠÐ¾ÑĤ ÐºÐ°Ð·ÑĭÐ²
ĠÐ¾ÑĤ ÐºÑĢÐ¾Ð²
ĠÐ» ÑĥÐ½
ĠÐ²Ð¾Ð· Ð²Ð¾Ð´
Ðļ Ð¾Ñģ
ĠÐ´Ð² Ð¾ÑĢÐ°
ĠÐ¿Ð°ÑĢ ÐºÐµ
Ġ9 8
ĠÐļÐ¾Ð½ ÑĦ
ĠÐĿÐ¾Ð² Ð¾
ĠÐ¿Ð¾Ñĩ ÐµÐ¼Ñĥ
ĠÐĲÐ² ÑĢÐ°
it er
ĠÐ¾ÐºÑĤ ÑıÐ±ÑĢÑĮ
ĠÐºÐ¸Ð½Ð¾ ÑĦÐµÑģÑĤÐ¸
ĠÐ¾ÑĢÐ³Ð°Ð½Ð¸Ð·Ð° ÑĨÐ¸ÐµÐ¹
ĠÐ¿Ð¾Ð´Ð´ÐµÑĢÐ¶ ÐºÐ¾Ð¹
ĠÐ²Ð°Ð¶ Ð½ÑĭÐµ
ĠÐ·Ð°Ð²Ð¾Ð´ Ð¾Ð²
ĠÐ¿Ð»Ð° ÑģÑĤÐ¸
ĠÑģÑĥÑīÐµÑģÑĤÐ²Ð¾Ð² Ð°Ð½Ð¸Ð¸
ĠÐ°Ð²ÑĤÐ¾Ð¼Ð¾Ð± Ð¸Ð»Ñı
ĠÑĩÑĳÑĢ Ð½ÑĭÑħ
ĠÐĶÐ¾ÑģÑĤ Ð¾Ð¿ÑĢÐ¸Ð¼ÐµÑĩÐ°ÑĤÐµÐ»ÑĮÐ½Ð¾ÑģÑĤÐ¸
ĠÐĵÐµÑĢÐ° ÐºÐ»
ĠÐľÑį ÑĢÐ¸
ĠÑĢÑĥÐ±ÐµÐ¶ Ð¾Ð¼
ĠÐ·ÑĢÐ¸ÑĤ ÐµÐ»ÐµÐ¹
ĠÐ¿ÑĢÐ¾Ð¼ÐµÐ¶Ñĥ ÑĤÐ¾Ñĩ
ĠÐĵÐ² Ð¸Ð½Ðµ
ÑĮ Ð¸Ñħ
Ñħ ÑĢÐ¸ÑģÑĤÐ¸Ð°Ð½
Ð¿ Ð°Ðº
Ð¾ÑĢ Ðº
Ð¸Ð½ ÐºÐ¸
ĠÑĦ Ð¾ÐºÑĥÑģ
ĠÐ½ÐµÐ¼ ÑĨÑĭ
ĠÑįÐ»ÐµÐºÑĤ ÑĢÐ¾ÑĤ
ĠÑģÑĥÐ´ Ð½Ð¾
ĠÑģÐ¸Ð»ÑĮ Ð½ÑĭÐ¼
ÑĦÐ¸ÐºÐ° ÑĨÐ¸Ñİ
ĠÑģÐ¾ÑħÑĢÐ°Ð½ ÐµÐ½Ð¸Ðµ
ĠÐ²ÑģÑĤÑĥÐ¿ Ð¸Ð»Ð°
ĠÐ¾ÑĤÑģÑĥÑĤÑģÑĤÐ² Ð¸Ð¸
ĠÐ¿Ð°ÑĢÐ»Ð°Ð¼ÐµÐ½ÑĤ Ðµ
ĠÐŁÐ°ÑĢÐ¸ Ð¶Ð°
ĠÐ£Ñĩ ÑĢÐµÐ´
ĠÐĲÐ´Ð¼Ð¸Ð½Ð¸ÑģÑĤÑĢÐ° ÑĤÐ¸Ð²Ð½Ð¾Ðµ
ĠÑĢÐµÐ¼Ð¾Ð½ ÑĤ
Ġ ed
ĠÐ¡ Ðµ
ĠÐ¡ ÐµÑĢÐ°
Ð°ÑĢ Ð½Ð¾Ðµ
ĠÑĢÐµ Ð²
ĠÑĪ Ð°ÑĪ
ĠÐ¸Ð½ ÑĦÐ¾ÑĢÐ¼Ð°ÑĤ
Ð¿ÑĢÐ¸ Ð½
ĠÑģÑĢÐµÐ´ Ð½Ð¸Ðµ
ĠÐ¿ÑĢÐµÐ´ÑģÑĤÐ°Ð² Ð»ÐµÐ½Ð¾
ĠÐ¿Ð¾Ðº Ð¾Ð½Ñĩ
ĠÑįÐ½ Ð´
ĠÐ¾Ñĩ ÐºÐ¾Ð²
ĠÑģÑĤÐ¾ÑĢÐ¾Ð½ Ð½Ð¸ÐºÐ¸
ĠÑĥÑĤÐ²ÐµÑĢÐ¶Ð´ ÐµÐ½Ð¸Ñı
ĠÐ¾ÑĤÐ²ÐµÑĤ ÑģÑĤÐ²ÐµÐ½Ð½Ð¾ÑģÑĤÐ¸
ÐºÐ»ÑİÑĩ ÐµÐ½Ð¸Ñı
ĠÐ¶ÐµÐ»ÐµÐ·Ð½Ð¾Ð´Ð¾ÑĢÐ¾Ð¶ Ð½ÑĭÑħ
ĠÑĩÐ¸ÑģÑĤ Ð¾
ĠÐ²Ð·Ð³Ð»Ñı Ð´Ð¾Ð²
ĠÐĴ ÐµÑĢÐ°
ĠÐŁ ÑıÑĤÐ¸
ĠÑĩ ÑĮÐ¸
Ð¸Ð» ÐµÐ³
ĠÐł Ð¾Ð³
Ð¾Ðµ Ð³Ð¾
ĠÑģÐ¾Ð² ÐµÑī
ÐŁ Ð¾Ð»
ĠÐ½Ð¾Ð² Ð³Ð¾ÑĢÐ¾Ð´
ĠÑĩÐ°ÑģÑĤ Ð½ÑĭÐµ
ĠÑĢÐµÑĪ ÐµÐ½Ð¾
ÑĥÑģÑĤ Ð¸ÑĤÑĮ
ĠÑģÐ¿ÐµÑĨÐ¸Ð°Ð»ÑĮ Ð½ÑĭÐ¹
ĠÑĥÐ¼ÐµÐ½ÑĮÑĪ Ð°ÐµÑĤÑģÑı
ĠÐŃÐ´ Ð²Ð°ÑĢÐ´
ĠÐ¾ÑĢÐ³Ð°Ð½ Ð°Ð¼Ð¸
ĠÑĢÑĥÐº Ð¾Ð¿Ð¸ÑģÐ¸
ĠÐŃÐ¹Ð½ ÑĪÑĤÐµÐ¹Ð½Ð°
ĠÐ»Ð¾ÑĪÐ°Ð´ ÐµÐ¹
ĠÑĦÐ¾ÑĤÐ¾Ð¼ Ð¾Ð´ÐµÐ»ÑĮ
Ðº ÐµÐ½
Ð°Ð½ ÑģÐºÑĥÑİ
ĠÐ¼ Ð°Ð¼
ĠÐ¾ÑĤ ÑĢÑĭÐ²
ĠÐ¿ÑĢÐ¸ Ð¼Ð¸ÑĤÐ¸Ð²
ĠÐł ÐµÐ¿
Ð°Ð± Ð¸Ð»ÑĮ
ĠÐ¿ÑĢÐµÐ´ÑģÑĤÐ°Ð² Ð¸ÑĤÑĮ
ĠÐ¸ÑģÐºÑĥÑģ ÑģÑĤÐ²ÐµÐ½Ð½Ð¾Ð³Ð¾
ĠÐ¼ÑĥÐ¶ Ð°
ĠÐ¾Ð¿ÑĥÐ±Ð»Ð¸ÐºÐ¾Ð² Ð°Ð½Ñĭ
ĠÐ¼ÑĥÐ½Ð¸ÑĨÐ¸Ð¿ Ð°Ð»ÑĮÐ½Ð¾Ðµ
ĠÐ»Ð¾Ð³ Ð¸ÐºÐ¸
ĠÐ¿ÐµÑĢÐµÑģÐµ ÐºÐ°
ĠÐŃÐ´Ñĥ Ð°ÑĢÐ´Ð°
ĠÏ Ħ
ĠÐ¼Ð°Ð³Ð¸ÑģÑĤ ÑĢÐ°Ð»ÑĮ
ĠÐŁÑĤÐ¾Ð»ÐµÐ¼ ÐµÑı
Ñģ ÐµÐ½Ð°
Ðº Ð°Ð»Ð°
ÑĨ ÐºÐ°Ñı
ĠÐĴ Ð·Ð°Ð¸Ð¼
ĠÑĦ ÑĢÐ°Ð·
Ð¸ÑģÑĤ ÑĭÑħ
ĠÑħ ÑĢÐ¸ÑģÑĤÐ¸
ĠÐºÐ¾ÑĢ ÑĢÑĥÐ¿
ĠÑİ ÑĢÐ¸ÑģÑĤ
ĠÐ¾ÑĢÐ³Ð°Ð½Ð¸ ÑĩÐµÑģÐºÐ¸Ñħ
ĠÐµÐ´Ð¸Ð½ ÑģÑĤÐ²ÐµÐ½Ð½Ð¾Ð¹
ĠÐ¾Ð¿ÐµÑĢÐ° ÑĨÐ¸Ñİ
Ð»Ð°ÑĪ ÐµÐ½Ð¸Ðµ
Ð°Ð½Ð³ Ð»
ĠÐ¿Ð°Ð¼ÑıÑĤ Ð½ÑĭÐµ
ĠÑĥÑģÐ»Ð¾Ð²Ð¸Ñı Ð¼
197 7
ĠÐ´ÑĢÐ° Ð¼Ñĭ
ĠÐ°Ð¼ Ð¼Ð¸
ĠÐ´ÐµÐ¼Ð¾Ð½ ÑģÑĤÑĢÐ¸
ĠÐ³Ð²Ð°ÑĢÐ´ Ð¸Ð¸
ĠÐĳÐ¾Ð¶ Ð¸ÐµÐ¹
ĠÑĦÐ¾ÑĢÑĤÐµ Ð¿Ð¸
ĠÐ´ ÐµÐ´
ĠÐĴ ÑįÐ¹
ĠÐŁ Ð°Ð´
ĠÐľ ÑģÑĤ
ĠÐ» ÐµÐ¿
ĠÑĦ Ð°Ð»ÑĮ
ĠÐ±Ñĭ ÑģÑĤÑĢÐµÐµ
ĠÐĺ ÑĢÐ¸Ð½Ð°
Ð°ÑĤÑĮ Ð¸
ĠÐ¥ Ð°Ð·
ĠÑĢÐ°ÑģÐ¿ ÑĢÐµÐ´ÐµÐ»ÐµÐ½Ð¸Ðµ
ĠÐ´Ð² Ð¾Ðµ
ĠÐ¼Ð¾Ð» Ð¾ÐºÐ°
ĠÐ¾Ñĩ ÐµÑĢ
ĠÐ¿ÑĢÐ°Ðº ÑĤÐ¸ÐºÐ°
ĠÐ¿ÐµÑĢÐµÐ²Ð¾Ð´ Ñĭ
ĠÐ¾Ð±Ð¾Ð· Ð½Ð°ÑĩÐ°ÐµÑĤ
ĠÐ·Ð°Ð²Ð¾Ð´ Ñĭ
ĠÐĵÐ»Ð°Ð² Ð½ÑĭÐ¼
ĠÑĢÐ°Ð·Ð¼ÐµÑĢ Ð¾Ð¼
ĠÐ²ÑģÐ¿ ÑĭÑĪ
ĠÐ¢ÑĢÐ¾ Ð¸ÑĨ
ĠÐºÐ¾Ð½ÐºÑĥÑĢ Ñģ
ĠÐĵÐµÐ½ÐµÑĢÐ° Ð»
ĠÐ¤ÑĢÐ°Ð½ÑĨÑĥÐ· ÑģÐºÐ¾Ð¹
ĠÐķÐºÐ°ÑĤÐµÑĢÐ¸Ð½ Ð±ÑĥÑĢÐ³
ĠÐ¼ Ð°Ð·
ĠÐĳ ÑĥÐº
ĠÐ¢ ÑĮÑİ
ĠÐ¿Ð¾Ð´ ÑĢÐ¾ÑģÑĤ
Ð½Ð¾Ð² ÑĭÑħ
ĠÐ¤ Ð¾Ð¼
ĠÐ¿Ð¾Ñģ Ð¾Ð»
ĠÐ¿Ð¾ÑģÐ»ÐµÐ´ Ð½ÑıÑı
ĠÐĳÐ¾Ð³ Ð´
195 7
ĠÐ²Ð¾Ð·Ð²ÑĢÐ°Ñī ÐµÐ½Ð¸Ð¸
ĠÐľÑĥ Ð·ÑĭÐº
ĠÐ´Ð²Ð¸Ð³ Ð°ÑĤÐµÐ»ÑĮ
ĠÐ¿ÑĢÐ¾Ð²Ð¾Ð·Ð³Ð»Ð°ÑĪ ÐµÐ½Ð°
ĠÐĴÑģÐµÐ² Ð¾Ð»Ð¾Ð´
ĠÐ² ÐµÐ³
ĠÐ¾ ÑĦÐ¸Ñģ
Ð¾ÑģÑĤ Ð°
ĠÑĦ Ð°Ð½
ĠÐĿ Ð¾Ñı
ĠÐĶ Ð°Ð½Ð½ÑĭÐµ
Ð¡ Ðŀ
ĠÐ¾Ñģ Ð²ÑıÑī
ĠÑģÐ» ÑĭÑĪ
Ð»Ð¾Ð² Ð¾Ð¹
ĠÐ·Ð°Ð¼ ÐºÐ°
ĠÐ¿Ð¾ÑģÑĤÑĢÐ¾ Ð¸Ð»
196 3
ĠÐºÑĥÐ»ÑĮ ÑĤÑĥÑĢÑĥ
ĠÐ¿Ð¾Ñı ÑģÐ°
ÑĪÑĤÐ° Ð´ÑĤ
ĠÐ½Ð°Ð¹Ð´ ÐµÐ½Ñĭ
ĠÐ²ÑĢÐ°Ð¶Ð´ ÐµÐ±
ĠÐĳÐ»Ð°Ð³Ð¾Ð² ÐµÑī
ÑĢ Ð¾Ð¶Ð´ÐµÐ½Ð¸Ðµ
ÑĤÐ¸ Ð¿
ĠÐļ ÑĥÐ»ÑĮÑĤÑĥÑĢ
ĠÐĿ ÐĺÐĺ
ÑĥÐ¼ ÑĥÐ»Ñı
ĠÑıÐ·Ñĭ ÐºÐ°Ð¼Ð¸
ĠÐŁÐ¾ ÑħÐ¾Ð´
ĠÐ²Ð¸Ð´ ÐµÑĤÑĮ
ĠÐ¡ÑĤ Ð¾Ð»Ñĭ
ĠÐ½Ð°Ð·Ð² Ð°Ð»Ð¸
ar k
ĠÐ¿Ð¸Ñģ ÐµÐ¼
ĠÐ²Ð»Ð° Ð´Ðµ
ĠÐ´ÐµÑĤ ÑģÐºÐ°Ñı
ĠÑĢÐ°Ð² Ð½Ð¸Ð½Ñĭ
ĠÐĵÐµÑĢÐ¼ Ð°Ð½Ð¸Ñİ
ÑĭÐ² Ð°ÑĤÑĮÑģÑı
ĠÑĢÐ¾Ð¼ Ð°Ð½Ð¾Ð²
ĠÐ½Ð°Ð·ÑĭÐ² Ð°Ð»ÑģÑı
ĠÐ³ÑĢÐ°ÑĦ Ð¸Ðº
Ġ185 8
ĠÐ°ÑĢÐ°Ð± ÑģÐºÐ¸Ñħ
ĠÐľÐ°ÑĢÐº ÑģÐ°
ĠÐ¶Ð°Ð½ ÑĢ
ĠÐŁÐ°Ð¼ÑıÑĤ Ð½Ð¸ÐºÐ¸
ĠÐ²ÐµÑĩ ÐµÑĢ
ĠÐ£Ð½Ð¸Ð²ÐµÑĢÑģÐ¸ÑĤ ÐµÑĤÐ°
ĠÐºÐ¾Ð½ÑĦÐ¸ Ð³Ñĥ
ĠÑįÑģÐ¿ÐµÑĢÐ°Ð½ ÑĤÐ¾
Ð² Ð°ÑĢÑĮ
Ð¾Ð² Ñĭ
ÑĢÑĥ Ðº
ĠÐĵ Ð¸
ĠÐ´Ð¾ ÑģÐºÐ°
Ð´ÐµÐ» Ð°
ĠÐ¸ÑģÑĤÐ¾ÑĢÐ¸ ÑĩÐµÑģÐºÐ¸
ĠÐ²Ð¾Ð´ Ð½ÑĭÑħ
ĠÐ¾Ð¿ÑĢÐµÐ´ÐµÐ» ÐµÐ½Ð¸Ñİ
ĠÑĥÑĤÐ²ÐµÑĢ Ð´
ĠÑĥÑĩÐ°ÑģÑĤ ÐºÐ¾Ð²
ĠÑĢÐ°Ð·ÑĢÐ°Ð±Ð¾ÑĤ ÐºÑĥ
ĠÐĹÐ°Ð¿ Ð¾ÑĢÐ¾Ð¶
ĠÐĲÐ»ÑĮ ÑĦÐ¾Ð½
ĠÐ³ÑĢÐµ ÐºÐ¾Ð²
ĠÐŀÐº Ñģ
ĠÐ´ÐµÐ² ÑıÑĤÐ¸
ĠÐĶÑĢÐµÐ² Ð½ÐµÐ³Ð¾
ĠÐ¿ÑĢÐ¸Ð´ ÑĥÐ¼
ĠÐŁÐ°Ð²Ð»Ð¾Ð² Ð¸Ñĩ
ĠGo ogle
ĠÐ¢Ð°ÑĤÑĮ ÑıÐ½Ð°
3 00
ĠÐ½Ð° ÑĪÐ¸
Ð¸Ð´ ÐµÐ½Ð¸Ðµ
Ðł Ð¤
ĠÐ¾Ð±ÑĬ ÑĳÐ¼Ðµ
ĠÐ¡ÑĤ Ð°ÑĤ
Ġ8 4
Ð¸ÑĢÑĥ Ñı
ĠÐ¾ÑģÐ¾Ð± Ð¾Ð³Ð¾
ĠÑģÑĩÐ¸ÑĤ Ð°Ð»ÑģÑı
Ð§ ÑĳÑĢ
ĠÐ¿ÑĢÐ¸Ð¼ÐµÑĢ Ð¾Ð¼
194 6
ĠÐ¾ÑĤÐ²ÐµÑĤ Ð¸Ð»
Ð¾ÑĢÐ´ Ð¸Ð½Ð°
ĠÐ½Ð°Ð·ÑĭÐ² Ð°ÑĤÑĮÑģÑı
ĠÐ°Ð¿Ð¿Ð°ÑĢÐ° ÑĤÐ¾Ð²
ĠÑıÐ´ÐµÑĢ Ð½Ð¾Ð¹
ĠÐ²Ð·Ð³Ð»Ñı Ð´
ĠÑģÐ¾Ð³Ð»Ð° ÑģÐ¸Ñı
ĠÑģÐµÐ»ÑĮÑģÐºÐ¾ÑħÐ¾Ð·ÑıÐ¹ ÑģÑĤÐ²ÐµÐ½Ð½ÑĭÑħ
ĠÐ³Ð»Ð°Ð³ Ð¾Ð»Ð°
ĠÑĤÑı Ð¶Ðµ
ĠÑıÑģ Ð½Ð¾
ÑĥÐ¶Ðµ Ð±
ĠÐ¸ÑģÐºÐ¾Ð¿Ð° ÐµÐ¼ÑĭÑħ
ĠÐºÐ»Ð°Ð² Ð¸ÑĪ
ÐµÑĢ ÑģÐºÐ¾Ð³Ð¾
ĠÐ¡ Ð¿Ð¸
ÑĥÐ´ Ð¸
ĠÐ¿ÑĢÐ¾ ÑĦÐ¸Ð»Ð°Ðº
ÐĲ Ðľ
ĠÐ´Ðµ ÑĪ
ÐĶ Ð¾Ð¼
Ġ8 1
ĠÐĲÑĢ ÐºÐ°
ĠÐ¼Ð¸ Ð³ÑĢÐ°
ĠÑĦÑĢÐ°Ð½ÑĨÑĥÐ· ÑģÐºÐ¾Ð¼
ĠÐ±Ð¸ Ð¾ÑħÐ¸Ð¼Ð¸
Ġ184 4
ĠÐ¿Ð¾Ð¿ÑĭÑĤ Ð°Ð»ÑģÑı
ĠÐ±ÑĥÐº Ð²Ð°
[...]
