<pad>
<s>
</s>
<unk>
!
"
#
$
%
&
'
(
)
*
+
,
-
.
/
0
1
2
3
4
5
6
7
8
9
:
;
<
=
>
?
@
A
B
C
D
E
F
G
H
I
J
K
L
M
N
O
P
Q
R
S
T
U
V
W
X
Y
Z
[
\
]
^
_
`
a
b
c
d
e
f
g
h
i
j
k
l
m
n
o
p
q
r
s
t
u
v
w
x
y
z
{
|
}
~
¡
¢
£
¤
¥
¦
§
¨
©
ª
«
¬
®
¯
°
±
²
³
´
µ
¶
·
¸
¹
º
»
¼
½
¾
¿
À
Á
Â
Ã
Ä
Å
Æ
Ç
È
É
Ê
Ë
Ì
Í
Î
Ï
Ð
Ñ
Ò
Ó
Ô
Õ
Ö
×
Ø
Ù
Ú
Û
Ü
Ý
Þ
ß
à
á
â
ã
ä
å
æ
ç
è
é
ê
ë
ì
í
î
ï
ð
ñ
ò
ó
ô
õ
ö
÷
ø
ù
ú
û
ü
ý
þ
ÿ
Ā
ā
Ă
ă
Ą
ą
Ć
ć
Ĉ
ĉ
Ċ
ċ
Č
č
Ď
ď
Đ
đ
Ē
ē
Ĕ
ĕ
Ė
ė
Ę
ę
Ě
ě
Ĝ
ĝ
Ğ
ğ
Ġ
ġ
Ģ
ģ
Ĥ
ĥ
Ħ
ħ
Ĩ
ĩ
Ī
ī
Ĭ
ĭ
Į
į
İ
ı
Ĳ
ĳ
Ĵ
ĵ
Ķ
ķ
ĸ
Ĺ
ĺ
Ļ
ļ
Ľ
ľ
Ŀ
ŀ
Ł
ł
Ń
ĠÐ
Ð¾
Ðµ
Ð°
Ð¸
Ð½
ÑĤ
Ñģ
ÑĢ
Ð¾Ð
Ð»
Ðº
Ñĥ
Ð²
Ñı
Ð¼
Ñĭ
ÑģÑĤ
Ð´
ĠÐ¿
ÑĮ
ĠÐ²
ÐµÐ½
ÑĢÐ°
Ñĩ
Ð¾Ð²
Ð·
ĠÑģ
ĠÐ¸
Ñħ
Ð¹
Ð¿
ÑģÐº
ĠÐ¾
ĠÐ½
ÑĢÐµ
Ð°Ð½
Ð±
Ð³
Ð¾Ð´
ÑĢÐ¸
Ð¾Ð»
ĠÐº
Ð½Ñĭ
ÑĨ
Ð°Ð»
Ð¾Ð¼
Ñİ
Ð¾ÑĢ
Ð¾Ð³
ÐµÑĢ
ÐµÐ»
ĠÐ´
ÐµÑĤ
Ð¾Ð¹
ĠÐ³
Ð¶
ÐµÐ½Ð¸
Ð¾Ð½
ÑĪ
ĠÐ½Ð°
ĠÑĤ
ĠÐ¼
Ð½Ð¾
Ð°ÑĤ
Ð¸ÑĤ
âĢ
ÑĦ
Ð¸Ð½
âĢĶ
ĠÐ±
Ð»Ð¸
Ð¾ÑĤ
ÑģÑĤÐ²
Ð¾Ñģ
Ġ1
Ġ(
ĠâĢĶ
Ð¾Ð³Ð¾
Ñī
Ð½Ð¸
ÐµÐ¼
Ð»Ð°
ĠÐĴ
ÑģÐºÐ¸
Ð°Ðº
ĠÐ¡
ÑĨÐ¸
ÑģÑı
Ð°ÑĢ
ĠÐ°
ĠÐ·
Ñĳ
Ð¼Ð¸
ĠÑĥ
ÐµÐ¹
ĠÐŁ
Ð°Ð½Ð¸
ÑĩÐµ
Ð°Ñı
Ñį
ÐºÐ°
ÑĢÑĥ
Â«
Â»
ĠÑĢÐ°
ĠÑĩ
ĠÂ«
ÐµÐ´
ÑĤÐ¸
ĠÐ¿ÑĢ
Ð¾ÑģÑĤ
ĠÐļ
Ð¾Ð±
Ð»Ñı
Ð°Ð²
ÐµÐ»ÑĮ
ĠÐ¾Ð±
ÐµÐº
ĠÐ³Ð¾Ð´
ĠÐ¾ÑĤ
Ð¸Ð»
Ð¸Ñģ
Ð¾Ðº
ĠÑį
ĠÐĲ
ĠÑģÑĤ
ĠÐ¿ÑĢÐ¸
ÐµÐ½Ð¸Ñı
ÐµÐ²
ĠÐľ
Ð½ÑĭÑħ
ÐºÐ¸
Ð¾Ð»ÑĮ
ÑĢÐµÐ´
Ð¾Ð·
ĠÐ½Ðµ
Ġ19
Ð½Ð¾Ð¹
ĠÐ»
Ð¾Ð¶
ÑĤÐ¾
Ġ2
ĠÐ¸Ð·
ĠÑĦ
Ð°Ð¼
ÑģÑĤÐ¸
ĠÐ±Ñĭ
Ð°Ð»ÑĮ
ÑģÐºÐ¸Ð¹
ÑģÐ¸
Ð¾Ð¿
ĠÐł
ĠÐ¿Ð¾
Ð½ÑĭÐµ
ĠÐĿ
Ð½ÑĭÐ¹
Ð½Ð°
Ð³Ð¾
ÑģÐ¿
Ð¸Ð¼
Ð½Ð¾Ð³Ð¾
ĠÐµ
ÑĢÐ¾Ð²
ĠÐĵ
ÐµÐ½Ð¸Ðµ
ĠÐĳ
ÑĥÑİ
Ð¸Ð·
ĠÐŀ
Ð¸Ð²
ÐµÐ½ÑĤ
ĠÑĢÐµ
ĠÐĶ
ĠÐ²Ñĭ
ÑģÐºÐ¾Ð¹
Ð´Ð°
ĠÐĺ
Ð»ÑĮ
ĠÐ¢
ÑģÑĤÑĮ
ĠÐ·Ð°
ÑģÐºÐ¾Ð³Ð¾
Ð¸Ñħ
ÐµÑĢÐ°
ĠÑģÐ²
ÑĢÐ°Ð²
ÑİÑĤ
ÐµÑĢÐµ
ÐºÐ¾Ð²
ÑĥÑĢ
Ð¡
ĠÐ¶
ĠÐ¿Ð¾Ð»
Ð²Ð°
Ð¸ÑĩÐµ
Ð¼Ðµ
ĠÐ³Ð¾Ð´Ð°
),
ÑĤÐ°
ÑĢÐ°Ð½
ĠÐĽ
ÐµÑĤÑģÑı
Ð¾ÑĤÐ¾ÑĢ
ĠÑı
ĠÑĢÐ°Ð·
ÑĥÐ´
).
Ġ20
ÑĨÐ¸Ð¸
Ð¶Ðµ
ÑīÐµ
Ð¸Ðµ
Ð¸Ð´
Ð½Ð°Ñı
ÐµÑģ
ÑıÑĤ
Ð°Ð½Ð¸Ñı
ÑĥÑĤ
Ð¾Ñĩ
Ð¸Ð¸
ÑħÐ¾Ð´
Ð¸Ðº
Ð¸Ñı
ĠÑĤÐ°Ðº
Ð¸ÑģÑĤ
ĠÐ¿ÑĢÐ¾
Ð°Ñģ
Ð°ÑĤÑĮ
Ð¸Ð¹
Ð·Ñĭ
ĠÐ¿Ð¾Ð´
Ð»Ðµ
Ð¾Ðµ
Ð°Ð´
ÑĥÑĩ
Ð½Ð¾Ð²
ÑģÑĤÐ²ÐµÐ½
ĠÐºÐ¾ÑĤÐ¾ÑĢ
Ð¸ÑĤÐµÐ»ÑĮ
ĠÑħ
Ð½Ðµ
ÑĢÐµÐ¼
Ð¶Ð´
ĠÐ¤
ÑĭÑħ
Ð½ÑĭÐ¼
ĠÑĢ
ĠÐ³Ð¾Ð´Ñĥ
Ð½Ð¾Ðµ
Ð¾ÑĢÐ¾Ð´
ĠÐ±ÑĭÐ»
ÐµÑĢÐ¸
ĠÐ¿ÑĢÐµÐ´
ÑģÑĤÐ²Ð°
ÑĭÐµ
Ð¼Ð°
ĠÐ¾Ñģ
ĠÑĩÑĤÐ¾
ÑģÐºÐ¸Ñħ
ÑĢÐ¾
Ð°Ð·
ÑģÐºÐ°Ñı
Ð»ÐµÐ½
ĠÑģÐ¾
ÐµÑģÑĤ
Ð¾ÑĢÐ¸
ĠÑĨ
Ð½Ð¾Ð¼
ÑĢÐ°Ð·
ĠÐºÐ°Ðº
ÐºÑĤ
ÑĳÐ½
ÐµÑĢÐ²
ÐµÐ·
Ð°Ð»Ð¸
ĠÑģÐ»
Ð°Ñħ
ĠÐ´Ð»Ñı
Ð½Ñı
ÑģÑĤÐ²Ð¾
Ð½Ð¾ÑģÑĤÐ¸
ĠÐ¿Ð¾Ñģ
ÑĥÐ±
Ð½Ð¾ÑģÑĤÑĮ
ÑĭÐ¹
Ð°Ð¹
ĠÐºÐ¾Ð½
Ð°Ð½Ð¸Ðµ
ÑĥÑģ
ĠÐ¿ÑĢÐµ
Ð¸Ñĩ
ĠÐ¸Ð¼
ÑĢÑı
ĠÐ¾Ð´
ĠÐŃ
ÐºÐ¾
ÑĢÑĭ
Ð°Ð¼Ð¸
ÑĢÑĥÐ³
ĠÑĪ
ÑĤÐ¾ÑĢ
ĠÐ¾Ð¿
ÑĥÐ¼
ÑģÐµ
Ð¸Ð»Ð¸
19
Â»,
Ð°Ð½Ð´
Ð¾Ñı
ĠÐ£
ÑģÐºÐ¸Ðµ
Â».
ĠÐºÐ¾Ð¼
ĠÐ¸Ð½
00
Ð¾ÑģÑģÐ¸
ÑĥÐ½
ĠÐ²Ð¾
ÑĩÐ°
ĠÐ³Ð¾ÑĢÐ¾Ð´
Ð°ÑĤÐµÐ»ÑĮ
ĠÑģÐ¿
Ð»ÐµÐº
ĠÐķ
ĠÐµÐ³Ð¾
ĠÐĹ
ĠÐ¿ÐµÑĢÐµ
Ð»ÐµÐ´
Ðł
ĠÑģÐ¾ÑģÑĤ
Ð¸Ð½Ð°
ĠÐ´Ð¾
ÐĲ
ÑİÑī
Ð·Ð°
Ġ18
ÑĥÐ¿
Ð¸ÑĢ
ÐµÐµ
Ð¼ÐµÑĢ
ĠÑįÑĤ
ÑĨÐ¸Ñı
Ð»Ð°Ð²
ÑĥÐ»ÑĮ
Ð»Ñİ
ĠÑĩÐ°
ĠÑĤÐµ
Ð¸ÑĤÑĮ
ÐºÐµ
ÑĨÐ¸Ð¾Ð½
ĠÑĤÐ°ÐºÐ¶Ðµ
ĠÐ²Ð¾Ð·
ĠÑģÐ¾Ð²
Ð°ÑĢÐ°
Ð°Ð³
ĠÐ¥
Ð¾ÑĢÐ°
Ð¸Ð±
ÑģÑĮ
Ðļ
Ð¾Ð»ÑĮÑĪ
Ð°Ð»Ð°
ÐŁ
ĠÐ²ÑĢÐµÐ¼
Ð¾Ð½Ð°
Ð¸Ð»ÑĮ
Ġ3
Ð½Ð¸Ðº
ÑĬ
Ð¼ÐµÐ½
ĠÐ´Ðµ
Ð°Ð½Ð¾Ð²
ÑģÐºÐ¾Ð¼
ĠÑĢÑĥ
ĠÐ¸ÑģÐ¿
ĠÐĿÐ°
ĠÐ¿ÑĢÐ°Ð²
Ð±Ð¾ÑĤ
ĠI
Ð²Ð¸
Ð°ÑĢÐ¸
ÑĤÑĥ
Ð»Ð¾
Ð²Ð»Ñı
Ð´Ðµ
Ð¾Ð»Ð¾Ð³
ĠÐ¸Ð»Ð¸
Ð²ÐµÑĢ
ÑģÑĤÐ°Ð²
ÑĥÐ¶
ÑģÐ°
ÐµÐ½Ð¸Ð¸
Ð»Ð¾Ð²
ĠÐ¼Ðµ
Ð´Ð¸
Ð½ÑĭÐ¼Ð¸
ÑĳÑĤ
Ð½Ð°Ñĩ
ĠÐ½Ð°Ñĩ
ĠÐ§
ÑĨÐ°
Ð°Ð½Ð°
ÑİÑĤÑģÑı
ĠÐ¾Ðº
Ð½ÑĥÑİ
Ð³Ð¸
Ð²Ð¾Ð´
ÐµÐ»Ñı
ĠÐ´ÑĢÑĥÐ³
ÐºÑĥ
ĠÐ¿ÐµÑĢÐ²
Ð¾Ð»ÑĮÐ·
ÑĤÑĮ
Ð¾Ð³ÑĢÐ°
ĠÑģÐ²Ð¾
ÑģÑģ
Ġ200
ĠÐłÐ¾ÑģÑģÐ¸
ÑĢÐ¾Ð¼
ĠÐ¾ÑģÐ½Ð¾Ð²
Ðŀ
ÑĢÐ¾Ð´
ÐµÐ½Ð°
ÑĥÑīÐµ
ĠÐ°Ð²
ÐµÐ»Ð¸
ĠÐ°ÑĢ
ÑĭÐ¼
ÑĢÑĥÐ¿
ÐµÐ½Ð¸Ð¹
ÐµÐ½ÑĮ
ÐµÑĩ
ĠÑıÐ²Ð»Ñı
Ð±ÑĢÑı
ĠÐŁÑĢÐ¸
Ð³Ð°
ĠÑģÐ°Ð¼
Ð¸ÑģÑĮ
ĠÐ¨
ĠÐ²ÑģÐµ
Ġ201
ÑĤÐ¸Ð²
Ð¾ÑģÑĥÐ´
ĠÐ²Ð¾Ð¹
Ð¿ÑĢÐ¸
Ð°Ð½Ð¸Ð¸
ĠÐ¾ÑĢ
Ð¾ÑģÑĮ
ĠÑģÐ¾Ð±
ÑģÐºÐ¾Ðµ
Ð¾ÑģÑĥÐ´Ð°ÑĢ
er
ÑĤÐµ
ÑĪÐµ
ĠÐ¾Ð½
Ð¸ÑĢÐ¾Ð²
Ð³Ñĥ
Ð³ÑĢÐ°
ÐµÑĤÐ°
ĠÐ°Ð½
ĠÐ¸ÑģÑĤ
ĠÑģÐ¾ÑģÑĤÐ°Ð²
ĠÐ¾Ð±ÑĢÐ°Ð·
Ġ4
ĠÑįÐº
ĠÐ¿Ð¾ÑģÑĤ
Ð½ÐµÐ¹
ĠX
Ð¾Ð»ÑĮÐºÐ¾
Ð¾Ð»ÐµÐµ
Ð»ÐµÐ½Ð¸Ñı
ÑĥÑħ
ÑĦÐ¸
ÑıÐ·
ÐµÐºÐ°
ĠÐ¾Ð±Ð»Ð°
ÐµÑĢÐ¶
Ġ5
ÑĤÐ¾Ð²
ĠÐºÐ°
ÑıÐ½
Ð¸Ð¼Ð¸
ÑĢÐ¾Ð¿
Ð·Ð²
Ð¸Ð¿
Ð¾Ð·Ð´
Ġ199
ÐĴ
ÐµÑĨ
ÑĥÐ»
ĠÐ±ÑĭÐ»Ð¸
ĠÐ¿ÑĢÐ¾ÑĤ
Ð¾ÑģÑĤÐ¸
Ð¿ÑĢÐ°Ð²
ĠÐ¿ÑĢÐ¾Ð¸Ð·
ĠÐ¸ÑģÐ¿Ð¾Ð»ÑĮÐ·
ÐµÐ»Ð¾Ð²
Ðľ
ĠÐ²ÑĢÐµÐ¼Ñı
ÑĨÑĭ
Ð¼Ñĭ
ĠÑĢÐ°ÑģÐ¿
ĠÐ±ÑĭÐ»Ð¾
Ð¸Ð»Ð°
ÑĳÑĢ
ÐĿ
ÑĥÐ·
ĠÐĲÐ½
ĠÑıÐ·Ñĭ
ĠÐ´Ð²
ĠÑĤÐµÑĢ
ĠÐ±Ð¾Ð»ÑĮÑĪ
ÐºÐ°Ð·
ĠÐºÐ¾ÑĢ
Ġ%
ÑĳÐ¼
Ð´ÐµÐ»
ĠÐ·Ð°Ðº
ÑĥÐ»ÑĮÑĤ
ÐµÐ½Ð¸Ñİ
ĠÐ½Ð¾
ÐµÐ½Ñĭ
ÑĤÐ¾Ð¼
ĠÐ¼ÐµÑģÑĤ
ĠÐ¦
ÐµÐ¿
ÑĢÐ°Ð¶
ÐµÐ¹ÑģÑĤÐ²
ĠÐ¾Ð±ÑĬ
ÐµÐ½Ð¸ÐµÐ¼
ĠÐºÐ¾Ð¼Ð¿
ÐºÐ°Ð½
ÑĢÐ¾Ð½
Ð²ÐµÑĤ
ĠÑģÑĢÐµÐ´
Ð½Ð°Ðº
II
ĠÑĩÐ¸Ñģ
ĠÑĢÐ°Ð±Ð¾ÑĤ
ÑĤÐ¾ÑĢÐ¸
ĠÐ¼Ð½
ÑģÐºÐ¸Ð¼
Ð¼Ñĥ
ĠÐ·Ð°Ð¿
ĠÐ¿Ð°ÑĢ
ĠÐ½Ð°Ñģ
ĠÐ±ÑĭÐ»Ð°
Ð¸ÑģÑĤÐµÐ¼
Ð°Ð±
ĠÐºÐ¾Ð»
ĠÐ³Ð¾ÑģÑĥÐ´Ð°ÑĢ
ĠÐ¼Ð¾Ð¶
Ð¡Ðł
Ð²ÐµÐ´
ÑĥÐº
Ð½Ð¸ÐºÐ°
ÑĥÑīÐµÑģÑĤÐ²
Ð¼Ð°ÑĤ
ĠÐ²ÐµÑĢ
ÑĦÐ¾ÑĢ
ÑģÐ¾Ð²
Ð¾Ð»Ð¶
ĠÑĩÐµÐ»Ð¾Ð²
ÐµÐ±
Ð¸ÑĢÐ°
ÑĤÑĭ
ĠÐ¿Ð¾Ð»ÑĥÑĩ
ÑĥÐ±Ð»Ð¸
Ð°Ð»Ð¾
ĠÐŁÐ¾
ĠÐ¿Ð»
Ð°ÐµÑĤ
ÑĭÑĪ
Ð¿Ð¾Ð»
Ð¾Ð³Ð´Ð°
an
in
ĠÐ¸Ñħ
ĠÑģÐº
Ð»Ð°Ñģ
ĠÐ³ÑĢÐ°
ĠÑģÐ¸ÑģÑĤÐµÐ¼
ĠÑĤÐ¾
ĠÐ¼ÐµÐ¶Ð´
ÑĥÑİÑī
ĠÑĦÐ¾ÑĢ
Ð²Ð¾Ð»
ÑĨÐ¸Ð°Ð»ÑĮ
ĠÐ®
ÑĢÐ¾Ñģ
ĠÐ¯
ĠÑĥÑĩ
ÐĶ
ĠÐ·Ð°Ð²
Ð°Ð¿
ĠÑĩÐµ
Ð¾ÑĢÐµ
ĠÐ¾ÑģÑĤ
Ġ6
Ð¸ÑĨ
ĠÐ¿ÑĢÐ¾Ð²
ÑģÑĤÐ²Ðµ
ĠÐ½Ð¾Ð²
Ð´Ð¸Ð½
Ð·ÑĭÐ²Ð°
ÐºÑĢÐ°
on
ĠÐ¾ÑĢÐ³
20
18
Ð¾Ð¶Ð´
Ġ17
ÐµÐ½Ð½Ð¾
ĠÐ¶Ðµ
ÑģÑĤÑĥÐ¿
Ð³Ð¾Ð²
Ð°ÑĢÑı
ĠÐ¿Ð¾Ð²
Ð¢
ĠÐ¿ÑĢÐµÐ´ÑģÑĤÐ°Ð²
ĠÐ¾ÑĤÐ½Ð¾
Ð¾Ð½Ð¾Ð¼
Ð»ÐµÐ½Ð¸Ðµ
Ð»ÑİÑĩ
ĠÑıÐ²Ð»ÑıÐµÑĤÑģÑı
ÐµÑĢÐµÐ´
Ðĺ
ĠÐ¿ÑĢÐ¾Ð´
ÑĳÐ»
ĠÑĢÐ°Ð¹
ĠÐłÐ¾ÑģÑģÐ¸Ð¸
ÑıÑĤÐ¸
Ð½Ð¸ÐºÐ¾Ð²
Ð¼Ð¸Ð½
ĠÐ¸ÑģÑĤÐ¾ÑĢÐ¸
Ð¾ÑģÐº
Ð¾Ð²Ð°
Ðĵ
Ð»Ð¸Ñĩ
Ð»Ð°Ð´
Ð»ÐµÐ´Ð¾Ð²
ĠÐ¿Ð¾Ðº
Ð²Ðµ
ĠÐ²Ð¸Ð´
ÑĮÑİ
ÐµÐ»ÐµÐ¹
ĠÐ¡ÑĤ
ĠS
ÑĤÐ¸ÑĩÐµ
Ð°Ð»ÑģÑı
ĠÐ±Ð¾Ð»ÐµÐµ
ÑĢÑĥÐ¿Ð¿
Ð¸ÑĤÑģÑı
en
ĠÑĢÑĥÑģ
Ð°Ð»Ð¸ÑģÑĮ
ĠÐ¼ÐµÑĤ
Ð°ÑĪ
ÑĢÐµÐ·
ÑģÐºÐ°
ĠÑįÑĤÐ¾
Ð¾Ð±Ñĭ
ĠÐ¸Ñİ
ĠÐ¿Ð¾ÑģÐ»Ðµ
ĠÐ²ÑĭÑģ
Ð»ÐµÐºÑģ
ĠÑĤÐ¾Ð¼
ÑĢÐ¸ÑĤÐ¾ÑĢÐ¸
ÑĥÑĪ
ÑĪÐ¸Ð¹
Ð¸ÑĤÐ°
ĠÑģÑĤÑĢÐ°
Ð¿Ð¸
ĠÑģÐ¾Ð·Ð´
ĠÑģÐ¾Ð²ÐµÑĤ
ĠÐ¸Ð¼Ð¿
ĠÑĥÑģÑĤ
ÑĢÐµÐ²
ĠÑĢÐ°Ñģ
Ð¾ÑĦ
ĠÑģÐ²ÑıÐ·
Ġ7
Ð¡Ð¡Ðł
ÑĢÐ¸ÑĤ
ĠÐ¸Ð¼Ðµ
ĠÐ»ÐµÑĤ
Ġ198
ĠÐ»Ñİ
ĠÐ´Ð¸
ĠÑĩÐ°ÑģÑĤ
ÑĥÐµÑĤ
Ġ194
ÐµÑģÐ¿
ĠÐ²Ñģ
Ð¸ÐºÐ°
Ðĳ
ÑĨÐ¸Ð¹
Ð¸Ð½Ñĭ
Ð»Ð¸Ð½
Ð»ÐµÐ¼
ĠÑĢÐ°Ð·Ð²
ĠÐ¼Ð°ÑĤ
ÐµÐ´Ð¸Ð½
ÑĪÐ¸Ñħ
Ð½Ð¸Ðµ
Ð¸ÑĪ
Ð¾Ð³ÑĢÐ°ÑĦ
ÐºÑĢÑĭ
Ð¿Ð¸Ñģ
ĠÑĢÐµÐ·
ĠÐ²ÐµÐºÐ°
ÐµÐ¶
ÑģÑĭ
ĠÐ½Ð°Ð·Ð²
ĠÐ¿ÑĢÐ¾ÑĤÐ¸Ð²
ÑĢÐµÐ±
Ð°Ð½Ñĭ
ĠÐ·Ð½Ð°Ñĩ
ÑĭÑģ
ĠC
ÑģÑĤÐ°
ĠÐ³Ð¾ÑĢÐ¾Ð´Ð°
Ð¼ÐµÑĢÐ¸
ÑıÑī
Ð¸ÑĤÐµÑĢÐ°
Ð½Ð¸Ð¼
ĠÐ¼Ð°ÑĢ
Ġ8
ÐµÑĢÐ³
Ð»ÐµÐºÑĤ
Ð¤
ÑıÑĤÑĮ
ĠÐ²Ð¾Ñģ
ÐºÐ¾Ð¼
Ð¿ÑĢÐµ
Ð¾ÑĪ
Ìģ
Ġ197
Ġ9
ĠÑĤÐ¾Ð»ÑĮÐºÐ¾
Ġ196
ĠÐµÑĳ
ÐµÐ³
Ð¨
Ð¾ÑĢÑĤ
ÐµÑĢÐ¼
Ð±Ñĭ
ĠÐ´ÐµÐ¹ÑģÑĤÐ²
ĠÑĨÐµÐ½ÑĤ
ĠÑģÑĩ
ĠÑİ
Ð¸ÐºÐ¸
ÐµÐ²ÐµÑĢ
ĠÐ¡Ð¡Ð¡Ðł
ÑĨÐ¸Ñİ
ĠÐ¾Ð±ÑīÐµ
ÑıÐ²
ĠÐ¿Ð¾Ð¼
ĠÑĤÐµÑĢÑĢÐ¸ÑĤÐ¾ÑĢÐ¸
ĠÐ¿Ð¾ÑĤ
ĠÐ¢Ð°Ðº
ĠÐ¿Ð¾Ð·
or
Ð°Ð»Ð¸Ð·
ÑıÑĤÐµÐ»ÑĮ
ĠÐĲÑĢ
ĠÐ³ÑĢÑĥÐ¿Ð¿
ĠÑĤÐµÐ¼
Ð°ÑĤÐ°
ĠÐ¼ÐµÐ¶Ð´Ñĥ
ÑĢÐ°ÑĤ
Ð¾Ñħ
ĠÑĩÐµÐ¼
ÐºÐ¾Ð¹
Ġ15
ÑĥÑī
ĠA
ÑıÐ±ÑĢÑı
Ð¾Ð½Ñĭ
es
Ð½Ñĥ
Ð½Ð°ÐºÐ¾
ĠÑĥÑĩÐ°
ĠÐĸ
ÑĨÐµÐ²
Ð½Ð¸ÐºÐ¸
Ð²ÐµÑģÑĤ
Ð°ÑĤÑĭ
ÐµÐ½Ð¾
ĠÐ´ÐµÐ»
ĠÐ¾ÑĢÐ³Ð°Ð½Ð¸
Ġ10
ĠÐ¸ÑģÐº
ÐµÑĢÐ±
ĠÐ²Ð¾Ð´
ĠÑĤÐµÐ»
ĠÐķÐ²
ar
Ð°ÑĤÐµ
ĠÐ¾Ð±Ð»Ð°ÑģÑĤÐ¸
ĠÐºÐ¾ÑĤÐ¾ÑĢÑĭÐµ
ĠÑįÑĤÐ¾Ð¼
Ġ193
ĠÐ´Ð°Ð½
ÑĢÐµÐ¼ÐµÐ½
Ġ/
Ð¼ÐµÐ½ÑĤ
ÑıÐ´
ĠÐļÐ¾Ð½
ÐµÑħ
ĠÐ¸ÑģÐ¿Ð¾Ð»ÑĮÐ·Ð¾Ð²
ÑĢÐ°Ñģ
ÑĤÑĥÑĢ
ÑģÐºÑĥÑİ
Ð¾Ð¶Ðµ
Ð¸Ð½Ð¾
Ð¸Ð»ÑģÑı
ĠM
ĠÐ¼Ð¾Ð³
Ð¼Ð¾Ð¶
Ð¾Ð½Ðµ
Ð¾ÑģÑĤÑĮ
ĠÐ¡Ð¾Ð²
Ð°Ð»Ð¾ÑģÑĮ
ĠÐĶÐ¶
Ð¾ÑģÑģÐ¸Ð¹
ÑĨÐ¸Ð¾Ð½Ð°Ð»ÑĮ
ĠÐ½Ð°ÑģÐµÐ»
ĠÐºÐ¾ÑĤÐ¾ÑĢÑĭÐ¹
ÑĮÑı
ĠÐ¾Ð¿ÑĢÐµÐ´
Ð¾Ñī
ĠÐ¿Ð¾Ð¿
ÐµÐºÐ¾ÑĤÐ¾ÑĢ
ĠÑįÑĤÐ¸
ÑĥÑĢÐ³
ĠÐ½Ð°ÑħÐ¾Ð´
ÑĤÑĥÑĢÐ°
Ð°Ð½ÑĤ
Ð¸Ð²Ð°
ÑĪÐ¸Ðµ
ÑĥÑİÑĤ
ĠP
Ð»ÐµÑĤ
ĠÐĲÐ»ÐµÐºÑģ
ĠÐŁÐ¾Ñģ
Ð°ÑĢÑĤ
ĠÑģÐ¾ÑģÑĤÐ¾Ñı
ĠÐ½ÐµÐ¼
Ð¾Ð½Ð¾Ð²
ĠÐ¿Ð¾Ð»Ð¸ÑĤ
ĠÐ±ÐµÐ·
ĠÑģÐ»ÐµÐ´
ĠÐ¼Ð¾Ð¶ÐµÑĤ
Ð½Ð¾Ð¼Ñĥ
ĠÐŀÐ±
ĠÐľÐ¾ÑģÐº
ĠÐ¾ÑĤÐºÑĢÑĭ
Ġ16
al
Ð½ÑĥÑĤ
ĠÐ¾Ð±ÑĢÐ°Ð·Ð¾Ð²
Ð¾ÑĢÐ¾Ð²
ÑĢÐ°Ñī
ÑĤÐ¾ÑĢÐ°
Ð¾ÑģÑĤÑĢÐ°Ð½
Ð¸Ð½Ðµ
ĠÐºÐ¾Ð½ÑĨ
ĠÐ³Ð»Ð°Ð²
ĠÐ¿Ð¸Ñģ
ĠÐ¿ÐµÑĢÐµÐ´
ĠÐ²Ð»Ð°
Ð¸ÑĤÑĥ
ĠÐŀÐ´
Ð°ÑĤÑĮÑģÑı
Ð¾Ð»Ð¾
Ð´Ð¾Ð²
Ð°Ð½Ð¾
Ð°ÑĢÐ¾Ð´
Ð´Ñĭ
ÐºÐ¸Ð¹
ĠÐĺÐ½
Ð£
Ð»Ð¾Ð¶
ĠÑĥÐ½Ð¸
ÑģÑĤÐµ
ĠÐ¿Ð¾ÑĢ
ĠÑģÑĥÑīÐµÑģÑĤÐ²
Ð½ÐµÐµ
ĠÐ³Ð´Ðµ
ĠÐ¿ÐµÑĢÐ¸
ÑĢÐ°Ðº
Ð¸Ð³
Ð¾Ð»Ð½
ÐµÑĤÑĭ
Ð¼ÐµÑĢÐ¸ÐºÐ°Ð½
Ð¼ÐµÑĩ
at
ĠÐ½Ð°ÑĢÐ¾Ð´
Ð»Ð°Ð³
Ġ195
ÑĢÐ°Ð»ÑĮ
ĠÑĩÐµÐ»Ð¾Ð²ÐµÐº
Ð½Ð¾ÑģÑĤÑĮÑİ
Ð°Ð»Ðµ
ÐĹ
Ð²Ð¾ÑĢ
ÑĤÐ¸Ñı
ĠÐ¼Ñĥ
Ð»Ð¸Ñı
ĠT
ĠÐ²ÐµÐº
ÑģÑĤÐ²Ð¾Ð¼
ĠÐŀÑģ
ĠÑįÐ»ÐµÐºÑĤ
ÑĤÐµÑĢ
ĠÑĩÐ°ÑģÑĤÐ¸
ĠÑĢÐ¾Ð´
Ġâ
Ð¸ÑĢÑĥ
Ð´ÐµÑĢÐ¶
Ð¸ÑĩÐµÑģÐºÐ¸Ñħ
ĠÑĥÐ¿
Ð¿ÑĢÐ¸Ð¼ÐµÑĢ
ÐµÐ»Ð¸Ðº
ĠÐ¿ÑĢÐ¾Ð¸Ð·Ð²Ð¾Ð´
ĠÐ±ÑĥÐ´
ĠÐĺÐ·
);
.,
ĠÑĤÐ¾Ð³Ð¾
Ð¨ÐĲ
ĠÐ²Ðº
Ġ,
ĠÐ¶Ð¸Ð·
Ð½Ð¾ÑģÑĤ
ĠÐ·ÐµÐ¼
Ð¸Ð´ÐµÐ½ÑĤ
ÑĢÐ°Ð±Ð¾ÑĤ
Ð°ÑģÑĮ
ĠÑĥÑģ
ĠÐ·Ð°Ð¼
Ð°Ð½Ð¸Ð¹
Ð¾Ð»Ð¾Ð¶
ĠÐ¼Ð½Ð¾Ð³
ĠÑĢÐµÑĪ
ÐµÑģÑģ
ĠÑĤÐµÑħ
ĠÐ°Ðº
17
ĠÐ¡Ð¼
ĠÐĲÐ»ÐµÐºÑģÐ°Ð½Ð´
Ð¾ÑĢÐ¾Ð½
Ð»Ð¸Ð¹
ĠÐ½Ð°Ð´
is
ĠÐ¸Ð·Ð²ÐµÑģÑĤ
ÑĢÐµÐ½
ĠÐ¿Ð¾Ñį
ĠÐ¿ÐµÑĢÐ¸Ð¾Ð´
Ð²Ð¸Ð¶
ÑĢÐ¾Ðº
ĠÐ½ÐµÑģÐº
ĠÐ°Ð¼ÐµÑĢÐ¸ÐºÐ°Ð½
Ġ192
Ð¾Ð½Ñĩ
Ð¾Ð³ÑĢÐ°Ð¼
Ð½Ð¸Ð¹
ÐµÑĢÑĪ
ĠÐ´Ð¾Ð»Ð¶
ĠÑĢÐ¾ÑģÑģÐ¸Ð¹
ĠÑģÐ»ÑĥÑĩ
ÑĢÑĥÐ¶
Ð°Ð½Ð¸ÐµÐ¼
Ð¾ÑĤÐ¾Ð²
ÐµÐºÑĤ
Ð¾ÑģÐ¾Ð±
Ð¼ÐµÑĤ
ĠÑĩÐ°ÑģÑĤÑĮ
Ġ12
ĠÑĢÐ°Ð·Ð²Ð¸ÑĤ
ÑĢÐ¾Ð¹
ÑģÑģÐ»ÐµÐ´Ð¾Ð²
ÑĩÐ¸
ĠÐ¼Ð¸Ð½
ÑĢÐµÑĤ
ĠÐ¼Ð°Ñģ
ÐĽ
ÑģÐ»Ð¸
ĠÐ¡Ð¨ÐĲ
ic
ĠÐ½ÐµÐºÐ¾ÑĤÐ¾ÑĢ
ĠÐ°ÐºÑĤ
ĠÐĿÐ¾Ð²
ĠÐ³Ð¾ÑģÑĥÐ´Ð°ÑĢÑģÑĤÐ²ÐµÐ½
Ð¸ÑĤÐµÐ»ÑĮÐ½Ð¾
ĠÑįÑĤÐ¾Ð³Ð¾
Ð±Ð¾ÑĢ
Ð´Ñĥ
ĠB
Ð¾Ð¼Ñĥ
Ð°Ð»Ð°ÑģÑĮ
Ð¸ÑĩÐµÑģÐºÐ¸Ðµ
ĠÑĤÑĢÐ°
ÑģÑĤÐ²Ð¾Ð²
ÑģÐ¸ÑĤ
ĠÐºÐ¾ÑĤÐ¾ÑĢÑĭÑħ
ÑģÑĤÐ¸ÑĩÐµ
Ð¸ÑĩÐµÑģÐºÐ¾Ð¹
ÐºÐ¾Ð»
Ð¾Ð±ÑĢÐ°Ð·
Ð»Ð¾ÑĤ
Ð°Ð¶
Ð°ÑĢÑĮ
ÑĥÐ½Ðº
ÐµÑĢÑħ
ĠÐ·Ð²
ÑĢÐ¸Ð¹
ĠÐ¿Ð¾ÑģÐ»ÐµÐ´
he
ĠÐ¾Ð±Ñī
ĠÐ´Ð¾Ð¼
ĠÐ¿ÑĢÐ¾ÑĨ
ĠÑģÐ¾Ð¾ÑĤ
ĠÐ²Ð¿
Ð°ÑģÑĤ
ÑīÑĳ
ĠÐµÐ´Ð¸Ð½
ĠÑĢÐµÐ·ÑĥÐ»ÑĮÑĤ
ĠÑģÑĤÐ°Ð»
ĠÐµÑģÑĤÑĮ
ĠÐºÐ¾Ð½ÑĤ
ĠÐ¾Ð½Ð¸
ĠÐ²ÑĤÐ¾ÑĢ
Ð²Ñĭ
ÑĢÐµÐ¹
ĠÐ²Ð·
Ð°ÑĢÐ°ÐºÑĤ
ÐºÐ°Ñħ
ĠÐ²Ð¾ÐµÐ½
ĠÐŁÐµÑĢÐ²
Ð»ÑıÐµÑĤ
ĠÐ´ÑĢÑĥÐ³Ð¸Ñħ
ĠÑĥÐ´
ĠÐ¼Ð¸
ĠÐ¡Ð¾
ĠÐ¤ÑĢÐ°Ð½
ÑİÑīÐ¸Ñħ
ÑĦÑĦ
ÑīÐµÐµ
Ð·ÑĭÐ²
ÐµÐ´ÐµÑĢÐ°
ÑĥÐ³
ĠÐ¿ÑĢÐ¸Ð½
ÐµÑī
Ð¼Ð°Ð½
ĠÐ·Ð´
ÑıÐ¼
ÑĨÐµÐ½
ĠD
ÑĢÐµÐ¿
ÑģÐºÐ¸Ð¼Ð¸
ĠÐ´ÐµÑıÑĤÐµÐ»ÑĮ
Ð´Ð¶
Ð¸Ð»Ð¾
ĠÐ½Ð°Ð·ÑĭÐ²Ð°
Ð¸ÑģÑĤÑĢÐ°
ĠÐ¶ÐµÐ»
ĠÐ²Ð¾Ð¹Ð½Ñĭ
Ð¸Ð»Ð¸ÑģÑĮ
Ġ14
Ð¸Ñİ
10
ÑĭÑĤ
Ð¿Ñĥ
ĠÑıÐ½
ĠÐºÑĢÑĥÐ¿
Ð»Ð¸Ð·
ĠÐ²Ð¾Ð·Ð¼Ð¾Ð¶
ĠÑįÐºÑģÐ¿
ĠÐ¿Ð¾Ñĩ
ÑĢÐ°Ð½Ð¸
ĠÐ¾Ð´Ð¸Ð½
ÑģÑĤÑĢÐµ
ĠÑģÑĤÑĢÐ¾
ĠÐ´Ð¾Ð»
ĠÐĲÐ²
ĠÑĢÐ°Ð·Ð»Ð¸Ñĩ
ĠÐĿÐ¸Ðº
Ð»ÑģÑı
ÑĢÑĥÐ´
ĠÐ´Ð¾Ðº
ĠÑģÑĭ
ĠV
ĠÐ¾Ð¿ÑĢÐµÐ´ÐµÐ»
ĠÑģÐ»Ð¾Ð²
ĠÑĥÐ³
Ð¸ÑĩÐµÑģÐºÐ¸Ð¹
ĠÑĤÐµÑĢÑĢÐ¸ÑĤÐ¾ÑĢÐ¸Ð¸
Ħĸ
ĠÑģÐµÐ¼
Ð´ÐµÐ½
ĠÑģÐµÐ±
ĠÐ´ÐµÐºÐ°
ĠÑĩÐµÑĢÐµÐ·
ĠÐ±ÑĭÑĤÑĮ
ÑħÐ¾Ð´Ð¸ÑĤ
ĠÐ¿ÐµÑĢ
ĠÐºÐ¼
ÑĪÐµÐ¹
ĠÐ¿ÑĢÐµÐ·
Ð¾Ð³Ð»Ð°Ñģ
ĠÐ¸ÑģÑģÐ»ÐµÐ´Ð¾Ð²
ĠÐ°ÑĢÑħ
ĠÐ°Ð´
ĠÐ´Ð¾ÑģÑĤ
ÑĤÐ¸Ð¹
ÑģÑĤÑĢÑĥ
ĠÐŀÑĤ
ĠÐ¶Ð¸Ð²
ÑģÑĤÐ²ÐµÐ½Ð½Ð¾
ĠÐ¾ÑģÐ¾Ð±
Ð¸ÑģÑģ
Ð²ÐµÑĢÑģÐ¸ÑĤ
Ð»Ð¸ÑģÑĮ
ĠÐ´Ð°
ĠÐºÑĢÐ¸
ĠÐ¿ÑĢÐ¸Ð·
Ġ13
ĠÐ¿ÑĢÐ¾Ð¸Ñģ
ĠÐ¿ÑĢÐ¾Ð³ÑĢÐ°Ð¼
ÑĥÐ»Ñı
Ð±Ð°
ĠÐ¼Ð¾Ð»
ĠL
ĠÑģÐ¾Ð²ÑĢÐµÐ¼ÐµÐ½
ÑĭÐ¼Ð¸
ĠÐ¿Ð°Ð¼
ĠR
ĠÑĥÑĤ
ĠÐ´ÐµÑĤ
ÐµÐ½ÐµÑĢÐ°
Ð½Ð¸ÑĩÐµ
it
ĠÑħÐ°ÑĢÐ°ÐºÑĤ
Ð¸Ð»Ð¾Ñģ
ĠÐ¿Ð¾Ð±
Ð²Ð°Ð½
ĠÐ¾ÑĤÐ½Ð¾ÑĪ
Ð¾Ð³Ð¾Ð²
ÑģÐ¸Ð¸
ĠÐ¾ÐºÑĤ
ĠÑģÐ¾Ð¾ÑĤÐ²ÐµÑĤ
ĠâĦĸ
Ð½Ð¸Ñĩ
ÑģÑĤÑĢÐ¾
ĠÐŁÐ¾ÑģÐ»Ðµ
ĠÐºÐ°ÑĩÐµ
Ð¸ÑģÐ¸Ð¼
ÑĨÑĥÐ·
Ð°Ð½Ð¸Ñİ
ĠÐ¾ÐºÐ¾Ð»Ð¾
ÑĩÐ¸Ð½
ĠÑĦÑĢÐ°Ð½
Ð¼Ð¸ÑĢÐ¾Ð²
Ð¾Ð´ÐµÑĢÐ¶
Ð¾Ð»Ð¾Ð²
ÑģÑĤÐ¾Ñı
ĠÑģÐ¸Ð»
Ð¸ÑĤÑĭ
ÑĥÐ»ÑĮÑĤÑĥÑĢ
ĠÑģÐµÐ½ÑĤ
ĠÑĢÐ¸
ĠÑĤÑĢÐ¸
ĠÐ¼ÐµÐ´
ÐŃ
ÐµÐ²Ð°
ĠÑĤÐ¾Ñĩ
ÑĢÑĳ
12
Ð´ÐµÐ¼
Ð¼Ð¾ÑĤ
ÐµÑĢÐ¸Ð¸
ÐµÑĢÑĤ
ÑİÑīÐ¸Ðµ
ÑĢÐ¸Ñı
Ð½Ð¸Ñħ
Ð·Ð¾Ð²
Ð¾ÑĢÐ¸Ñı
ĠÑĤÐ¸Ð¿
Ġ.
ĠÐ°Ð½Ð³
ĠÐ½Ð¸Ñħ
ĠÐºÐ½Ð¸
ĠÐŁÐµÑĤ
ĠÐ²ÑģÐµÑħ
ĠÐľÐ°ÑĢ
15
ĠÐºÐ¾Ð³Ð´Ð°
ÑĥÐ½Ð°ÑĢÐ¾Ð´
ĠÐ¿ÑĢÐµÐ·Ð¸Ð´ÐµÐ½ÑĤ
Ð»Ð¾Ð¼
ÑĪÐµÐ³Ð¾
Ð¸Ð½Ð³
ĠÐ¿Ð¾Ð½
16
ĠÐ°ÑĢÐ¼Ð¸
Ð¸ÑĤÐµÐ»ÐµÐ¹
Ð¾ÑģÑĤÐ¾Ñĩ
ĠÐ»Ð¸ÑĤÐµÑĢÐ°
ĠÑģÑĥÐ´
ĠÐŁÑĢÐ¸Ð¼ÐµÑĩ
ĠÐ¼Ð¾Ð¶Ð½Ð¾
Ð½Ð¸ÑĨ
Ð»Ð¾Ñī
Ð°ÐµÑĤÑģÑı
ĠÐ°Ð²Ð³Ñĥ
Ð¿ÐµÑĢÐ°
el
ĠÑĦÑĥÐ½Ðº
Ð¾Ð±Ð¾Ð´
ĠÐºÐ¾ÑĤÐ¾ÑĢÐ¾Ð¹
ÐµÐ»Ð¸Ñĩ
Ð¾Ð»Ñı
ÑģÐºÐ¾Ð¼Ñĥ
ĠÐ°Ð»
ĠÐ°Ð¿ÑĢÐµ
ĠÐ·Ð°ÑĤ
ĠÑĨÐµÑĢ
ÑģÐ»
Ð°ÑĢÐ´
ĠÑĩÑĤ
Ġ(Â«
ĠÐ¡Ð²
ÐµÐ¼Ñĥ
ĠÑĤÑĢÐ°Ð½
ĠÐºÑĢÐ°
Ð»ÑĥÐ±
ĠÑģÐ¿Ð¾ÑģÐ¾Ð±
ĠÑģÐ¿Ðµ
Ð°ÑĨÐ¸Ð¸
ĠÐ¿ÑĢÐ¸Ð¼ÐµÐ½
ĠF
Ð»Ð°ÑģÑĮ
ÐºÐ¸Ñħ
ÑĨÐ¸Ð¿
Ð¸Ð»Ð¾ÑģÐ¾ÑĦ
ÑįÐ½
ÑĢÐ¾ÑĤ
ĠÐ½Ð°Ð¿ÑĢÐ°Ð²
Ð½ÐµÐ³Ð¾
ĠÑĪÐºÐ¾Ð»
ĠÐ½ÐµÐ´
Ð·Ð½Ð°Ñĩ
ĠÐ²ÑĭÑģÐ¾Ðº
ĠÐ½Ð°ÑģÐµÐ»ÐµÐ½Ð¸Ñı
ĠÐ¿ÑĢÐ¾Ð¼
Ð½ÐµÐ²
ĠÐŁÑĢÐ¸Ð¼ÐµÑĩÐ°Ð½Ð¸Ñı
ĠÐµÑīÑĳ
ĠÐ»ÑİÐ±
ÐµÑĢÑĭ
ÐµÑĢÐ¾Ð²
ĠÐ¸Ð³
Ð°Ð»ÑĮÐ½ÑĭÑħ
ĠÐºÐ½Ñı
ÐºÐ¾Ð²Ð¾Ð´
ĠÐ¿ÑĢÐ°Ð²Ð¸ÑĤÐµÐ»ÑĮ
Ð¸ÑĢÐ¸
ĠG
ĠÐ¾ÑĤÐ´
Ð°Ð´Ð°
Ð¸ÑĩÐµÑģÐºÐ¾Ð³Ð¾
ĠÐºÐ¾ÑĤ
ĠÐºÐ¸Ð½Ð¾
ĠÑįÐºÐ¾Ð½Ð¾Ð¼
ĠÐ¸Ð·Ð´
ĠÑĢÐ°Ð²
ĠÑĦÐ¸Ð·
ĠÐ¼Ð¾Ð½
ĠÐĴÐ¾
ĠÑģÑĤÑĢÐ°Ð½
ĠÑĥÐ½Ð¸Ð²ÐµÑĢÑģÐ¸ÑĤ
ĠÐ²ÑĢÐµÐ¼ÐµÐ½Ð¸
ĠÑįÐ½
ĠÐłÐ¾ÑģÑģÐ¸Ð¹
ĠÐ´Ð²Ð°
ĠÐĺÑģÑĤ
ÑĭÑĩ
ÑĨÐ¸ÐµÐ¹
ĠII
ĠÑĥÐ¶Ðµ
Ð»ÐµÐ¼ÐµÐ½ÑĤ
ĠÐ¸Ð½ÑĤ
ĠÐ¿ÑĢÐ¸Ñģ
ĠÐĴÐµÐ»Ð¸Ðº
ĠÐ¼Ð¾ÑĢ
Ð¾Ð»Ð¸
ĠÐ³Ð°Ð·
ĠÐ¼Ð»
Ð¶Ð´Ð°Ð½
ĠÐ½Ð¾Ñı
ÑıÐ¶
ĠÐ¿ÑĢÐ¸Ð½Ñı
ĠÑģÐ¾Ð´ÐµÑĢÐ¶
ĠÐ½Ð¸
ÐºÐ»
ĠÑıÐ½Ð²
ÑĢÐ¾Ð²Ð°Ð½
ĠÐ»Ð¸ÑĪ
ÑĢÑĮ
ÑİÐ·
ĠÐºÐ¾Ð¼Ð°Ð½Ð´
ÑĢÐ¾ÑģÑĤÑĢÐ°Ð½
ÑıÑħ
ĠÐ¼ÐµÐ½
Ð¿Ð¾Ð´
ÑģÐºÐ¾
ĠÑĤÑĭ
ĠÐ¼Ð¸ÑĢÐ°
ĠH
ÐµÐ²Ð¸Ñĩ
ÑĤÐ¸Ð¸
ĠÐ´Ð²Ð¸Ð¶
ÑĮÐµ
ĠÑĩÐ»ÐµÐ½
ĠÐ¼Ð¾Ð´
ĠÐ£ÐºÑĢÐ°
Ð¾Ð»Ð¾Ð³Ð¸Ð¸
ĠÐºÐ¾Ð»Ð¸ÑĩÐµ
ĠÐ½ÐµÑģÐºÐ¾Ð»ÑĮÐºÐ¾
ol
ÑģÑĤÐ²ÐµÐ½Ð½Ð¾Ð¹
ÑĳÐ½Ð½ÑĭÑħ
ĠÑĥÑģÑĤÐ°Ð½Ð¾Ð²
ĠÐ¿Ð¾Ð¼Ð¾Ñī
ĠÐ³Ð¾Ð´Ñĭ
200
ĠÐ¾ÑĢÐ³Ð°Ð½Ð¸Ð·Ð°
ĠÐ¾ÑģÑĤÑĢÐ¾Ð²
ĠN
ĠÐºÑĥÐ»ÑĮÑĤÑĥÑĢ
ĠÐ¿Ð¾Ð´Ð´ÐµÑĢÐ¶
ÑĭÑĪÐ»ÐµÐ½
ĠÐķÐ²ÑĢÐ¾Ð¿
Ð¿Ð¾Ð½
ÑĥÑģÑĤ
ĠÐĵÐµÑĢÐ¼
ĠÐ¼Ð°Ñı
ĠÑħÑĥÐ´
ĠÐµÐ²
Ð¸Ð½Ñĥ
Ð°Ð»ÑĮÐ½Ð¾Ð¹
ĠÐ¡Ð¾Ð²ÐµÑĤ
Ð¾Ð±Ñī
ĠÐŀÐ´Ð½Ð°ÐºÐ¾
ĠÐ´ÑĢÐµÐ²
ĠÐ½ÐµÐ¼ÐµÑĨ
Ð»ÐµÐ¹
ĠÐ¶Ð¸Ð·Ð½Ð¸
Ð¾ÑĢÑĭ
ĠÐ¡ÑĢÐµÐ´
ÑĥÐµÑĤÑģÑı
ĠÐ´Ð²ÑĥÑħ
ĠÑĦÐ°Ðº
ĠÑĦÑĢÐ°Ð½ÑĨÑĥÐ·
ĠÐ¸Ð¼Ð¿ÐµÑĢÐ°
ÐµÑģÑĮ
ÑģÑĥ
Ð¾Ð»ÐµÐ²
ĠÑĥÐ²
ĠÑĢÐ°ÑģÐ¿Ð¾Ð»Ð¾Ð¶
ĠÐ¼Ð°ÑĤÐµÑĢÐ¸
ĠXI
ĠÐļÐ°ÑĢ
Ð¾Ð³Ð»Ð°ÑģÐ½Ð¾
ĠÑĤÐ¾ÑĢ
ÐºÐ°Ð¼Ð¸
Ð°Ð»ÑĮÐ½ÑĭÐµ
ĠÑıÐ½Ð²Ð°ÑĢÑı
ĠÐ¸ÑģÐºÑĥÑģ
Ð¼Ð¾Ð½
ĠÑĦÐµÐ²
Ð¾ÑĢÐ°Ñı
ÑĢÐ°Ð±
ÑĢÑĳÑħ
ÑĩÐµÑģÐºÐ¸Ñħ
ĠÐ¼ÑĥÐ·Ñĭ
14
Ð°Ð»ÑĮÐ½ÑĭÐ¹
ĠE
Ġ190
Ð¾Ð»Ð°
ÑĦÐ¸ÑĨÐ¸Ð°Ð»ÑĮ
ÐµÐ½Ð½ÑĭÑħ
ÑĦÐ¾ÑĢÐ¼Ð°
Ð²Ð°ÑĤ
ĠÐ·Ð°Ð½Ð¸
Ð²Ð¾
ÑĪÐ°Ñı
ĠÐºÐ¾Ñģ
ĠÑĤÐµÐ°ÑĤ
ÑĢÐ¸ÑģÑĤ
ĠÐ³Ð¾Ð´Ð°Ñħ
ĠÐ´ÐµÐºÐ°Ð±ÑĢÑı
ĠÑĩÑĤÐ¾Ð±Ñĭ
et
Ð°ÑİÑĤ
ĠÐ¸ÑİÐ»Ñı
Ð°Ð»ÑĮÐ½Ð¾
ĠÐ¿Ð¾Ð³
ĠÑĩÐ¸ÑģÐ»Ðµ
ÑģÐ¾Ð½
Ð¾Ð²Ð¾Ð¹
Ð¸ÑĤÐµÐ»Ñı
ĠÐ½Ð°Ð±
Ð¼Ð¸Ð½Ð¸ÑģÑĤÑĢÐ°
ĠÐ²Ð¼Ðµ
ĠÐ»Ð¸Ð½
ÑİÑīÐ¸Ð¹
ÐµÐ½Ð½ÑĭÐ¹
ĠÑģÑĤÑĢÐ°Ð½Ñĭ
ĠÑįÐ»ÐµÐ¼ÐµÐ½ÑĤ
Ġ0
ĠÐºÐ¾ÑĤÐ¾ÑĢÐ°Ñı
ĠÐ¿ÑĢÐ¾Ð´Ð¾Ð»Ð¶
ĠÐ¸Ð·Ð±
ĠÐ¼Ð°ÑĢÑĤÐ°
ĠÑĥÐ±
ĠÑģÐ¾Ñħ
Ð½ÑĮ
ĠÑģÐ²Ð¾Ð¹
ĠÑģÐµÐ½ÑĤÑıÐ±ÑĢÑı
ĠÑģÐ»ÑĥÐ¶
Ð°ÑĢÑħ
ĠÑģÐ¸Ð¼
Ð¾ÐºÐ°
ÑĩÐµÑģÐºÐ¾Ð¹
ÑĢÐ¸Ð¸
ĠÑĦÐµÐ²ÑĢÐ°
ÑīÐµÐ³Ð¾
ĠÐ¼Ð¾Ð³ÑĥÑĤ
ĠÐļÐ¾Ð¼
Ð¾ÐµÐ²
ÐºÐ°Ð´ÐµÐ¼
ÑĦÐ°
Ð°ÑĤÐµÐ»Ñı
ĠÐ¿ÑĥÑĤ
Ð¾Ð»Ð¾ÑĤ
ÑģÑĤÑĢÐ°
ĠÐ¾Ñĩ
ĠÐ¾Ð¿ÐµÑĢÐ°
ĠÐ¾ÐºÑĤÑıÐ±ÑĢÑı
ĠÑĢÐ°ÑģÑģ
Ð¾Ð¶Ð´ÐµÐ½Ð¸Ñı
us
Ð¸Ð±Ð¾Ð»ÐµÐµ
ĠÑĥÐ¿ÑĢÐ°Ð²
ĠXV
ĠÐ½Ð°ÑĥÑĩ
ÐµÑģÑĤÐ¸
ÐµÑĪ
ÑĢÐ¾Ð¼Ðµ
13
ĠÑĨÐ¸
ĠÐĴÐ»Ð°
ĠÐŀÐ½
Ð¾Ð¿ÑĢÐ¾Ñģ
ĠÑģÐ¾Ð²ÐµÑĤÑģÐºÐ¸Ð¹
ÑĢÑĥÑĪ
ĠXX
ĠÐ½Ð°Ð¿
ÐµÐ»ÐµÐ¼
ĠÐºÐ¾ÑĤÐ¾ÑĢÐ¾Ð³Ð¾
ĠÐ¸ÑİÐ½Ñı
Ġ25
Ð»Ñĥ
ĠÐ´ÑĢÑĥÐ³Ð¸Ðµ
ÑģÑıÑĩ
Ð¾Ð±ÑĢÐ°Ð¶
ch
ÑĢÑĥÐ·
Ð»Ð¾ÑīÐ°Ð´
ÐµÐ½Ð½ÑĭÐµ
ro
ĠÑĢÐ°ÑģÐ¿ÑĢÐ¾ÑģÑĤÑĢÐ°Ð½
Ð²Ð¸Ð½
Ġ|
Ð»Ð°Ð½
ĠÐŁÐ¾Ð»
Ð²Ð¾Ð»Ñİ
ÐºÐ¾Ð½
ĠÑģÐ»ÑĥÑĩÐ°
Ð¾ÑĢÐ¾Ð½Ñĭ
ĠÐ¶ÐµÐ½
ÑĩÐ¸Ñģ
ĠÐ¿Ð¾Ð»Ð¾Ð¶
ĠÐ´ÐµÐ½ÑĮ
ĠÐĶÐ»Ñı
ĠÐ²ÑģÐµÐ³Ð¾
ĠÑģÐ¸ÑģÑĤÐµÐ¼Ñĭ
ĠÐ°Ð¿ÑĢÐµÐ»Ñı
Ð½Ð°Ð»
ĠÑģÐ¼ÐµÑĢ
ĠÐŃÑĤÐ¾
ĠÑıÐ²Ð»ÑıÑİÑĤÑģÑı
Ð°Ð»ÑĮÐ½Ð¾Ð³Ð¾
.:
ĠÐ²Ð½ÑĥÑĤ
ĠÑĥÑĢÐ¾Ð²
ĠÐ¾Ð±ÑĢÐ°Ð·Ð¾Ð¼
Ð¸Ð½ÑģÐºÐ¸Ð¹
ĠÐ¸Ð¼ÐµÐµÑĤ
Ð±Ñĥ
ĠÑģÐ¾Ð¾ÑĤÐ²ÐµÑĤÑģÑĤÐ²
ĠÐºÐ°ÑĩÐµÑģÑĤÐ²Ðµ
Ð½Ð°Ð´
Ð»Ð°Ð½Ð´
ĠÑĥÑģÐ»Ð¾Ð²
ĠÐ±Ð¾Ð³
Ð³Ð¾ÑĢÐ¾Ð´
ĠÐ³Ð¾Ð´Ð¾Ð²
Ð°Ð½Ð½ÑĭÐµ
ÑģÑĭÐ»
ÑĪÐ¸Ð¼
ÑıÐ¼Ð¸
ĠW
ĠÐ°Ð²Ð³ÑĥÑģÑĤÐ°
ĠÑĦÐ¸Ð»Ð¾ÑģÐ¾ÑĦ
Ġd
ĠÐ¡ÐµÐ²ÐµÑĢ
ion
ÐµÐ¼Ð°ÑĤ
Ð±ÑĢÐµ
ĠÐ¼ÐµÑģÑĤÐ¾
ĠÐ¾Ð½Ð°
ĠÐ¡Ð°Ð¼
ÑĢÐµÑģ
Ð³Ðµ
ĠÐ¾Ð´Ð½Ð°ÐºÐ¾
ÑĭÐ²Ð°
ĠÐ¿ÑĢÐ¸Ð²
as
ĠÑģÑĤÐ°ÑĢ
Ġ//
ĠÐ¼Ð½Ð¾Ð³Ð¾
ĠÐ½ÐµÐ·
Ð»Ð¸Ð²
ĠÑģÐµÐ²ÐµÑĢ
Ð¿Ð¿
ÐµÑĢÐ½
Ð¸Ð±Ð»Ð¸
ĠÐ¾Ð¿Ð¸Ñģ
000
ĠÐºÐ°Ð¶Ð´
ĠÑįÑĤÐ¾Ð¹
Ð¾ÑĢÐ¾Ð³
Ð¾ÑĢÐ¾Ð¶
Ð¾Ð²Ð°Ð½Ð¸Ñı
ĠÑģÑĩÐ¸ÑĤ
ĠâĢ
ĠÑĦÐ¸Ð»ÑĮ
Ð½Ð¸Ñı
ĠÐ½Ð¾ÑıÐ±ÑĢÑı
ĠÑģÐ²ÑıÐ·Ð¸
ĠÐ³Ð¾ÑĢÐ¾Ð´Ðµ
ĠÐļÐ¾ÑĢ
ĠÐ´Ð¾Ð±
ĠÑĥÐ»Ð¸
ĠÑģÐ²Ð¾ÐµÐ¹
ÑĢÐ°Ð·Ð´
ÑĢÐ¸ÑģÑĤÐ¸
Ð¾ÑĢÑĮ
Ð°Ñĥ
ĠÐ¶ÐµÐ»ÐµÐ·
Ð¸ÑĩÐµÑģÐºÐ°Ñı
ĠÐ²Ð¾ÑģÑģÑĤ
ĠÑĢÑĥÐºÐ¾Ð²Ð¾Ð´
ĠÐ³ÑĢÐ°Ð¶Ð´Ð°Ð½
Ġ30
ĠÑĩÐµÐ¼Ð¿Ð¸
ĠÑģÐµÐº
ĠÐ¸ÑģÑĤÐ¾ÑĢÐ¸Ð¸
ĠÑģÑĤÐ°ÑĤ
ÐµÑģÐ¿ÑĥÐ±Ð»Ð¸
ÑģÐ¸Ñı
ÑĩÐµÑģÐºÐ¸Ð¹
ĠÐ²Ð¾Ð·Ð´
ĠÐºÐ»Ð°Ñģ
ĠÑĤÑĢÐµ
ĠÑģÐµÐ±Ñı
Ð³Ð¾ÑĤÐ¾Ð²
ĠÑĤÑĭÑģ
ÑģÑĤÐ²Ñĥ
ĠÐ³ÐµÐ½ÐµÑĢÐ°
ĠÐĴÐ»Ð°Ð´Ð¸
Ð¾ÑĢÑĥÐ¶
ĠÐ¸Ð·Ð¼ÐµÐ½
ÑģÑĤÐ¸ÑĤÑĥ
ĠÑĢÐ°Ð¹Ð¾Ð½
Ð°ÑĤÐ¾Ð²
ÑĳÐ½Ð½ÑĭÐµ
Ð¸Ñī
ÐµÐ¶Ð´
ÑģÐµÐ´
ĠÐ²ÑĭÐ±
ÑĭÐ²
ĠÐŀÑĢ
ĠÑįÐ¿
ÑıÑģ
ĠÐ¿Ð¾Ð·Ð²Ð¾Ð»
ĠÐ¿ÑĢÐµÐ´Ð¿ÑĢÐ¸
Ð¸Ð½Ð¾Ð²
Ð´ÐµÐ¹
ÑĢÐ°Ð²Ð½
ĠÐłÐ¾ÑģÑģÐ¸Ð¹ÑģÐºÐ¾Ð¹
Ð½ÐµÐ¼
Ġ()
ĠÐ²Ð¾Ð»
199
Ð¼Ð¿
ĠÐ¿ÑĢÐ°Ðº
ĠÑĢÐµÐ·ÑĥÐ»ÑĮÑĤÐ°ÑĤÐµ
ĠÐłÐµÑģÐ¿ÑĥÐ±Ð»Ð¸
ÑĢÐµÑģÑĤ
ĠÐľÐ°Ðº
Ġ189
ĠÐ´Ð¾ÑģÑĤÐ¸
ĠÐºÐ°Ð½
ĠÐ¿ÑĢÐ¾Ð¼ÑĭÑĪÐ»ÐµÐ½
Ð¾Ð»Ð¾Ð³Ð¸Ñı
ĠÐ¸ÑĤ
ÑĥÐ´Ð°
ĠÐ²ÑĭÑģÑĤÑĥÐ¿
ĠÐºÐ°ÑĢ
ĠÑĢÐµÐ¶
ĠÐ³ÑĢÑĥÐ¿Ð¿Ñĭ
Ġ:
Ð»ÐµÐ½Ñĭ
ĠÐ°ÐºÑĤÐ¸Ð²
ĠÐ¾Ð±ÑĭÑĩ
ĠÐ¿Ð¾ÑģÑĤÑĢÐ¾
re
ÑĥÑĢÐ°
III
ĠÑĢÑıÐ´
Ð°Ð»Ð¾Ð³
ÐµÐ½Ð½Ð¾Ð¹
ĠÐ²Ð¾Ð¿ÑĢÐ¾Ñģ
ĠÐµÐ¼Ñĥ
ĠÐ½ÐµÐ¾Ð±
ĠÐ²ÐºÐ»ÑİÑĩ
ÑħÐ¾Ð´Ð¸Ð¼
ĠÑĤÐµÐº
Ð°Ð½Ð½ÑĭÑħ
ĠÐ»Ð¸ÑĪÑĮ
Ð½ÑıÑı
ĠÑĢÐµÐ³Ð¸
ĠÐ°Ð»ÑĮ
ÑĩÐµÑģÐºÐ¾Ð³Ð¾
Ġ202
ĠÑĢÑĭ
ĠÑĥÑĤÐ²ÐµÑĢ
ĠÑĪÐ¸ÑĢ
ĠÐŀÑģÐ½Ð¾Ð²
Ðķ
ÐµÑĦ
Ð¾Ð²Ð°Ð½Ð¸Ðµ
ÑĳÐ²
ĠÐľÐ¸Ñħ
ÐµÐ½Ð´
ĠÐ´Ð¾Ð¿
ĠÐłÐ¸Ð¼
ĠÐĳÐµÐ»
ĠÐºÐ°Ð¼
ĠÑĩÐµÐ»Ð¾Ð²ÐµÐºÐ°
ĠÑĦÐµÐ²ÑĢÐ°Ð»Ñı
ĠÐ¤ÐµÐ´ÐµÑĢÐ°
ĠÐ¾ÐºÑĢÑĥÐ³
ĠÐ²ÑģÑĤÑĢÐµ
ĠÐ¸Ñģ
Ð»Ñĭ
ÑĥÑĤÑģÑĤÐ²
ĠÐ¿ÑĢÐ¾Ð¸Ð·Ð²ÐµÐ´
Ð°Ð½Ðµ
ĠÑĢÐ°Ð´Ð¸
il
ĠÑĥÑĩÐ°ÑģÑĤ
ĠÐ½ÐµÐ¹
ĠÐ¾ÑĤÐ½Ð¾Ñģ
Ð·Ð¼
Ð»Ð¾ÑģÑĮ
ĠÑģÐ¾Ð·
Ð¾Ð´Ð°
Ð¾Ð·Ñı
ĠÐ¸Ð´Ðµ
ĠÑĢÐµÐ»Ð¸
Ð°ÑĤÐ¸Ð²
ÑģÐ¸Ñħ
Ð½Ð°Ð¼
ĠÑģÐ²Ð¾Ðµ
Ð¥
ĠÑģÐ¼
ÐºÐ¾Ð³Ð¾
Ð¾ÑģÐ»Ð°Ð²
ĠÑĢÐµÐ´
ĠÑģÐ¾Ð±Ð¾Ð¹
ÑģÑĤÐ²ÐµÐ½Ð½ÑĭÐ¹
Ð½ÐµÑģ
Â»)
ĠÐ²Ð¸Ð´Ðµ
Ð¸ÑĤÐµÐ»Ð¸
Ġ11
ĠÐµÑģÐ»Ð¸
ĠÐ³Ð¾Ð»
ĠÐ¿ÑĢÐ¾Ð±
ĠÐ¿ÑĢÐ¾ÑģÑĤ
ÑĦÐµÑĢ
ĠÐ¿ÐµÑĢÐ²ÑĭÐ¹
ĠÐ¿Ð»Ð¾ÑīÐ°Ð´
ĠÐ°Ð½ÑĤÐ¸
Ð±Ð¾
ÐµÑģÐ¿ÐµÑĩ
ĠÐ½Ð°ÑĨÐ¸Ð¾Ð½Ð°Ð»ÑĮ
ĠÑħÐ¾Ð´
Ð¾ÑĤÐ°
ĠÐ½Ð°Ð¿ÑĢÐ¸Ð¼ÐµÑĢ
ĠÐ°ÑĤ
ĠÐ¿Ð¾ÑıÐ²
ĠÑģÑĤÐ¾Ð»
ÑıÑĤÑģÑı
ĠÑģÑĤÐµÐ¿
Ð°Ð»Ð¾Ð²
ĠÑģÐ¾Ð²ÐµÑĢÑĪ
ÑĥÐ²
ĠÐ°Ð²ÑĤ
Ð°ÑĢÐ¾Ð²
ĠÐ°Ð½Ð³Ð»Ð¸Ð¹
ĠÐĲÐ»
Ġt
Ð¾ÑĤÑı
Ð¸ÑĤÑĮÑģÑı
ĠÑģÑĤÑĢÐ¾Ð¸ÑĤÐµÐ»ÑĮ
ĠÑĨÐµÐ»
ĠÐ½Ð°Ð·Ð²Ð°Ð½Ð¸Ðµ
un
ĠÐ°Ð²ÑĤÐ¾ÑĢ
ĠÑģÐ¾Ð¿
ÑĥÐ¼ÐµÐ½ÑĤ
ĠÐ³Ð¾ÑĢ
ĠÑĤÑĭÑģÑıÑĩ
ÑĩÐ°ÐµÑĤ
ĠÐĽÐ¸ÑĤÐµÑĢÐ°
ĠÐ²Ð½Ðµ
ĠÑģÐ»ÐµÐ´ÑĥÑİÑī
ÑĩÐµÑģÐºÐ¸Ðµ
ĠÐ¿Ð°ÑĢÐ°
Ð°Ð²Ð¸ÑģÐ¸Ð¼
ĠÐ¾Ð·
ĠÐļÐ°
ÐµÐºÑĤÐ¸Ð²
ĠÐ²Ð»Ð¸Ñı
ĠÐ·Ð°ÐºÐ¾Ð½
ÑĢÐ°Ð¼
ĠÐºÐ¾
Ð»Ð°ÑĪ
Ð°Ð½Ð³
ĠÐ¿ÐµÑģ
ĠÐ³ÐµÑĢ
ÑģÑĭÐ»ÐºÐ¸
ĠÐ¼Ð¸ÑĢÐ¾Ð²
ÐµÑĢÐµÐ²
Ð¿Ð¾Ñģ
ĠÑĤÐµÑĩ
ÐµÐ»Ð°
ĠÑĦÐ¸Ð½
ĠÑĢÐ°Ð·ÑĢÐ°Ð±Ð¾ÑĤ
ÑģÐºÐ¾Ð¿
ĠÐ¿Ð¸ÑģÐ°ÑĤÐµÐ»ÑĮ
ĠÑįÑĤÐ¾ÑĤ
ĠÐ·Ð°Ð½
ĠÐ¾Ð±ÐµÑģÐ¿ÐµÑĩ
ĠÐĲÐ½Ð´
ĠÐ¿ÑĢÐ¾ÑĦ
ÑģÑıÑĤ
ĠÑĩÐµÐ¼Ð¿Ð¸Ð¾Ð½
ĠÐĳÐ¾Ð»ÑĮÑĪ
ĠÐ²ÐµÐ´
ÑĥÐ¼Ð°
of
ĠÑħÐ¸Ð¼Ð¸
ĠÐ²Ð»Ð°ÑģÑĤÐ¸
ĠÐ¸Ð¼ÐµÐ½Ð¸
ĠXIX
ÑģÑĤÐ²ÐµÐ½Ð½ÑĭÑħ
ĠÐŁÐ¾Ð´
ĠÐ½ÐµÐ±
Ð»ÐµÐ¶
ĠÐ´Ð°Ð¶Ðµ
ĠÐĽÑĥ
ĠÐ¾Ð´Ð½Ð¾Ð¹
ĠÑģÐ²Ð¾Ñİ
ĠÐĲÐ±
Ġ-
ĠÐ¼Ð°Ð³
ĠÑıÐ·ÑĭÐºÐ°
ĠÑģÐ»Ð¾Ð¶
ĠÐ¼Ð½Ð¾Ð¶Ðµ
ĠÐ¡Ð°Ð½
Ð½Ð¸ÐºÐ¾Ð¼
ĠÐłÑĥÑģ
ĠÑĤÑĢÐµÐ±
ÑģÐºÐµ
ĠÐ³Ð¾Ð²
ÑĢÐ¸Ð´
ĠÐĲÑĦ
ĠÑģÐ¸Ð½
ÑĢÐ¸ÑģÑĤÐ¸Ð°Ð½
ÐµÐ½ÐºÐ¾
ĠÑģÑĤÐ°Ð½
ĠÐ²Ðµ
ÑģÑĤÐ²ÐµÐ½Ð½Ð¾Ð³Ð¾
ĠÐ½ÐµÐ¾Ð±ÑħÐ¾Ð´Ð¸Ð¼
ĠÐ¿ÑĢÐµÐ²
ĠÑģÐ²Ð¾Ð±Ð¾Ð´
ĠÐºÐ°Ð·
om
ĠÐ¿ÑĢÐ¸ÑĢÐ¾Ð´
ĠÐ±ÐµÐ»
ĠÐļÑĢÐ°Ñģ
le
and
Ð¾Ð¼Ð¸Ð½
ĠÑĤÑĢÐ°Ð´Ð¸
ÐµÐ·Ð´
ĠÐºÐ½ÑıÐ·
ur
ÑĢÑĥÐºÑĤ
Ð¾Ð·ÑıÐ¹
11
Ð¸ÑĤÐ¾Ð²
ĠÐ´ÑĢ
ĠÐ¡Ðº
Ð¾ÐºÑĢÐ°
Ð¸ÑĨÐ°
ĠÐ¶ÑĥÑĢ
ĠÐĹÐ°Ð¿
ÑĢÐ¾Ð»
ĠÑģÑĤÐ°Ð»Ð¸
ĠÑıÐ·ÑĭÐº
ĠÐ·Ð°Ð¿Ð°Ð´
ĠÐ½Ð°ÑĩÐ°Ð»Ðµ
Ġ24
ĠÐĴÑĭ
ÐµÑĤÑĮ
ĠÐ±Ð»Ð°Ð³
ÐµÐºÑĤÐ°
ĠÑģÐµÐ»ÑĮ
ĠÑĤÐµÐ¾ÑĢÐ¸
ĠÑĢÐ°Ð±Ð¾ÑĤÑĭ
ĠÑĢÐ°Ð½
ĠÐ¾Ð±ÑĬÐµÐ´Ð¸Ð½
ĠÑĥÑĩÑĳ
ĠÐ¿ÑĢÐ¾Ð²Ð¾Ð´
Ð½Ð¸ÑĨÐ°
ÑĥÐ»ÑıÑĢ
Ð°ÑĤÐµÐ»ÐµÐ¹
ĠÐļÐ¾Ð»
Ð»ÐµÐ½Ð¸Ð¸
ĠÑģÐµÑĢ
Ð°Ð½Ð½ÑĭÐ¹
Ð¸ÑĤÐµÐº
ĠÐ¼ÐµÑĤÐ¾Ð´
ÑĢÐ¸ÑģÐ°
ĠÐ²Ð¾Ð¹ÑģÐº
ĠÐ½Ð°ÑģÑĤÐ¾Ñı
ĠÐ¡ÑģÑĭÐ»ÐºÐ¸
ĠÐ³Ð¾ÑģÑĥÐ´Ð°ÑĢÑģÑĤÐ²Ð°
Ð±Ð¾Ð»
ĠÐĴÑģ
ĠÑģÐ¸Ð»ÑĮ
ĠÐ¸ÑģÑĤÐ¾Ñĩ
ĠÐĴÐ»Ð°Ð´Ð¸Ð¼Ð¸
Ð°Ñī
ĠÐ´Ð¾ÑĢÐ¾Ð³
ĠÑĪÐ¸ÑĢÐ¾Ðº
ÑĤÐ¾Ð½
ĠÐ¢Ð°ÐºÐ¶Ðµ
ĠÐ¼ÐµÐ¶Ð´ÑĥÐ½Ð°ÑĢÐ¾Ð´
ĠÐ¾ÑģÑĥÑīÐµÑģÑĤÐ²
ĠÐ²ÑĭÐ¿Ð¾Ð»
ĠÐ·Ð°Ñī
ÑĢÐµÐ¶Ð´
ĠÑģÐ¾ÑģÑĤÐ°Ð²Ð»Ñı
Ġ188
am
ĠÐ¿Ð¾Ð±ÐµÐ´
Ð¾ÑıÐ½
ÑģÑĤÑĭ
ĠÑįÑĤÐ¸Ñħ
ÑĤÐ¸ÑĩÐµÑģÐºÐ¸
ĠÐ½Ð°Ð¿Ð¸Ñģ
ĠÑģÑĢÐµÐ´Ð¸
ĠÑģÐ²Ð¾Ð¸Ñħ
ĠÐ¼Ð»Ð½
ĠÑĤÐ¾ÑĢÐ³Ð¾Ð²
Ð¾ÑģÑĤÐ¾Ðº
ĠÐĽÐ¸ÑĤÐµÑĢÐ°ÑĤÑĥÑĢÐ°
Ð°ÐºÐ¾Ð²
ĠÑģÐ²Ð¾ÐµÐ³Ð¾
ĠÐ¾ÑģÑĤÐ°Ð²
ĠÐ¾ÑĦÐ¸ÑĨÐ¸Ð°Ð»ÑĮ
ĠÐ³Ðµ
ĠÐĵÐµÑĢ
ĠÐ°Ð²ÑĤÐ¾Ð¼
ĠÐ²Ð°Ð¶
Ð°ÑĤÐ¾ÑĢ
ĠÑģÐ¾Ð¾Ð±Ñī
ĠÐ¿Ð¾ÐºÐ°Ð·
ÑĢÑĭÐ²
Â°
ĠÑĢÐµÑģÐ¿
50
ĠÐ¾ÑĤÐ»Ð¸Ñĩ
ĠÑĩÐµÑĤÑĭ
ÐµÑĢÐ²ÑĭÐµ
ĠÐ³ÑĥÐ±
Ð°Ð½ÑģÐºÐ¸Ð¹
ĠÐ¾ÑĤÐ´ÐµÐ»ÑĮ
ĠÑĤÐµÐ¼Ð¿ÐµÑĢÐ°
Ð½Ð¸Ð¸
ÑĦÐ¸ÐºÐ°
ÐµÐ»Ð¾
ĠÑģÐ´ÐµÐ»
ÑĨÐµ
ĠÐŁÐµÑĢ
ĠÑģÐºÐ¾ÑĢ
ĠÐ¼Ð¸ÑĢ
ÑĤÑĥÑĢÑĭ
Ð°Ð»ÑĮÐ½Ð°Ñı
ĠÐ¡Ð¿
âĢ¦
ĠÐºÐ¾Ð½ÑĨÐµ
ĠÐ¸Ð½ÑĦÐ¾ÑĢÐ¼Ð°
Ð§
Ð¸ÐµÐ¼
ĠÐŁÑĢÐ¾
st
ÑĳÐ·
ĠÐ¿ÐµÑĢÐµÐ²Ð¾Ð´
ĠÑĢÐ¾ÑģÑģÐ¸Ð¹ÑģÐºÐ¸Ð¹
ĠÑĤÑĢÑĥ
ÐµÐ½ÑĤÐ°
Ð»ÐµÐ½Ð°
ÐµÐ¼ÑĭÑħ
Ð¾ÑģÑĤÐ°Ð²
Ð¸Ð´Ð°
Ð»ÐµÑĢ
Ð³ÑĢÐ°Ð½Ð¸Ñĩ
ĠÐĽÐµÐ½Ð¸
ĠÐ±Ð¾Ð»ÑĮÑĪÐ¸Ð½
ĠÐĲÐ·
Ð¾Ð½Ð´
ĠÐ¾ÑĤÑģ
Ġ23
ĠÐ¿Ð¾Ð»Ð¾Ð²
ĠÐ¼Ð°Ð»
ĠÐ°Ð¼ÐµÑĢÐ¸ÐºÐ°Ð½ÑģÐºÐ¸Ð¹
ĠÑģÐ¾Ð»
ĠÐľÐ¸Ð½
ÑĢÐ¸Ñħ
ĠÐ°ÐºÐ°Ð´ÐµÐ¼
ĠÐ¿ÑĢÐµÐ´Ð»Ð¾Ð¶
Ð¸Ð»Ð¾ÑģÑĮ
ĠÐ¿ÑĢÐµÐ¼Ð¸
ĠÐĲÐ»ÑĮ
ÑĪÐµÐµ
ÑİÑīÐµÐ¹
ÐµÑı
ĠÑģÑĤÐ¾ÑĢÐ¾Ð½
Ð·Ð°Ð¸Ð¼
ĠÑĢÐµÑģÐ¿ÑĥÐ±Ð»Ð¸
ĠÐ±ÑĢÐ°
ĠÐ°Ð´Ð¼Ð¸Ð½Ð¸ÑģÑĤÑĢÐ°
ÑĤÐ¾Ð¼Ñĥ
ĠÐ¾ÑĩÐµÐ½ÑĮ
ĠÑģÐ¾ÑģÑĤÐ°Ð²Ð»ÑıÐµÑĤ
ĠÐ½ÐµÐ·Ð°Ð²Ð¸ÑģÐ¸Ð¼
ĠÐ¿Ð¾Ð»ÑĮÐ·
Ð»Ð¸Ð¸
ĠÐĺÑģÑĤÐ¾ÑĢÐ¸Ñı
Ð¿Ð¸ÑĤ
ĠÐ¾Ñħ
ĠÐ²ÑħÐ¾Ð´
ĠÑĢÐ¾Ð¼
ĠÑģÐ»ÑĥÑĩÐ°Ðµ
Ð¾ÑĢÑĤÐ°
ĠÐ²ÑĭÐ´
ĠÑĥÑĩÐ°ÑģÑĤÐ¸
ĠÐĵÐ¾ÑģÑĥÐ´Ð°ÑĢ
Ð¸Ð»Ð°ÑģÑĮ
ĠÐĳÐ¾Ð³
ĠÐ¼ÐµÐ½ÐµÐµ
Ð¼Ð°ÑĤÑĢÐ¸
Ð°ÑĤÐµÐ»Ð¸
.)
ĠÐ¿ÑĢÐ¾ÑĪ
Ð°Ð½ÑĮ
ĠÐ¸Ð·ÑĥÑĩ
Ð¶ÐµÐ½
Ð´Ð¾
ĠÐ°Ð±
ĠÐ¾ÐºÐ¾Ð½Ñĩ
ĠÐºÐ¾ÑĤÐ¾ÑĢÐ¾Ð¼
ĠÐ¸Ð¼Ð¿ÐµÑĢÐ¸Ð¸
ÐµÐ½Ð¾Ð²
ĠÐ¼Ð¾Ð¼
ÑģÐ¸Ð²
ÑħÐ°Ð½Ð¸
Ġ22
ĠÐ±ÐµÑĢÐµ
ĠÐ·Ð°ÑĤÐµÐ¼
ÑģÑĤÐ¾
Ð¸ÑĦ
Ð°ÑĤÐµÐ³Ð¾
Ð°ÑģÑģ
ĠÐŁÑĢÐ°Ð²
ĠÑģÐ¾ÐµÐ´Ð¸Ð½
ÑĮÑİÑĤ
ĠÐ¼ÐµÑĤÐ°Ð»
ĠÐ²ÐµÑīÐµ
ĠÐ¿Ð¸ÑģÑĮ
ĠÐĺÑģÐ¿
ÑĢÐ¾Ð·
ĠÐ½Ð°Ð·Ð½Ð°Ñĩ
ÑģÐ¸Ð¼
ĠÐ¼ÑĥÐ·
Ð²Ð¸Ð³
ĠÑĢÑĥÑģÑģÐºÐ¸Ð¹
ĠÐŁÑĢÐµÐ´
ĠÐºÐ°ÑĤ
ĠÐ»Ð¸Ð±
ĠÑĩÐ°ÑģÑĤÐ¾
ĠÐ´Ð°Ð²
ĠÐ½Ð°Ð¸Ð±Ð¾Ð»ÐµÐµ
ĠÑĤÑĢÐ°Ð½ÑģÐ¿
ĠÐ¿ÑģÐ¸Ñħ
Ð»Ð¾Ð½
ĠÐ¾ÐºÐ°Ð·
Ð°Ð½ÑĤÐ°
ĠÑģÐ¾Ñĩ
ĠO
ĠÑįÑĦÑĦ
ĠÐĲÐ»ÐµÐºÑģÐ°Ð½Ð´ÑĢ
Ð½Ð¸ÑĤ
ĠÑģÑĤÐ¾ÑĢÐ¾Ð½Ñĭ
ĠÑģÐ²ÐµÑĤ
ĠÑĢÐµÐ²Ð¾Ð»Ñİ
Ð»ÐµÐ´ÑģÑĤÐ²
ĠÑĢÐ°Ð¹Ð¾Ð½Ð°
ĠÐ¿ÑĢÐ¸Ð·Ð½
ĠÐ¿ÑĢÐ¾ÑģÑĤÑĢÐ°Ð½
ĠÑģÐ¾ÑĤ
ÑİÐ·Ð°
ĠÐĲÐ´
Ð³Ð¾Ð´
ĠÐ¸Ð·Ð¾Ð±ÑĢÐ°Ð¶
ĠÐłÐ°Ð·
ĠÐ½ÐµÐ³Ð¾
Ð¾Ð³ÑĢÐ°ÑĦÐ¸Ñı
ĠÐĽÑİ
Ð°Ð»ÑĮÐ½Ð¾Ðµ
ĠÐ»Ð¸Ñĩ
Ð¸ÑĩÐµÑģÐºÐ¾Ðµ
Ð¸Ð·Ð¼
Ġ187
Ð¸ÐºÐµ
Ð»ÐµÐ½Ð¸ÐµÐ¼
Ð½Ð°ÑĢ
ĠÑĥÐ²ÐµÐ»Ð¸Ñĩ
ĠÐĲÐ½Ð³
Ġp
30
ÑĥÑģÐ°
ĠÑĢÐ°Ð·Ð´ÐµÐ»
ĠÐ´ÐµÐ¿
ĠÑģÐ¾ÑĨÐ¸Ð°Ð»ÑĮ
Ð¸ÑĤÐ°Ð¹
ÑĩÐ°ÐµÑĤÑģÑı
ÑİÑīÐ°Ñı
Ð²Ð¸Ð´
ĠÐ±Ð°Ð·
ed
ĠÐ·Ð°Ñı
Ð±Ðµ
ÐºÐ²Ð¸
ĠÐĺÐ²
ĠÐ·Ð°Ñħ
ĠÐ±Ð¸
ĠÐ¦ÐµÐ½ÑĤ
198
Ġ186
Ð°Ð»Ñĭ
ĠÑħÑĥÐ´Ð¾Ð¶
ĠÐ¾Ð³
ĠÑĤÑĢÑĳÑħ
ĠÑģÑĤÐ°Ð½Ð¾Ð²
ĠÑĥÑģÐ¿
Ð»Ð°ÑĤ
ÑĳÐ½Ð½ÑĭÐ¹
ĠÑħÐ°ÑĢÐ°ÐºÑĤÐµÑĢ
ĠÐ½Ð°Ð±Ð»Ñİ
ÑĨÐ¾Ð²
ĠÐ¾Ð±Ð¾Ð·
ĠÐ°ÑĢÑĤÐ¸
ÑĥÐºÐ°
Â»).
ĠÐ¼Ð¸ÑĢÐµ
ĠÐ¿Ð¾Ð»ÑĥÑĩÐ¸Ð»
ĠÐºÐ»Ð°ÑģÑģÐ¸
ĠÑģÐ¿ÐµÑĨÐ¸Ð°Ð»ÑĮ
ÑģÐ¸Ð¾Ð½
ĠÑįÑĤÐ°
ĠÐłÐ¾Ð´
ĠÐ±ÑĥÐ´ÐµÑĤ
ÐºÐ¸Ð½
ĠÑĢÐ°Ð±
ĠÐ¿ÑĢÐ¾Ð±Ð»ÐµÐ¼
ĠÐ·Ð°Ð²Ð¾Ð´
ĠÐĴÐµÑĢÑħ
Ð¸ÐºÐ¾Ð²
Ð½Ð¾Ð´
Ġ28
Ġ26
ÑıÐµÑĤ
ĠÑĥÐºÐ°Ð·
Ð·Ð¼Ð°
ĠÐ½ÐµÐ²
ĠÑģÑĤÑĢÑĥÐºÑĤ
Ð³Ð¸Ð¿
ĠÑıÐ·ÑĭÐºÐµ
ĠÐ²Ð·Ð°Ð¸Ð¼
ĠÐ²ÑĭÐ¿Ñĥ
ÐºÐ¸Ðµ
ĠÐ¿Ð°Ð¼ÑıÑĤ
Ð²Ð°ÐµÑĤ
ĠÐ²Ð¾Ð·Ð²
ĠÐ¿ÑĥÐ±Ð»Ð¸
Ð¦
ĠÐ»Ð¸ÑĨ
ĠÑĦÐ¾ÑĤ
Ð°ÑĤÐ¾Ñĩ
ĠÐ¿ÑĢÐ¾Ñģ
ÑģÐºÐ¾Ð»ÑĮ
ÑĥÐ½Ð´
ÐµÑĢÐ±ÑĥÑĢÐ³
ĠÐľÐ°ÑĢÐ¸
ĠÐ°ÐºÑĤÑĢÐ¸ÑģÐ°
ÑģÑĤÐ²ÐµÐ½Ð½ÑĭÐµ
ĠÐ·Ð°ÐºÐ»ÑİÑĩ
ĠÐ¿ÑĢÐ¸Ð¼ÐµÑĢ
ÑĤÑĥÑĢÐµ
ÐµÐ½Ð¸ÑıÑħ
194
ĠÐ²ÑĭÑĢÐ°Ð¶
Ð¸ÐµÐ²
ÐµÐ½Ð³
ĠÐ½Ð°ÑĩÐ°Ð»
ĠÐ»ÐµÑģ
ĠÐ°ÑĢÐ¼Ð¸Ð¸
ing
Ð»Ð¾Ðº
ÐµÐ¹Ð½
ĠÐ¸Ð½Ð´
ÑĢÐ¸Ð½
ĠÐ¾ÑĤÐºÑĢÑĭÑĤ
Ð¾Ð¿Ð¸Ñģ
ĠÐĿÐ¸ÐºÐ¾Ð»
ĠÑģÑĤÐ°ÑĤÑĮ
ĠÐºÑĥÑĢ
ĠÐļÐ°Ð·
Ð¸Ð¾Ð½
Ð¸ÑĨÐ¸Ð¸
ra
ĠÐ¿Ð°ÑĢÑĤÐ¸Ð¸
ĠÑģÑĤÐ°Ð»Ð°
ĠÑĤÑĥ
ĠÐĵÐµ
ĠÐĵÐµÑĢÐ¼Ð°Ð½Ð¸Ð¸
ÑĢÐ¾Ð¿ÐµÐ¹
ĠÑģÐ¸Ð¼Ð²Ð¾Ð»
ÑĮÐµÑĢ
Ġ[
Ġ27
ÑĢÐ¾Ð±
ĠÐ´ÐµÑĢÐµÐ²
ĠÐ½Ð°ÑħÐ¾Ð´Ð¸ÑĤÑģÑı
ÑıÑĤÐ¸Ñı
Ġ2010
ĠÐºÐ¾ÑĢÐ°
ĠÐ°ÑĢÑħÐ¸ÑĤÐµÐº
ĠÑĢÐ°ÑģÑĤ
ĠÐ¾ÑĩÐµ
ÑĢÐ¾ÑģÑĤ
ĠÐ½Ð¸Ðº
Ð°Ð¼Ð±
Ġof
ĠÐ·Ð½Ð°ÑĩÐ¸ÑĤÐµÐ»ÑĮ
ĠÐ½ÐµÐºÐ¾ÑĤÐ¾ÑĢÑĭÑħ
ĠK
ĠÑĩÐ°ÑģÑĤÐ½Ð¾ÑģÑĤÐ¸
ĠÐĵÐ¾ÑĢÐ¾Ð´
ĠÐ»ÐµÐ³
ĠÑĨÐ°ÑĢ
ĠÑıÐ²
ĠÐ²ÐµÐºÐµ
ent
ĠÐ¸Ð³ÑĢÐ°
ĠÐ¾ÐºÑĢÑĥÐ¶
ĠÐ¤ÐµÐ´ÐµÑĢÐ°ÑĨÐ¸Ð¸
ĠÐºÐ¾Ð¼Ð¿Ð¾Ð·
Ð¸Ð½ÑģÐºÐ¾Ð¹
ĠÐ²Ð¼ÐµÑģÑĤÐµ
ĠÐºÐ¾ÑĤÐ¾ÑĢÐ¾Ðµ
ĠÐľÐ¾ÑģÐºÐ¾Ð²
ĠÑĩÐ¸ÑģÐ»Ð¾
ĠÐĿÐµ
ĠÐ¼Ð°ÑĤÐµÐ¼Ð°ÑĤ
ĠÐ³ÑĢÐµ
ĠÐ¸Ð¼Ð¿ÐµÑĢÐ°ÑĤÐ¾ÑĢ
ÑĩÐ¸Ð²
ĠÐ²ÑĤÐ¾ÑĢÐ¾Ð¹
ĠÐ½Ð¾ÑĢ
ĠÐ®Ð¶
ĠÐ¾Ð³ÑĢÐ°Ð½Ð¸Ñĩ
um
ĠÐ´Ð°Ð»ÑĮ
ĠÐĹÐµÐ¼
ÑıÐ²Ð»Ñı
ĠÐļÑĢÐ¾Ð¼Ðµ
Ð¼ÐµÑģÑĤ
ĠÐ²ÑģÑĳ
ĠÐ¼ÐµÑħÐ°Ð½Ð¸
ĠIII
ĠÐ¿ÑĢÐ¾Ð²ÐµÐ´
Ð²Ð°Ð»
ĠÑĦÐ¾ÑĢÐ¼
ĠÑĦÐ¾Ð½
ĠÐ¿Ð¾ÑģÑĤÐ¾ÑıÐ½
ÐµÐ½Ð½Ð¾Ð³Ð¾
ĠÑģÑĩÐ¸ÑĤÐ°
ÑģÑĤÐ¸ÑĤ
ĠÐºÐ¾Ð»Ð¸ÑĩÐµÑģÑĤÐ²Ð¾
ĠÐ¡Ð¾Ð³Ð»Ð°ÑģÐ½Ð¾
Ð²Ð°ÑĢ
ĠÑĩÐ°Ñģ
ĠU
ĠÑĦÑĥÑĤ
ĠÐłÐ°
ĠÐĽÐµ
ĠÐºÐ¸Ñģ
Ð¼Ð¸ÑĤ
ĠÐ´Ð¾Ð³Ð¾Ð²
ĠÐ»ÑİÐ´ÐµÐ¹
Ð½Ð¾ÑģÑĤÐµÐ¹
Ð¼ÐµÐ½Ð¸
ĠÐ»ÑĥÑĩ
ĠÐ´ÐµÐ¼
ĠÐ½ÐµÑģ
Ð»ÑĥÑĩ
ÑģÐºÐ¾Ð»ÑĮÐºÑĥ
Ð½Ð¾Ðº
ĠÐ²ÑĭÑħÐ¾Ð´
ĠÐ½Ð°ÑĩÐ°Ð»Ð°
ĠÐ½Ð¸Ð·
Ð°ÑĤÐµÐ»ÑĮÐ½Ð¾
ĠÐ¿ÑĢÐ¾ÑĨÐµÑģ
Ð¸Ð»Ð»Ð¸
ĠJ
ÐµÐ½Ð·
ĠÑĢÐ¸Ð¼
Ð°ÑĤÐµÑĢÐ¸
ĠÑįÐ½ÐµÑĢÐ³
ĠÑģÐ¾Ñģ
ĠÑĢÐ°Ð·Ð²Ð¸ÑĤÐ¸Ñı
ĠÑĥÐ½Ð¸Ð²ÐµÑĢÑģÐ¸ÑĤÐµÑĤ
Ð½Ñİ
ĠÐ¿ÑĢÑıÐ¼
ĠÐ¼ÑĥÐ¶
ĠÑĢÐ°Ð¹Ð¾Ð½Ðµ
ĠÐ¸Ð¼ÐµÑİÑĤ
Ð»Ð°Ð¼ÐµÐ½ÑĤ
Ð¾Ð¼ÐµÑĤ
ĠÐ¡ÐµÑĢÐ³
Ð°Ð½Ð½Ð¾Ð¹
ĠÑĥÑģÐ»Ð¾Ð²Ð¸Ñı
ĠÐ¾ÑĤÐ¿ÑĢÐ°Ð²
ĠÐ²Ð¾Ð·Ð½Ð¸Ðº
Ð¾ÑĢÐ³
ÑĳÑĤÑģÑı
ÑģÑĤÐ¸ÑĤÑĥÑĤ
Ð²Ð°ÐµÑĤÑģÑı
ĠÑģÐ¾Ð³
ĠÐ²ÑĭÑĪ
ĠÑĥÐ·
ÐµÐ½ÑĤÐ¾Ð²
Ð°Ð»Ð¸ÑģÑĤ
ĠÑıÐ´
197
ĠÐ½Ð¾Ñģ
ĠÑĨÐµÑĢÐºÐ¾Ð²
ĠÐ±ÑĭÐ²
Ð¾Ð²ÑĭÑħ
Ð°ÑĨÐ¸Ñı
ĠÐľÐµÐ¶Ð´
ĠÐ¤ÑĢÐ°Ð½ÑĨÐ¸Ð¸
Ð¸ÑģÑģÑĳÑĢ
ĠÑħÑĢÐ¸ÑģÑĤÐ¸Ð°Ð½
ĠÐºÑĥÐ»ÑĮÑĤÑĥÑĢÑĭ
ĠÐ¸ÑģÐºÐ»ÑİÑĩ
ÑĥÑİÑĤÑģÑı
ĠÐ£ÐºÑĢÐ°Ð¸Ð½Ñĭ
Ð°ÑĤÑĢÐ¸
ĠÐ¿Ð¾ÑĩÑĤÐ¸
ÐµÑĩÐ°ÑĤ
ĠÑģÐ¾ÑħÑĢÐ°Ð½
ĠÑģÐ¼ÐµÑĢÑĤÐ¸
ÑģÑĤÑĢÑĥÐº
ĠÐ¾Ð´Ð½Ð¸Ð¼
ĠÐ·Ð°Ð»
ÑıÐµÑĤÑģÑı
ÑģÐºÐ°Ð·
ĠÑĢÐ¾Ð»ÑĮ
ĠÐ¿ÑĢÐ¾ÑĨÐµÑģÑģ
ÑĥÑĢÑĭ
ĠÐ¿ÑĢÐ¾Ð¿
Ð¸Ð½ÑģÐºÐ¾Ð³Ð¾
ĠÑĥÐºÑĢÐ°
ĠÐ°Ð²Ð¸
ĠÐ²Ð¿ÐµÑĢÐ²ÑĭÐµ
ĠÐ·Ð½Ð°Ðº
Ð¾Ð»Ð½Ð¸ÑĤÐµÐ»ÑĮ
ĠÐ±Ð¾Ð»ÑĮÑĪÐµ
Ð¼ÐµÑī
ĠÐ¾Ð±ÑıÐ·
ĠIS
ĠÐºÐ¾ÑĢÐ°Ð±
Ð¾Ð²ÐµÐ´
Ġ1990
Ð°Ñĩ
Ð¾ÑĤÑĭ
ĠÐĵÐµÐ½
ÑģÑĤÐ°Ð½
ÑĢÐº
ĠÐĺÑĤ
196
ĠÐŁÐ°Ð²
Ġ2000
ĠÑģÑĥ
ĠÑģÐ¾Ð±Ñĭ
Ð°Ð²ÑĪÐ¸Ð¹
ÑĢÐ°ÑĤÐ¸
Ð³Ð¸Ð¾Ð·
ĠÐ¿ÑĢÐµÐ´Ð¿Ð¾Ð»
ÑģÐ»ÑĥÐ¶
ÑĢÐ¸Ð³
ÑĤÐ¸ÑĢÐ¾Ð²
Ġ21
ÐµÐ½Ð½Ð°Ñı
ĠÑĤÐµÑĩÐµÐ½Ð¸Ðµ
Ð½Ð°ÑĢÑĥÐ¶
Ð¶ÐµÐ½Ð¸Ñı
ĠÐ²ÑĢÐ°
Ð»ÑıÐ½
ÑĩÐ½Ð¾
ÐŁÐµÑĤ
ĠÐĹÐ°
ĠÐ¿Ð¾Ð´Ð¿Ð¸Ñģ
ĠÐĴÐ¾Ð»
ĠÑĢÐµÐºÐ¸
ĠÐ¸ÑģÐ¿Ð¾Ð»ÑĮÐ·ÑĥÐµÑĤÑģÑı
Ð¸Ð½Ð°Ð¼Ð¸
ĠÑĥÑĤÐ²ÐµÑĢÐ¶Ð´
ĠÐ²Ð½ÑĥÑĤÑĢÐµÐ½
ÐµÑĢÐ¸Ñı
ĠÑĩÐ¸ÑģÐ»Ð°
Ð½Ð°Ð´Ð»ÐµÐ¶
ĠÐ±Ð»Ð¸Ð·
ĠÑĤÐµÐ¿
ĠÐ°ÐºÑĤÑĳÑĢ
Ð°Ð½ÑģÐºÐ¾Ð¹
Ð¾ÑıÑĤ
ac
ÐµÐ»ÐµÐ½Ð¸Ðµ
ĠÐ²ÑĭÐ¿
Ð¼Ð¾Ñģ
ĠÑħÐ¾ÑĤÑı
Ð³ÑĢÐ°Ð´
ĠÐ¶ÐµÐ½Ñī
ĠÐľÐ¸ÑħÐ°
ÐµÐ¼ÑĭÐµ
25
ĠÐļÐ°Ð»
Ð¾Ð´ÐµÐ¹ÑģÑĤÐ²
Ð°Ð»Ð¸Ð¸
ÐµÐ½Ðµ
ÐºÐ°Ð·ÑĭÐ²Ð°
ĠÐ¾Ð±ÑĭÑĩÐ½Ð¾
ĠÐļÐ°Ðº
Ð±Ð¸Ð½
ÑĩÐµÐ±
ĠÑģÐ»Ð¾Ð²Ð°
Ð¸ÐµÐ¹
ÑģÑĤÐ°Ð½ÑĤ
ÐµÑĢÐ¾Ð¼
ĠÑĤÐµÐ¾ÑĢÐ¸Ð¸
Ġ29
Ð¾Ð¶Ð´ÐµÐ½Ð¸Ðµ
ĠÑĢÑĥÐ±
ĠÐ¿Ð»Ð°Ð½
ĠÑĨÐµÐ½ÑĤÑĢ
ĠÑģÐ¸ÑģÑĤÐµÐ¼Ð°
Ð½Ð¾Ð³
Ġc
Ġ2008
Ð¾ÑĢÐ¸ÑĤ
ĠÐ²Ð½ÐµÑĪ
ĠÑģÑĤÑĢÐ°Ð½Ð°
ĠÐ¾Ð´Ð½Ð¾
ĠÐ´ÑĥÑħ
ÑĢÐµÐ½Ð¸Ñı
ĠÐ·Ð°Ð½Ð¸Ð¼Ð°
ĠÑĤÐ°ÐºÐ¸Ñħ
ĠÐ¿Ð¾ÑĢÑıÐ´
ĠÑĥÐ½Ð¸Ð²ÐµÑĢÑģÐ¸ÑĤÐµÑĤÐ°
ÐºÐ°Ñı
Ð»ÐµÐ½Ð¸Ð¹
ĠÐ¼ÐµÑģÑı
ĠÐ¿ÑĢÐ¸Ð½Ð°Ð´Ð»ÐµÐ¶
Ð°ÐºÑĤ
Ġ+
ÐµÐ·Ð´Ð°
Ð°ÑĢÑĭ
ĠÑģÑĥÐ±
Ð°Ð½Ðº
ĠÐŃÐº
Ġs
ĠÐ¾Ð¿ÑĢÐµÐ´ÐµÐ»Ñı
ÑĦÐ¸ÑĨÐ¸
ĠÐ²ÐµÑĤ
ĠÑĢÐ°Ð·Ð»Ð¸ÑĩÐ½ÑĭÑħ
ĠÐ¾ÑģÐ½Ð¾Ð²Ðµ
ĠÐ¾ÑĤÐ²ÐµÑĤ
ĠÑĤÐ¾Ð½
ĠÐ¸Ð¼Ñı
Ð½Ð¸ÑĨÑĭ
ĠÐ·Ð°Ð¿Ð¸Ñģ
ĠÐ¿Ð¾ÑįÑĤ
ĠÐķÑģÐ»Ð¸
Ð¸Ð±Ð»Ð¸Ð¾ÑĤ
Ġ100
Ð¾ÑĢÐ´
Ð±ÑĢÑĮ
ĠÐ±ÑĢÐ¸ÑĤ
ĠÐ¸Ð½ÑĤÐµÑĢ
ĠÑĤÐ²Ð¾ÑĢ
ĠÑİÐ¶
ig
ĠÑģÐ²Ð¾Ð¸
ÑĢÐµÑĪ
ĠÐ½Ð°ÑĥÐº
ĠÐ»Ð¸Ð±Ð¾
ĠÐ¾Ð±ÑĬÑıÐ²
ĠÐĹÐ°Ð¿Ð°Ð´
Ð¶Ð°
ĠÑģÐ¾ÑİÐ·
Ð²ÑıÑī
ĠÐ¾ÑĤÐ´ÐµÐ»
ĠÐ¾Ð´Ð½Ð¾Ð³Ð¾
ĠÐ´ÐµÐ¹ÑģÑĤÐ²Ð¸Ñı
ĠÐ±Ð¾ÑĢÑĮ
ĠÐ¶Ð¸Ð²Ð¾ÑĤ
ĠÑĤÐ¾ÑĤ
ĠÐĿÐ¾
ĠÐ¾Ð±Ð»Ð°ÑģÑĤÑĮ
ĠÑħÐ¾ÑĢ
ĠÐºÑĢÐµ
ĠÐ´ÑĢÐ°
ĠÐ¢Ðµ
ĠÐ²Ð¾Ðº
ĠÐ¿ÑĢÐ¸Ð²Ð¾Ð´
ĠÑħÐ¾Ð·ÑıÐ¹
ĠÑĢÐµÐ°Ðº
ĠÐºÐ»ÑĥÐ±
Ð»Ð¸Ð¼Ð¿
ĠÐ°Ð³
ĠÐ²Ð¾Ð¹ÑģÐºÐ°
ĠÐ·Ð°Ð±
ĠÐ¿ÐµÑĢÐ²Ð¾Ð¹
ĠÐ¼Ð°ÑĪ
BN
Ð¶Ð¸
ÑĩÐµÑģÐºÐ°Ñı
ĠÐ¿Ð»Ð°
ĠÐ¿ÑĢÐµÐ´ÑģÑĤÐ°Ð²Ð»Ñı
ĠÐĴÐ°Ð»
ĠÐ¾Ð±Ð½Ð°ÑĢÑĥÐ¶
ÑĳÑĤÐ°
Ð°Ð½Ð½Ð°Ñı
ĠÐ±Ð¾Ð»
ĠÐ¿Ñĥ
ÐµÐ»ÐµÐ²
ĠÐ²Ð¾Ð·ÑĢÐ°
ĠÐ¿Ð¾Ð¼Ð¾ÑīÑĮÑİ
ĠÐ¿ÑĢÐ¾Ð¸ÑģÑħ
ĠÐ²Ð»Ð°ÑģÑĤÑĮ
ĠÐĴÑģÐµ
ĠÐ¼Ð¾Ð¼ÐµÐ½ÑĤ
ĠÐ¿ÑĢÐ¾Ð¸Ð·Ð¾ÑĪ
ÑĨÐ°Ð¼Ð¸
Ġ50
Ð»ÐµÐ½Ð¾
ÑĢÐ¾ÑĤÐ¸Ð²
ÑĢÑĥÑģ
ÐµÐ½Ð¸ÑıÐ¼Ð¸
ĠÑĥÐ¼ÐµÑĢ
ÑĪÑĳÐ»
Ġ2011
ÑĥÐ±Ð»Ð¸ÐºÐ¾Ð²
ĠÐ¼Ð½Ð¾Ð³Ð¸Ñħ
ĠÐ¿Ð¾Ð·Ð´
ĠÑģÐ¿ÐµÑĨÐ¸
ĠÐ²Ð²ÐµÐ´
ĠÐ¾ÑģÐ½Ð¾Ð²Ð½Ð¾Ð¼
ter
ĠÐ¾ÑĩÐµÑĢÐµÐ´
ĠÐ¼Ð°Ðº
Ð¾Ð½ÑĤ
ĠÑĨÐµÑĢÐºÐ²Ð¸
Ð±ÑĥÑĢÐ³
ĠÐ´Ð¾ÐºÑĥÐ¼ÐµÐ½ÑĤ
ĠÑħÐ°ÑĢÐ°ÐºÑĤÐµÑĢÐ¸
ĠÐ½ÐµÑĤ
ÐµÑĢÐµÐ¶
ĠÑĥÑĩÑĢÐµÐ¶Ð´
Ð½ÐµÑĤ
ĠÐĶÐ¾
ĠISBN
ĠÐ·Ð°ÑıÐ²
Ð¸ÑģÐº
22
Ġ2007
ĠÐ¿ÐµÑĢÐµÑħÐ¾Ð´
ĠÐ²ÑģÑĤÑĥÐ¿
ĠÐ¾Ð±Ð»Ð°ÑģÑĤ
ĠÐłÐµÑģÐ¿ÑĥÐ±Ð»Ð¸ÐºÐ¸
ĠÐ¼ÐµÐ½ÑĮ
ĠÐºÑĢÐ°Ñģ
id
ÐºÐ¸Ð¼
Ð¸Ð²Ð°ÐµÑĤ
ĠÑģÑĥÐ¼
ĠÐķÐ³Ð¾
ĠÐ¾ÑģÐ¾Ð±ÐµÐ½Ð½Ð¾
ĠÐļÐ¾Ð½ÑģÑĤÐ°Ð½ÑĤ
Ð½Ð¸Ð¼Ð°
ĠÐ¿Ð¾ÑģÐ»ÐµÐ´Ð¾Ð²
ÐµÐºÑĤÐ¾Ð²
ĠÐ¾ÑĢÐ³Ð°Ð½Ð¸Ð·Ð°ÑĨÐ¸Ð¸
Ð°Ð»ÑĮÑıÐ½
ĠÐ·Ð°Ð½Ð¸Ð¼
ĠÐ½Ð°ÑģÑĤÐ¾ÑıÑīÐµÐµ
ÑĥÑİÑīÐ¸Ñħ
ÑģÐ¾
ĠÐ½Ð°Ð·ÑĭÐ²
Ð¿Ð¾
Ð½Ð¸ÑĨÐ¸Ð¿
Ð¾Ð±ÑĢÐ¸ÑĤ
Ð¾Ð´Ð°ÑĢÑı
ĠÑĤÑĥÑĢ
ĠÐ½ÐµÐºÐ¾ÑĤÐ¾ÑĢÑĭÐµ
Ð¸Ð·Ð¼Ð°
Ð²ÑĳÑĢ
ÑĳÐ½Ð½Ð¾Ð¹
ĠÐ¾Ð±ÑĢÐ°Ð·Ð¾Ð²Ð°Ð½Ð¸Ñı
Ð±Ð¸
Ð·Ð°ÑĨÐ¸Ð¸
ĠÐ·Ð°Ð´Ð°
âĢĻ
ĠÐ°ÑģÑĤ
ÐºÐ°Ð¼
ĠÐ·Ð½
ĠÐ½ÐµÑĦ
ĠÐºÑĢÐµÐ¿
ĠÐ¿Ð¾Ð²ÐµÑĢÑħ
Ð°ÑĤÐ¾Ð¼
ĠÑĤÐµÐ°ÑĤÑĢÐ°
ÑĩÐµÐ²
ĠÐ¿ÑĢÐ¸Ñĩ
Ġ2009
ĠÐĴÐ»Ð°Ð´Ð¸Ð¼Ð¸ÑĢ
Ġ2005
Ð¾ÑģÐ¾Ð²
ĠÐ½Ð°Ñĥ
ĠThe
ĠÑĤÐ°ÐºÐ¸Ðµ
Ð¾Ð¿Ð°Ñģ
ĠÑģÑĤÐ°Ð»Ð¾
ĠÐ½ÐµÐ±Ð¾Ð»ÑĮÑĪ
Ð¾ÑģÑĤÐ¾
ĠÑģÐµÑĤ
ĠÐłÐ¡
ĠÐ´Ð²Ðµ
Ð²ÐµÐ¹
ĠÐ´ÐµÐ¿ÑĥÑĤ
Ð»ÐµÐ²
Ð¸Ð²Ð°ÐµÑĤÑģÑı
ĠÑģÑĤÐµÐ¿ÐµÐ½Ð¸
Ð½Ð¸ÐºÐ°Ð¼Ð¸
em
ĠÐ¢Ð¾Ð¼
ĠÐ°ÑĤÐ¾Ð¼
ĠÐ²Ð°ÑĢÐ¸
ĠÑĢÐ°ÑģÑģÐ¼Ð°ÑĤÑĢÐ¸
Ð»Ð°Ð²Ð°
ÑĥÑį
ĠÑģÑĥÑīÐµÑģÑĤÐ²Ð¾Ð²
âĢľ
Ġ184
ĠÐ¼Ð¾Ð»Ð¾Ð´
ia
ÑĩÐ½Ð¾Ð¹
ĠÐ²Ð¾Ð¹Ð½Ð°
ÑıÑĤÐ¸Ðµ
ĠÐ³Ð³
ÑĪÐ¸ÑĢ
ĠÐ³Ð¸Ð¿
ĠÑĤÐµÑħÐ½
Ð¼Ð¾ÑĤÑĢÑı
ĠÐºÑĢÐ¸ÑĤÐ¸
ÑĪÐµÐ¼
ĠÑħÐ¾Ð´Ðµ
ĠÐ¼Ð½Ð¾Ð³Ð¸Ðµ
ÑģÑĤÐ²ÐµÐ½Ð½Ð¾Ðµ
ĠÑĦÐµÐ´ÐµÑĢÐ°
Ð¸ÑĩÐµÑģÐºÐ¸Ð¼
ĠÐ´Ð°Ð½Ð½ÑĭÐ¼
ĠÐ¶ÑĥÑĢÐ½Ð°Ð»
ĠÐ¿ÑĢÐµÐºÑĢÐ°
ĠÑĤÐµÑĢÐ¼Ð¸Ð½
ĠÐľÐ°Ð»
ÑĪÐ»Ð¸
ĠÂ°
ĠÐ¿Ð¾Ð¿ÑĥÐ»ÑıÑĢ
ĠÐŀÐŀ
Ð½Ð¾Ñģ
Ġ2012
ĠÑģÑĤÐ°Ð²
ĠÐ¾ÑĤÑģÑĥÑĤÑģÑĤÐ²
ÑģÐ¾Ð½Ð°
Ġ2004
Â»),
ĠÐĿÐ¸
ĠÐ¿Ð»Ð°ÑĤ
ĠÐ½ÐµÑģÐºÐ¾Ð»ÑĮ
ĠÐ·Ð½Ð°ÑĩÐµÐ½Ð¸Ðµ
Ð°ÑĢÐº
ut
ÑģÑĤÐ¾Ð²
ĠÑĢÐ°Ð±Ð¾Ñĩ
ĠÐºÑĥÐ»ÑĮ
Ġ2006
ĠÐ´Ð²Ð¸Ð¶ÐµÐ½Ð¸Ñı
ĠÑģÐµÑĢÐµÐ´
ĠÐºÐ¾Ð½Ðº
Ð»Ð¸Ð¼Ð¿Ð¸Ð¹
ĠÐ¿Ð¾Ð»Ñı
ÑĩÐ¸Ðº
Ġ=
ÑĢÐ°Ð³
ĠÐ·Ð°Ð´
ĠÐ¿ÑĢÐ¾ÑħÐ¾Ð´
ĠÐłÑĥ
Ð¿Ð°Ð´
ĠÐ¾Ð¿ÑĥÐ±Ð»Ð¸ÐºÐ¾Ð²
ĠÑģÐ¾ÑģÑĤÐ°Ð²Ðµ
ÑİÑīÐµÐµ
ĠÑĪÑĤ
ĠÐ¼Ð¸Ð»Ð»Ð¸
ÐµÐ¼ÑĭÐ¹
Ð´Ð°ÐµÑĤ
78
ĠÑĥÐ»Ð¸ÑĨÐ°
ÑģÐ¾Ð¼
Ð½Ð¾ÑĪ
Ð°Ð»Ð¸ÑģÑĤÐ¸ÑĩÐµ
ĠÐĿÐ°ÑĨÐ¸Ð¾Ð½Ð°Ð»ÑĮ
ĠÐ¡Ð¾Ð²ÐµÑĤÐ°
ÑĪÐ¸ÐµÑģÑı
Ð¾Ð¸ÑĤ
Ð³Ð¸Ð¸
ĠÑĤÑĢÑĥÐ´
ÑĢÐ°Ñħ
ÑıÐ»
ĠÐ¿Ð°ÑĢÐ»Ð°Ð¼ÐµÐ½ÑĤ
ĠÐ¾ÑĤÐºÐ°Ð·
Ð¾Ð¿ÑĢÐ¸
ĠÐ²ÐµÑģ
ĠÐ¿Ð¾Ð´Ð³Ð¾ÑĤÐ¾Ð²
ĠÐ¼Ð¸Ð½Ð¸ÑģÑĤ
ĠÐ¿ÑĢÐ°Ð²Ð°
ĠÐ¿Ð¾Ð»Ð½Ð¾ÑģÑĤÑĮÑİ
ÑĥÐºÐ¾Ð²
ĠÐ¯Ð¿Ð¾Ð½
ĠÑĩÐµÐ³Ð¾
ĠÐĳÐµÑĢ
ĠÐ·Ð¾Ð»Ð¾ÑĤ
ĠÑģÐ»Ð°Ð²
193
ĠÑįÐ»ÐµÐºÑĤÑĢÐ¾Ð½
Ð°ÑİÑĤÑģÑı
ĠÐºÑĢÑĥÐ¿Ð½ÐµÐ¹
Ð¸ÑĩÐµÑģÐºÐ¸
ĠÐĴÐµÑĢÑħÐ¾Ð²
ĠÑĢÐµÐº
ĠÑĢÐµÐ°Ð»Ð¸Ð·
Ð¾Ð³ÑĢÐ°ÑĦÐ¸Ð¸
Ð¸ÑĩÐ°
Ð¾Ð¼Ð¸Ð½Ð°
ĠâĢŀ
ĠÐ³ÑĢÐ°ÑĦ
ĠÐĺÐ²Ð°Ð½Ð¾Ð²
24
ĠÑĤÐ¾Ð³Ð´Ð°
Ġ2014
Ð¾ÑĤÑĢÐµÐ±
Ð°ÑģÑģÐ°
ĠÐ¿Ð¾Ð¿ÑĭÑĤ
Ð¼Ð¾
ĠÐ±ÑĥÐº
23
Ð¾ÑĢÑĥÑģ
ĠÐ´Ð²Ð¾ÑĢ
ĠÑģÐºÐ°Ð·
ĠÐĴÐµÐ»Ð¸ÐºÐ¾Ð±ÑĢÐ¸ÑĤ
ÑħÐ°
ĠÐ¡Ð°Ð½ÐºÑĤ
ÑĳÐ´
Ð¾Ð»Ð¾Ð´
ad
ÐµÑĢÐ¸Ð¹
ĠÐ¡Ð¾ÑİÐ·Ð°
ĠÑģÑĢÐ°Ð²Ð½
ĠÐ²ÐµÑĢÑħ
ĠÑĦÑĢÐ°Ð½ÑĨÑĥÐ·ÑģÐºÐ¸Ð¹
Ð°Ð¹ÑĤ
Ð¾Ð½Ð°Ñĩ
ÑĳÐ½Ð½Ð¾Ð³Ð¾
Ð¿Ð¸ÑģÐºÐ¾Ð¿
ĠÑĨÐµÐ½ÑĤÑĢÐ°Ð»ÑĮ
ĠÐ´ÑĢÑĥÐ³Ð¾Ð¹
ĠÑĤÐ¸Ð¿Ð°
ÑĢÐ¾Ð³
ĠÐ¿ÐµÐ²
ÑĢÐ¸ÑĨ
ĠÐºÐ¾Ð½ÑĦ
ĠÐ²ÐºÐ»Ñİ
Ð½Ð¾Ð´Ð¾ÑĢÐ¾Ð¶
ĠÑĤÐµÐ»ÐµÐ²
ĠÑĦÐ¸Ð»ÑĮÐ¼
ÑĥÐ³Ð¾Ð»ÑĮ
ĠÐ³ÐµÐ½ÐµÑĢÐ°Ð»
ĠÐºÑĢÐ¾Ð²
ĠÐ¼Ð¸Ðº
ĠÐ¸Ð½ÑĤÐµÑĢÐµ
ĠÐŀÐº
ĠÑįÐ¿Ð¾Ñħ
ĠÑģÑĨÐµÐ½
ĠÐŁÑĢÐµÐ·
ĠÐ¿ÑĢÐ¸Ð±
Ð²ÐµÑģÑĤÐ¸
ir
ĠÑģÐ±Ð¾ÑĢ
ĠÐ³Ð¾ÑģÑĥÐ´Ð°ÑĢÑģÑĤÐ²ÐµÐ½Ð½ÑĭÐ¹
Ð¶ÐµÐ½Ð¸Ðµ
ĠÐ±Ð¾Ð»ÑĮ
ĠÐ´Ð°Ð»
ÑĢÐ¾Ñĩ
ĠÐĺÐ¼
ĠÐºÐ¾Ð¼Ð¿Ð¾Ð·Ð¸ÑĤ
ÑĥÐ½ÐºÑĤ
Ð¸Ð¼Ð°
ĠÐ²Ð¾ÑģÑģÑĤÐ°Ð½Ð¾Ð²
Ð°Ð½ÑģÐºÐ¾Ð³Ð¾
ÂŃ
Ð¿Ð°ÑĢÐ°
ĠÐ¼Ð¾Ñī
ĠÑĢÐµÐ»Ð¸Ð³Ð¸Ð¾Ð·
ĠÐ·Ð°Ð²Ð¸ÑģÐ¸Ð¼
Ð¯
ĠÐ³Ð»ÑĥÐ±
Ð¾ÑĢÐ°Ñħ
Ð¤Ð¡Ðł
ĠÑģÐ½Ð¸
iv
ĠÐŃÑĤ
ĠÐ¿Ð¾ÑģÑĤÐ°Ð²
Ð³Ð»Ð°Ð²
Ð±Ð¾Ð¼
ĠÐ¿Ð»ÐµÐ¼
ĠÑģÐ¾ÑĤÑĢÑĥÐ´
ĠÐ²Ð¾ÑģÑĤÐ¾Ñĩ
ÑĩÐ¸ÑģÐ»ÐµÐ½
ÑĪÑĤ
ÑĢÑıÐ´
ĠÐľÐ¾ÑģÐºÐ²Ðµ
ation
ĠÐ¿ÑĢÐ¾Ð¸ÑģÑħÐ¾Ð´Ð¸ÑĤ
Â»;
ĠÐĽÐµÐ½Ð¸Ð½
Ð°Ð´Ñĭ
ĠÐ¿Ð¾ÑģÐºÐ¾Ð»ÑĮÐºÑĥ
ÐµÐ½Ð¸ÑĤ
ĠÑĦÐ¸Ð½Ð°Ð½
ĠÐľÐµÐ¶Ð´ÑĥÐ½Ð°ÑĢÐ¾Ð´
ĠÑĨÐµÐ»ÑĮ
ĠÐ¾Ð±Ð¾ÑĢ
ĠÐĺÐ½Ð´
ĠÐ´ÐµÑıÑĤÐµÐ»ÑĮÐ½Ð¾ÑģÑĤÐ¸
ĠÐ½Ð°ÑĩÐ¸Ð½Ð°
Ð»Ð°ÑģÑģ
Ð»Ð¸ÑĤÐµÐ»ÑĮ
ĠÑģÐ¼Ðµ
ĠÐ¡Ð²ÑıÑĤ
ĠÐ¿ÑĢÐµÐ¼Ð¸Ð¸
Ð±Ð¸ÑĤ
ĠÐ´Ð¾ÑģÑĤÐ¸Ð³
ĠÐ¿ÑĢÐ¸Ð½ÑĨÐ¸Ð¿
ÑĢÐ´
ÐµÐ½Ð½Ð¾Ðµ
ÑİÑīÐ¸Ð¼
ĠÐ²Ð¾Ð¾ÑĢÑĥÐ¶
ĠÐ¿Ð¾ÑĤÑĢÐµÐ±
ĠÑģÐ²Ð¾Ñĳ
ÑģÑĤÐ²ÐµÐ½Ð½ÑĭÐ¼
Ð°ÑģÐ¸
ĠÐ°Ð´Ð¼Ð¸Ð½Ð¸ÑģÑĤÑĢÐ°ÑĤÐ¸Ð²
ĠÐ¿ÑĢÐ¸ÑħÐ¾Ð´
ĠÑĨÐ²ÐµÑĤ
Ð»ÐµÐ´ÑģÑĤÐ²Ð¸Ð¸
ĠÐºÐ¾Ð¼Ð¿ÑĮÑİÑĤ
ĠÐ·Ð°Ð²ÐµÑĢÑĪ
ĠÑģÑĬ
Ð°Ð²ÑĪÐ¸Ñħ
Ð»ÑıÐµÑĤÑģÑı
ĠÐ¿ÑĢÐµÐ´ÑģÐµÐ´
ĠÐ¿Ð¾ÑģÑĳÐ»
ĠÑģÐ¾ÑĨÐ¸
ĠIn
ĠÑģÐ¾ÑħÑĢÐ°Ð½Ð¸
ĠÑĤÑıÐ¶
ĠÑĢÑı
Ð¾Ð·Ð¼Ð¾Ð¶
Ð½Ð¾ÑģÑĤÑĢÐ°Ð½
ĠÐµÐ²ÑĢÐ¾Ð¿ÐµÐ¹
ÑĤÐ¸Ðµ
ĠÑģÐ²ÑıÑĤ
Ð¸Ð±Ð¸ÑĢ
ĠÐ²ÐµÐ»Ð¸Ñĩ
Ð»Ð°Ð¼
ĠÐ¿Ð¾Ð´Ð¾Ð±
Ð»Ð¸ÑĢÐ¾Ð²
ĠÐŃÑĤÐ¸
ĠÐŃÐ½
ĠÑĢÐµÐ³Ñĥ
ĠÑģÑĤÑĢÐµ
ĠÐ±Ð¸Ð±Ð»Ð¸Ð¾ÑĤ
ĠÐ³ÑĢÐ°Ð½Ð¸ÑĨ
ĠÐ°Ñį
ĠÐ²Ð¾Ð´Ñĭ
ĠÐłÐ¡Ð¤Ð¡Ðł
ĠÐ½Ð°ÑĩÐ°Ð»Ð¾
ĠÐ±Ð°Ð»
ĠÐºÑĢÐ°Ð¹
Ð»Ð»
ĠÐ¸ÑģÑģÐ»ÐµÐ´Ð¾Ð²Ð°Ð½Ð¸Ñı
ĠÐĵÐ°Ð»
Ð°ÑĢÐ¸Ð¸
ĠÐŀÑĤÐµ
ÑĤÐ¾ÑĢÐ¾Ð²
ĠÐŁÐµÑĢÐµ
Ð¸Ð´ÐµÑĢ
ĠÐĹÐ°Ðº
ĠÐ±Ð¸ÑĤ
ĠÑĥÑģÑĤÑĢÐ¾Ð¹
Ð°ÑĥÑĢÐµ
ĠÐĵÐ»Ð°Ð²
ĠÐ¾ÑģÐ²
ÑĢÐ°Ð»
ĠÐ¸Ð½ÑģÑĤÐ¸ÑĤÑĥÑĤ
ÑĥÑİÑīÐ¸Ðµ
ĠÐ½Ð°Ð±Ð»ÑİÐ´
ec
ĠÐ¸ÑĤÐ°Ð»ÑĮÑıÐ½
ĠÐ½Ð°ÑģÐ»ÐµÐ´
ĠÐĴÑĤÐ¾ÑĢ
ÐµÐ²Ð¾Ð¹
Ġ2013
ÑİÑīÐµÐ³Ð¾
Ð¸Ð»Ñı
ĠÑģÐµÐ±Ðµ
Ð¸ÑĤÐµÐ»ÐµÐ¼
ĠÑĢÐ°Ð¼
ĠÑĩÐµÑģÑĤÑĮ
ĠÐ¾Ð±ÑĢÐ°Ñī
Ð¾Ð²ÑĭÐµ
ĠÐºÐ¾Ð»Ð¾Ð½
ĠÐĴÐ¾ÑģÑĤÐ¾Ñĩ
ĠÐ¿ÑĢÐ°Ð²Ð¾
ĠÐĴÐ¸Ðº
ĠÐ¼Ð½ÐµÐ½Ð¸Ñİ
ĠÑģÑĩÑĳÑĤ
ĠÑĢÐ°Ð·Ð²Ð¸ÑĤÐ¸Ðµ
ĠÐ½ÐµÐ¼ÐµÑĨÐºÐ¸Ð¹
ÑĨÐ¸Ð¾Ð½Ð½ÑĭÑħ
ĠÑĤÐ¾Ð¿
Ġ40
im
ĠÑģÐ¸Ð»Ñĭ
ĠÐ¿Ð¾Ð²ÑĭÑĪ
Ð¸Ð¼Ð¾
ĠÐ¿ÑĥÐ½ÐºÑĤ
Ð¿ÑĢÐ¾
Ð½Ð°Ð¿ÑĢÐ¸Ð¼ÐµÑĢ
ĠÐ¿Ð¾ÑįÑĤÐ¾Ð¼Ñĥ
Ð¾ÑģÐ»Ð¾Ð²
Ð¾ÑĩÑĮ
ĠÑĥÐ¼
Ð¼ÑıÐ½
ĠÐ¼Ð°ÑģÑģÐ¾Ð²
ĠÐ°Ð¿
ĠÐºÐ¾ÑĢÐ¾Ð»ÑĮ
ÑģÑĤÐ²ÐµÐ½Ð½Ð°Ñı
ĠÐºÐ¾Ð½Ñģ
Ð°Ð´Ð¸
Ð¾Ð±ÑīÐµ
ĠÑıÐ·ÑĭÐºÐ¾Ð²
Ġ185
ÑĦÐ¾ÑĢÐ¼Ð¸ÑĢÐ¾Ð²
ÑĢÐ¸ÑĢÐ¾Ð²
ÑĮÐ¸
Ġ1991
ĠÐ»Ð¸
ĠÐķÐ²ÑĢÐ¾Ð¿Ñĭ
Ð¾Ð·Ð³
ĠÐ¦ÐµÐ½ÑĤÑĢÐ°Ð»ÑĮ
ĠÐ¢ÑĥÑĢ
os
Ð»Ð°Ð±
ĠÐºÐ¾ÑĢÐ¾Ð»ÐµÐ²
ĠÐŁÐ°Ð¼
ÑĥÐ¼Ñĭ
ÑģÑĤÑĢÐ¾Ð¹
Ð¾Ð²Ð¾Ð»ÑĮ
ĠÑģÑĤÐ°Ð½Ð´
ÑĤÐµÐ½
la
ĠÑĤÐ°Ð¼
ĠÐ²ÑĭÐ·Ð²
ĠÐ°Ð¿Ð¿
ĠÐ³Ð¾Ð»Ð¾Ð²
ĠÐ²ÑĭÐ¿Ð¾Ð»Ð½
ÑĩÐ½ÑĭÑħ
ĠÐ°ÑĢÑĤÐ¸ÑģÑĤ
Ġm
Ġ%,
ĠÑģÐ°Ð¼Ð¾
ĠÐ¼Ð¸ÑĢÐ¾Ð²Ð¾Ð¹
Ġ2020
ĠÐĳÑĭ
ĠÐ²Ð¸Ð´Ð¾Ð²
ĠÐłÐ¤
ĠÐ½Ð¸Ð¼
Ð°ÐºÐ°
ĠÑģÑĤÐ¸Ñħ
ĠÐºÐ»Ð¸
Ð»ÐµÑĩ
Ġ2003
ĠÐ²ÑģÐµÐ¼
Ð·ÐµÐ¼
ĠÐ´Ð°Ð½Ð½ÑĭÑħ
ĠÐ¿ÑĢÐµÐ¼
ĠÐ¾Ð±ÑīÐµÑģÑĤÐ²Ð°
Ð¼ÐµÐ½ÑĮ
Ð»ÐµÐ½Ð¸Ñİ
Ð¾Ð±ÑĢÐµÑĤ
ÐµÐºÑĤÑĭ
ĠÐºÐ¾Ð½ÑĤÑĢ
ĠÑĪÐ°Ñħ
Ð°ÑĦ
ĠÐłÐ¾ÑģÑģÐ¸Ñı
ĠÐ¼Ð°ÑĢÑĪ
ÐµÐ»Ðµ
ĠÐ²Ð¾Ð·Ð´ÑĥÑħ
ÑģÐºÐ¾Ð²
ĠÐŁÐ¾Ñĩ
Ð³Ð¾Ñģ
ĠÑģÑĤÑĢÐ°Ð½Ðµ
ĠÐ¿Ð¾ÑģÐ²ÑıÑī
ĠÐ¼ÑĥÐ½Ð¸ÑĨÐ¸Ð¿
ĠÐ´Ð½ÐµÐ¹
Ġf
ĠÐľÐ¾Ð½
ÑĩÐ°ÑİÑĤÑģÑı
ĠÐ»Ð¸ÑĤÐµÑĢÐ°ÑĤÑĥÑĢ
21
ĠÑģÐ¾Ð³Ð»Ð°ÑģÐ½Ð¾
ĠÐ§ÐµÑĢ
Ġ2015
ĠÐ´Ð»Ð¸Ð½
ĠÐ¢ÐµÐ¼
Ð°ÑĤÐµÐ»ÐµÐ¼
ĠÐºÐ¾ÑĢÐ¿
ĠÐ¿Ð°Ð¼ÑıÑĤÑĮ
ĠÐ¼Ð¾ÑĢÑı
ĠÑĦÐ»Ð¾ÑĤ
ĠÑģÑĭÐ½
ÑįÐº
195
Ð¾Ð»Ð°Ð³
ĠÐ¾Ð´Ð½Ð°
ĠÐļÐ°Ð½
ÐµÐ½ÐµÐ¼
ot
ĠÑĥÐº
ÑįÐ¹
40
ÑĤÐ¾ÑĢÑĭ
ĠÐ¿Ð¾Ð³Ð¸Ð±
ĠÐ¼Ð¸ÑĦ
Ð°ÑĤÐ¸
ĠÐ¾ÑĤÐ½Ð¾ÑĪÐµÐ½Ð¸Ñı
Ð¸Ð´ÐµÑĤ
ÑĢÑİ
ĠÐľÐµÐ´
ĠÐºÐ¸ÑģÐ»Ð¾ÑĤ
ĠÑģÐ¾Ðº
ĠÐºÐ¾Ð¼Ð¿Ð»ÐµÐºÑģ
ĠÐ¡ÐµÐ¼
ĠÑģÑĥÑīÐµÑģÑĤÐ²ÑĥÐµÑĤ
ĠÑħÑĥÐ´Ð¾Ð¶Ðµ
ĠÐ°Ð²ÑĤÐ¾Ð¼Ð¾Ð±
Ð»Ð¸Ð¶
ĠÐºÐ¾Ð´
ĠÐ¿ÐµÑĢÐ²Ð¾Ð³Ð¾
Ġ(),
ĠÑĦÑĢÐ¾Ð½
ĠÐĶÐ¾Ð½
ĠÐ²Ð»Ð°Ð´
Ð³Ð»Ñı
ĠÑĩÐµÐ»Ð¾Ð²Ðµ
ĠÐ¼Ð°ÑģÑĤ
Ð°Ð½Ð½Ð¾Ð³Ð¾
ĠÐ¿ÑĢÐ¸Ð±Ñĭ
ÑĢÐµÐ¶
ĠÐ¿ÑĢÐµÐ´ÐµÐ»
Ð³Ð´Ð°
ĠÑĤÐ¾ÑĩÐºÐ¸
ĠÐ¿Ð¾Ð»ÑĮ
28
.).
ĠÐ¼ÐµÐ´Ð¸ÑĨ
ÑĢÐ°Ð¹
):
ĠÐ´Ð°Ð»ÑĮÐ½ÐµÐ¹
Ġ000
ÑĢÐµÐ¼ÐµÐ½Ð½Ð¾
ĠÐ´ÐµÑĤÐµÐ¹
ĠÐ¸Ð¼ÐµÐ½Ð½Ð¾
ÐµÐ½Ð½Ð¾ÑģÑĤÐ¸
Ð¾Ð»Ð¸ÑĤ
ĠÐ»ÐµÐº
ĠÐ¾ÑĢÑĥÐ¶
Ð¸Ð½Ð¾Ð¹
ĠÐĴÑĭÑģ
ĠÑĢÐ¾ÑģÑĤ
ĠÑĪÐºÐ¾Ð»Ñĭ
ĠÐ²ÑĭÐ´ÐµÐ»
ĠÐŁÐ°ÑĢÐ¸
ie
ÑĨÐ¸Ð¾Ð½Ð½Ð¾Ð¹
Ġ2016
ĠÐºÐ¾ÑģÐ¼Ð¸
ĠÑģÐ¼Ñĭ
ÑĩÑĳÑĤ
ĠÐ°Ð¼ÐµÑĢÐ¸ÐºÐ°Ð½ÑģÐºÐ°Ñı
ÑĩÐµÑģÑĤÐ²Ð°
ÑıÐ³
ĠÐ±ÐµÑģÐ¿
ĠÐ½ÑĳÐ¼
ÑģÐ¸Ð´
ĠÑįÑĤÐ¸Ð¼
ĠÐ·ÐµÐ¼Ð»Ð¸
ĠÐĶÐ¼Ð¸ÑĤ
27
ÐµÐ½Ð½ÑĭÐ¼
ĠÐ»Ð°ÑĤ
Ġ2018
Ġthe
ĠÑģÑĤÑĥÐ´
Ð¸Ð²ÑĪÐ¸Ð¹
ĠÐ¿Ð¾Ð»ÑĮÐ·Ð¾Ð²
ÑĥÐ¶Ð´
ĠÐ¸Ð½Ð¾ÑģÑĤÑĢÐ°Ð½
Ð±ÐµÑĢ
Ð¸ÑĨÑĭ
ĠÐ¼Ð¾ÑĢÐµ
ĠÐ¿ÑĢÐ°Ð²Ð¸ÑĤÐµÐ»ÑĮÑģÑĤÐ²Ð°
ĠÐĿÐ¸ÐºÐ¾Ð»Ð°Ð¹
ĠÑĦÑĥÐ½ÐºÑĨÐ¸Ð¸
ĠÐļÐ¸ÐµÐ²
ĠÐºÑĢÑĥÐ³
Ð°Ð»ÑĮÐ½ÑĭÐ¼
Ð¾Ð·Ð°
ĠÐ³Ð¾ÑĢÐ¾Ð´Ð¾Ð²
ĠÐĿÐ°Ñģ
ĠÑĥÑĩÐ°ÑģÑĤÐ¸Ðµ
ÑĥÑīÐµÑģÑĤÐ²ÐµÐ½Ð½Ð¾
Ð°ÑĤÐµÐ³Ð¾ÑĢÐ¸Ñı
Ð°ÐºÑĥ
ĠÐ¼ÑĥÐ·ÑĭÐº
ĠÐ´Ð¾ÑģÑĤÐ°ÑĤÐ¾Ñĩ
ĠÐĲÐ¼
ÐŁÐµÑĤÐµÑĢÐ±ÑĥÑĢÐ³
ĠÑĩÐµÑĢ
ĠÐ²ÑĭÑĪÐµ
ÑģÐ¼
ĠÐĵÑĢÐ°
ĠÐ´Ð°ÑĤ
ĠIV
ĠÑĢÐµÐ³Ð¸Ð¾Ð½
ÑģÐµÑĢ
ÐµÑĢÐ¸Ð¼ÐµÐ½ÑĤ
ĠÐ¿ÑĢÐ¾Ð¸Ð·Ð²Ð¾Ð´ÑģÑĤÐ²Ð°
ĠÑĤÑĢÐµÑĤÑĮ
Ð¾Ð»ÑĳÑĤ
ĠÐ¼ÐµÑģÑĤÐµ
ĠÐ¾ÐºÑĢÑĥÐ³Ð°
80
Ð°Ð½Ð¾Ð¼
ĠÑĤÐ°Ð½
ÑĨÑĥ
60
ĠÐ¶Ð¸Ð·Ð½ÑĮ
ÐµÑĤÐµ
ĠÐ¿Ð¾ÑģÐµÐ»
ĠÐºÐ°Ð»
ĠÐ¿ÑĢÐ¾Ð¶
ĠÐ½ÐµÑģÐºÐ¾Ð»ÑĮÐºÐ¸Ñħ
ÑĤÐ°Ðº
ÐºÑĤÐ¾ÑĢ
Ġ2002
ĠÑĤÑĢÐ°Ð½ÑģÐ¿Ð¾ÑĢÑĤ
Ð¸ÐºÑĥ
ĠÑĥÐ¿ÑĢÐ°Ð²Ð»ÐµÐ½Ð¸Ñı
ĠÐ¿ÑĢÐµÐ¾Ð±ÑĢÐ°Ð·
ĠÑĢÐµÑĪÐµÐ½Ð¸Ðµ
ĠÐĲÐ¼ÐµÑĢÐ¸
ÑĥÐ»Ñĭ
Ġ2017
ĠÐĳÐ¾ÑĢÐ¸
Ð²ÐµÑĢÐ³
ĠÑĢÐ°Ð·Ð½ÑĭÑħ
ÑıÐ±ÑĢÐµ
ÐĲÐŀ
Ð¾ÑģÑĤÑĮÑİ
ow
ĠÐ¿ÑĢÐµÐ·Ð¸Ð´ÐµÐ½ÑĤÐ°
ĠÐ¿Ð¾Ñħ
ĠÑĦÐ¾ÑĢÐ¼Ð¸ÑĢÐ¾Ð²
Ġ1980
ÑĳÐ³
ĠÐ°Ð½Ð°Ð»Ð¸Ð·
Ð¾Ð±ÑĭÑĤÐ¸Ñı
ÑĩÑĤ
ĠÐ¿ÑĢÐ¾Ñĩ
Ġ2001
ĠÐ¿ÑĢÐ°Ð²Ð¾ÑģÐ»Ð°Ð²
ĠÐ²Ð¾Ð·Ð²ÑĢÐ°Ñī
ĠÐ¿ÐµÑĢÐµÐ½
ĠÐ³ÑĢÑĥÐ¿Ð¿Ð°
ĠÐ¾Ð±ÑĬÑıÑģ
ĠÑģÑħ
Ð²Ð°ÑİÑĤ
ĠÐĿÐ°Ð¿ÑĢÐ¸Ð¼ÐµÑĢ
ĠÐ·Ð´ÐµÑģÑĮ
ĠÐ´Ð¾ÑģÑĤÑĥÐ¿
ĠÐ¿ÑĢÐ°ÐºÑĤÐ¸ÑĩÐµÑģÐºÐ¸
ĠÐļÐ°Ð¼
ĠÐĶÐ¸
ĠÑģÑĤÐ°Ð½Ð¾Ð²Ð¸ÑĤÑģÑı
Ðĸ
ĠÐ·Ð°Ð¿ÑĢÐµ
Ġ2019
ÑĩÐ°ÑĤ
Ð¾ÑĢÑĤÑĥ
ĠÐ¿Ð¾ÑħÐ¾Ð´
ĠÑĩÐ¸ÑģÐ»ÐµÐ½
ĠÐ°Ð¿Ð¿Ð°ÑĢÐ°
ĠÑĢÐµÐ¹
ĠÐ¿Ð¾ÐºÐ°
ĠÐ¾Ð±Ð¾Ð·Ð½Ð°Ñĩ
Ġb
ĠÐ¾Ð±ÑĥÑĩ
ĠÐ´ÐµÐ²
ĠÐ¿ÑĢÐ¾Ð²Ð¸Ð½
ĠÐºÐ¾Ð»Ð»ÐµÐº
ĠÐ²ÑģÐµÐ¹
ĠÐ³Ð¸Ð´
ĠÐ¿ÑĢÐµÐ¿Ð¾Ð´
ÑĥÑı
ĠÐľÐ¸ÑħÐ°Ð¸Ð»
ĠÐ¼Ð¾Ð½Ð°
Ð½Ð¾Ð²Ð°
ÑĤÐ²ÐµÑĢ
ĠÐ½Ð°ÑĢÑĥÑĪ
ĠÑĢÐ°Ð·ÑĢÑĥÑĪ
ĠÑģÐ²Ð¸Ð´ÐµÑĤ
Ġ().
ĠÑĦÑĥÑĤÐ±Ð¾Ð»
ĠÐ¿ÑĢÐ°Ð²Ð¸ÑĤÐµÐ»ÑĮÑģÑĤÐ²Ð¾
ĠÐ²Ð»Ð¸ÑıÐ½Ð¸Ðµ
ĠÑĩÐµÑĤ
ĠÐľÑĥ
Ġ183
ĠÐ±ÐµÐ·Ð¾Ð¿Ð°Ñģ
ĠÐ¿ÑĢÐ°Ð²Ð¸Ð»Ð¾
ĠÐºÐ¾Ð¼Ð¿Ð°Ð½Ð¸Ð¸
ÑĢÐ°Ð±Ð°ÑĤÑĭ
ĠÐ¿Ð¾ÑĢÐ°Ð¶
ĠÑģÑĦ
ÑĤÐ¸ÐºÐ¸
ÑĨÐµÐ½ÑĤ
ĠÑĤÐ°Ð±
ÐºÐ¾Ð²Ð°
29
ÑģÐ¾Ð»
ĠÐ¿ÑĢÐµÐ´Ð¾ÑģÑĤÐ°Ð²
ÑĩÐ°ÑģÑĤ
ĠÐĶÐ¶Ð¾Ð½
ÐµÐ½ÑĨÐ¸Ð¸
ĠÐ²Ð·Ð°Ð¸Ð¼Ð¾Ð´ÐµÐ¹ÑģÑĤÐ²
ĠÐºÐ°ÑĢÑĤ
ĠÐ¿ÑĢÐ¸ÑĩÐ¸Ð½
ĠÐ¿Ð¾Ð¶
ĠÑĥÑĩÐµÐ±
ÐµÐ¼Ð¾Ð¹
ĠÐ¿Ð¾ÑģÑĤÑĥÐ¿
ĠÐ±Ð°Ð½
ĠÑĢÐ°Ð¼ÐºÐ°Ñħ
ĠÐ¿Ð¾Ð»Ñĥ
ĠÐ¿ÐµÑĢÐ²ÑĭÐ¼
ĠÐĺÐ²Ð°Ð½
ĠÐºÐ¾ÑĢÐ¾Ð»Ñı
ĠÐ²Ð¾Ð·Ð¼Ð¾Ð¶Ð½Ð¾ÑģÑĤÑĮ
Ð²Ð¾Ð·
Ð¾Ð²Ð°Ñı
op
ÑģÐµÐ½
ĠÐĻ
ĠÐ¿ÑĢÐ°Ð·Ð´
ĠÐ±Ð¾ÐµÐ²
Ð»ÑıÑĢ
ÑĤÐ°Ð¼Ð¸
ĠÐĲÐ»ÐµÐºÑģÐ°Ð½Ð´ÑĢÐ°
ĠÐ¿ÑĢÐ¾Ð³ÑĢÐ°Ð¼Ð¼
Ð¾ÑĨÐ¸
ĠÐ¿ÐµÑĢÐ²ÑĭÑħ
ĠÐ²ÐµÑģÑĮ
Ð¸ÑģÐ¿
ĠÐ³Ð°
ĠÐ»Ð¾Ð³
Ð°ÑĢÐ¸ÑģÑĤ
ĠÐĳÐ¾Ð»
ÑģÐ¸Ð¹
ĠÑĦÐ¾ÑĢÐ¼Ñĥ
ĠÐ³Ð»Ð°Ð²Ðµ
ÐµÐ´ÐµÐ½Ð¸Ñı
ĠÐĳÐ°Ð»
ĠÐ¼Ð½Ð¾Ð¶ÐµÑģÑĤÐ²Ð¾
ĠÐķÐ³Ð¸Ð¿
26
Ð²Ð°Ð´
ĠÐļÑĥÑĢ
Ð³ÑĢÐµ
ĠÐ±Ð¾Ð»ÑĮÑĪÐ¾Ð¹
ĠÑģÑĤÐ°ÑĤÑĥÑģ
ĠÐ·Ð½Ð°ÑĩÐµÐ½Ð¸Ñı
Ġand
ĠSt
ĠÐŀÐ½Ð¸
ĠÐ¾ÑĨÐµÐ½
Ð¸Ð·Ð°Ð½
ĠÑģÐ²Ð¾Ð¸Ð¼
ÐµÐ»Ñİ
ĠÐ¿ÑĢÐ¾Ð³
ÐµÑģÑģÐ¸Ð¾Ð½
ĠÐ½Ð°Ð·ÑĭÐ²Ð°ÐµÑĤÑģÑı
ĠÐ¿Ð°Ð»
ĠÑħÐ¾ÑĢÐ¾ÑĪ
ÑĤÐµÐ»ÑĮ
ĠÑĢÐ°ÑģÐ¿Ð¾Ð»Ð°Ð³
ĠÐĲÑĢÑħ
ĠÐ¿Ð¾Ð´ÑĩÐ¸Ð½
ÑĥÑĢÐ¸
ĠÐ¢ÐµÑĢ
ĠÐ¿ÐµÑĢÐµÐ´Ð°
Ġ1970
ĠÐ¿Ð¾ÑĤÐµÑĢ
ĠÑĤÐ¾Ð²
Ð½Ð¾Ð²ÑĢÐµÐ¼ÐµÐ½Ð½Ð¾
.),
ĠÐ´ÑĢÑĥÐ³Ð¸Ð¼Ð¸
ĠÑħÑĥÐ´Ð¾Ð¶Ð½Ð¸Ðº
ÐºÐ°ÑĤÐµÑĢÐ¸
190
ĠÐ´Ð½Ñı
Ð½Ð¸Ñİ
Ð¾ÑģÐ°
Ð½Ð¾Ð²ÑĮ
Ð¾Ð°Ð½
ÐµÐ´Ð¸
ĠÐ¤Ð¸Ð½
ÑıÑĤÐ¸Ð¹
ĠÐ¸Ð½ÑĦ
ĠÐ²Ð´
Ð°Ð»Ð¸Ñĩ
ÑĪÐµÑģÑĤÐ²
ĠÑģÐ°Ð¼ÑĭÑħ
ĠÑıÐ¿Ð¾Ð½
ĠÐ°ÑĢÐ°Ð±
ÑĢÐ¾Ð½Ð¾Ð¼
og
ĠÐ¸Ð½Ð¾Ð³Ð´Ð°
Ġ1941
ĠÐ¿Ð»Ð¾
ÐµÑĤÐ¾Ð²
ĠÐ¾ÑĩÐµÑĢÐµÐ´ÑĮ
ÑİÑĢ
ĠÐ´ÐµÑģÑı
ÑĤÐ°Ð±
ÑĦÐ¸ÑĨ
ÐµÐ´Ð°Ð³
ĠÐŁÐ¾Ð¼
ĠÐ´Ð¸Ð¿
ÑĪÐ¸
ĠÐĲÐº
ĠÐ´Ð²Ð¸Ð³
ĠÑĤÐ¾Ð¼Ñĥ
ag
ĠÑĢÐ°Ðº
Ð»Ð»Ð¸
Ð°Ð½Ð½Ð¾Ðµ
Ð½ÑĥÐ»
ĠÐ³ÑĢÑĥ
Ġ1960
ĠÐ¾ÑģÑĤÑĢÐ¾Ð²Ð°
ĠÎ
ĠÑĤÐ¾Ð»
ĠÐ¼Ñĭ
ĠÐľÐ¾ÑĢ
ĠÑĥÐ¿Ð¾ÑĤÑĢÐµÐ±
ĠÐ¿Ð¾ÑĢÑĤ
ĠÐ¢Ð°ÐºÐ¸Ð¼
ist
ĠÐ¸Ð´
ĠÐŃÐ¹
ĠÑĦÐµÐ´ÐµÑĢÐ°Ð»ÑĮ
ÑĳÑģ
ĠÐ¾ÑĤÐ½Ð¾ÑģÑıÑĤ
ÑĥÐºÑĤ
Ð»Ð¸Ð½Ð°
ÑģÐ¸ÑĢÐ¾Ð²
ĠÐ¡ÑĢÐµÐ´Ð¸
Ð¼Ð°ÑĢ
ĠÑĢÐµÐ³
ÑĩÐ¸ÑĤÑĭ
ĠXVIII
ĠÐµÑģÑĤÐµ
Ð¾Ð»Ñİ
ĠÐ½Ð°Ð·Ð²Ð°Ð½Ð¸Ñı
ĠÑįÐ»ÐµÐºÑĤÑĢÐ¸
ĠÑĦÐ¾ÑĢÐ¼Ñĭ
Ð¸ÑģÐ°
ĠÐļÐ¾Ð½ÑģÑĤÐ°Ð½ÑĤÐ¸Ð½
ĠÐ½ÐµÐ´Ð¾ÑģÑĤ
ĠÐ½Ð°Ð¹
ÑĩÐ°ÑİÑĤ
ĠÐ¿ÑĢÐµÐ´ÑģÑĤÐ°Ð²Ð»ÑıÐµÑĤ
ÑģÑĤÑĮÑıÐ½
ĠÐºÐ¾Ð¼Ð¿Ð¾Ð·Ð¸ÑĤÐ¾ÑĢ
Ð°Ð½Ð´Ð°
ĠÑĢÐ°Ð·ÑĢÐµÑĪ
ÐµÐ´Ð°Ð³Ð¾Ð³
Ð²Ð°ÑĤÑĮ
ĠÐ¸Ð·Ð±Ð¸ÑĢÐ°
ĠÐ±Ð»Ð°Ð³Ð¾Ð´Ð°ÑĢÑı
ĠÐ²ÑĭÐ²Ð¾Ð´
ÑĨÐ¸ÑıÑħ
ĠÐŁÐ°ÑĢ
Ð´Ð°ÑİÑĤ
ĠÐľÐ°ÑĢÐº
ĠÐ¿Ð¾Ð½Ð¸Ð¼
Ð»Ð¸Ð±Ð¾
ĠÑĢÐ°Ð·Ð±
ĠÑģÐ¿Ð¾ÑĢ
Ð¼ÐµÐ½ÑĮÑĪ
ĠÑģÑĢÐµÐ´ÑģÑĤÐ²Ð°
Ð¾ÐµÐ´Ð¸Ð½
ĠÐ²ÑģÐµÐ³Ð´Ð°
ĠÐ¿ÐµÑĢÐ²ÑĭÐµ
ĠÐºÑĥÐ¿
ÑıÐ±ÑĢÑĮ
ĠÑĢÐ°Ð½ÐµÐµ
ĠÐ½Ð¾Ð²ÑĭÑħ
ĠÐŁÑĢÐµ
Ġ180
ĠÐĿÐ¸ÐºÐ¾Ð»Ð°
ĠÐ¼ÑĭÑģ
Ð°ÑĤÐµÐ»ÑĮÐ½ÑĭÑħ
ĠÑĢÐ°Ð·Ð¼ÐµÑĢ
Ð°ÑĢÐµ
ĠÐ¾ÑĤÐ½Ð¾ÑģÐ¸ÑĤÐµÐ»ÑĮÐ½Ð¾
ÑĢÐµÐ´ÐµÐ»
Ð°Ð¹Ð»Ð¾Ð²
ĠÐºÐ»Ð°ÑģÑģ
ĠÐ¾ÐºÐµ
ĠÐ¼ÑĥÐ·ÐµÐ¹
ÐµÐ½ÑģÐºÐ¸Ð¹
ĠÐĶÑĢÐµÐ²
ĠÐ´ÐµÑıÑĤÐµÐ»ÑĮÐ½Ð¾ÑģÑĤÑĮ
Ð´Ð°ÑĤ
ĠÑģÐ¾ÑĩÐ¸Ð½
Ġ%.
ÑĥÐ»ÑĮÐ¿
ÐºÐ»ÑİÑĩ
Ġ60
ĠÐ¶ÐµÐ»ÐµÐ·Ð½Ð¾Ð´Ð¾ÑĢÐ¾Ð¶
ÑģÐºÐ¾ÑĢÐµ
ĠÐ½ÐµÐ¸Ð·
ĠÐ¿Ð»Ð¾ÑīÐ°Ð´Ð¸
Ð»ÐµÐ³
Ð¾ÑĤÐ²Ð¾ÑĢ
Ð¼Ð°Ñħ
ĠÐļÐŁ
ĠÐ¿Ð»Ð¾ÑĤ
ĠÐ¼Ð»ÑĢÐ´
ĠÐ¸ÑģÐºÑĥÑģÑģÑĤÐ²Ð°
ĠÑĢÐ°Ð±Ð¾ÑĤÑĥ
ĠÐ²Ð½Ð¾Ð²ÑĮ
ĠÐºÐ¾ÑĤÐ¾ÑĢÑĥÑİ
ĠÐ¾ÑĤÐ»Ð¸ÑĩÐ¸Ðµ
ÑĪÐ¸Ð¼Ð¸
ÑĩÐµÑģÐºÐ¾Ðµ
ĠÐĵÑĢÐµ
ĠÐ²ÐµÑĢÐ¾ÑıÑĤ
ĠÐ¸ÑģÐ¿Ð¾Ð»Ð½
ĠÐ´Ð¾Ð±Ð°Ð²
ĠÑģÐ¾Ð³Ð»Ð°ÑĪ
od
Ð½ÐµÑĢ
ĪĴ
ÑĪÑĥÑİ
ÑĩÐ½ÑĭÐµ
ĠÑģÐ²Ð¾Ð¹ÑģÑĤÐ²Ð°
Ð¿Ð¾Ð·
ĠÐĿÐ°Ñĩ
Ð¸Ð½Ð°ÑģÑĤÐ¸
Ð¾ÑĢÐ¾ÑĤ
ĠÐĳÐ°ÑĢ
ÐµÐ½ÑĤÐ¸
Ð²Ñĥ
Ð²Ð°Ð»Ð¸
ĠÑģÐ¾ÑģÑĤÐ¾Ð¸ÑĤ
Ġ1992
ĠÐ¿Ð¾Ð¼Ð¾ÑīÐ¸
ĠÑĤÐµÐºÑģÑĤ
ĠÐ°Ð½Ð³Ð»Ð¸Ð¹ÑģÐºÐ¸Ð¹
ĠÐ´Ð¾Ð³Ð¾Ð²Ð¾ÑĢ
ĠÐ²Ð½Ð¸Ð¼
ĠÐķÐºÐ°ÑĤÐµÑĢÐ¸
Ð¼ÑĥÐ½Ð¸
ÐºÑĥÐ¿
Ð¾Ð½Ð¸Ð¼
Ġ31
ĠÐ´ÑĥÑħÐ¾Ð²
ĠÐĽÐµÐ¾Ð½
ÑıÑİÑĤ
ĠÐ²ÐµÑĢÑģÐ¸Ð¸
Ð°Ð¼Ð°
ÑĥÑĤÑĮ
ĠÐ¡Ð¸Ð½
ĠÐ¤Ð¸Ð»Ð¸
ÑĢÐµÐº
ĠÐ¿ÑĢÐ¸ÑģÐ¾ÐµÐ´Ð¸Ð½
ÑĨÐ¾Ð³
ĠÐ´Ð¾Ð»Ð¶ÐµÐ½
ÑĢÐ°Ð½Ð°
Ð³Ð°ÑĢ
Ð¾ÑģÐºÐ¾Ð²
Ð¾Ð²Ð°Ð»
Ð¸Ð»Ðµ
ĠÑĨÐµÐ»ÑĮÑİ
ĠÐ¶Ð¸ÑĤÐµÐ»ÐµÐ¹
ĠÑĢÐµÐ´Ð°Ðº
ĠÐ³ÑĥÐ±ÐµÑĢ
ĠÐ±Ñİ
ĠÐļÑĥÐ±
ĠÐºÐ¾ÑĤÐ¾ÑĢÑĭÐ¼
Ð¾Ð²Ð¾Ð³Ð¾
ĠÑįÐºÑģÐ¿ÐµÑĢÐ¸Ð¼ÐµÐ½ÑĤ
Ġin
ĠÐĳÐ¸
ĠÐ¡Ð¸Ð¼
Ð°Ð²Ð°Ð»
Ð¸ÑĩÐµÑģÐºÑĥÑİ
ĠÐºÐ¾Ð½ÑĨÐ°
ĠÐ»Ð¸Ð½Ð¸Ð¸
Ġ1999
ĠÐ¡Ð¾Ð²ÐµÑĤÑģÐºÐ¾Ð³Ð¾
ĠÐĲÐ½ÑĤÐ¸
ĠÐĽÐ¸
ĠÐ¾Ð½Ð¾
ĠÐ¿ÑĢÐµÐ¼ÑĮÐµÑĢ
Ð»ÑĥÐ¶
ĠÑģÑĢÐ¾Ðº
ÐµÑģÑĤÑĮ
Ġ2021
ĠÑĥÐ½Ð¸ÑĩÑĤ
ĠÑĥÐ½Ð¸ÑĩÑĤÐ¾Ð¶
ĠÑĥÐ¼ÐµÐ½ÑĮÑĪ
ĠÐºÐ°Ð¿Ð¸ÑĤ
ĠÐ¸ÑĤÐ¾Ð³
ĠÐ¡ÑĥÑīÐµÑģÑĤÐ²
Â²
ers
ĠÑģÐ²ÑıÑī
ĠÑĩÐµÑĤÑĭÑĢÑĳÑħ
ĠÑĢÐ¾Ð¼Ð°Ð½
ĠÐ¼ÐµÐ»
ĠÐ¿ÑĢÐµÐ¸Ð¼
ĠÑĥÑģÐ»Ð¾Ð²Ð¸ÑıÑħ
Ð³Ð¾ÑģÑı
ĠÐĴÐ°Ñģ
ĠÐĵÐ¾ÑĢ
70
ĠÐ½Ð°ÑģÑĤÑĥÐ¿
ĠÐ²ÑĭÐ±Ð¾ÑĢ
ÑĤÑĢÐ¸
ĠÐ¼Ð¾Ð½Ð°ÑģÑĤÑĭ
ĠÐŁÐ¾Ð»ÑĮÑĪ
ÑĨÐ¸Ð¾Ð½Ð½ÑĭÐµ
ĠÐ½Ð°Ð»
ÑĥÑĢÑĥ
ĠÑĢÐ°ÑģÑģÑĤÐ¾Ñı
ĠÐ·Ð½Ð°Ð¼
ÐµÐ¼Ð¾Ð³Ð¾
ĠÐľÐ°Ð¹
ĠÐĹÐ´
ÐļÐ°ÑĤÐµÐ³Ð¾ÑĢÐ¸Ñı
ĠÐĲÐ»ÐµÐº
ĠÐ²Ð½ÑĥÑĤÑĢÐ¸
ÑĨÐ¸ÐºÐ»
ĠÑĩÑĳÑĢ
Ð¾ÐºÐ¾Ð¼
ĠÑĩÑĥÐ²
ÑĳÐ½Ð½Ð°Ñı
ĠÐ¿ÑĢÐ¾ÑĤÑıÐ¶
ĠÑĢÐ°Ð·Ð´
ÑĤÐ¸Ðº
ĠÐ½Ð¾Ð²ÑĭÐ¹
ĠÐŀÑĤÐµÑĩÐµ
ÑģÑĤÐ°Ð»
ĠÐ¿ÑĢÐ¸Ð¼ÐµÑĢÐ½Ð¾
ĠÐ¡ÐµÑĢÐ³ÐµÐ¹
Ð¸Ð½Ð¸
Ð¸ÑĤÐµÐ»ÑĮÐ½ÑĭÐ¹
ĠÐłÐ¾Ð¼
ĠÐ¸Ð·Ð¼ÐµÑĢ
ĠÐ´Ð¸Ð¿Ð»Ð¾Ð¼
Ð¸ÑģÑĤÐ¾Ð²
Ġ179
ĠÐĿÐµÐºÐ¾ÑĤÐ¾ÑĢ
ĠÐ¿ÑĢÐ¾ÑĦÐµÑģÑģ
ĠÐ´ÐµÐº
ÑĭÐ½Ðµ
ĠÐ¼Ð¾ÑģÑĤ
ĠÐ³Ð¾Ñģ
ÑĥÑģÐº
ĠÑģÐ¸ÑĤÑĥ
ĠÑģÑĤÑĢÐ°Ð½Ð°Ñħ
ĠÐ³Ð°Ð»
Ð¸ÑĨÐµ
ĠÐ¾ÑĢÐ³Ð°Ð½Ð¸Ð·Ð¾Ð²
ÐµÑĢÑĮ
ĠÐŀÑģÑĤ
ĠÐ·Ð°Ð²Ð¸ÑģÐ¸Ð¼Ð¾ÑģÑĤÐ¸
Ð°ÑĤÐ¾Ð»
ĠÐ¿ÑĢÐ¾Ð´ÑĥÐº
ĠÐ½Ð°ÑĥÐºÐ¸
ÑģÐµÐ»
Ð¾ÑģÐ½Ð¾Ð²
Ġn
ĠÐĴÐ¸Ð»ÑĮ
ĠÐĴÐµÑĢ
ĠÐºÐ»ÐµÑĤ
ĠÐ¿Ð°ÑĢÑĤÐ¸Ñı
Ġ1996
ĠÐĵÑĢÑĥÐ·
Ð²Ð°ÑĢÐ´
ÑĤÑĮÑģÑı
Ð°ÑģÐ°
ÑĥÑİÑīÐ¸Ð¹
ĠÐ±Ð¾Ð»ÑĮÑĪÐ¸Ð½ÑģÑĤÐ²Ð¾
ĠÐ¿ÑĢÐ¾Ð²Ð¾Ð·Ð³
ĠÐ¿ÑĢÐ¸Ð½ÑıÑĤ
Ġ1993
ĠÑģÐ»Ð¾Ð²Ð¾
ĠÐ¾Ð±ÑĢÐ°Ð·Ð¾Ð²Ð°Ð½Ð¸Ðµ
ĠÐ´Ð¾Ð»Ð¶Ð½Ñĭ
Ð¾ÑģÑĤÐ¾ÑıÑĤÐµÐ»ÑĮ
ĠÐ¼Ð°
ÐµÐ´Ð¾Ð½
ĠÐ¿ÑĢÐµÑģ
ĠÐ´Ð²ÑĥÐ¼
ÑĳÐ½Ð½ÑĭÐ¼
ĠÐ°Ð·
Ġ(,
Ð°Ð½Ð´Ð¸Ð´
ĠÑģÐ»ÐµÐ´ÑĥÐµÑĤ
ĠÐĶÐµÐ½ÑĮ
ÐµÑĢÐ°Ð¼Ð¸
ĠÐºÐ¾Ð½ÑģÑĤÑĢÑĥÐº
ÑģÑĤÐ¾Ð½
Ð°ÐºÐ¸
Ð·ÑĭÐ²Ð°ÐµÑĤ
ĠÐ·Ð°ÐºÑĢÑĭ
ÐºÐ¾Ðµ
ĠÐķÐ²ÑĢÐ¾Ð¿Ðµ
ĠÐ¿Ð¾ÑģÑĤÐ°Ð½Ð¾Ð²
Ġ1918
Ð¾Ð¿ÐµÐ´
ĠÐ¿Ð¾ÑĤÐ¾Ð¼
ĠÐĴÐµÐ»Ð¸ÐºÐ¾Ð¹
ĠÐ³ÐµÑĢÐ¼
ĠÐ¾ÑĤÑĢÐ°Ð¶
ĠÐ¦ÐµÑĢ
ĠÐ¿Ð°Ð¿
ÐµÑĢÐ°Ð»ÑĮ
Ð¾Ð¿Ð¾Ð»ÑĮ
ĠÑĤÐ°ÐºÐ¸Ð¼
ĠÐ¡ÐŁ
ÑİÑīÐ¸ÑħÑģÑı
ĠÐ·Ð°Ð³
ĠÐ·ÑĢÐµÐ½Ð¸Ñı
Ð¾Ð¿Ð¾Ð»Ð¾Ð¶
ĠÐĿÐ°ÑĢÐ¾Ð´
ĠÐ½Ð°Ð·
ĠÑĢÐ°ÑģÑĤÐ²
ĠÐ¾ÑģÐ°Ð´
ÑĨÐ¸Ð¾Ð½Ð½ÑĭÐ¹
ĠÐ¿ÑĢÐ¾Ð³ÑĢÐ°Ð¼Ð¼Ñĭ
Ð¾ÑĤÐµ
ÑĦÐ°Ð²
ÑĨÐ¸Ð¾Ð½Ð½Ð¾Ð³Ð¾
ĠÑĨÐµÐ½ÑĤÑĢÐ°
Ð½ÑĥÑĤÑĮ
ĠÐ¸Ð¼Ð¿ÐµÑĢÐ°ÑĤÐ¾ÑĢÐ°
Ð°ÑģÑģÐ°Ð¶
ÑģÑĤÑĢÑĥÐ¼ÐµÐ½ÑĤ
ÑĢÑĥÐµÑĤÑģÑı
ÑıÐ»Ð¸
ĠÐ²ÐºÐ»ÑİÑĩÐ°Ñı
ĠÐ¸Ð½ÑĦÐ¾ÑĢÐ¼Ð°ÑĨÐ¸Ð¸
ÑĤÐµÐ¿
ĠÐ°Ð¼
ĠÐ½ÐµÐ¿Ð¾Ñģ
ul
Ð°ÑıÑģÑĮ
Ð²Ð¾Ð¹
ÑĪÐ¸ÑģÑĮ
Ð¸ÑĤÐµÐ»ÑĮÐ½ÑĭÐµ
ĠÑģÐ°Ð¼ÑĭÐ¼
ĠÐ¿ÑĢÐ¾Ð¸ÑģÑħÐ¾Ð´
ĠÐĶÑĢÑĥÐ³
ÑĤÐ¸ÑĩÐµÑģÐºÐ¾Ð¹
ĠÑĥÑĩÐ°ÑģÑĤÐ²Ð¾Ð²
ĠÑĤÐµÐ»Ð°
ĠÐ½ÐµÐº
ĠÐ¿ÐµÑĢÐ²Ð°Ñı
ĠÐ½Ð¾Ð²Ð¾Ð³Ð¾
ĠÐĲÐ½Ð´ÑĢÐµ
ĠÐ°Ð»ÑĮÐ±Ð¾Ð¼
Ð±ÐµÑĢÐ³
Ð²ÐµÑĤÐ°
Ð´Ð°ÐµÑĤÑģÑı
Ð¾ÑģÐ¿
Ġ1920
ĠÐĲÑĦÑĢÐ¸
ĠÐĶÐ¾Ð¼
Ð¾ÑģÑĤÐ¾ÐºÐµ
ĠÐºÐ¾Ð½ÑĦÐ»Ð¸
ÑĩÐµÐ¹
ĠÐ¸Ð³ÑĢÑĭ
Ġ1994
ĠÑıÐ´ÐµÑĢ
ĠÐºÐ¸Ð½
ĠÐ½ÐµÐ¿
ĠÑįÐ»ÐµÐ¼ÐµÐ½ÑĤÐ¾Ð²
Ð®
ĠÐ³Ð¾ÑĤÐ¾Ð²
Ð¸ÑĤÐµÐ»ÑĮÐ½ÑĭÑħ
ĠÑģÐ¾Ð²Ð¼ÐµÑģÑĤ
ĠÐ´Ð¸Ð½Ð°ÑģÑĤÐ¸
ĠÑģÐµÐ²ÐµÑĢÐ¾
Ð°Ð½ÑģÐºÐ°Ñı
ĠÐŁÐ¾Ñį
ĠÐºÑĢÑĭ
86
ĠÐ±Ð»Ð¾Ðº
ĠÐ¾ÑĤÐ»Ð¸
ĠÐ·Ð°ÑħÐ²Ð°ÑĤ
Ð»Ð¾Ð³
ĠÐ¡Ð¾Ð±
Ð¸Ð²Ð°ÑİÑĤ
Ð¸Ð³ÑĢÐ°
ÑģÐµÐ¼
ĠÐºÐ¸ÑĤÐ°Ð¹
Ð½Ð¾Ð·
ĠÐ¸ÑģÑħÐ¾Ð´
ĠÑģÐ±
Ð¸Ð½ÑģÐºÐ°Ñı
Ð¡Ð¡
ĠÐºÐ½Ð¸Ð³Ð¸
ÑĦÐ¾ÑĢÐ¼
ĠÑģÐ¸ÑģÑĤÐµÐ¼Ðµ
Ġ1995
ĠÐ¿ÑĢÐ¾Ð¼ÑĭÑĪÐ»ÐµÐ½Ð½Ð¾ÑģÑĤÐ¸
Ð¾Ð´Ð°ÑĤÐµÐ»ÑĮ
ĠÐĵÑĢÐ¸
ĠÑģÑĩÐ¸ÑĤÐ°ÐµÑĤÑģÑı
ĠÐ²Ð¾Ð·Ð³Ð»Ð°Ð²
ĠÐĴÐµÐ»Ð¸ÐºÐ¾Ð±ÑĢÐ¸ÑĤÐ°Ð½Ð¸Ð¸
ĠÑģÐ¾Ð±ÑģÑĤÐ²ÐµÐ½
ĠÐ³Ð¸Ð¼
ĠÐºÐ¾Ð½ÐµÑĩ
Ð²Ð°Ð½ÑĤÐ¾Ð²
ĠÐ¿ÑĥÑĤÐ¸
ÑĥÐ»Ð¸
Ð³ÐµÐ»ÑĮ
ĠÐłÐµ
ĠÑģÐ²Ð¸Ð´ÐµÑĤÐµÐ»ÑĮ
ĠÐĿÐ°Ð¸Ð±Ð¾Ð»ÐµÐµ
ĠÐ´Ð¾Ð»Ð»Ð°
ĠÑĦÐ¸Ð½Ð°Ð½ÑģÐ¾Ð²
Ð¾ÐºÑģ
ĠÐ¾ÑģÐ²Ð¾Ð±
ÑĤÐ°Ñħ
ĠÑĤÐ°ÐºÐ¾Ð¹
ĠÐ´Ð¾Ð¼Ð°
ĠÐ¿Ð¾Ð·Ð²Ð¾Ð»ÑıÐµÑĤ
ĠÑĥÑĢÐ¾Ð²Ð½Ñı
ĠÑģÑĥÐ¿
ĠÐ½Ð°Ð·ÑĭÐ²Ð°ÑİÑĤ
ĠÐ²ÑĭÐ´ÐµÐ»Ñı
Ð¸Ð²Ð°Ð»
ÐµÑĢÐ¾
ĠÐĴÐ¾Ð·
ĠÑįÑĤÐ¾Ð¼Ñĥ
oc
ĠÐ¡Ð¾Ð»
ÐºÐ¾ÑĢ
Ð³Ð¾ÑĢ
ÑĳÐ¶
ĠÐ¿Ð¾Ð´ÑĤÐ²ÐµÑĢ
ÑĥÑĩÐµÐ½Ð¸
ĠÐĴÐ°ÑģÐ¸
ĠÐ¼ÐµÑĢ
ĠÐĿÐµÑģ
ĠÐ½ÐµÐ¿Ð¾ÑģÑĢÐµÐ´
ĠÐ±Ð¾Ð»ÐµÐ·
Ð´ÐµÐ½Ð°
ÑĤÐ¾Ñĩ
ĠÑģÐ¾Ð¾ÑĤÐ²ÐµÑĤÑģÑĤÐ²Ð¸Ð¸
Ġ2022
ĠÑĤÑİ
Ð°Ð²Ð°
ĠÑģÑĤÑĢÐ¾Ð¸ÑĤÐµÐ»ÑĮÑģÑĤÐ²Ð¾
Ð¸ÑĩÐµÑģÐºÐ¾Ð¼
ĠÐ¸ÑģÐ¿Ð¾Ð»ÑĮÐ·ÑĥÑİÑĤÑģÑı
ÑĨÐ¸ÐºÐ»Ð¾Ð¿ÐµÐ´
ĠÐ¿ÐµÐ´Ð°Ð³Ð¾Ð³
ÑĨÐºÐ¸Ð¹
ĠÐłÐ¾Ð±
ÑĢÐ¾Ð²Ð°
ÑĥÐ¹
ĠÐ·Ð¸Ð¼
ĠÐ¾ÑĤÐ¼ÐµÑĩ
ĠÐĲÑħ
ĠÐ°Ð½Ð°Ð»Ð¾Ð³
ĠÑĥÑĢÐ°Ð²Ð½
ĠÑĢÐ¾Ð´Ð°
ĠÐ¼Ð½Ð¾Ð³Ð¾ÑĩÐ¸ÑģÐ»ÐµÐ½
ĠÑĩÐµÑĤÑĭÑĢÐµ
ĠÐ¿ÑĢÐ¸Ð½Ð¸Ð¼
Ġ1930
ĠÑĪÐºÐ¾Ð»Ð°
ĠÑĨÐµÑĢÐºÐ¾Ð²ÑĮ
Ð¶Ð´Ñĭ
ĠÑģÐ°Ð¼Ð¾ÑģÑĤÐ¾ÑıÑĤÐµÐ»ÑĮ
ĠÐ¾Ð±Ð²Ð¸Ð½
ĠÐ°Ð»ÑĦÐ°Ð²
ĠÐ´Ð¸Ð°Ð»
Ð¡Ð¾Ð±ÑĭÑĤÐ¸Ñı
ĠÑģÑĤÐ°Ð½ÑĨÐ¸Ð¸
ĠÐ»ÐµÐ²
ÐµÐ´Ð°
ÑĢÐ¾Ð²Ð¾Ð´
Ð·Ð°Ð¿Ð°Ð´
ĠÑĤÐµÑħÐ½Ð¸ÑĩÐµ
ĠÐµÐ¿Ð¸ÑģÐºÐ¾Ð¿
ĠÐ¿ÑĢÐ¸ÐºÐ°Ð·
ĠÑĥÐ´Ð°Ð»Ð¾ÑģÑĮ
ĠÐºÐ½ÑıÐ¶Ðµ
ĠÐĺÐ¾Ð°Ð½
Ð¼Ð¾Ð½Ð°Ð²
ĠÐĴÑĤÐ¾ÑĢÐ¾Ð¹
ĠÐ»Ð°ÑĥÑĢÐµ
ĠÐ³Ð¾ÑĢÐ¾Ð´ÑģÐºÐ¾Ð³Ð¾
ÑıÑĢ
ĠÐļÑĢÑĭ
ĠÐ¾Ð¿Ð°Ñģ
ÑĤÐµÐ³
ĠÐ´ÑĢÐ°Ð¼Ð°ÑĤ
Ġ1998
ÑıÑīÐ¸Ñħ
ÑĦÐ¸ÐºÐ°ÑĨÐ¸Ð¸
ĠÐ½Ð°ÑģÐµÐ»ÐµÐ½Ð¸Ðµ
Ð¼Ð¾Ð²
ĠÑģÐ¾Ð·Ð´Ð°Ð½Ð¸Ñı
ĠÐ²Ð¾ÑģÐ¿ÑĢÐ¸
ĠÐĿÐµÐºÐ¾ÑĤÐ¾ÑĢÑĭÐµ
Ð¸ÑĤÐµÐ»ÑĮÐ½Ð¾ÑģÑĤÐ¸
Ġ1917
ĠÐ¿Ð¾Ð·Ð¶Ðµ
ÑıÑģÑĮ
ĠÐ´Ð¾Ð¿Ð¾Ð»Ð½Ð¸ÑĤÐµÐ»ÑĮ
ĠÑĢÐµÐ¶Ð¸ÑģÑģÑĳÑĢ
ĠÐ¸Ð¼ÐµÐ»
ÑĢÐµÐ³
ÑĤÐ¸ÐºÐ°
ĠÐºÐ¾Ð¼Ð¸ÑĤ
ĠÐºÐ½Ð¸Ð³
ÑıÑİÑĤÑģÑı
ĠÐ²ÑģÐ¿
ĠÐ¿Ð°Ð´
Ð°Ð»ÑĮÐ½Ð¾Ð¼
ĠÑĢÐ°Ð·Ð»Ð¸ÑĩÐ½ÑĭÐµ
ĠÐ¡ÑĤÐ°ÑĢ
ĠÐĵÐµÐ½ÑĢÐ¸Ñħ
ĠÐ¿ÑĢÐµÐ´Ð¿Ð¾Ð»Ð°Ð³
ĠÐ±ÑĢÐ¾Ð½
Ð»Ð°Ð³Ð°
ĠÐ¿Ð¸ÑģÐ°Ð»
ĠÐ·ÐµÐ¼ÐµÐ»ÑĮ
ĠÐ¸Ð·Ð±ÑĢÐ°Ð½
ÑģÑĤÐ¸ÐºÐ¸
Ġ80
ĠÐ´Ð¾ÑģÑĤÐ°ÑĤÐ¾ÑĩÐ½Ð¾
ĠÐ½Ð¾Ð²ÑĭÐµ
Ð°Ð²ÐºÐ°Ð·
ÑĢÐ¾Ð¶
ĠÐ²Ð¾Ð¹Ð½Ðµ
ÑĪÐ¸Ð±
ĠÐ¶Ð¸Ð´
ĠÐ¿Ð¾Ð¼ÐµÑī
ĠÐ¡ÑĤÐ°Ð»
ĠÐ¤Ð¾ÑĢ
ĠÐĽÐµÐ²
ru
ĠÑģÐ¸Ð»Ð°
ĠÑĢÐ°Ð±Ð¾ÑĤÐ°
ĠÐ¿ÑıÑĤÐ¸
ĠÐ´Ð¾ÐºÐ°Ð·
Ð°Ð»Ð¾Ð¼
ĠÐļÑĢÐ¸
ĠÐĿÐ°Ð·
ĠÐĲÑĢÐ¼
ĠÐ¿ÑĢÐ¾Ð¸ÑģÑħÐ¾Ð¶Ð´ÐµÐ½Ð¸Ñı
ÑĤÐµÐ·
Ð·Ðµ
ĠÐ¼ÑĭÑĪ
Ð»ÐµÐ±
ĠÐºÐ¾Ð½ÑģÑĤÐ¸ÑĤÑĥ
Ð½ÑİÑİ
ÑĪÐ»Ð°
Ġa
ĠÐ²ÐµÐ»
Ð¾Ð½Ñĥ
ÑĩÐµÐº
ĠÐ¾Ð±ÑĬÑĳÐ¼
ĠÑĢÐµÐ²Ð¾Ð»ÑİÑĨÐ¸Ð¸
Ð¾ÑĩÐ½ÑĭÑħ
ĠÐ°ÑģÑģ
ĠÑĩÐ°ÑģÑĤÑĮÑİ
ĠÐ¿ÑĥÑĤÑĳÐ¼
ĠÐ²Ð¾ÑģÐ¿
Ð½Ð°ÑĩÐ°ÐµÑĤ
Ġ1997
ĠÐ²ÑģÑı
ÐºÐ¸Ð½Ð°
ĠÐ½Ð¾Ð¼
ĠÐ¾Ð±ÑĢÐ°ÑĤ
ĠÐŃÑĤÐ¾ÑĤ
ĠÑģÐµÐ²
ÐµÐ½ÑĤÑĭ
ĠÑģÐ¾Ð²ÑĢÐµÐ¼ÐµÐ½Ð½Ð¾Ð¹
ĠÑģÑĦÐ¾ÑĢÐ¼Ð¸ÑĢÐ¾Ð²
ÑĥÑİÑīÐµÐ³Ð¾
ĠÐĺÐ·ÑĢÐ°
ÑĩÐ°Ñģ
ĠÐ²Ð¿Ð¾Ñģ
ÑĩÐµÐ½
ÐµÐ¹Ð¼
ĠÐ¶Ð°Ð½
90
ĠÐ²Ð¿Ð¾ÑģÐ»ÐµÐ´ÑģÑĤÐ²Ð¸Ð¸
Ġv
ĠÐ¿ÑĤÐ¸
ĠÑĢÐ°ÑģÑģÐºÐ°Ð·
ÑĪÐ°
Ð¾ÑĢÑĦ
ĠÑģÐ»ÑĥÑĩÐ°Ñı
Ð»ÑıÐ½Ð´
ĠÑģÑĢÐ°Ð¶
ĠÐ±Ð°ÑĪ
ĠÑģÐ²Ð¾ÑĳÐ¼
ĠÐ¾ÑģÐ½Ð¾Ð²Ð½ÑĭÑħ
ĠÑĢÑĥÑģÑģÐºÐ¾Ð¹
ÑıÑĤÑĮÑģÑı
ĠÐ¼Ð°ÑĢÑĪÑĢÑĥ
ĠÐ¸Ð½ÑģÑĤÑĢÑĥÐ¼ÐµÐ½ÑĤ
ĠÐ°ÑĢÐ¼ÑıÐ½
Ð°ÑĢÐ´Ð°
Ð¸ÑĩÐµÑģÐºÐ¸Ð¼Ð¸
ĠÑģÐ¿ÐµÐºÑĤ
ĠÑĤÐ¾Ð½Ð½
Ð¾ÐºÐ¾Ð»
ÐºÐ¸Ð¼Ð¸
th
ĠÐ´Ð¸Ð²
ĠÐ¸ÑģÐ¿Ð¾Ð»ÑĮÐ·Ð¾Ð²Ð°ÑĤÑĮ
ĠÐ½Ð°Ð»Ð¸Ñĩ
Ð±Ð¾Ð»ÑĮ
ĠÐºÑĤÐ¾
ĠÐ¿ÑĢÐ°Ð²Ð»ÐµÐ½Ð¸Ñı
Ð¾Ð»Ð¾Ð³Ð¸ÑĩÐµÑģÐºÐ¸Ñħ
ĠÐ½ÑĥÐ¶
ĠÐ²Ð¸Ð´Ð°
ĠÐĲÐ½Ð³Ð»Ð¸Ð¸
ĠÐĵÑĥ
ĠÐ¿Ð¾Ð´ÑħÐ¾Ð´
ĠÐ¸Ð½Ð¶ÐµÐ½
ĠÐĲÐºÐ°Ð´ÐµÐ¼
ĠÐ¿ÐµÑĢÐ²ÑĥÑİ
ĠÐ¿Ð°ÑģÑģÐ°Ð¶
ĠÐ½Ð°Ð½
Ñĸ
ÐµÑĢÐº
ĠÐĽÐ¸Ð²
ĠÐľÐ¾ÑģÐºÐ²Ñĭ
ĠÐ¿ÑĢÐ¸ÑģÑĥÑĤÑģÑĤÐ²
ĠÐ´ÐµÐ½
ĠÐºÐ¾ÑĤÐ¾ÑĢÐ¾Ð¼Ñĥ
ĠÐ¿ÐµÑĢÐ¸Ð¾Ð´Ð°
ĠÑĨÐµÐ»Ð¾Ð¼
Ġ1989
ĠÐ¾Ð±ÑīÐµÐ¹
ÑİÑīÐ¸ÐµÑģÑı
ĠÐºÑĢÐ¾Ð¼Ðµ
ĠÐ¾Ð»Ð¸Ð¼Ð¿Ð¸Ð¹
ĠÑĩÐ¸ÑģÑĤ
ĠÐĲÐ»ÐµÐºÑģÐµ
Ð°Ð½Ð°Ð²
ĠÐ³Ð»Ð°
ĠÑĤÐ¸ÑĤ
ĠÐŁÑĢÐµÐ·Ð¸Ð´ÐµÐ½ÑĤ
ĠÐ´ÑĥÑĪ
ÑĨÐ¸ÑıÐ¼Ð¸
ĠÑģÐ¾Ð±ÑĢÐ°
ĠÑİÐ³Ð¾
Ð´Ð°Ð²
ĠÑģÐ²ÐµÑĤÐ°
ĠÐ°Ð²ÑĤÐ¾Ð½Ð¾Ð¼
ĠÐ´Ð²Ð¸Ð¶ÐµÐ½Ð¸Ðµ
ÑĢÐ¾ÑĦ
ĠÑĥÐºÑĢÐµÐ¿
Ã©
ÑĨÐµÐ½Ð¸
Ð¾Ð·Ð½
Ð¾Ð·Ñĭ
ÑĩÐµÑģÐºÐ¸Ð¼
ĠÐ·Ð½Ð°ÑĩÐ¸ÑĤÐµÐ»ÑĮÐ½Ð¾
ĠÑĨÐµÐ½ÑĤÑĢÐ¾Ð¼
Ð°ÑĤÐ¾ÑĢÐ°
Ð°Ð±ÑĢÐ¸
ess
ĠÐ¡ÐºÐ¾Ð½Ñĩ
ĠÐľÐ¸Ð½Ð¸ÑģÑĤ
ĠÐ±Ð°ÑĢ
ÑĥÑĢÐ³Ð°
ĠÐ¿ÑĢÐ¸Ð½ÑıÐ»
Ð¾Ð±ÑĥÑģ
Ġ70
ĠÐ²Ð¾ÐµÐ½Ð½Ð¾
ĠÐ²Ð¾Ð·Ð¼Ð¾Ð¶Ð½Ð¾
Ġl
ÑĨÐµÐ¿
ÑģÑĥÑĢ
Ð·Ð¸
ĠÐ¶Ð¸Ð»
ĠÐ¿ÑĢÐ¾Ð¸Ð·Ð²Ð¾Ð´ÑģÑĤÐ²Ð¾
ĠÐŁÐ¾ÑģÑĤ
ĠÑĩÐ°ÑģÐ¾Ð²
Ð¾Ð²Ð°Ð½
ĠÐºÑĢÐµÑģÑĤÑĮÑıÐ½
ĠÐ²ÑĭÐ¿ÑĥÑģÐº
ĠÑĦÐ¸Ð»Ð¾ÑģÐ¾ÑĦÐ¸Ð¸
ri
ĠÐºÐ°Ð½Ð´Ð¸Ð´
ĠÑģÑĢÐµÐ´ÑģÑĤÐ²
Ġ"
ĠÐļÐ°ÑĢÐ°
ht
Ð¸ÑĤÐµÐ»ÑıÐ¼Ð¸
ĠÑģÐ¾Ð±ÑĭÑĤÐ¸Ñı
ĠÑĥÑģÑĤÐ°Ð½Ð¾Ð²Ð»ÐµÐ½
ĠÑģÐ°Ð¼Ð¾Ð³Ð¾
ĠÐ²ÑĭÑĩÐ¸Ñģ
ĠÐ²ÐµÐ»Ð¸Ðº
ÑĢÑĥÐµÑĤ
ĠÐ¼Ð¾ÑĤ
ĠÑĩÐ¸ÑģÐµÐ»
ĠÐ³ÐµÐ½
Ð¸Ð²Ð°Ð½Ð¸Ñı
ĠÐºÐ¾Ð¿
ĠÐ¿ÑĢÐµÐ¿Ð°ÑĢÐ°
ĠÐ´Ð¾Ð±Ñĭ
ÐµÐ¼Ð°Ñı
ĠÐ¶Ð¸Ð²Ð¾ÑĤÐ½ÑĭÑħ
Ð¾Ð²Ð¸Ñĩ
Ġ1945
Ð½ÑĥÐ¶Ð´
ĠÐļÐ»Ð¸
ĠÐ²Ð¼ÐµÑģÑĤÐ¾
ĠÐľÐ°ÑĤ
ĠÑģÐºÑĥÐ»ÑĮÐ¿
ĠÑģÐµÑĢÐµÐ´Ð¸Ð½Ðµ
ĠÐ¯Ð¿Ð¾Ð½Ð¸Ð¸
ĠÑĤÑıÐ¶ÑĳÐ»
ĠÐ³Ð»
ÑĦÐ¸Ðº
ĠÐĹÐµÐ¼Ð»Ð¸
ĠÐĲÑĤ
ĠÐ¿ÑıÑĤ
ĠÑģÐµÐ·
Ð¾Ð»ÐµÑĤ
ĠÑģÑĤÐ¾
ĠÑĥÑģÐ¿ÐµÑħ
ĠÐŀÐ¿
ĠÑĢÐµÑģÐ¿ÑĥÐ±Ð»Ð¸ÐºÐ¸
ÐµÑģÐ°
Ð¸ÑĤÐµÐ»ÑĮÐ½Ð¾Ð¹
ÑİÑīÐ¸Ð¼Ð¸
ĠÐ¸Ð·Ð¼ÐµÐ½ÐµÐ½Ð¸Ñı
ĠÐ¿ÑĢÐ¾ÑĦÐµÑģÑģÐ¸Ð¾Ð½
35
ĠÑĢÑıÐ´Ð°
ĠÐ¼Ð°Ð½
ĠÐ¿Ð¾Ð»Ð½Ð¾Ð¼
ĠÐĽÑĮ
ĠÐ¿ÑĢÐ¾Ð´ÑĥÐºÑĤ
ĠÐ¿Ð¾Ð»Ð¾Ð¶ÐµÐ½Ð¸Ðµ
ÑģÑĤÐ¸ÐºÐ°
ĠÐĲÐ»ÐµÐºÑģÐ°Ð½Ð´ÑĢÐ¾Ð²
ĠÐ½Ð°Ð¿ÑĢÑı
ĠÑĪÐ¸ÑĢÐ¾ÐºÐ¾
Ð½ÐµÐ½Ð¸Ñı
ĠÐ°ÑĤÐ¼Ð¾Ñģ
ÐµÐµÐ²
ĠÐ¾ÑĪÐ¸Ð±
ĠÐ¼ÑĥÑģ
Ð°Ð¹Ð´Ð¶
ĠÐ³Ð¾ÑģÑĥÐ´Ð°ÑĢÑģÑĤÐ²ÐµÐ½Ð½Ð¾Ð³Ð¾
ĠÑģÐµÑĢÐµ
ĠÐľÐ°Ð½
ĠÐĿÐ¾ÑĢ
ĠÐľÐ¸ÑĢ
ĠÐ³Ð¾ÑģÑĥÐ´Ð°ÑĢÑģÑĤÐ²
ĠÐ³ÐµÑĢÑĨÐ¾Ð³
ĠÐĺÑĤÐ°Ð»Ð¸Ð¸
ĠÐĲÐ·Ð¸Ð¸
ĠÐºÐ°ÑĤÐµÐ³Ð¾
ĠÐ´ÐµÑģÑıÑĤÐ¸
ĠÐ²ÐµÑīÐµÑģÑĤÐ²Ð°
ĠÐ¿ÐµÑĩÐ°ÑĤ
ĠÐ²ÐµÑī
Ð¿Ð°
ĠÐ¤ÑĳÐ´
ĠÐ³Ð¾Ð²Ð¾ÑĢÐ¸
ĠÐļÐ¾Ð½ÑģÑĤÐ¸ÑĤÑĥ
ĠÐºÐ½ÑıÐ·ÑĮ
ĠÐ°ÑģÑĤÑĢÐ¾Ð½Ð¾Ð¼
ĠÐĿÐµÑģÐ¼Ð¾ÑĤÑĢÑı
ov
Ð¼Ð¾ÑĢ
ÑĩÐµÑģÑĤÐ²Ð¾
ĠÑĩÐµÐ»
ĠÐ¿Ð¾Ð±ÐµÑĢÐµÐ¶
ĠÐ¾Ð³ÑĢÐ¾Ð¼
Ð¼Ð¸Ð½Ð¸ÑģÑĤ
ĠÑĢÑĥÑģÑģÐºÐ¾Ð³Ð¾
ĠÑī
ĠÐ¿Ð°ÑĢÑĤÐ¸Ð¹
ÐµÐ½Ð½Ð¾Ð¼
ĠÐ¶ÑĥÑĢÐ½
ĠÑįÑĦÑĦÐµÐºÑĤÐ¸Ð²
ĠÐ¿ÑĢÐ¾Ðº
Ġ35
ĠÐ¸ÑģÐ¿Ð¾Ð»ÑĮÐ·Ð¾Ð²Ð°Ð½Ð¸Ñı
ĠÐ¾ÑģÑĥÑīÐµÑģÑĤÐ²Ð»Ñı
ĠÐ¾Ð´Ð½Ð¾Ð¼
ĠÑĨÐ¸ÑĦ
ĠÐ»ÑĳÐ³
ĠÐ½Ð°Ð·Ð²Ð°Ð½Ð¸ÐµÐ¼
ĠÐ·Ð°Ð¼ÐµÑĤ
ĠÑĢÐµÑĪÐµÐ½Ð¸Ñı
ÑģÑĤÐ¸ÑĤÑĥÑĤÐ°
Ð¡ÑĤ
ĠÑĢÐ°ÑģÑĪÐ¸ÑĢ
ĠÐ¿Ð¾ÑıÐ²Ð»Ñı
Ð¸ÑĨÐµÐ¹
ĠÐŁÐµÑĢÐ²ÑĭÐ¹
ĠÑĢÑĥÑģÑģÐºÐ¸Ñħ
ĠÐĿÐ¾Ð²Ð³Ð¾ÑĢÐ¾Ð´
Ð»Ñĳ
Ð¸Ð²Ð°ÑĤÑĮ
ĠÐļÐ°ÑĢÐ»
ĠÑģÐ°Ð¹
ĠÐĽÐ°ÑĤ
Ð¸ÑģÑĤÑĭ
ĠÑģÐ¸ÑģÑĤÐµÐ¼Ñĥ
ĠÑĤÐµÐ½
ĠÑĤÐµÐ¼Ð¿ÐµÑĢÐ°ÑĤÑĥÑĢÐ°
Ð¾Ð±ÐµÐ»ÐµÐ²
ĠÐ´Ð¾ÑħÐ¾Ð´
Ð°Ð»ÑĮÐ½ÑĥÑİ
ĠÑģÐ¿ÑĢÐ°Ð²
ĠÐ»Ð¸ÑĤÐµÑĢÐ°ÑĤÑĥÑĢÑĭ
ÑģÑĤÐ°Ð½Ð¾Ð²
ĠÐ¾ÑĢÐ´ÐµÐ½
ĠÐ¾Ð´Ð½Ð¾Ð²ÑĢÐµÐ¼ÐµÐ½Ð½Ð¾
ĠÑĤÑĢÐ°Ð½Ñģ
ÑĢÐ°Ð·Ñĥ
ĠÐĺÑģ
ÐµÑĢÐ±Ð°Ð¹Ð´Ð¶
ĠÐ¿Ð°
ÐºÐ»Ð¾Ð½
Ð½ÑıÑĤ
ĠÐľÑĥÐ·
ĠÐĽÐ¾Ð½Ð´
ĠÐ²Ð°Ð»
ĠÑĤÐ°Ð¹
ĠÐ¿ÑĢÐ¾ÑĤÐµÑģÑĤ
ĠÐŃÐ´
ĠÐ´Ð¸ÑģÐº
ÑĩÐ¸ÑĤ
ĠÐ½Ð°ÑĢÐ¾Ð´Ð½ÑĭÐ¹
ÐºÐ°Ð·ÑĭÐ²
ĠÐ¿ÑĢÐµÐ´Ð¼ÐµÑĤ
ĠÐ½Ð°ÑĢÐ¾Ð´Ð¾Ð²
ĠÐ³Ð»Ð°Ð²Ð½ÑĭÐ¼
ĠÐ»Ð¸Ð´
ĠÐ¿Ð¾Ð»Ðµ
Ð°ÑĢÐ¸Ñı
Ð³Ð¾Ð²Ð¾ÑĢ
ĠÐŀÑĤÐµÑĩÐµÑģÑĤÐ²ÐµÐ½Ð½Ð¾Ð¹
Ð¸Ð·Ð²Ð¾Ð´
ĠÑįÑĤÑĥ
ĠÐ¼ÐµÑģÑĤÐ°
ĠÐ»ÑİÐ´Ð¸
ĠÐŀÐ±Ñī
ÑīÐ°
ÑĤÐ¾ÑĢÐ¾Ð¼
ĠÑįÐ½ÐµÑĢÐ³Ð¸Ð¸
ÑģÑĤÑĢÐ¸
Ð°ÑĤÐ°ÑĢ
Ð¿Ð¾Ð»Ð¸ÑĤ
ÑģÑģÐ¸
Ð¶ÐµÐ³Ð¾Ð´
ÑĳÑĢÐ°
ĠÐľÐ¾Ð»
ĠÐ¿Ð¾Ð»ÑĥÑĩÐ¸Ð»Ð¸
ĠÐ¸Ð½Ð¸
ÑĩÐ½Ð¾Ð³Ð¾
ĠÐ¿Ð¾Ð²ÐµÑĢÑħÐ½Ð¾ÑģÑĤÐ¸
ĠÑĦÐ¾ÑĢÐ¼Ðµ
Ð¸Ð½Ð¾Ð¼
Ð¸ÑĤÐµÐ»ÑĮÐ½Ð¾Ð³Ð¾
Ð½ÐµÐ²ÐµÐº
ĠÐ±Ðµ
ĠÐ¿Ð¾Ð»ÑĥÑĩÐ¸Ð»Ð°
ĠÐĺÐ³
ĠÐ¢ÑĢÑĥ
ĠÐ¿ÑĢÐ¾ÐµÐºÑĤ
Ð°Ð»Ð¸ÑĤ
Ð¾Ð½Ð¾Ñģ
ÑĳÐ·Ð´
Ð¸ÐºÐ¾
ĠÐ¡ÐµÐ²ÐµÑĢÐ½Ð¾Ð¹
ĠÑģÐµÐºÑĢÐµÑĤ
ÑĩÐ½ÑĭÐ¹
ĠÐºÐ²Ð°Ð½ÑĤÐ¾Ð²
ĠÐ½ÑĭÐ½Ðµ
ĠÐ±ÐµÐ·Ð¾Ð¿Ð°ÑģÐ½Ð¾ÑģÑĤÐ¸
ĠÐ¢ÑĢÐ¾
ĠÐŃÑĢ
ĠÐ³Ð¾ÑģÑĥÐ´Ð°ÑĢÑģÑĤÐ²Ð¾
Ð±ÐµÐº
ĠÑĩÐ»ÐµÐ½Ð¾Ð²
99
ĠÐ¿Ð»Ð°Ð½Ð¸
ĠÑģÐµÐ³
ĠÐĲÐ³
Ð°Ð½Ð½ÑĭÐ¼
Ð¸Ð¼ÐµÐ½Ð¾Ð²
Ð²Ð°ÑİÑĤÑģÑı
ĠÐ·Ð°ÑīÐ¸ÑĤ
ĠÐ¼ÐµÑĢÐµ
ĠÐ¡ÐºÐ¾Ð½ÑĩÐ°Ð»Ð¸ÑģÑĮ
ĠÐŃÑĤÐ°
ĠÐºÐ¾Ð½ÑĨÐµÐ½ÑĤ
Ð¸ÑĤÐµÐ»ÑĮÐ½Ð¾Ðµ
ĠÐ¢Ð¸Ð¼
ĠÐ¿ÑĢÐ¾ÐµÐº
ĠÐ½ÐµÑĳ
ĠÐľÐµÑĤ
ĠÐ³Ð¾ÑĢÐ¾Ð´ÑģÐºÐ¾Ð¹
ĠÐ¿ÑĢÐ¾Ð¸Ð·Ð²ÐµÐ´ÐµÐ½Ð¸Ñı
ĠÐľÐ°Ð³
85
ÐµÐ¹Ð½Ð°
Ġ)
Ð½Ð¾Ð¿
ĠÐ¿ÑĢÐµÐ´Ð¿Ð¾Ð»Ð¾Ð¶
ĠÐ½Ð°ÑĩÐ¸Ð½
ĠÑĢÐµÐ¶Ð¸Ð¼
ĠÐ´ÐµÐ¿ÑĥÑĤÐ°ÑĤÐ¾Ð²
Ð´Ð¾Ð¼
Ð°ÑĤÐ°ÑģÑĤÑĢÐ¾
ĠÐ¿Ð°ÑĤÑĢÐ¸
75
Ð³Ð¾Ðµ
ĠÐ¼ÐµÐ¶
ĠÐºÑĢÐ°Ñı
ĠÐ½Ð¾Ð²Ð¾Ð¹
ĠÑģÐµÐ¼ÐµÐ¹
ĠÐŀÐºÑĤ
ĠÑĤÐµÑĢÐ¼
ĠÐ²Ð¾ÐºÑĢÑĥÐ³
Ð¾Ð¶Ð´Ðµ
ĠÑģÐ¼Ð¾Ð³
ĠÐ¿ÐµÑĩ
und
ĠÐ¿Ð¸Ñī
ĠÐ¡Ð¸
ĠÐ¿ÑĢÐ¸Ð½Ð¸Ð¼Ð°
ĠÐ¿ÐµÑĢÐµÐ¼ÐµÐ½
ĠÐ±Ð¾Ð»ÑĮÑĪÐ¾Ðµ
ĠÑĥÑģÐ¿ÐµÑĪ
ĠÐºÐ»Ð°Ð´
ab
Ð°ÑħÐ°
ĠÐ¿ÑĢÐµÑģÑĤÑĥÐ¿
ĠÐ¦Ðļ
Ð½Ð¸ÐºÐµ
ĠÐ¯Ð½
ĠÐ¼Ð¾Ð»ÐµÐº
ĠÐŀÐŀÐĿ
Ð¾ÑĢÐµÐ¼
ĠÐ´ÐµÑĢÐ¶
Ð°ÐºÐ¾Ð½
ĠÐ½Ð°ÑħÐ¾Ð´ÑıÑĤÑģÑı
Ð°Ð½Ñģ
Ð½Ð¾Ð¾Ð±ÑĢÐ°Ð·
ĠÐĹÐ°Ð²
Ð¾Ð²Ð°ÑĤÑĮ
ĠÐĴÐµÑĢÑħÐ¾Ð²Ð½Ð¾Ð³Ð¾
ĠÑĢÐ°Ð·Ð¼
Ð¶Ð´Ðµ
ĠÐ¶Ð¸Ð²Ð¾Ð¿Ð¸Ñģ
ĠÐ¾ÑĤÐ½Ð¾ÑģÑıÑĤÑģÑı
ub
ĠÐ´Ð¾Ð»Ð»Ð°ÑĢÐ¾Ð²
ĠÐ»Ð°ÑĥÑĢÐµÐ°ÑĤ
ĠÑĥÑģÐ¸
ÑĳÐ½Ð½Ð¾Ðµ
ĠÐ²ÐµÐ»Ð¸
ÑįÑĤ
ĠÑĢÐ°ÑģÐº
ĠÐļÐ°Ð¿
ĠÐ¼Ð°Ð³Ð½Ð¸ÑĤ
ĠÑĦÐ¾ÑĢÐ¼Ð°
ĠÐ²Ð¾ÐµÐ½Ð½ÑĭÑħ
ĠÐ²ÑĭÐ¿Ð¾Ð»Ð½Ñı
Ð°Ð´Ð¶
ÑĥÐ»ÑĮÐ¼Ð°Ð½
ÑĤÐ¾ÑĢÐ°Ñı
Ġ1950
ĠÐ°ÐºÐ°Ð´ÐµÐ¼Ð¸Ð¸
ĠÑħÑĢÐ°Ð½
ĠÐºÐ¾ÑĢÐ¾Ð»
ĠÐ¿ÑĢÐµÑģÑĤ
ĠÐ´Ð²ÑĥÐ¼Ñı
Ġ1940
ĠÑĤÑĢÐ°ÐºÑĤ
ĠÐŁÐµÑĤÑĢÐ¾Ð²
ĠÐĿÐ¸Ð¶
ĠÐĵÐ°
ĠÑģÐ°Ð¼Ð¾Ð»ÑĳÑĤ
Ð¸Ð½ÑĮ
Ð¾ÐºÐ¸
ĠÐ½Ð¸Ð¶Ðµ
ÑĢÐ¸Ð¿
ĠÐŁÐ¾Ð±
ĠÐ½Ð°ÑĩÐ°Ð»Ð¸
ĠÑģÐ¸Ð»Ñĥ
ÐºÐ¾Ð¿
ÑĢÐ°Ð½Ð¸Ñı
Ð²Ð°Ð»ÑĮ
ĠÐºÑĢÑĥÐ¿Ð½ÑĭÑħ
ĠÑĢÐ°ÑģÐ¿Ð¾Ð»Ð¾Ð¶ÐµÐ½
ÑİÐ¶
ĠÐ²ÑĭÐ±Ð¾ÑĢÐ°Ñħ
ĠÐ·Ð°Ð±Ð¾Ð»ÐµÐ²
ÑĥÐ½Ð°
Ð´Ð¸Ðº
ĠÑģÐ¾Ð¾ÑĢÑĥÐ¶
ĠÐĺÑģÑĤÐ¾ÑĢÐ¸
Ð°Ð½Ð¸ÐµÐ¹
ĠÐºÐ¾Ð¼Ð¿Ð°Ð½Ð¸Ñı
Ð°ÑĤÑĥ
Ð¾Ð»Ð¾Ð³Ð¸ÑĩÐµÑģÐºÐ¸Ðµ
ĠÐłÐ¾ÑģÑĤ
Ð²Ð°Ð½Ð¸Ðµ
ÑĮÐµÐ²
Ð·Ð¸Ð¸
ĠÐ¸ÑģÐ¿Ð¾Ð»
ÑĥÑīÐµÐ³Ð¾
Ð¾Ð²ÑĭÐ¹
ÐµÑĢÐ°Ð½
ĠÑģÐ¾ÑģÑĤÐ¾ÑıÐ½Ð¸Ñİ
ÑĥÑīÐ¸Ñħ
ĠÑģÐ»Ð°Ð²ÑıÐ½
ĠÐĵÐµÑĢÐ¾Ð¹
ĠÑģÐ¾ÐºÑĢÐ°Ñī
ĠÐ¿Ð¾ÑģÑĤÐµÐ¿
ĠÐ±Ð¾Ð³Ð°ÑĤ
ÐºÐ»Ð¸
ÐµÐºÐ¸
ĠÑģÐ¿ÑĥÑĤ
ĠÐ¿ÐµÑĢÐ²Ð¾Ðµ
Ð³Ð°Ð½Ð¸
ÐµÐ¾Ð´
ÑĢÐ¸Ðº
ĠÐĶÐµÐ¼
ĠÑĢÐ¾Ð»Ð¸
ĠÐ½Ð°Ð¿ÑĢÐ°Ð²Ð»ÐµÐ½Ð¸Ñı
ĠÐ¶ÐµÐ½ÑīÐ¸Ð½
ĠÐ´Ð¸Ð¿Ð»Ð¾Ð¼Ð°ÑĤ
ÑħÐ¸
ĠÐ½Ð°Ð³ÑĢÐ°
ĠÐŀÐ±ÑĬ
45
ĠÐ¼Ð¼
ĠÐ¿Ð¾Ð´Ð°Ð²
ĠÑģÐ»ÐµÐ´ÑĥÑİÑīÐ¸Ðµ
ĠÑĢÐ¾Ðº
ĠÐ°ÑįÑĢÐ¾Ð¿
ĠÐ»Ðµ
ÑģÐ¾Ð»ÑİÑĤ
ĠÐ¾ÑĤÐ¼Ðµ
ĠÐ¢Ñĥ
Ġ1944
ĠÐ¾Ð²
ĠÐļÐ¾Ð³Ð´Ð°
Ð¸ÑĤÐµÐ»ÑĮÐ½Ð¾ÑģÑĤÑĮ
Ġde
ĠÐŁÐ°Ð¼ÑıÑĤ
ÐºÐ¾Ð²ÑģÐºÐ¸Ð¹
Ð¸ÑĢÐ¾Ð²Ð°ÑĤÑĮ
ĠÑĤÑĢÑĥÐ´Ð°
ĠÑģÐ¿Ð¾ÑĢÑĤÐ¸Ð²
ĠÐĴÐ¾Ð¹
ĠÐºÐ¾Ð½ÑĨÐµÐ¿
ĠÐ°ÑĢÐ¼Ð¸Ñı
Ð¾ÑĢÐ¾Ð¼
ĠÐ¢ÑĢÐ°Ð½
ĠÑĪÐ²ÐµÐ´
ĠÑģÐ¸Ð»ÑĮÐ½Ð¾
ĠÑĪÐ°ÑħÐ¼Ð°ÑĤ
ĠÐ¿ÑĢÐ¸Ð´
ÑģÑĤÐ²ÑĥÐµÑĤ
Ð½Ð¸ÐµÐ¼
ĠÐ²Ð¾Ð·Ð¼Ð¾Ð¶Ð½Ð¾ÑģÑĤÐ¸
ĠÐĿÑĮÑİ
ĠÑģÐ¼ÑĭÑģ
Ð°Ð½ÑĤÑĭ
ĠÑĤÐµÐ¾ÑĢÐµ
ĠÐ¼ÑĥÐ·ÑĭÐºÐ°Ð½
Ð¸Ð½ÑģÐºÐ¸Ñħ
ĠÐłÑĭ
ĠÐ¿Ð¾Ð´ÑĢÐ°Ð·
Ð¸Ð°ÑĤ
Ð¾ÐºÐ¾
ĠÐ»ÐµÑĩ
ĠÐ»ÐµÐ¶
ĠÑĥÐ¿Ð¾Ð¼Ð¸Ð½Ð°
ĠY
ĠÐ¼Ð¾Ð·
ĠÐ¿ÑĢÐ¸ÑĤ
ĠÐ²ÑĭÑģÑĤÐ°Ð²
Ð²Ð°Ñı
ĠÐ¿Ð¾Ð»ÑĳÑĤ
ĠÐľÐ¾ÑģÐºÐ²Ð°
ĠÑįÐºÐ·
ĠÐŁÐ¾ÑģÐ»ÐµÐ´
ĠÐ´Ð¾ÑĢÐ¾Ð³Ð¸
ĠÐ½Ð¸ÐºÐ°Ðº
ÐµÑĤÐ¾Ð¼
ĠÐŀÑģÐ¾Ð±
ĠÐ¿ÐµÑĢÑģÐ¾Ð½Ð°
ĠXVII
ĠÐŁÐ¾Ð»Ð¸ÑĤ
ĠÐŁÐ¾ÑĩÑĳÑĤ
ind
ard
33
ĠÑģÑĥÐ±ÑĬ
ÐºÐ½Ð¾Ð²
ĠÑģÐ¾Ð¾ÑĤÐ²ÐµÑĤÑģÑĤÐ²ÐµÐ½Ð½Ð¾
ĠÐ²Ð²
ĠÐºÑĢÐ°ÑĤ
Ð²ÐµÑī
ĠÐļÐ¸ÑĤÐ°Ð¹
ĠÐ¸Ð·Ð¾Ð±ÑĢÐµÑĤ
ĠÐŀÐ½Ð°
ÐµÑĢÑĥ
ĠÐ¡Ð»Ð¾Ð²
ĠÐ¾ÑĤÐ½Ð¾ÑĪÐµÐ½Ð¸Ð¸
ĠÐĴÐ°ÑģÐ¸Ð»ÑĮ
ĠÑģÐ²Ñı
ĠÐ²Ð¾Ð·Ð½Ð¸ÐºÐ°
65
Ð¾Ð´Ñĭ
ĠÐºÐ¸Ð»
Ð°Ð½Ð¸ÑıÑħ
ĠÐŀÐ±ÑĢÐ°Ð·
ĠÐ¾Ð¿ÐµÑĢÐ°ÑĨÐ¸Ð¸
ĠÑģÐ»ÑĥÑĩÐ°Ð¹
Ð°ÑĨ
ĠÐĺÐ¼Ð¿ÐµÑĢÐ°
ĠÑģÐ°Ð¼Ð¸
Ð°Ð½ÑģÐºÐ¸Ñħ
ĠÐ±ÑĭÑģÑĤÑĢÐ¾
ÐĿÐļ
Ð³Ð¾Ð½
ĠÑĢÑĥÑģÑģÐºÐ¾Ð¼
ĠÐ¼Ð¸Ð½Ð¸Ð¼
Ð°ÑģÐº
ĠÐ»Ñĥ
Ð¾Ð»Ñĭ
ĠÐ´ÐµÐ¹ÑģÑĤÐ²Ð¸Ðµ
ĠÐ¼Ð¾Ð´ÐµÐ»Ð¸
Ð¸ÑĢÑĥÐµÑĤ
ĠÐºÑĢÐµÑģÑĤ
ÐĻ
ĠÐ¾ÑĤÑĢÐ¸ÑĨ
ĠÐºÐ¾Ð¼Ð¸Ñģ
ĠÐ¾Ð±Ð¾ÑĢÑĥÐ´
ÑħÐ¾Ð²
ÐĹÐ°
ĠÐĵÐ¾Ð»
ĠÐºÐ¾ÑĢÐ¾ÑĤ
ĠÐ²Ð¸Ð½
ĠÐ½ÐµÐ¿ÑĢÐ¸
Ð²ÐµÐ¹ÑĨ
Ð¾Ð¸
ĠÑģÑĤÑĢÐµÐ¼
ĠÐ¿ÑĥÑĤÐµ
ĠÐ¸Ð½ÑĤÐµÑĢÐµÑģ
Ð¾Ð´Ð½Ñı
ÑĪÐ¸ÑħÑģÑı
ĠÐ¾ÑĤÐ½Ð¾ÑģÐ¸ÑĤÑģÑı
Ð¾ÑĢÑıÐ´
ĠÐ²ÑĭÐ½ÑĥÐ¶Ð´
ĠÐ³ÑĥÐ±ÐµÑĢÐ½
ÑĤÐ¸ÑĩÐµÑģÐºÐ¸Ñħ
ĠÐ¿ÑĢÐ¸Ð²Ð¾Ð´Ð¸ÑĤ
Ð¾Ñĥ
ĠÐ¶ÐµÑĢÑĤ
ĠÐ¸Ð»
ĠÐ¾Ð±Ð¾ÑĢÐ¾Ð½Ñĭ
ĠÐ¾Ð¿Ð¸ÑģÑĭÐ²Ð°
ĠÑģÐ»ÑĥÑĩÐ°ÑıÑħ
ĠÑĢÐµÑģÑĥÑĢ
ÑĳÐ¼Ð°
Ð¸ÑģÐ¾Ðº
Ð½Ð¸Ð·
ÐĲÐ½
ĠÐ¿Ð¾Ð·Ð¸
ĠÐºÐ¾Ð½ÑĤÑĢÐ¾Ð»
ÑģÑĤÐµÑĢ
ĠÐ¤ÑĢÐ¸Ð´
ĠÐłÐ°ÑģÐ¿
ĠÐ´ÑĢÑĥÐ³Ð¸Ð¼
ĠÑģÑĥÑīÐµ
ĠXVI
ĠÑĢÐ°Ð´Ð¸Ð¾
64
ĠÐĴÐ°ÑĢ
ÑįÑĢ
ĠÐŁÐµÑĤÑĢÐ°
ĠÐ¿Ð»Ð¾ÑīÐ°Ð´ÑĮ
ÑĩÐµÑģÐºÐ¸
ĠÐ¸Ð³ÑĢÐ¾Ðº
ĠÐµÐ²ÑĢÐµÐ¹
ÐĵÐ£
Ð³Ð¸Ñı
Ð°Ð·Ð°
ÑĳÑĤÑĢ
ĠÐ¼Ð°ÐºÑģÐ¸Ð¼
Ð°Ð¼ÐµÐ½ÑĤ
ce
ĠÐ¿Ð¾Ñı
ÐµÐ²ÑģÐºÐ¸Ð¹
ĠÐľÐ½Ð¾Ð³
Ð¸Ð²ÑĪÐ¸ÐµÑģÑı
ĠÑģÐµÑĤÐ¸
Ð²Ð¸Ð»Ð¸
Ð±ÑĢÐ°
ĠÐ¿Ð°Ð¼ÑıÑĤÐ¸
ĠÐŁÐ°Ð»
ĠÑĦÐ°ÐºÑĥÐ»ÑĮÑĤ
ĠÐ·Ð°Ð¿ÑĢÐµÑī
ĠÐĺÐ·Ð²
Ġ1943
ÑĨÐµÐ¼
ĠÑģÐ¾Ð¿ÑĢÐ¾Ð²
ĠÐ¼Ð°ÑģÑĤÐµÑĢ
Ð¾ÑĢÐµÑĨ
ĠÐĺÑģÐ¿Ð°Ð½Ð¸Ð¸
ĠÑĦÑĥÑĤÐ±Ð¾Ð»Ð¸ÑģÑĤ
Ð¼ÑĥÐ½
ÑĤÑĢÐ°
ÑĥÑīÐ¸Ð¹
ÑģÐ¸ÑģÑĤ
ĠÐ½Ð¾ÑĢÐ¼
ĠÐ¿ÑĭÑĤ
Ð¶Ñĥ
Ð¸Ð½ÑģÑĤÐ²Ð¾
ĠÐ¿ÑĢÐ¸Ð·Ð½Ð°Ðº
ÑģÐµÐ²
ĠÑģÐ¾Ð³Ð»Ð°Ñģ
ÐµÐ»Ñĳ
Ð»ÐµÑĢÐ°
ÑĦÐµÐ´
ĠÐĴÐ¸ÑĤ
ĠÑħÑĢÐ°Ð¼
ĠÐ³Ð¾Ð»Ð¾ÑģÐ¾Ð²
ĠÐĺÐ»ÑĮ
ÐµÑĢÐµÐ·
ĠÐ¿Ð¾ÐºÑĢÑĭ
ĠÐ¿Ð¸ÑģÑĮÐ¼ÐµÐ½
ĠÐ±ÐµÐ¶
ĠÐ¸Ð·Ð»ÑĥÑĩ
ĠÐ»Ð¸ÑĤÐµÑĢÐ°ÑĤÑĥÑĢÐµ
Ð¾Ð¹ÑĩÐ¸Ð²
ÑĤÑĢÐ¾Ð¿
ĠÐ²Ð¾Ð·Ð´ÐµÐ¹ÑģÑĤÐ²
Ð²ÐµÐ½
ĠÐ¾ÑĦÐ¸ÑĨÐ¸Ð°Ð»ÑĮÐ½Ð¾
Ð»ÐµÐ½Ð½ÑĭÑħ
ĠÐ¼Ð¸ÑĤ
Ð°ÑĤÐµÐ»ÑĮÐ½ÑĭÐµ
Ð·Ð°ÑĨÐ¸Ñı
Â»:
ÑĥÑģÐ»Ð¾Ð²
ĠÐ²Ð¾ÐµÐ½Ð½ÑĭÐ¹
ĠÐŀÑģÐ½Ð¾Ð²Ð½ÑĭÐµ
ĠÐ´Ð¸Ð½Ð°ÑģÑĤÐ¸Ð¸
ĠÑĢÐ°Ð±Ð¾ÑĤÐµ
Ð¾ÑĨ
ĠÐ¿ÑĢÐ¸ÑĪ
ĠÐ·Ð°ÐºÐ¾Ð½Ð¾Ð´Ð°ÑĤÐµÐ»ÑĮ
ĠÐ³Ð¾Ð²Ð¾ÑĢ
ÑĤÐ¸ÐºÐµ
Ð¸Ð¼Ð¾ÑģÑĤÐ¸
Ð¸Ð´Ñĥ
ÑĤÐµÑĢÐ½
ĠÑħÐ¾ÑĢÐ¾ÑĪÐ¾
Ð²Ð°Ð½Ð¸Ñı
ÑīÐ¸Ðº
ĠÐłÐ¸Ñĩ
ĠÐ½ÐµÐ²Ð¾Ð·Ð¼Ð¾Ð¶
ÑĥÑİÑīÐ¸Ð¼
95
ĠÐ¿Ð°ÑĢÑĤÐ¸
ĠÐ´Ð¸Ð²Ð¸Ð·
Ð»Ð¾ÑĢ
Ġ1919
ĠÑĪÐº
Ġe
Ð¿ÑĥÑģÐº
ĠÐ¿ÑĢÐ¾ÑģÑĤÑĢÐ°Ð½ÑģÑĤÐ²Ð°
ĠÐ²Ð·Ð³Ð»Ñı
Ð¾Ñİ
ĠÐ¼Ð¾Ð³Ð»Ð¸
ĠÑģÐ¾Ð²ÑĢÐµÐ¼ÐµÐ½Ð½ÑĭÑħ
ĠÐ¾ÑĦÐ¸ÑĨ
ĠÐ£Ñĩ
ĠÐ¤Ð¸Ð»Ð¸Ð¿Ð¿
ĠÐ¿ÑĢÐ¸Ð½ÑıÑĤÐ¾
Ð¿Ðµ
ĠÐĽÐ¸ÑĤ
ĠÐ²ÑģÑİ
ÐĲÐĿ
ĠÐļÐ¸ÑĢ
Ð½Ð°Ð·Ð½Ð°Ñĩ
Ð»Ð¸ÑĤ
ĠÐ²Ð½
Ġ978
ĠÐ¸ÑģÐ¿Ð¾Ð»ÑĮÐ·Ð¾Ð²Ð°Ð½Ð¸Ðµ
ĠÑĥÐ´Ð°ÑĢ
ĠÑĥÑĢÐ¾Ð²ÐµÐ½ÑĮ
ÑıÐ½Ðµ
ĠÑĢÐµÐ·ÑĥÐ»ÑĮÑĤÐ°ÑĤ
ĠÐ´ÐµÐ¼Ð¾ÐºÑĢÐ°
Ð¼Ð¸ÑĢÐ°
ĠÑģÑĨÐµÐ½Ð°ÑĢÐ¸ÑģÑĤ
ĠÑĩÐ¸ÑĤ
ÑģÑĤÐµÐ¹
Ð°ÑĤÐµÐ»ÑĮÑģÑĤÐ²Ð¾
ĠÐ·Ð°Ð²Ð¸Ñģ
ÑĩÑĮ
ĠÐĺÐ·Ð´
ĠÐ¸Ð·Ð³Ð¾ÑĤÐ¾Ð²
ÑģÐ¸Ñİ
ĠÐ¿Ð¾Ð´Ð²ÐµÑĢÐ³
ĠÑıÑĢ
ĠÐ²Ð²Ð¾Ð´
ĠÑĨÐ°ÑĢÑı
ĠÑĤÐµÐ»Ðµ
ĠÐ·Ð°ÑĢÑı
Ð°Ð²ÑĪÐ¸Ðµ
ĠÐºÐ¾Ð½ÐºÑĥÑĢ
ud
ĠÐ¿Ð°ÑĤ
ÑİÑīÑĥÑİ
ĠÐ¿Ð¾ÑĤÐ¾Ð¼Ñĥ
ĠÑĤÐµÐ°ÑĤÑĢ
ĠÑĤÑĥÑĢÐ½Ð¸
ĠÐ¼Ð»Ð°Ð´
Ð¾Ð²Ð°Ð½Ð¸ÐµÐ¼
ĠÑĥÐ±Ð¸Ð¹
ĠÐ¢ÑĢÐ¸
ĠÐ¡Ð¾ÑİÐ·
ĠÑģÑĭÐ½Ð°
ĠÐ³Ð¾ÑģÑĥÐ´Ð°ÑĢÑģÑĤÐ²ÐµÐ½Ð½Ð¾Ð¹
ĠÐļÐ°Ð·Ð°Ñħ
ÑĨÐ¸Ð¾Ð½Ð½Ð°Ñı
ĠÑĢÑĥÐ±Ð»ÐµÐ¹
ĠÐ²ÐºÐ»Ð°Ð´
ĠÐ·Ð°ÑĢ
ĠÐ·Ð°Ð²Ð¾ÐµÐ²
ĠÐ¸ÑģÑĤÐ¾ÑĢÐ¸Ðº
Ġ1939
89
ĠÐ²ÐµÐºÐ¾Ð²
ĠÐ¿ÑĢÐ¾ÑģÑĤÐ¾
Ð¸Ð»ÐµÐ¹
Ð¾ÐºÑģÐ¸
ĠÐ¢Ð¸Ñħ
ĠÐ¸ÑģÑģÐ»ÐµÐ´Ð¾Ð²Ð°Ð½Ð¸Ð¹
ĠÑģÐ°Ð¼Ð¾Ð¹
Ð¾ÑħÑĢÐ°Ð½
ĠÐ¿ÑĢÐ¸ÑĩÑĳÐ¼
37
ÑĩÐµÑģÐºÐ¾Ð¼
ĠÐĲÐ½ÑĤÐ¾Ð½
est
ĠÑģÐµÐ¹
Ð¸Ð´Ð¾Ð²
Ð°Ð´Ð°ÐµÑĤ
ĠÐ¿ÑĢÐ¾ÐµÐºÑĤÐ°
ĠÑĢÐ°ÐºÐµÑĤ
ÑĨÐ°Ð¼
ÑģÑĤÐ²Ð¸Ñı
ĠÑĥÐ±Ð¸ÑĤ
ĠÐºÐ°ÑĤÐ¾Ð»
ĠZ
ÐµÐ½Ð½Ð¾ÑģÑĤÑĮ
ĠÐ¤Ð¸Ð·
ĠÐ¾Ð±Ð»Ð°Ð´
ĠÐ°Ð²ÑĤÐ¾Ð¼Ð°ÑĤ
ĠÐĵÐµÐ½ÐµÑĢÐ°
Ð²Ð¸ÑĤ
ĠÑģÐ¸Ð³
Ġ90
ĠÐ´ÐµÐ¼Ð¾Ð½
av
ĠÑĤÐµÑħÐ½Ð¾Ð»Ð¾Ð³
ÑĢÐ°Ð´
Ð³ÑĢÑĥÐ¿Ð¿
Ġ%),
ĠÐłÐ¾Ð´Ð¸Ð»Ð¸ÑģÑĮ
ĠÐ½Ð°ÑģÑĩÐ¸ÑĤÑĭ
ĠÐŁÐ¾Ð¿
Ġ1942
ĠÑģÐµÑĢÑĮ
ĠÐ¿Ð»Ð°Ð²
ĠÐĵÐ¾Ñģ
Ġ1988
ĠÐºÐ°Ð¶Ð´ÑĭÐ¹
ÑĨÐ¸ÑģÑĤ
ĠÐºÐ¾Ð¼Ð¿Ð¾Ð½
ĠÑħÐ¾Ð»
ĠÐµÐ´Ð¸Ð½Ð¸ÑĨ
Ð°ÑĢÐ¸Ð¹
Ð¾ÑİÐ·
ĠÐŁÑĳÑĤÑĢ
Ð¿Ð¸ÑģÐ¸
ĠÐ´ÑĢÐµÐ²Ð½Ðµ
ĠÐ½Ð°ÑĢÐ¾Ð´Ð°
ĠÑĥÐ¿ÑĢÐ°Ð²Ð»Ñı
ib
Ð¸Ð±Ð¾Ð»ÑĮÑĪ
ÐµÐ½Ð½
Ð±Ð°ÑĢ
ĠÐ¡Ð°
34
ĠÐľÐ¸ÑħÐ°Ð¹Ð»Ð¾Ð²
ĠÐ¾ÑĤÐ¼ÐµÐ½
ĠÐ²ÐºÐ»ÑİÑĩÐ°ÐµÑĤ
ĠÑĥÐºÐ°Ð·ÑĭÐ²Ð°
ÑĥÑģÐºÐ°
Ð²ÑĪÐ¸Ð¹
ew
ĠÐ½ÐµÐ¾Ð´
ĠÐºÐ½ÑıÐ·Ñı
ĠÐŁÑĢÐ°Ð²Ð¸ÑĤÐµÐ»ÑĮ
ĠÐ¡ÑĥÐ´
ĠÑģÐ²ÐµÑĢÑħ
ÑĩÑĥ
ĠÐ´Ð°Ð½Ð½ÑĭÐµ
ct
ĠÐ±ÐµÑĢÐµÐ³Ñĥ
ĠÐŁÐ¾ÑįÑĤÐ¾Ð¼Ñĥ
ĠÑģÐµÐ½
ĠÐ½Ð°ÑĩÐ°Ð»ÑĮ
ĠÑĤÐ²ÑĳÑĢ
ĠÑĢÐ°Ð·Ð³
ĠÑıÐ·ÑĭÐºÐ°Ñħ
32
ÐµÐ½ÑĨÐ¸
ĠÐ¿ÑĢÐµÐ²ÑĭÑĪ
ĠÐ¾Ð¶
ĠÐ¾Ð±ÑĬÐµÐºÑĤÐ¾Ð²
ĠÐ¿Ð¾ÑģÐ»ÐµÐ´Ð¾Ð²Ð°ÑĤÐµÐ»ÑĮ
Ð´Ð¸Ð¹
ÐŀÐ±
ĠÐ¼ÐµÑĤÑĢÐ¾Ð²
ĠÐ»ÑİÐ´
ĠÐ¾ÑĤÑģÑĤÐ°Ð²
ĠÐ³ÑĢÐ°Ð²
ĠÐ²ÑĭÐ´Ð°
ĠÐķÐ²Ð³
ĠÐ¡Ð¡Ðł
ÐµÐºÐ¾Ð¼
Ð°Ð´Ðµ
ĠÐºÐ»Ð°ÑģÑģÐ°
ĠÑģÐ¾Ð·Ð½
Ð¾ÑĩÐ½ÑĭÐµ
ĠÐ¼Ð¾Ð´ÐµÐ»ÑĮ
ĠÐ¿ÑĢÐ¾ÑıÐ²
ĠÐ´ÐµÐ¹ÑģÑĤÐ²Ð¸Ð¹
ĠÐ®Ð¶Ð½Ð¾Ð¹
Ð²Ð°ÑĢÐµ
Ð¼Ð¸Ñı
Ð¾Ð»ÑĮÑĦ
ĠÐ°ÑĢÐµÑģÑĤ
ĠÐ´ÐµÑģÑıÑĤ
ĠÑĢÐ°Ð±Ð¾ÑĤÐ°Ð»
ĠÐ¾ÑĢÐ³Ð°Ð½
ĠÐºÐ»Ð¸Ð¼Ð°ÑĤ
ÑıÐ½Ð°
ĠÐ¿Ð¸ÑĪ
ĠÐ´Ð¾Ð»Ð¶Ð½Ð¾ÑģÑĤÑĮ
ĠÑĢÐµÐ³ÑĥÐ»ÑıÑĢ
ĠÑĢÑĥÐºÐ¾Ð²Ð¾Ð´ÑģÑĤÐ²Ð¾Ð¼
ĠÑĢÐ°Ð·Ð¼ÐµÑī
ĠÐ¡Ð¾Ð²ÑĢÐµÐ¼ÐµÐ½
36
Ð°Ð»Ð¸Ñı
ĠÐĴÐ¸Ð½
ÑģÑĤÑĢÐ¸Ð¹
ĠÐ³Ð¸Ð¼Ð½Ð°
ĠÐĽÐ¸Ð½
ĠÐĲÐ²Ð³Ñĥ
ĠÐ¾Ð±ÑĢÐ°Ð±Ð¾ÑĤ
ÐºÐ»Ð°Ð´
Ð°Ð¼ÐµÑĤ
ĠÐ³ÐµÑĢÐ±
ĠÐĿÐ¾Ð±ÐµÐ»ÐµÐ²
ĠÐ³Ð¸Ð±
ĠÐ¡Ñĭ
88
ÑİÐ½
ĠÐ·Ð°Ð½Ð¸Ð¼Ð°ÐµÑĤ
ĠÐ¸Ð½Ð¸ÑĨÐ¸
ĠÐĴÐ¿
Ð¾ÐºÐ¾Ð²
Ð°Ð»ÑĮÐ½ÑĭÐ¼Ð¸
Ð¾Ð¿Ð¾Ð»
ĠÑģÐ¾Ð·Ð´Ð°Ð½
ÐµÐºÑģ
ĠÐ¿ÑĢÐµÐ¶Ð´Ðµ
ÐµÐ»ÐµÐ·
Ġ1987
ĠÐ½Ð°Ð·Ð½Ð°ÑĩÐµÐ½
ĠÑģÑĤÐµÐ½
ĠÑĤÐµÐ¾ÑĢÐ¸Ñı
ĠÑįÐºÑģÐ¿Ð»Ñĥ
ĠÐ¿Ð¾Ð·Ð´Ð½ÐµÐµ
ÑĢÐµÐ¶Ð¸ÑģÑģÑĳÑĢ
ĠÑģÑĤÐ°Ð´
ĠCh
ĠÐ¿ÑĢÐ¾Ð¸Ð·Ð¾ÑĪÐ»Ð¾
76
ĠÐ½Ð°Ð³
ĠÐ²Ð½Ð¸Ð¼Ð°Ð½Ð¸Ðµ
ĠÐ¿ÑĢÐµÐ¸Ð¼ÑĥÑīÐµÑģÑĤÐ²ÐµÐ½Ð½Ð¾
ĠÐĿÐ°Ð³
Ð½Ð°ÑĩÐ°Ð»Ð°
ĠÐĵÐµÐ¾ÑĢÐ³
ĠÐ¿Ð¾ÑĢÐ¾Ð´
ĠÐ¼ÐµÑģÑĤÐ¾ÑĢ
ÑĦÐ¾Ð½
ĠÐ¢Ð¾Ð»
Ð¾ÑĢÐ³Ð°Ð½Ð¸
ĠÐ²Ð¾Ð·Ð´ÑĥÑħÐ°
Ð°Ð½ÑĤÐ¾Ð²
ĠÑĢÐ°Ð·Ð½Ð¾Ð¾Ð±ÑĢÐ°Ð·
ĠÑħÑĢÐ°
ĠÐ¾ÐºÐ°Ð·ÑĭÐ²Ð°
ĠÐ¿ÑĢÐ¸ÑģÐ²Ð¾
Ð½Ð¸ÐºÐ°Ð¼
ÑĢÐ¸ÑĤÐµÐ»ÑĮ
ÐµÐ½Ð¾Ð¼
ĠÑĢÐ¾ÑģÑģÐ¸Ð¹ÑģÐºÐ°Ñı
ĠÐ¿Ð¾Ð»Ð¾Ð²Ð¸Ð½Ðµ
Ð»Ð¾Ð´
ĠÐ¿ÑıÑĤÑĮ
ĠÐ¾ÑĤÐ´ÐµÐ»ÑĮÐ½ÑĭÑħ
ÑĤÐµÑħ
ĠÐ¡ÐµÐ½
Ð°ÑĢÐ¼
ÐµÐ½Ð¸ÑıÐ¼
ĠÐ§ÐµÑħ
ĠÐļÐŁÐ¡Ð¡
ĠÐĳÐµÐ»Ð¾ÑĢÑĥÑģ
ĠÑĤÐµÐ»ÐµÐ²Ð¸Ð´
ĠÑģÑĤÐ¾ÑĢ
ĠÐ¸Ð¼ÐµÐ»Ð¸
ĠÐ¿Ð¾ÑıÐ²Ð¸Ð»Ð¸ÑģÑĮ
ĠÐ²Ð¾Ð¹ÑģÐºÐ°Ð¼Ð¸
ĠÑģÐ¾ÑģÐµÐ´
ĠÐºÐ¾Ð½ÐºÑĢÐµÑĤ
Ð¾ÑĢÐ´Ð¸Ð½
ĠÐ²Ð¾Ð¹Ð½Ñĥ
ĠÐ¿Ð¾ÑģÐ»ÐµÐ´Ð½Ð¸Ðµ
ÐµÐ¼Ð°
ĠÐ»Ð°Ð³
Ð¸Ð´Ð¸
ĠÑĢÐ¾Ð¶Ð´ÐµÐ½Ð¸Ñı
ĠÑģÑĢÐ°Ð·Ñĥ
ĠÐ¿ÑĢÐµÐ´Ð½Ð°Ð·Ð½Ð°Ñĩ
ĠÑģÐ¾Ð³Ð»Ð°
ĠÐºÐ¾Ð¼Ð¿ÑĮÑİÑĤÐµÑĢ
ĠÐ¡Ð°Ð»
ĠÐ¿ÑĢÐ¸Ð¾Ð±
ĠÑģÐ¾Ð±Ð¸ÑĢÐ°
ĠÐ¸ÑĤÐ°Ð»ÑĮÑıÐ½ÑģÐºÐ¸Ð¹
Ð¿Ð¾Ð²
ÑĳÐ½Ð½ÑĭÐ¼Ð¸
ĠÐ·Ð°ÐºÐ¾Ð½Ñĩ
ÑıÑīÐ¸Ðµ
ĠÐ´Ð¸Ñģ
ĠÐ¼ÐµÐ½ÑĮÑĪÐµ
ĠÑĤÐ¾Ð¹
ĠÑģÐ¾Ð»Ð´Ð°ÑĤ
ĠÐ·Ð´Ð°Ð½Ð¸Ñı
ell
ĠÐĵÐ°ÑĢ
ÑĥÐ²Ð°
ÐºÐ¾Ð²ÑģÐºÐ¾Ð³Ð¾
ĠÐ®ÑĢÐ¸Ð¹
ĠÑĨÐµÐ½ÑĤÑĢÐµ
Ð¿ÐµÑĢ
ĠÐ¿Ð¾Ð»ÑĥÑĩÐµÐ½Ð¸Ñı
ÑĤÐ¸ÑĩÐµÑģÐºÐ¾Ð³Ð¾
ÑĢÐµÑĤÑĮ
ĠÐºÐ¾Ð»Ð¸ÑĩÐµÑģÑĤÐ²Ð°
ĠÑģÑĤÐ¾ÑĢÐ¾Ð½Ñĥ
ÐµÐºÑģÐ¸
ĠÑģÐ¾Ð·Ð´Ð°Ð½Ð¸Ðµ
ĠÐ·Ð°ÑıÐ²Ð¸Ð»
ik
Ð°Ð½Ñĥ
ÐŃÐ¡
ĠÐ¼Ð¾ÑģÐºÐ¾Ð²
Ð¸Ð´Ñĭ
Ð¸ÑĢÐ¾Ð²Ð°Ð½
ĠÐ¿ÑĢÐµÐºÑĢÐ°Ñī
ĠÐ¡ÐŁÐ±
Ð¾Ð³ÑĢÐ°Ð´
ĠÑĥÑĩÐµÐ½Ð¸
ĠÑĦÐ¸Ð»Ð¸
ĠÑģÐµÑĢÑĮÑĳÐ·
ÑģÐ¿Ð¾ÑĢÑĤ
ĠÐ¾Ð±ÑīÐµÐ³Ð¾
ĠÐĲÐ»ÐµÐºÑģÐµÐ¹
ĠÐ²Ð¾Ð·Ð´ÑĥÑĪ
ÐµÐ»ÐµÐ½
ĠÐ´Ð¾Ð»Ð¶Ð½Ð°
ĠÐ¼ÑĥÑģÑĥÐ»ÑĮÐ¼Ð°Ð½
ĠÐĴÐĴ
ĠÐĵÐ°Ð¹
ÐºÐ¸Ð¿
ĠÐ¾ÑĢÐ´ÐµÐ½Ð°
ĠÐ½Ð¸Ð¼Ð¸
ĠÐ¿ÑĥÑģÑĤ
ĠÐ¿ÐµÐ²Ð¸ÑĨÐ°
ĠÐ¾ÐºÐºÑĥÐ¿
ĠÐºÐ¾Ð½ÑĦÐ»Ð¸ÐºÑĤ
ĠÑģÐµÑĢÐ²
Ð¢Ðŀ
ĠÐ¾ÑĤÑĢÐ°Ñģ
ĠÑģÐ¾ÑģÑĤÐ°Ð²Ð°
ĠÐŀÑĦÐ¸ÑĨÐ¸Ð°Ð»ÑĮ
ĠÐ¡Ð¾ÑĨÐ¸
ĠÐ»Ð¸Ðº
ĠÐ²ÑħÐ¾Ð´Ð¸ÑĤ
ĠÑģÑĤÐ°Ð±
Ð½ÑĥÐ»ÑģÑı
ĠÐ³ÑĢÐ°Ð½
48
Ð»Ð°Ð¼Ð¸
ĠÐľÐµÐ½
ĠÐĺÐ·Ð²ÐµÑģÑĤ
ĠÐ´Ð»Ð¸ÑĤÐµÐ»ÑĮ
ĠÑĢÑĭÐ½
ĠÐĳÐ¾ÑĢÐ¸Ñģ
Ð¾Ð½ÐµÑĩ
ĠÑģÐ¾ÑģÑĤÐ¾ÑıÐ½Ð¸Ðµ
ĠÐĹÐ´ÐµÑģÑĮ
ĠÐ²ÐµÑĩ
ĠÑģÑĥÐ´Ð°
ĠÐ±ÑĥÑĢ
ĠÐ¿ÑĢÐ¾Ð½
Ð¸ÑĢÐ¾Ð²Ð°Ð½Ð¸Ñı
ĠÑįÐºÐ¾Ð½Ð¾Ð¼Ð¸ÐºÐ¸
ĠÐ¿Ð¾ÑģÐµÑī
Ġ500
ĠÑģÐºÐ¾ÑĢÐ¾ÑģÑĤÑĮ
ĠÑįÐ¿Ð¾ÑħÐ¸
ÑĩÐ½Ð°Ñı
ĠÐĳÑĢÐ¸ÑĤ
ĠÐ¿Ð¾Ð²ÑĤÐ¾ÑĢ
ĠÐĶÐµÑĤ
ĠÐ²Ð¾Ð·ÑĢÐ°ÑģÑĤ
ĠÐ½Ð¸Ð¶
ĠÐ¾Ð·Ð½Ð°ÑĩÐ°ÐµÑĤ
ÑĤÐ°Ð¹
ĠÐ¥Ð¾ÑĤÑı
ĠXXI
ĠÐ¸ÑģÐ¿ÑĭÑĤ
ĠÑĢÑĭÐ±
Ð¾ÑģÑĤÐµÐ¹
ĠÐĶÐ°Ð»ÑĮ
ĠÑģÑĤÐ°Ð½Ð´Ð°ÑĢ
ÑĦÐ¸Ð»ÑĮ
ÑĨÐ¸Ð¾Ð½Ð½Ð¾
ĠÐ¿ÑĢÐ¾ÑĢ
ĠÐ»Ð¸ÑĤ
ĠÐ´Ð¾Ð»Ð³
Ð³Ð¸Ð·
ĠÐĲÐ½Ð´ÑĢÐµÐ¹
ĠÐºÐ²Ð°Ð´
ĠÐ¾ÑĤÑĢÑı
Ġ45
ĠÑĥÑĩÐ¸Ð»Ð¸
ĠÐŀÑĢÐ´ÐµÐ½
ĠÐ¸Ð½Ð´Ð¸Ð²
ÐºÐ°ÑĢ
ap
Ð¿Ð»
ĠÐ¿ÑĢÐ¾ÑĤÑıÐ¶ÐµÐ½Ð¸Ð¸
Ġ1968
ĠÑįÐ»ÐµÐ¼ÐµÐ½ÑĤÑĭ
96
ĠÐ½Ð°Ð¼
ĠÑħÐ¾ÑĤ
ĠÐºÐ¾Ð½ÑĦÐµÑĢ
ĠÐŁÑĢÐ¸Ð¼ÐµÑĢ
ĠÐ¸Ð½ÑĤÐµÑĢÐ²
ĠÐ½Ð°ÑĩÐ°Ð»Ð¾ÑģÑĮ
ÑĢÐ¸ÑĦ
ĠÐ½Ð°ÑĥÑĩÐ½Ð¾
Ð³Ð¾Ð»ÑĮ
ĠVI
ĠÑģÐ¾Ð¿ÑĢÐ¾ÑĤÐ¸Ð²
Ð¸Ð·Ð°Ð½ÑĤÐ¸Ð¹
ĠÐ¿ÐµÑģÐµÐ½
ĠÐºÐ¾Ð¼Ð¿Ð»ÐµÐº
ĠÐºÑĢÐ¸ÑģÑĤÐ°Ð»
Ð½ÑĭÐ½Ðµ
ĠÐ½Ð°Ð¿Ð¸ÑģÐ°Ð»
Ġg
qu
Ð½Ð¸Ð¼Ð¸
ĠÐ¼Ð¸ÐºÑĢÐ¾
ĠÐ³Ð°ÑĢ
Ð½Ð¾Ð¶
ĠÐ¿ÑĢÐµÐ´ÑģÑĤÐ°Ð²Ð¸ÑĤÐµÐ»ÐµÐ¹
ĠÐ±Ð¾Ñı
ĠÐ°ÐºÑĤÐ¸Ð²Ð½Ð¾
ÐµÐ¼Ð¾Ðµ
ÐµÐ½ÑĮÑİ
ĠÐŃÐºÐ¾Ð½Ð¾Ð¼
ĠÐļÐ¾ÑģÑĤ
Ð»ÐµÐ½Ð½ÑĭÐµ
ÑĢÐµÑĨ
ĠÐ·Ð°Ð¿Ð°Ñģ
Ð½Ð¸ÐºÐ°Ñħ
Ġ1984
ĠÐ°Ð²ÑĤÐ¾Ð¼Ð¾Ð±Ð¸Ð»ÑĮ
ĠÐ¼Ð³
ĠÐ»ÑĮ
ĠÐłÑĥÑģÐ¸
ĠÐ³ÑĢÑĥÐ·
Ġ1979
ĠÑĥÑĩÑĳÐ½ÑĭÐ¹
ĠÐ¤ÑĢÐ¸Ð´ÑĢÐ¸Ñħ
ÑĢÐ°Ð¼Ð¸
ĠÐŁÑĥ
Ð¸Ð¼Ð¾ÑģÑĤÑĮ
ĠÐ¤Ð¸Ð½Ð»ÑıÐ½Ð´
ĠÐµÐ¶ÐµÐ³Ð¾Ð´
ĠÑģÑĥÑĤ
Ð¸Ð´ÐµÑĢÐ»Ð°Ð½Ð´
ĠÐ²ÑģÐºÐ¾ÑĢÐµ
ÐµÐ½ÑĨÐ¸Ð°Ð»ÑĮ
ÑįÐ»ÑĮ
ĠÐ²ÑĭÐ¿ÑĥÑī
ĠÐŁÑĥÑĤ
ĠÐĽÐµÐ½Ð¸Ð½Ð°
ĠÐ¶ÑĥÑĢÐ½Ð°Ð»Ð¸ÑģÑĤ
ay
ĠÐĺÐ¼ÐµÐ½
ĠÐ·Ð´Ð¾ÑĢÐ¾Ð²
ÑİÑīÐ¸Ð¹ÑģÑı
87
ÑĩÐ°ÑģÑĤÐ¸
ĠÑħÑĢÐ¾Ð½
ĠÐºÐ½Ð¸Ð³Ðµ
ĠÐĴÐ¸ÐºÑĤÐ¾ÑĢ
ĠÐºÐ¾Ð½ÑĤÑĢÐ¾Ð»ÑĮ
ĠÐ¿Ð¾ÑģÑĢÐµÐ´
Ð»Ð¾ÑĤÑĮ
ĠÐ°ÑĢÑħÐµ
ĠÐĿÐ°ÑģÐµÐ»ÐµÐ½Ð¸Ðµ
Ð¸Ð½ÐµÐ½ÑĤ
ÑĢÐ¾ÑģÐ»Ð°Ð²
ĠÐ°Ð±ÑģÐ¾Ð»ÑİÑĤ
ĠÐ²ÑĭÑĪÐµÐ»
ĠÐ¡Ð¾Ð»Ð½
ĠÐ¸ÑģÐ¿Ð¾Ð»ÑĮÐ·ÑĥÑİÑĤ
ĠÐ»Ð¸Ð½ÐµÐ¹
ĠÑģÐ¾Ð²ÐµÑĤÐ°
ĠÐ¿ÐµÑĢÐ²Ð¾Ð½Ð°Ñĩ
Ð»Ð°Ñħ
Ð¸Ð²Ð°ÑİÑĤÑģÑı
ĠÐºÐ¾ÑģÐ¼Ð¾Ð½Ð°Ð²
ĠÐ¿ÑĢÐ¾Ð²Ð¾Ð·Ð³Ð»Ð°ÑĪ
44
ĠÐ²ÑĭÑģÐ¾ÑĤ
Ð°ÑīÐ¸Ñħ
ĠÐ¸Ð½Ð´Ñĥ
Ġ1973
ĠÑģÑĤÐ°
ĠÐ¼Ð¸Ð½ÑĥÑĤ
ĠÐºÑĢÐ¸Ð·
ĠÑģÑĤÐ°Ð½Ð´Ð°ÑĢÑĤ
ĠÑĤÑĢÐ°Ð´Ð¸ÑĨÐ¸Ð¸
ĠÐ±ÑĥÐ¼Ð°
ĠÐ±Ð°ÑģÑģ
ĠÐ¿ÐµÑģÐ½Ð¸
ĠÐľÐ½Ð¾Ð³Ð¸Ðµ
Ð¾Ð²ÐµÑĢ
ĠÐ¿ÐµÑĢÐµÐ³Ð¾Ð²
Ð³ÐµÐ½
ĠÑĢÐ°ÑģÑħÐ¾Ð´
Ġ1975
ĠÐ³ÑĥÐ±ÐµÑĢÐ½Ð¸Ð¸
ĠÑĩÐ°ÑīÐµ
ĠÑģÐ¿ÐµÑĨÐ¸Ð°Ð»Ð¸ÑģÑĤ
ÑģÐ»Ð°Ð²
Ð°Ð½Ð¾Ð²Ð°
ant
Ġ1986
Ð½Ð°Ð´ÑĨ
ĠÑģÑĤÑĢÐ¾Ð¸ÑĤÐµÐ»ÑĮÑģÑĤÐ²Ð°
Ð°ÑĤÐµÐ»ÑĮÑģÑĤÐ²Ð°
ĠÑģÐ»Ð¾Ð²Ð°Ð¼
ĠÐ¿ÑĢÐµÐ´Ð¿ÑĢÐ¸ÑıÑĤÐ¸Ð¹
55
ÑĪÐ¸Ð½
ĠÐ¾Ð´Ð½Ñĥ
ĠÐ¿Ð¾Ð»Ð¸ÑĤÐ¸Ðº
ĠÑĥÑĢÐ¾Ð²Ð½Ðµ
ĠÐłÐ°Ñģ
ĠÑĥÐ»
Ġ1938
ĠÐ¸Ð½Ð¾ÑģÑĤÑĢÐ°Ð½Ð½ÑĭÑħ
ĠÑĢÐ°Ð·Ð°
ĠÐ¨ÑĤ
Ġw
ĠÐºÐ¾Ð½ÑĨÐµÐ½ÑĤÑĢÐ°
Ð·Ð´
ÑĦÑĭ
ĠÐ°ÑĦ
ĠÐ¿Ð¸ÑĤ
..
ÑģÑĤÐ°Ð½Ð°
ĠÐĴÐµÐ»Ð¸
ĠÑĢÑıÐ´Ð¾Ð¼
Ð°Ð»Ñĥ
ĠÐ¸Ð½Ð¶ÐµÐ½ÐµÑĢ
ĠÐºÐ²Ð°ÑĢ
ÐµÑĤÐ¸Ñı
Ð¾ÑĢÐ¾Ð´Ð°
ÑĤÐ¸ÑĩÐµÑģÐºÐ¸Ðµ
Ð¾ÑĢÑĤÑĥÐ³
ĠÐĲÐ´Ð¼Ð¸Ð½Ð¸ÑģÑĤÑĢÐ°
Ð°ÑĤÐµÐ»ÑĮÐ½Ð¾Ð¹
ĠÐ¿ÑĢÐ¾Ð±Ð»ÐµÐ¼Ñĭ
Ð½Ð°Ð±
ĠâĪĴ
ĠÐŁÐµÑĢÐ²Ð°Ñı
ĠÑģÐ¾Ð»Ð½Ðµ
ĠÐ¸Ð·Ð³
Ð¾ÑħÐ¾Ð·ÑıÐ¹
ĠÐ¿ÑĢÐµÐ·Ð¸Ð´ÐµÐ½ÑĤÐ¾Ð¼
ĠÑĥÐ´Ð°Ð»
ĠÐ¿Ð¾ÑģÑĳÐ»Ð¾Ðº
ĠÐ¾ÑĨÐµÐ½Ð¸
ĠÐļÐ°Ð»Ð¸Ð½
ĠÐĺÐ¼Ð¿ÐµÑĢÐ°ÑĤÐ¾ÑĢ
Ð¸Ð·Ð½ÐµÑģ
ĠÐ³Ð¾Ð¼
ĠÐ¿ÑĢÐ°Ð²Ð¸Ð»Ð°
ÑĢÐ¸Ð³Ð¸Ð½
Ð¼Ð°Ð½Ð°
ĠÐºÐ¾Ð¼Ð¼ÑĥÐ½Ð¸
ĠÐ²Ð¾ÐµÐ½Ð½Ð¾Ð¹
ÐµÑĢÑĤÐ°
ĠÐ´Ð¾Ð²Ð¾Ð»ÑĮ
ĠÑģÑĥÑħ
Ġ1985
ĠÑģÑĢÐ°Ð²Ð½ÐµÐ½Ð¸Ñİ
Ð½ÐµÐ½Ð¸Ðµ
ĠÐĴÐµÐ½Ð³
ĠÑĢÐµÑĦÐ¾ÑĢ
ĠÐ²ÐµÑīÐµÑģÑĤÐ²
Ð¾Ð²ÑĭÐ¼
Ð¼Ð¸ÑĢ
ĠÐĿÐµÐ¼
ĠÐ¿ÐµÑĢÐµÐ¸Ð¼ÐµÐ½Ð¾Ð²
ĠÐ³ÑĢÐ°Ð½Ð¸ÑĨÑĭ
ÑĭÐ´
ĠÐ¿Ð¾Ð»ÑĥÑĩÐ¸Ð²
ĠÑİÐ³Ðµ
ĠÐ³ÐµÐ¾Ð³ÑĢÐ°ÑĦ
Ð¾Ð¶Ð´ÐµÐ½Ð¸Ð¸
ĠÑģÐ²ÑıÐ·Ð°Ð½Ð¾
ĠÐ¾Ð±ÑıÐ·Ð°Ð½
ĠÐ§Ð°
66
Ð´ÐµÑĢ
ÐµÐ½Ð½ÑĭÐ¼Ð¸
Ġ300
ĠÑģÐ¾Ð±Ð¾ÑĢ
ĠÐ´ÐµÐ»Ðµ
ĠÑģÐ¾Ð´ÐµÑĢÐ¶Ð¸ÑĤ
ĠÐľÐ¸Ð»
ÑĩÐµÑģÐºÑĥÑİ
Ð»Ð°ÑģÑģÐ¸
ĠÐ¸ÑģÑĤÐ¾ÑĢÐ¸Ñı
ĠÐ¿ÑĢÐ¸ÑĢÐ¾Ð´Ñĭ
ĠÐ·Ð°Ð»Ð¾Ð¶
ĠÑģÐ¾ÑģÑĤÐ¾ÑıÐ½Ð¸Ñı
ĠUn
ĠÐ°Ð²Ð¸Ð°
ĠÑħÐ°ÑĢÐ°ÐºÑĤÐµÑĢÐ¸Ð·
ĠÐ·Ð½Ð°Ð¼ÐµÐ½Ð¸ÑĤ
ÐºÐ¾ÑģÑĤÐ¸
ĠÐ¾ÑģÐ½Ð¾Ð²Ð°Ð½
Ð¸Ð³Ñĥ
ÑĤÐ¸ÑĩÐµÑģÐºÐ°Ñı
ĠÐºÐ¸Ð½Ð¾ÑĢÐµÐ¶Ð¸ÑģÑģÑĳÑĢ
ĠÐĲÐ¹
ĠÐ¸Ð½ÑĤÐµÐ»
Ġ;
ĠÐ½ÐµÐ¿ÑĢÐµ
Ġ1964
ĠÐ¿Ð¾ÑĢÑıÐ´ÐºÐ°
Ð³Ð°Ð½
ĠÐ¿ÑĢÐµÐ´ÑģÑĤÐ°Ð²Ð¸ÑĤÐµÐ»ÑĮ
Ð°Ð²Ð¸
ĠÐ¥Ð°ÑĢ
ĠÐĲÐ»Ð¸
ĠÐĹÐ°ÑĤ
ine
ĠÐ½ÐµÐ¹ÑĤ
ĠÑģÐ¼ÐµÑĪ
ĠÑģÐµÑĢÐ¸Ð¸
ĠÐ´ÐµÐºÐ°Ð±ÑĢÐµ
ĠÐ½ÐµÐ¾Ð±ÑħÐ¾Ð´Ð¸Ð¼Ð¾
ĠÐ±ÐµÑģÐº
ÑĤÐ°Ð½
ĠÑĤÐ°ÐºÐ¾Ð³Ð¾
ĠÐ£Ð¸Ð»ÑĮ
ĠÐĿÐ°ÑĥÐºÐ°
ĠÐ¨Ð²Ðµ
Ð»ÐµÐ´ÑģÑĤÐ²Ð¸Ðµ
ĠÑģÐ¿Ð¾ÑĢÑĤÐ°
ĠÑģÐ¿Ð¸ÑģÐ¾Ðº
ĠÐļÐ¾Ñģ
Ġ1967
ĠÑħÐ¾Ð·ÑıÐ¹ÑģÑĤÐ²Ð°
ĠÐºÐ°Ð¿
ĠÐ¿ÑĥÑĤÑĮ
ĠÑģÐ¾ÑĩÐµÑĤ
ĠÑģÐ»Ð°Ð±
Ġ1978
Ð»Ð°Ð¹
ĠÑģÑĤÐ¾Ñı
Ð¸Ð¹ÑģÐºÐ¸Ð¹
ĠÐĴÐµÐ½
ĠÐ¸Ð¼ÐµÑĤÑĮ
ang
ĠÐ±ÑĥÐ´ÑĥÑĤ
ĠÐ¾ÐºÑĢÑĥÐ¶Ð°
ĠÐ¾Ð±Ñĭ
Ġ%)
ĠÐ³Ð¾Ð²Ð¾ÑĢÐ¸ÑĤ
47
ÑĢÑıÐ·
ĠÑģÐ¾Ð·Ð´Ð°Ð²
ĠÑģÑĤÐ¾Ð»Ð¸
ĠÐľÑĥÑħ
ĠÐ±Ð¾Ð¼
ÑĢÐ¾Ð¿Ð¾Ð»Ð¸ÑĤ
ĠÑģÐ°Ð´
ĠÐ¾ÑĢÐ³Ð°Ð½Ð¾Ð²
ĠÐ·Ð°Ð¼ÐµÑģÑĤ
ĠÐ½ÐµÑģÐ¼Ð¾ÑĤÑĢÑı
ĠÐĺÐµÑĢ
Ġ1982
ĠÐ´Ð°Ð»ÑĮÐ½ÐµÐ¹ÑĪÐµÐ¼
39
ÑĪÐµÐ¼Ñĥ
ÑįÑĦ
ĠÑĥÐ¿Ð¾Ð¼Ð¸Ð½
ĠÑĦÐµÑģÑĤÐ¸
ĠÐ¸Ð³ÑĢ
ĠÐ¿Ð¾ÑģÑĤÐµÐ¿ÐµÐ½Ð½Ð¾
Ð¿Ð¾Ñĩ
ÑįÐ»ÐµÐºÑĤ
ĠÐ¿ÑĢÐ¾Ð·
ÑĳÐ½Ð½Ð¾ÑģÑĤÑĮ
Ġ1961
Ġ1965
ĠÐ²ÐµÑģÑĮÐ¼Ð°
ĠÐŁÑĥÑĪ
ĠÐ¤ÐµÑĢ
ĠÑĦÑĥÐ½ÐºÑĨÐ¸Ð¾Ð½
ÐµÐ´Ñĭ
ĠÐłÐ°Ð¹
ĠÑĩÐ°ÑģÑĤÐµÐ¹
ĠÐ¾ÑģÐ½Ð¾Ð²Ð½Ð¾Ð¹
ĠÐ¿ÑĢÐ¾ÑĤÐ¸Ð²Ð¾ÑĢÐµ
ĠÐ±ÑĢÐ°ÑĤ
Ġ1962
ĠÐ½ÐµÐ³
01
Ġ1937
Ð²Ð¾Ð²
ĠÐĽÐ°
Ð»Ð¾Ð²Ð°
ĠÐ¼Ð°Ðµ
Ġ1976
ĠÐ¿ÑĮ
ĠÐ¾Ð±Ð¼ÐµÐ½
Ð¸ÑĤÐµÐ»ÑĮÐ½Ð°Ñı
Ġ1983
31
ĠÐºÐ¾Ð»ÑĮ
ÑĩÐ¸ÐºÐ°
Ð¾Ð¿Ð°
ÑģÑĤÐ²Ð¾Ð²Ð°Ð»
ĠÐ¾ÑĤÐ½Ð¾ÑĪÐµÐ½Ð¸Ð¹
ÑĦÐ¸ÐºÐ°ÑĨÐ¸Ñı
ĠÑĥÐ´Ð°
Ð°Ð¼Ð¼
Ð¾ÑĢÐ¸Ð¸
ĠÐµÐ²ÑĢÐµ
ÐµÐ¸
Ð»ÑĥÑĩÑĪ
ĠÐļÐ½Ð¸
ĠÑĤÑĢÐµÑĥÐ³Ð¾Ð»ÑĮ
ĠÐ¿Ð°ÑĢÐ°Ð¼ÐµÑĤ
Ð¾ÑĤÐ»Ð°Ð½Ð´
ĠÑģÐ¾ÑģÑĤÐ°Ð²Ð»ÑıÑİÑĤ
Ð°ÑĤÐµÐ»ÑĮÐ½ÑĭÐ¹
ĠÐ·Ð°Ð²ÐµÐ´
ĠÑĦÐ»Ð¾ÑĤÐ°
68
ĠÐ¿Ð¾Ð»ÑĥÑĩÐ¸ÑĤÑĮ
Ð°Ð»Ð¸Ð·Ð¼
Ð³Ð¾Ð»
ĠÐ¾ÑĤÐ¼ÐµÑĤ
ĠÐ¢Ð¾ÑĢ
ĠÐļÑĢÑĥÐ¿
ĠÑģÑĤÑĢÐ¾Ðº
ĠÑĨÐ°ÑĢÑĮ
Ð¶Ð´ÐµÐ½Ð¸Ñı
ĠÑĩÐ»ÐµÐ½Ñĭ
ĠÐ¡Ð°ÑĢÐ°
ÑĥÐ³Ð¸
Ð´ÐµÐ»ÑĮ
ĠÐĳÑĥÐ´
ĠÐķÐ²ÑĢÐ¾Ð¿ÐµÐ¹
Ð½ÐµÐ¼Ñĥ
Ð¸ÑĤÐ°ÑĢ
ĠÐ¿Ð¾Ð»Ð¸ÑĤÐ¸ÐºÐ¸
ĠÑģÐµÐ²ÐµÑĢÐµ
ÐĺÐ½
ĠÐ¼Ð¾Ð½Ð°ÑĢÑħ
ĠÑĤÐ²ÑĳÑĢÐ´
ÑĳÐ²Ð°
ÑĢÐµÐ¼Ñı
ĠÐ¸Ð½ÑģÑĤÐ¸ÑĤÑĥÑĤÐ°
ĠÐ¼ÐµÑĤÐ°Ð»Ð»
ĠÐ³Ð°Ð·Ð°
Ð»Ð»Ðµ
ĠÐ´Ð¶
Ð¼Ð°Ð¹
05
Ð¾ÑĢÐ´Ð¶
ĠÐ´Ð¸ÑĢÐµ
ĠÑģÐµÐ¼ÑĮÐ¸
ĠÐĴÑģÐµÐ¼
ĠÐļÐ°ÑĤ
ĠÐļÐ¸ÑĤ
ĠÐ·Ð°Ð¿Ð¸ÑģÐ¸
Ð¿Ð°ÑĤ
ĠÑģÐ²ÑıÐ·ÑĮ
ĠÑģÑĤÐµÐº
ĠÐµÐ¹
ĠÐ²Ð¾ÐµÐ½Ð½Ð¾Ð³Ð¾
Ð·Ñı
ĠÑıÐ·ÑĭÐºÐ¸
ÑģÐ¸Ð½
ĠÐ¿ÑĢÐ¸Ð²ÐµÐ´
ÑģÑĤÐ¸Ð¼
ĠÐ³Ð»Ð°Ñģ
ÑĤÐ¸Ð²Ð°
ĠÐĳÐ°Ð¹
ĠÐ·Ð°ÑģÐµÐ´
ĠÐ²ÑĭÑģÐ¾ÐºÐ¾Ð¹
ĠÑģÑĩÐ¸ÑĤÐ°Ð»
ĠÐ°Ð²ÑĤÐ¾Ð±ÑĥÑģ
ĠÐ¸Ð¼ÐµÐ½ÐµÐ¼
ÑĤÐ¸ÑĩÐµÑģÐºÐ¸Ð¹
Ġ1977
ĠÐ¿ÑĢÐ¾Ð³ÑĢÐ°Ð¼Ð¼Ð¸ÑĢÐ¾Ð²
ĠÑĤÑĢ
Ġ1963
ÐµÐ½Ð´Ð°
ĠÑģÐ¾Ð²ÐµÑĤÑģÐºÐ¾Ð¹
ĠÐ¼ÐµÐ´Ð¸
ĠÐŁÐ»
ĠÑģÐ¾ÑģÑĤÐ¾ÑıÐ½Ð¸Ð¸
ĠÑģÑĥÑīÐµÑģÑĤÐ²ÑĥÑİÑĤ
Ð»Ð¸Ð½Ñĭ
ĠÐ²Ð¸Ð·
ĠÐ±ÐµÐ´
ĠÐŁÐ¾ÑĤ
ĠÐ¿Ð¾ÑģÐ»ÐµÐ´Ð½Ð¸Ð¹
82
Ð¾Ð´Ñĥ
ÑĢÐ¾ÑĪ
ĠÐ¾ÑĢÐ¸
ĠÑĢÐµÐºÐ¾Ð¼
ĠÑģÐ¾ÑĤÑĢÑĥÐ´Ð½Ð¸ÑĩÐµ
ĠÐ¡ÐµÐ²
Ð°ÑĢÑģÐºÐ¸Ð¹
Ð¾Ð»Ð¾Ð³Ð¸ÑĩÐµÑģÐºÐ¸Ð¹
ĠÑģÐºÐ»Ð¾Ð½
Ġ1972
67
Ð¾Ð¾Ð±ÑĢÐ°Ð·
ob
ĠÐĳÐ°Ð±
ĠÑįÐ½ÑĨÐ¸ÐºÐ»Ð¾Ð¿ÐµÐ´
ĠÐ¿ÑĢÐ¾Ð¸Ð·Ð²ÐµÐ´ÐµÐ½Ð¸Ð¹
ÑħÐ°Ð½
Ð°ÑĤÐ°Ð»ÑĮ
ĠÐ¿ÑĢÐ¸Ð¼ÐµÐ½ÐµÐ½Ð¸Ñı
ĠÐ¿Ð°Ð¼ÑıÑĤÐ½Ð¸Ðº
84
ĠÐ¸Ð·Ð¼ÐµÐ½Ð¸
ĠÐ¢ÑĢÐ°
ĠÐ¼Ð¸Ð»Ð»Ð¸Ð¾Ð½Ð¾Ð²
ĠÐĵÑĢÐ¸Ð³Ð¾
04
ph
ĠÑģÐ¾Ð²ÑĢÐµÐ¼ÐµÐ½Ð½Ð¾Ð³Ð¾
ĠÐŁÐ¾Ð²
ĠÐ¿ÑĢÐµÐ´ÑĥÑģ
ĠÑıÐ½Ð²Ð°ÑĢÐµ
ĠÐĶÐ°Ð²
Ġ1974
Ġ1969
ĠÐĺÐ½ÑĤÐµÑĢ
ĠÐľÐ¾ÑģÐºÐ¾Ð²ÑģÐºÐ¾Ð³Ð¾
ÑĤÐ¾Ð»
ĠÐ¿ÑĢÐ¸Ð³
Ð¾ÑĩÐ½Ð¾Ð¹
ĠÐ¼Ð°Ð»Ð¾
ĠÐ¸Ð´ÐµÐ¸
ÐºÐ¾Ð³
Ð¸Ð½Ð°Ñħ
ĠÐķÑīÑĳ
ÑģÑĤÐ¸ÑĩÐµÑģÐºÐ¾Ð¹
ĠÑĢÐ°Ð±Ð¾ÑĩÐ¸Ñħ
ĠÐ±ÐµÑģ
ÐĻÐ¾ÑĢ
ÑĥÑģÐ°Ð»
io
Ð¾Ð±Ð»Ð°
art
ĠÐľÐ¸Ð½Ð¸ÑģÑĤÐµÑĢ
ĠÑģÐ¾ÑģÑĤÐ°Ð²Ð¸Ð»
Ġ1946
ĠÑĤÐµÑĢÑĢÐ¸ÑĤÐ¾ÑĢÐ¸Ñİ
ĠÐ¸Ð·Ð²ÐµÑģÑĤÐ½Ð¾
ĠÐŁÐ¾ÑĢÑĤÑĥÐ³
ĠÐ¿Ð¾Ð¼Ð¾Ð³
Ġ1981
ĠÐ³Ð¸Ð¿Ð¾ÑĤ
Ð¾ÑģÑĤÐ¾ÐºÐ°
ĠÐ¾ÑģÑĤÐ°Ð½Ð¾Ð²
ĠÐŁÐµÑĢÐ²ÑĭÐµ
ĠÐ±Ð¾Ð¶Ðµ
ĠÐ½Ð°ÑĩÐ°Ð»Ð°ÑģÑĮ
ĠÑģÐ°Ð¼Ð¾Ð¼
ĠÐ¾Ð¿ÑĢÐµÐ´ÐµÐ»ÐµÐ½Ð¸Ñı
ĠÐ´Ð¾ÑģÑĤÐ¸Ð³Ð°
ĠÐ¸ÑģÐ¿Ð¾Ð»ÑĮÐ·Ñĥ
ĠÐ·Ð°Ð²Ð¸ÑģÐ¸ÑĤ
Ð¸Ð·Ð°ÑĨÐ¸Ð¸
ÑģÑĤÐ¸Ð½
ĠÑģÐµÑģÑĤ
ĠÐ¿ÑĢÐµÐ´Ð¿ÑĢÐ¸ÑıÑĤÐ¸Ñı
ĠÐ¼ÐµÑģÑıÑĨÐµÐ²
ĠÐ¿Ð¾Ð»Ð½Ð¾Ð¼Ð¾Ñĩ
ĠÐ²Ð¸Ð´Ñĭ
ĠÐ¾ÑĢÑĥÐ¶Ð¸Ñı
Ð»ÑĮÐ½Ð¾Ð³Ð¾
ÐĶÐł
ÑĢÐ°ÑĤÐ½Ð¾
ĠÐ·Ð½Ð°ÐºÐ¾Ð¼
Ð±Ð¾Ð¹
ĠÑĥÑģÑĤÑĥÐ¿
ĠÐ¾ÑĤÑĨÐ°
ĠÐ·Ð´Ð°Ð½Ð¸Ðµ
ĠÑģÐ¾Ð±ÑĭÑĤÐ¸Ð¹
ĠÐĽÐµÐ½Ð¸Ð½Ð³ÑĢÐ°Ð´
83
Ð°ÑĤÐµÐ»ÑĮÐ½Ð¾Ð³Ð¾
ĠÐ§ÐµÑĢÐµÐ·
ĠÐºÑĢÐ¾Ð²Ð¸
ĠÐ½ÐµÐ¸Ð·Ð²ÐµÑģÑĤ
ĠÐ¿ÑĢÐ¾ÑħÐ¾Ð´Ð¸ÑĤ
ÐĲÑĢ
Ð²Ð¸Ð»Ð°ÑģÑĮ
ĠÐ¾ÑģÐ½Ð¾Ð²Ð½ÑĭÐµ
ĠÑĢÐ°ÑģÐ¿Ð¾Ð»Ð¾Ð¶ÐµÐ½Ñĭ
ĠÐ¿Ð°ÑĢÐ°Ð»Ð»
ĠÐ¿ÑĢÐ¸Ð²ÐµÐ»Ð¾
ĠÐ±Ð¾ÑĢÑĮÐ±Ñĭ
ĠÑĢÐ°Ð¹Ð¾Ð½Ð¾Ð²
Ġ1971
ĠÑģÐ»ÑĥÐ¶Ð±Ñĭ
ĠÐ¾Ð±ÑģÐ»ÑĥÐ¶
Ð½ÐµÐ¿
Ġ1957
ĠÐŁÐ¾Ð¼Ð¸Ð¼Ð¾
ĠÑĥÐ»ÑĥÑĩÑĪ
ĠÐ±Ð°Ð·Ðµ
ĠÐĳÐ¸Ð¾Ð³ÑĢÐ°ÑĦÐ¸Ñı
ÑĢÐ¾Ð³Ð¾
ĠÐ³Ð¾Ð½
ĠÑĢÐ°Ð·Ð²ÐµÐ´
ĠÐ·ÐµÐ¼Ð»Ñı
ĠRe
Ġ1966
ĠÐ¿ÑĢÐµÐ²ÑĢÐ°Ñī
ÐºÐ¸Ð¿Ð°Ð¶
ĠÐĺÑĢ
Ð°Ð»Ð¸Ð·Ð¼Ð°
ÑģÐºÐ°Ð·ÑĭÐ²
ĠÐĲÐ²ÑģÑĤÑĢÐ°
ĠÐŁÐ°Ð²ÐµÐ»
ĠÐ¾ÑĢÐ³Ð°Ð½Ð¸Ð·
ĠÐ½ÐµÐ·Ð°Ð²Ð¸ÑģÐ¸Ð¼Ð¾ÑģÑĤÑĮ
Ð°ÑĢÐ¸Ð½
ĠÐºÐ¾ÑĢÐ°Ð±Ð»Ñı
03
ĠÑģÐ°Ð½
ĠÑħÐ°Ð½
ÑĩÐ¸ÐºÐ¾Ð²
ĠÐ´Ð¾Ð²Ð¾Ð»ÑĮÐ½Ð¾
ĠÐĴÐ¼Ðµ
ĠÑĥÑĤÐ²ÐµÑĢÐ¶
ĠÑģÑĢÐµÐ´Ñĭ
ĠÑįÐ»ÐµÐºÑĤÑĢÐ¾
ÑĪÐµÐ¹ÑģÑı
ĠÐ±ÑĢÐ°ÑĤÑĮ
ĠÑĤÐµÑĢÐ°
ĠÐ´ÑĢÑĥÐ³Ð°
ĠÐºÐ¾Ð»ÐµÐ±
ĠÑģÐ¾Ð¼
Ð³ÐµÑĢ
ĠÐºÐ»Ñİ
ĠÐ¾ÐºÑĢÐ°
Ġ1922
ĠÐŁÐµÑĤÐµÑĢÐ±ÑĥÑĢÐ³
Ð¾Ð²ÑģÐºÐ¸Ð¹
ÑĢÐµÑĩ
ÑĢÑĥÑĩ
ĠÐ°Ð²Ð³ÑĥÑģÑĤÐµ
74
ĠÐ¢Ð°Ð¼
ĠÐ¿Ð¾ÑģÐµÑĤ
ĠÑĤÐµÐ»ÐµÑĦ
ĠÐ¾ÑĢÐ³Ð°Ð½Ð¸Ð·Ð°ÑĨÐ¸Ð¹
ÑĢÐ¾Ð³ÑĢÐ°Ð¼
ĠÑģÐ°Ð¼ÑĭÐ¹
Ð»ÑİÐ´
ĠÑĤÐµÐ¼Ð¿ÐµÑĢÐ°ÑĤÑĥÑĢÑĭ
ĠÐ¿Ð¾Ð»Ð°Ð³
ĠÐ°Ð½Ð°Ð»Ð¾Ð³Ð¸Ñĩ
ĠÐ¸Ð¼ÐµÐµÑĤÑģÑı
ĠÐºÐ¸Ð»Ð¾Ð¼ÐµÑĤ
ens
Ð»Ð°Ðº
ÑĥÐ¿ÑĢÐ°Ð²
ĠÑĦÐ°ÐºÑĤÐ¸ÑĩÐµÑģÐºÐ¸
ĠÐ¼ÐµÐ½Ñı
ĠÐ²Ð¾Ð·Ð½Ð¸ÐºÐ½Ð¾Ð²
ĠÑĦÐ°Ð±ÑĢÐ¸
ĠÑħÐ¾Ð»Ð¾Ð´
ÑĢÐ¸Ð¶
ÑĪÐµÑģÑĤÐ²ÐµÐ½
ĠÑģÐµÐ½ÑĤÑıÐ±ÑĢÐµ
ĠÐĲÐ·ÐµÑĢÐ±Ð°Ð¹Ð´Ð¶
ĠÐ²ÑĭÐ±Ð¾ÑĢÑĭ
ÑģÐºÐ¾ÑħÐ¾Ð·ÑıÐ¹
ĠÐ´Ð¾ÑĩÑĮ
Ð»Ð¸Ð²Ð°
ĠÐ·Ð°ÑīÐ¸ÑĤÑĭ
ĠÐ±Ð»Ð°
97
Ġ1000
Ð³Ð¾ÑĢÐ¸ÑĤ
ĠÐ¾Ð¿Ð¿Ð¾Ð·
Ġ1958
ĠÑģÐºÐ¾ÑĢÐ¾ÑģÑĤÐ¸
ĠÐ»ÑİÐ±Ð¾Ð¹
ĠÐĿÐ°ÑĩÐ°Ð»Ð¾
ĠÐºÐ²
ĠÐļÑĢÐ°ÑģÐ½Ð¾
ĠÐĹÐ°Ð¿Ð°Ð´Ð½Ð¾Ð¹
ÑĢÐµÐ³Ð¸ÑģÑĤ
ĠÐľÐ°ÑĢÑĤ
ĠÐ¼Ð°ÑĢÑĤÐµ
ĠÐ¢Ð°Ð¹
ĠÐ¿Ð¾Ð»Ð¸ÑĤÐ¸ÑĩÐµÑģÐºÐ¸Ð¹
ĠÑĥÐ¿ÑĢÐ°Ð²Ð»ÐµÐ½Ð¸Ðµ
if
ĠÐºÐ°Ð´
ĠÐ²ÑĤÐ¾ÑĢÐ¾Ð³Ð¾
ĠÐ¾ÑĢÐ¸Ð³Ð¸Ð½
Ð¼ÐµÑĢÑĪÐ¸Ðµ
ĠÐĺÐ½Ð´Ð¸Ð¸
ĠÐĳÐ¾Ð»ÑĮÑĪÐ¸Ð½ÑģÑĤÐ²Ð¾
ord
Ġ1921
ĠÐľÐ°ÑĢÐ¸Ñı
ĠÐºÐ¸ÑģÐ»
ĠÐ¿ÑĢÐµÐ´ÑģÐµÐ´Ð°ÑĤÐµÐ»ÑĮ
ĠÐĴÐ°ÑģÐ¸Ð»Ð¸Ð¹
ÑĢÐ°ÑģÑĤ
Ġ1956
ĠÑģÐ½Ð¸Ð¶
ĠÐ½ÐµÐ¿Ð¾ÑģÑĢÐµÐ´ÑģÑĤÐ²ÐµÐ½Ð½Ð¾
Ð¾ÑģÑĤÐ¾Ñı
Ð¼Ð¾ÑĤÑĢ
ĠÑģÐµÐ³Ð¾Ð´Ð½Ñı
Ð°Ð²Ð¸Ð»
ĠÑĢÑĥÐº
ĠÐºÐ¾Ð¼Ð°Ð½Ð´Ñĭ
ÑİÑģÐµÑĢ
ÑĥÑİÑīÐµÐ¹
ĠÐºÐ¾ÑĢÐ¿ÑĥÑģ
ĠÑģÐ¸Ð½ÑĤÐµÐ·
ĠÐ½Ð°Ð·Ð°Ð´
ĠÐ·Ð°ÐºÑĢÐµÐ¿
ĠÑĦÐ°Ð½ÑĤÐ°
ĠÑģÑĢÐµÐ´Ð½ÐµÐ²ÐµÐº
ĠÐ³ÐµÐ¾Ð¼ÐµÑĤ
ÑĢÐ¸Ð¼
Ð¾Ð»Ð¾Ð³Ð¸ÑĩÐµÑģÐºÐ¾Ð¹
ĠÑĩÐ°ÑģÑĤÐ¸ÑĨ
ĠÐ¿Ð¾Ð½ÑıÑĤÐ¸Ðµ
ĠÐĶÐ¼Ð¸ÑĤÑĢÐ¸Ð¹
Ð¾ÑĤÐ²
Ð¾ÑģÑĤÑĢÐ¾
Ð¸Ð²Ð°Ð»Ð¸
Ð¿Ð¾Ð»Ðµ
ĠÐ¾ÐºÑĤÑıÐ±ÑĢÐµ
ĠÐĿÐ¸ÐºÐ¾Ð»Ð°Ñı
ĠÐ¿ÑĢÐµÑģÑĤÐ¾Ð»
ĠÐļÑĥÐ·
ĠÐ¿Ð¾ÑģÑĤÐ¾ÑıÐ½Ð½Ð¾
ĠÐ´ÑĢÐ°Ð¼Ð°ÑĤÑĥÑĢÐ³
ĠÐĴÐ¾Ñģ
ÐµÐ²ÑĭÑħ
ĠÑĦÐ°Ð¼Ð¸
Ġ1929
ĠÐ²Ð¾Ð»Ð½Ñĭ
ĠÐ·Ð²ÑĳÐ·Ð´
ĠÐºÐ¾Ð¾ÑĢÐ´Ð¸Ð½
ĠÐ²Ð¿Ð»Ð¾ÑĤÑĮ
ÑıÐ»Ð°
Ð°ÑĤÐ¾ÑĢÐ¾Ð²
ĠÐ¦ÐµÐ·
ĠÑįÐ¼Ð¸
ĠÐ¼Ð°ÑģÑģ
Ð±ÐµÐ»
ĠÐļÑĥ
ĠÐ¿ÑĢÐ¾ÑıÐ²Ð»Ñı
ĠÐ¸ÑģÐ¿Ð¾Ð»Ð½Ð¸ÑĤÐµÐ»ÑĮ
ĠÐĴÑģÐµÐ¼Ð¸ÑĢ
Ġh
ĠÐ¿ÑĢÐµÐ´Ð»Ð¾Ð¶Ð¸Ð»
ĠÐŁÐ¾Ð·
Ð²Ð°Ð¹
ĠÑģÐ¾Ð¾Ð±ÑīÐµ
ĠÑģÐ²Ð¾Ð¸Ð¼Ð¸
ÑĥÐ¼Ð°Ð½
ĠÐŀÐĲÐŀ
ÑĤÑĥÑĢÑĥ
ĠÐ¾ÑģÑĤÑĢÐ¾Ð²Ð¾Ð²
ĠÐĺÐ²Ð°Ð½Ð¾Ð²Ð¸Ñĩ
ĠÐ±ÑİÐ´Ð¶
ÐµÐ½Ð½ÑĥÑİ
ĠÐĶÐ¾ÑģÑĤ
ĠÐ¿Ð»ÐµÐ½
ĠÐ¡Ñĥ
ĠÐ¿ÑĢÐ¸Ð»Ð¾Ð¶
ĠÐ¿ÑĢÐµÐ´ÑģÑĤÐ°Ð²Ð»ÐµÐ½Ð¸Ñı
ĠAn
ĠÐĳÐµÑĢÐ»Ð¸Ð½
Ġ1936
ĠÐ´Ð¾Ð»Ð¶Ð½Ð¾ÑģÑĤÐ¸
ÐµÐ½ÑģÐºÐ¾Ð³Ð¾
Ð¸Ð½ÑģÐºÐ¸Ðµ
Ġ1934
Ð¾Ð²Ð°Ð»Ð¸
ĠÑģÐ½Ð¾Ð²Ð°
eb
ĠÐ²ÑĢÐµÐ¼ÑĳÐ½
ĠÐ·Ð°Ð¼ÐµÐ½
ĠÑģÑĭÐ³ÑĢÐ°
Ð°ÑĳÑĤÑģÑı
ĠÐĳÐ»Ð°Ð³
Ð»Ð¸ÑĪ
ĠÐľÑĥÐ·ÐµÐ¹
ĠÐ¿Ð¸ÑģÐ°ÑĤÐµÐ»Ñı
ĠÐĵÑĢÑĥÐ·Ð¸Ð¸
Ð°Ð·Ñĭ
ĠÐ½Ð¸ÐºÐ¾Ð³Ð´Ð°
62
72
81
ĠÐ°ÑĢÐ³
Ð°Ð½ÑģÐºÐ¸Ðµ
ĠÐ½Ð°ÑģÑĤ
ÑģÐ²
ĠÐłÐ°Ð½
ĠÐ¿ÐµÑĢÐµÑģÐµ
ĠÐĿÐ¾Ð²Ð¾Ñģ
ĠÐ¿ÑĢÐ¾ÑĦÐµÑģÑģÐ¾ÑĢ
ĠÐĶÐ¶Ð¾ÑĢÐ´Ð¶
ĠÐŀÐŀÐŀ
02
ĠÐ¾ÑĢÐ³Ð°Ð½Ð¸Ð·Ð°ÑĨÐ¸Ñı
ĠÐļÐ¾ÑĢÐ¾Ð»ÐµÐ²
ĠÐĵÑĢÐ°Ð¶Ð´Ð°Ð½
ÐºÐ¾ÑģÑĤÑĮ
ĠÐļÐ¾ÑĢÐµ
ĠÐļÐ¸ÑĤÐ°
ĠÐ¾ÑģÑĤÑĢÐ¾Ð²Ðµ
ĠÐºÐ»Ð¸Ð½
ĠÐ±Ð¾Ð»ÑĮÑĪÐ¸Ñħ
ĠÑĤÐµÑħÐ½Ð¸ÐºÐ¸
94
ÑĢÐµÐ·Ð²
ĠÑĦÐ¸Ð³
ĠÐĳÑĥÑĢ
ity
ĠÐºÐ°Ñģ
ĠÐ¿ÑĢÐ¾ÑĨÐµÑģÑģÐµ
ĠÑĨÐ²ÐµÑĤÐ°
ĠÐ¼Ð°ÑģÑģÑĭ
Ð¾ÐºÐ¾Ð¹
Ġ1925
ÑģÐºÐ¾ÑĢ
ĠÐ²Ð¾Ð·ÑĢÐ°ÑģÑĤÐµ
ÑĢÐµÐ»
ÑĢÑĥÑİÑĤ
ÐłÐ¾Ð´
ĠÐŁÐµÑĢÐ²Ð¾Ð¹
ĠÐ±Ð¸Ð·Ð½ÐµÑģ
ĠÑĤÑĢÐµÐ½
ĠÐ´Ð°Ð»ÐµÐµ
ÑĨÐ¾Ð¼
ĠÐļÑĢÐ°
ĠÐºÐ°Ð¶Ð´Ð¾Ð³Ð¾
ÐµÑħÐ°Ð»
ĠÐ¸Ð·Ð²ÐµÑģÑĤÐ½ÑĭÐ¹
ÑĭÐ»
ĠÐ·Ð°ÑģÐ»ÑĥÐ¶
ĠÑģÐ¼ÐµÑĢÑĤÑĮ
63
71
ÐºÐ°Ðº
ran
Î±
Ð²Ð¾Ð»ÑĮ
ÑĢÐ¾Ð²Ð°Ð½Ð½ÑĭÑħ
ĠÑĩÐ»ÐµÐ½Ð¾Ð¼
ĠÐ¿Ð°ÑĤÑĢÐ¸Ð°ÑĢÑħ
ÐµÐ½Ð¸Ð½
ĠÐ¡ÐµÑĢ
ÑĥÑİÑīÐµÐµ
Ð°Ð²ÑĪÐ°Ñı
ÑĢÐ¾Ð¼ÑĭÑĪÐ»ÐµÐ½
ian
Ð¾ÑħÐ¾Ð´
ĠÑģÐ¿Ð°Ñģ
ĠÐºÐ¾Ð»Ð»ÐµÐºÑĤÐ¸Ð²
Ð±Ð½
ĠÐ£Ð½Ð¸
ÑĪÐµÐ³Ð¾ÑģÑı
ĠÐºÐ½Ð¸Ð³Ð°
ĠÐ¦ÐµÑĢÐºÐ¾Ð²
ĠÐ±Ð¾Ð»ÑĮÑĪÑĥÑİ
ĠÑĩÐµÑĤÐ²ÑĳÑĢ
XV
ÑĪÑĤÐ°Ð±
ÐºÑĢÐ°ÑĤ
ĠÐ²ÑĢÐµÐ¼ÐµÐ½ÐµÐ¼
ĠÐĲÐ½ÑĤ
ĠÐ½ÐµÐ·Ð°Ð²Ð¸ÑģÐ¸Ð¼Ð¾ÑģÑĤÐ¸
ĠÑģÐ¼ÐµÐ½
ĠÐºÐ¾Ð¶
ĠÐ±Ð¾Ð»ÑĮÑĪÐµÐ¹
ĠÐ¯ÑĢÐ¾ÑģÐ»Ð°Ð²
ĠÐ¿ÐµÐ²ÐµÑĨ
ĠÐĲÐ¼ÐµÑĢÐ¸ÐºÐ¸
ĠÐ§Ð¸Ñģ
ÐºÐ»Ð°
ĠÐ¡Ð¸Ð±
ĠÐ½Ð°ÑĥÑĩÐ½ÑĭÑħ
ĠÐ¿ÑĥÐ±Ð»Ð¸ÐºÐ°
98
ÑıÑīÐ¸Ð¹
ĠÐ¿ÑĢÐ¸Ð¼ÐµÐ½ÐµÐ½Ð¸Ðµ
ĠÐŃÐ´Ñĥ
ĠÐ¿ÐµÑĢÐ²Ð¾Ð¼
ĠÐ¸Ð·Ð´ÐµÐ»
ÐµÑħÐ½Ð¸ÑĩÐµ
ĠÑģÑĥÑīÐµÑģÑĤÐ²Ð¾Ð²Ð°Ð½Ð¸Ñı
ĠÑĦÑĥÐ½ÐºÑĨÐ¸Ð¹
Ð»ÑĮÐ½ÑĭÐ¹
Ð°Ð¹Ð½
ĠÐŀÐ»Ð¸Ð¼Ð¿Ð¸Ð¹
ĠÐŁÐ¾Ðº
ĠÐ¿Ð¾ÑģÐ»
ĠÐŀÐ±ÑīÐµ
ĠÑģÐµÐ»
ĠÐŁÐ»Ð°ÑĤ
ĠÐ¿Ð¾Ð»Ð¸ÑĤÐ¸ÑĩÐµÑģÐºÐ¾Ð¹
all
ĠÐ»ÐµÐ³ÐºÐ¾
Ð±Ð¸ÑīÐµ
ĠÐ½Ð°ÑĨÐ¸Ð¾Ð½
ĠÐŁÐ°ÑĢÐ°
ĠÐ¿ÐµÑĢÐµÐ²Ð¾Ð·
ÑĤÐµÑĢÑĢÐ¸ÑĤÐ¾ÑĢÐ¸
ÑģÑĤÐ²ÐµÐ½Ð½ÑĥÑİ
Ð¸ÑĨÐ¸Ñı
ÑĥÑĢÐµ
Ð²Ð°ÑĤÑĭ
ĠÐ»Ð°Ð±
ÐµÐ½ÑģÐºÐ¾Ð¹
Ð½Ð¸Ð»
ĠÐ¾Ð±ÑĥÑģÐ»Ð¾Ð²
ĠÑĥÑģÐ¸Ð»
ĠÐ³Ð¾ÑĢÐ¾Ð´Ð°Ñħ
54
ÑģÐµÐ¹
Ð¿ÑĢÐµÑģ
ĠÐºÐ¾Ð½ÑĨÑĥ
ĠÑĥÐ´Ð¾Ð±
ÐµÐ³Ð¾
92
ĠÐ³Ð¾ÑĢÐ¸
ÐµÐºÐ¾
Ġ1959
Ð±ÑĥÐ´
Ð¿Ð¸ÑģÐ¾Ðº
ĠÐĳÐ°ÑĪ
ĠÐ·Ð°ÑģÐ»
Ð¾ÑĩÐ½ÑĭÐ¹
Ð²Ð¸Ð³Ð°
ĠÑĥÑģÑĤÐ°Ð½Ð°Ð²
ĠÐ²Ð¾ÑģÑģÑĤÐ°Ð½Ð¸Ðµ
Ð³ÑĢÐ°ÑĦ
ĠÐ¿ÐµÑĢÐµÐ´Ð°ÑĩÐ¸
ĠÐ´ÐµÐ»Ð¾
ÑĭÑĩÐ°Ð¹
ĠÐ¿Ð»Ð°Ð½Ð¸ÑĢÐ¾Ð²
ÑĢÐµÐ·Ð²ÑĭÑĩÐ°Ð¹
ĠÐºÐ¸ÑĢ
Ð»ÑıÑİÑĤ
ĠÐ¸Ð·Ð²ÐµÑģÑĤÐ½ÑĭÑħ
ĠÐĵÐ¾ÑĢÐ¾Ð´Ð°
ex
Ð¸ÑĢÑĥÐµÑĤÑģÑı
ĠÐ´Ð°ÑĳÑĤ
ĠÐ±Ð¸Ð±Ð»Ð¸Ð¾ÑĤÐµÐºÐ°
ĠÐ¾Ð±ÑĬÑıÑģÐ½Ñı
ÐµÐ¼ÑĭÐ¼
Ġ1926
ĠÐĴÐµÐ»Ð¸ÐºÐ¾Ð³Ð¾
ĠÑįÐºÑģÐ¿Ð»ÑĥÐ°ÑĤÐ°
ĠÐŁÐ°Ð¿
ĠÐ¿ÐµÑĢÐµÑģ
ĠÑģÑħÐ¾Ð´
ÑĩÐµÑģÐºÐ¸Ð¼Ð¸
ĠÐĴÐ»Ð°Ð´Ð¸Ð¼Ð¸ÑĢÐ°
Ð½Ð¾Ð¼Ð¾ÑĢ
ĠÐ½ÐµÐ¿ÑĢÐµÑĢÑĭÐ²
ĠÐ©
Ð¾Ð½Ð¸
ĠÐ¾Ð±ÑĬÐµÐºÑĤÐ°
ĠÑĢÐ¾ÑģÑģÐ¸Ð¹ÑģÐºÐ¸Ñħ
ĠÐ°Ð¿ÑĢÐµÐ»Ðµ
ĠÐĸÑĥÐºÐ¾Ð²
ĠÑģÐ´
ÐµÐ¼Ð¾ÑĢÐ¸
ĠÐĽÐµÐ¹
ĠÑģÐ¾Ð·Ð´Ð°Ð½Ð¸Ð¸
ĠÐ¼Ð½Ð¾Ð¶ÐµÑģÑĤÐ²Ð°
ÑĢÐµÑĤÐ°
ĠÑĢÐ¾Ð´Ð¸Ð»ÑģÑı
ĠÐºÐ°Ð¼Ð¿
Ð¼Ð¿Ð¸
ĠÐ¼ÐµÑģÑĤÐ½Ð¾Ð³Ð¾
ĠÐŁÐ°Ð¼ÑıÑĤÐ½Ð¸Ðº
Ð¶ÐµÐ¹
ÑĤÐ¸Ð»
Ð°Ð²Ð¾Ð´
ÑģÑĤÐ²ÐµÐ½Ð½Ð¾Ð¼
Ð»ÐµÐ½Ð½ÑĭÐ¹
ĠÑģÑĢÐµÐ´Ð½ÐµÐ¼
ĠÑįÐ²Ð¾Ð»Ñİ
ĠÑĢÐµÐºÐ°
ĠÐ´Ð¸Ðº
ĠÐŃÑģÑĤÐ¾Ð½
Ġ1935
Ġ1924
ĠÐ·Ð²Ð°Ð½Ð¸Ðµ
ĠÐļÐ¾
ĠÐĿÐµÐ²
Ð¾ÑģÑĦ
Ð·ÑĭÐ²Ð°ÑİÑĤ
ĠÑĦÐ¸Ð»
ĠÐ³Ð¾ÑģÑĥÐ´Ð°ÑĢÑģÑĤÐ²ÐµÐ½Ð½ÑĭÑħ
ĠÐ¼Ð°ÑĤÐµÑĢÐ¸Ð°Ð»Ð¾Ð²
ĠÐ³Ð»Ð°Ð·
ĠÐ¿Ð¾Ð·Ð¸ÑĨÐ¸Ð¸
ĠÐ¸ÑģÑĤÐ¾ÑĢÐ¸Ñİ
ĠÐ¸ÑģÐºÑĥÑģÑģÑĤÐ²
ĠÑģÐ°Ð¹ÑĤÐµ
ĠÐ½Ð°ÑħÐ¾Ð´Ð¸Ð»ÑģÑı
ĠÐ¿ÑĢÐµÐ´ÐµÐ»Ð°Ñħ
ĠÐŁÑĢÐ°Ð²Ð¾ÑģÐ»Ð°Ð²
ĠÐµÐ³Ð¸Ð¿
ĠÑĨÐµÐ¿
ĠÑģÐ¿ÑĥÑģÑĤ
ĠÐ¡ÑĥÑīÐµÑģÑĤÐ²ÑĥÐµÑĤ
ĠÑĤÐ¸ÑĤÑĥÐ»
ĠÑģÑİÐ¶
Ð¾ÑĤÐ¸Ð¿
Ð»ÑıÑĤÑĮ
Ð´Ð°Ð¼Ð¸
ĠÑĤÐµÑĢÑĢÐ¸ÑĤÐ¾ÑĢÐ¸Ñı
ÑģÐµÑĢÐ²
ĠÐºÑĥÐ±
ĠÐ¢Ñİ
Ġ1932
Ð»ÑıÑĨÐ¸Ð¸
ĠÐ»Ð¸ÑĨÐ°
ĠÑĢÐµÐºÐµ
ĠÐ¥Ð¾Ð»
ĠÑģÐ¾ÑģÑĤÐ¾ÑıÑī
ĠâĢ¦
ĠÐŁÐ°ÑĢÐ¸Ð¶
ĠÑĤÐ°Ð±Ð»Ð¸
ÑįÑĦÑĦÐ¸ÑĨÐ¸
ĠÐ½ÐµÑĢÐ²
Ð»Ð¸Ðº
Ð°Ð¼ÐµÑĢÐ¸
ĠÐ´ÐµÐ¹ÑģÑĤÐ²ÑĥÐµÑĤ
ĠÐ´Ð¾Ð»Ð¶Ð½Ð¾
ĠÑĥÐ´Ð¾Ð²
Ð´ÐµÐ½ÑĤÐ¸
ĠÐ¾ÑĤÐ½Ð¾ÑĪÐµÐ½Ð¸Ðµ
ĠÑĢÐ°Ð²ÐµÐ½
ĠÑģÑĥÐ´ÐµÐ±
ĠÐºÐ¾Ð¼Ð¼ÐµÑĢ
ĠÐĹÐ²
end
ĠÐ±ÑĢÐ¸ÑĤÐ°Ð½ÑģÐºÐ¸Ð¹
ÑģÑĥÐ½
ĠÐĺÐµÑĢÑĥÑģÐ°Ð»
ĠÑĤÑĢÐ°Ð²
ĠÐŁÑĢÑĥÑģ
ÐµÑĢÐ°Ñħ
ĠÐºÐ°ÐºÐ¾Ð¹
69
77
Ð¼Ð¾Ð¹
ÑĩÐµÐ³Ð¾
ĠÐ±ÑĭÑģÑĤ
ĠÐŀÐ´Ð¸Ð½
ĠÑĢÐµÐ³Ð¸Ð¾Ð½Ð°
ĠÑģÐµÐ»ÑĮÑģÐºÐ¾ÑħÐ¾Ð·ÑıÐ¹
ĠÐ²ÐµÑĢÐ½ÑĥÐ»ÑģÑı
ĠÐ´ÑĢÑĥ
Ð½Ð¾Ð²Ð¸Ð´
ÑĮÐ¼Ð¸
ĠÐ¸Ð½Ð´Ð¸Ð²Ð¸Ð´Ñĥ
ĠÐ±ÐµÑģÐºÐ¾Ð½ÐµÑĩ
ĠÑģÐ½Ðµ
Ð½Ð¸ÐºÑĥ
ĠÐ¸ÑİÐ»Ðµ
ĠÐ²ÑĭÐ±Ð¾ÑĢÐ¾Ð²
ĠÐ»ÑĳÑĤ
ĠÐĵÐµÑĢÐ°
ĠÐ²Ð¾Ð¾Ð±ÑīÐµ
ĠÐ¿Ð°ÑģÑģÐ°Ð¶Ð¸ÑĢ
Ð¸ÑĤÐµ
ĠÐ¿ÑĢÐ¸ÑĳÐ¼
Ð¡Ð¿
Ġ1928
ĠÑĢÐ°ÑģÐ¿ÑĢÐ¾ÑģÑĤÑĢÐ°Ð½ÐµÐ½Ð¸Ðµ
ĠÐ¿ÑĢÐµÐ¿Ð¾Ð´Ð°Ð²
Ġk
Ð´Ð¾Ðº
Ð°Ð½ÐºÐ°
ĠÐ³Ð¾ÑĢÐ¾Ð´Ð¾Ð¼
ĠÐ½Ð¾ÑıÐ±ÑĢÐµ
ĠÐ´Ð½Ð¸
ĠÐ¿ÑĢÐ¾ÑĤÐ¸Ð²Ð¾Ð¿Ð¾Ð»Ð¾Ð¶
ĠÑģÐ°Ð¹ÑĤ
ĠÑĩÐ°ÑģÑĤÐ¸ÑĩÐ½Ð¾
ĠÐłÐ¸Ð¼ÑģÐºÐ¾Ð¹
ĠÐ²Ð´Ð¾Ð»ÑĮ
ĠÐĹÐ°ÑĤÐµÐ¼
ĠÐ¡Ð²ÐµÑĤ
ĠÐ¾ÑģÐ¾Ð±ÐµÐ½Ð½Ð¾ÑģÑĤÐ¸
ĠÑĦÐ¸Ð»ÑĮÐ¼Ð°
ĠÑĦÐ¸ÑĢ
ĠÐłÐµÐ·
Ġ32
ĠÐ³ÑĢÐ°Ð¼
ĠÐ¿ÑĢÐµÐ´ÑģÑĤÐ°Ð²Ð¸ÑĤÐµÐ»Ð¸
ĠÑģÐµÑĢÐ´
ĠÑĢÐµÐ°ÐºÑĨÐ¸Ð¸
ĠÐ±ÑĥÐºÐ²
Ð°ÑĤÐµÐ»ÑĮÐ½Ð¾Ðµ
Ð¸Ð½ÑģÐºÐ¾Ð¼
ĠÑģÐ¾Ð²ÐµÑĤÑģÐºÐ¸Ñħ
ĠÐ´Ð¸Ð°Ð³
Ġ1923
ÐµÑĢÐ¾ÑģÑģÐ¸Ð¹
ĠÐ½Ð¾Ð²Ð¾Ðµ
ĠÐ¿Ð¾Ð»Ð¸ÑĤÐ¸ÑĩÐµÑģÐºÐ¸Ñħ
ĠÑĢÐµÐ±
ÑĢÐ¸Ð·
ĠÑĥÐ¿ÑĢÐ°Ð·Ð´
ĠÐ½Ð°ÑĩÐ¸Ð½Ð°ÐµÑĤÑģÑı
Ð°ÑĨÐ¸Ñİ
ÑĮÐµÑĤ
Ð¾ÑĤÐ¾Ð¿
ĠÑĤÐ°ÐºÐ¾Ðµ
ĠÐ³Ð²Ð°ÑĢÐ´
ĠÐłÐ°Ð´Ð¸
ĠÐ²ÐµÑĢÑĪ
ÑģÐ°Ð¼
ÑĳÑģÑĤ
ĠÑĥÑģÐ»
42
ĠÑĢÐµÐ»Ð¸Ð³Ð¸Ð¸
ĠÐ¾Ð±ÐµÑģÐ¿ÐµÑĩÐµÐ½Ð¸Ñı
ĠÑĥÑģÑĤÑĢÐ¾Ð¹ÑģÑĤÐ²Ð°
ĠÐĿÐ¾Ð±ÐµÐ»ÐµÐ²ÑģÐºÐ¾Ð¹
ĠÐ±Ð»Ð¸Ð¶
ĠÐ¡ÐµÐ²ÐµÑĢÐ¾
ĠÐ¶ÐµÐ»ÐµÐ·Ð½Ð¾Ð¹
Ð¸ÑĤÐ¸
ĠXII
ĠÐ¡Ð²ÑıÑĤÐ¾Ð³Ð¾
ÑħÐ°Ð·
ĠÐ·Ð°ÑĢÐµÐ³Ð¸ÑģÑĤ
ĠÐ¿ÑĢÑıÐ¼Ð¾
Ð°Ð»Ð¸Ð·Ð°ÑĨÐ¸Ð¸
ĠÐĸÐ°Ð½
ĠÐ±ÑĥÐ´ÑĥÑī
ĠÐ¿Ð¾Ð»ÑĥÐ¾ÑģÑĤ
ÐºÐ°Ð·Ð°
ĠÐ¢Ð¾Ð³Ð´Ð°
ĠÑĤÐµÐ°ÑĤÑĢÐ°Ð»ÑĮ
ĠÑģÑĩÐ¸ÑĤÐ°ÑİÑĤ
ĠÐĲÑĢÐ¼ÐµÐ½Ð¸Ð¸
ÑĦÑĦÐµÑĢ
ÑīÐ¸ÐºÐ¾Ð²
ĠÑĤÐµÑĢÑĢÐ¾
ĠÐ´ÐµÐ»Ð°
ĠÐ»Ð¸Ð½Ð¸Ñı
Ð¿Ñĭ
ĠÐ°Ð²ÑĤÐ¾ÑĢÐ°
ĠÑĤÑĢÐ°Ð½ÑģÐ¿Ð¾ÑĢÑĤÐ°
ÑĥÑĩÐ¸
ĠÐ¾ÑģÐ½Ð¾Ð²Ð°ÑĤÐµÐ»ÑĮ
ĠÐ¿Ð¾ÐºÐ¾Ð»
ĠÐ¿Ð¾Ð¼Ð¾ÑīÑĮ
Ð»Ð¾Ð¿
ĠÐĳÐ¾Ð»ÐµÐµ
ĠÐ£Ð·
ĠÐ°Ð²ÑģÑĤÑĢÐ¸Ð¹
ĠÑĤÑĭÑģÑı
ĠÑģÑĤÐ°ÑĤÐ¸
Ã¤
ĠÐłÐµÐ¹
ÐµÐ·Ð´Ðµ
ĠÐ±Ð¾Ð»ÑĮÑĪÐ°Ñı
ĠÐŀÑĤÐºÑĢÑĭ
ĠÑĤÐ¸Ð¿Ð¾Ð²
ĠÐ¾Ð¿ÑĢÐµÐ´ÐµÐ»ÑıÐµÑĤÑģÑı
ĠÐ¿ÑĢÐ¾Ð»
Ð¸ÑĤÐµÐ»ÑĮÐ½ÑĭÐ¼
ĠÑģÐ½Ð°ÑĩÐ°Ð»Ð°
ÑĨÐµÑģÑģ
ÐºÐ¾Ð²Ð¾Ð¹
ĠÐ¾Ð¿ÑĭÑĤ
ÑģÑĤÑĢÑĥÐºÑĤ
ĠÐ½Ð°ÑĩÐ¸Ð½Ð°Ñı
ĠÐ¸Ð·Ð¼ÐµÑĢÐµÐ½Ð¸Ñı
Ð¸Ð¾
ĠÐĲÐĿ
ĠÐľÐ°Ñģ
ÑĢÑıÑģ
ĠÐ¿ÑĢÐ¸Ð¼ÐµÐ½ÑıÐµÑĤÑģÑı
ĠÑģÑĤÑĢÐµÐ»
Ð½ÐµÐ¹ÑĪÐ¸Ñħ
ÑģÑĤÐ¸ÑĩÐµÑģÐºÐ¸Ñħ
ĠÐĽÑİÐ±
ĠÐĴÐ¸Ð»ÑĮÐ³ÐµÐ»ÑĮ
ĠÐ¾ÑĤÐµÑĨ
ĠÐĿÐ°ÑĢ
ÑĩÐµÑĢ
ĠÐ¡Ð°Ð²
ĠÐļÐ¾Ð¼Ð¿
ĠÑĢÐ°ÑģÑĤÐµÐ½Ð¸Ð¹
ĠÑģÐµÑĢÐ¸
ĠÐ¼ÐµÑĤÐ°
ĠÑĦÐ°Ð¹
ÐĲÐ²
Ð½Ð°ÐºÐ¾Ð¼
ĠÐ½Ð°Ð¿Ð°Ð´
ĠÐ¸Ð¼Ð¸
ĠÐ³Ð»Ð°Ð²Ð°
ĠÐ½Ð°Ð¸Ð¼
Ġ1914
ĠÐ¸ÑģÐºÐ»ÑİÑĩÐµÐ½Ð¸ÐµÐ¼
38
ÐµÐ»Ð¸Ñı
Ð°ÑĢÐ°Ð±
ĠÐºÑĢÑĥÐ¿Ð½ÑĭÐµ
ĠÐ¸ÑģÑĩÐµ
ge
ok
Ð¼ÐµÐ¹
ĠÐłÐµÑģÐ¿ÑĥÐ±Ð»Ð¸ÐºÐ°
ĠÐ¸Ð½ÑĤÐµÑĢÐ¿ÑĢÐµ
ĠÐ°ÑģÐ¿
Ð¸Ð¹ÑģÐºÐ¾Ð³Ð¾
Ġ1948
ĠCom
ip
ĠÐ¿Ð¸Ð»
ĠÑĢÐµÑĩÐ¸
ĠÑģÐ¿Ð¸
ĠÐ²ÑģÑĤÑĢÐµÑĩÐ°ÑİÑĤÑģÑı
ĠÐ³Ð»Ð°Ð³
ĠÐ²ÐµÑĢÑģÐ¸Ñı
ĠÐ¢Ð°ÑĢ
ĠÑģÐ¾Ð·Ð´Ð°
ĠÐ¼ÐµÐ¶Ð´ÑĥÐ½Ð°ÑĢÐ¾Ð´Ð½ÑĭÑħ
ĠÐ¾Ð±ÑĬÑıÐ²Ð¸Ð»
Ð³Ð¸Ð½
ÑĥÐ½Ð´Ð°Ð¼ÐµÐ½ÑĤ
ĠÐľÐ°Ñħ
ĠÐ¼Ð°ÑĪÐ¸Ð½
ÑĢÐ°Ñĩ
Ð°Ð²ÑĪÐµÐ³Ð¾
ÑįÐºÐ¾Ð½Ð¾Ð¼
61
ÑĪÑĤÐ°
ĠÐĽÐ°Ð²
ĠÐºÐ»Ð°Ð´Ð±Ð¸ÑīÐµ
ĠÐºÐ°ÑĦÐµÐ´
ĠÐ¸ÑĤÐ¾Ð³Ðµ
ĠÑĢÐ°Ð·Ð³ÑĢÐ¾Ð¼
OS
ĠÐ²ÑĢÐ°Ñī
Ð°Ð»Ð¸Ð·Ð¸ÑĢÐ¾Ð²
Ð°Ð¼ÐµÑĢÐ¸ÐºÐ°Ð½
ÐµÐ½ÑĤÐ¾Ð¼
ĠÐ¿Ð¾Ð²ÐµÐ´
ĠÑĤÑĢÐ°Ð¼
ĠÑģÐµÐ¼ÑĮÐµ
Ð²ÐµÑĢÑģ
ĠÑģÑĥÑīÐµÑģÑĤÐ²Ð¾Ð²Ð°Ð½Ð¸Ðµ
ĠÐ¿ÑĢÐ¸Ð·Ð²
ĠÐ¿Ð¾Ð»Ð¾Ð¶ÐµÐ½Ð¸Ñı
ĠÐ²ÑħÐ¾Ð´ÑıÑĤ
ĠÑıÐ²Ð»ÐµÐ½Ð¸Ñı
Ð½Ð°ÑĩÐ°Ð»ÑĮÐ½Ð¾
Ð°ÑĤÑĢ
ĠÐ¿Ð¾Ð½ÑıÑĤÐ¸Ñı
ÑĤÐµÑĤ
ĠÐ¸Ð´ÐµÐ½ÑĤÐ¸
ĠÑĤÐ°Ð»
ÐļÐŀ
ĠÐ½ÐµÐ¼Ñĥ
ĠÐ¼ÐµÐ´Ð°Ð»ÑĮ
ĠÐ·Ð°ÑīÐ¸Ñī
ĠÐ»Ð¾Ðº
Ð»ÐµÑĤÐ¸Ñı
ĠÐºÐ°Ð»ÐµÐ½Ð´
ĠÐ¼Ð¾
ĠÐ¡Ð¿Ð¸ÑģÐ¾Ðº
ĠÐ·Ð°Ð¸Ð¼
ĠÐ´Ð¸ÑĢÐ¸Ð¶
ĠÐ¾Ð±ÑīÐµÑģÑĤÐ²Ð¾
ĠÐ²Ð¾ÑģÑĤÐ¾Ðº
ĠÑĢÐ°Ð¹Ð¾Ð½Ñĭ
ÐĹÐ°Ð¿
ĠÐ±Ð¾Ð»ÑĮÑĪÐ¸Ð½ÑģÑĤÐ²Ðµ
ĠÐ¿ÑĢÐ¾Ð²Ð¸Ð½ÑĨÐ¸Ð¸
ĠÑģÐ¼ÑĭÑģÐ»Ðµ
ÑĤÐ¸Ð½Ð³
ĠÐļÐ¸ÑĢÐ¸
ĠÐ¾Ð±ÑĢÐ°ÑĤÐ¸
ÑĤÐ¸Ð²Ð½ÑĭÐ¹
ĠÑģÐµÑĤÑĮ
ĠÐ¾Ð±Ð¾ÑĢÐ¾Ð½
ÑĢÑĭÐ²Ð°
ĠÑģÐ¾Ð²ÐµÑĤÑģÐºÐ°Ñı
ĠÐºÑĢÑĥÐ¿Ð½ÐµÐ¹ÑĪÐ¸Ñħ
ÐµÐ»ÑıÑħ
.-
ĠÐłÐĲÐĿ
ĠÐ·Ð°ÑģÑĤÐ°Ð²
ĠÑģÐ¾Ð·Ð´Ð°Ð½Ð°
ĠÐ¸Ð½ÑĤÐµÐ½
ĠÐ´Ð¾Ð¿Ð¾Ð»Ð½
ows
ĠÐ³ÑĢÑĥÐ·Ð¾Ð²
Ð±ÑĢÐ°Ð½
ÐĿÐł
Ġ1947
Ġ1949
ĠÐĶÑĢÑĥÐ³Ð¸Ðµ
ĠÐĴÐ¾ÑĢ
ĠÐºÐ¾Ð¼Ð±Ð¸Ð½
ĠVII
ÑĢÐ¾Ð½Ð°
ÑħÐ¾Ð¶Ð´ÐµÐ½Ð¸Ðµ
ÐµÐ»Ð»
ĠÑģÐ²Ð¾ÐµÐ¼Ñĥ
ĠÐ¼ÑĥÐ¶ÑĩÐ¸Ð½
43
ĠÐºÐ¾Ð»Ð»ÐµÐ´
ĠÐ´Ð¾Ð¼Ðµ
ÑĥÐ¼Ð±
ĠÐ¦Ð·
Ð»Ð¾ÑĢÐ¸
ĠÐĿÐ°Ð´
ĠÐĶÑį
ÑģÑĤÑĢÐ¸Ð¸
ĠÑĦÐµÐ²ÑĢÐ°Ð»Ðµ
Ð»Ð¸Ð·Ð°Ð²
ĠÐ¿ÑĢÐ¸Ð¼ÐµÐ½Ñı
ĠÐ¿Ð¾Ð´ÑĢÐ°Ð·Ð´ÐµÐ»
ak
ĠÑİÑĢÐ¸Ð´
ĠÐ²Ð°ÑĢÐ¸Ð°Ð½ÑĤ
Ã¼
ĠÐ±Ð¾Ð³Ð¾ÑģÐ»Ð¾Ð²
ĠÐ¿ÑĥÐ½ÐºÑĤÑĭ
ĠXIII
ĠÐ²Ð»Ð¸ÑıÐ½Ð¸ÐµÐ¼
ĠÐºÐ°ÑĤÐ°ÑģÑĤÑĢÐ¾
ĠÑĤÑĢÑĥÐ´Ð¾Ð²
ĠÐ±Ð¾Ð»ÑĮÑĪÐ¸Ð½ÑģÑĤÐ²Ð°
eg
ÐµÐ½Ð´Ñĥ
ĠÐ½Ð¾Ð³
ĠÑıÐ·ÑĭÐºÐ¾Ð¼
ÐĹÐ¾Ð»Ð¾ÑĤ
ÐµÐ²Ð¸ÑĩÐ°
Ġ2023
Ð±Ð»Ð¸Ð·
Ð¾Ð¶Ð´Ð°
ĠÐ¾Ð¿Ñĭ
ĠÑĩÐµÑĤÐ²ÐµÑĢ
ÑĥÐ°
ĠÐ¾ÑĤÐ½Ð¾ÑĪÐµÐ½Ð¸Ñİ
ĠÑĥÐ²Ð¸Ð´
ÑģÐµÐ²Ð´
ĠÐŁÑĢÐ¾ÑĤ
ĠÐĶÐ°Ð½Ð¸
ĠÑĦÑĥÐ½ÐºÑĨÐ¸Ñı
ĠÐĴÐ¾ÑģÑĤÐ¾ÑĩÐ½Ð¾Ð¹
ÑģÑĤÐ²Ð¸Ðµ
ĠÐĴÐµÑģ
ĠÐ¿Ð¾ÐµÐ·Ð´
ĠÑģÐ¾Ð·ÑĭÐ²Ð°
ĠÐ½ÐµÐ¾Ð±ÑħÐ¾Ð´Ð¸Ð¼Ð¾ÑģÑĤÐ¸
ÑĦÐµ
Ð¾ÑıÐ·Ñĭ
ĠÐ¼ÑĥÐ·ÑĭÐºÐ¸
ĠÐ¾Ð»Ð¸Ð¼Ð¿Ð¸Ð¹ÑģÐºÐ¸Ð¹
ÐºÑĥÑİ
ĠÑģÐ¸Ñħ
ĠÐºÐ°Ð²Ð°Ð»
ĠÑĦÐ¸Ð·Ð¸Ðº
ĠÐ°ÑĢÑĤÐ¸Ð»Ð»Ðµ
ĠÐ¾ÑģÐ½Ð¾Ð²Ð°Ð½Ð¸Ñı
ĠÑĢÐ°Ð¹Ð¾Ð½Ð°Ñħ
ect
ĠÐ¿Ð¾Ð»Ð¾Ñģ
ÑĨÐµÑĤ
Ġ1933
ĠÐ²ÑģÑĤÑĢÐµÑĩÐ°ÐµÑĤÑģÑı
ĠÐĳÐ¾Ð»ÑĮÑĪÐ¾Ð¹
ĠÐ½ÐµÐ´Ð¾ÑģÑĤÐ°ÑĤÐ¾Ñĩ
Ð°Ð³Ð½Ð¸ÑĤ
ĠÐ¼ÐµÑģÑĤÐ½ÑĭÑħ
ĠÑģÑĩÐ¸ÑĤÐ°ÑĤÑĮ
ĠÐ¸ÑģÑĤÐ¾ÑĩÐ½Ð¸ÐºÐ¾Ð²
ĠÑĤÐ¾Ð¶Ðµ
ĠÐķÐ´Ð¸Ð½
Ð½ÑĥÐ²
ĠÐĸÐµÐ»ÐµÐ·
ĠÐ¼Ð¸Ñģ
ĠÐ¾Ð±Ð»Ð°Ð´Ð°ÐµÑĤ
Ġ1953
49
ÐºÐ¸ÑĢ
ĠÐ¿ÑĢÐ¾ÑĨÐµÑģÑģÐ°
ĠÑģÐ¿ÑĥÑģÑĤÑı
ĠÐ¾Ð±Ðµ
ĠÐľÐ°ÐºÐµÐ´Ð¾Ð½
ĠÑģÐ¾ÑĢ
ÑĤÐ¾Ðµ
ĠÐ§Ð»ÐµÐ½Ñĭ
Ð³Ð¸Ñİ
ĠÐ£Ð¸Ð»ÑĮÑıÐ¼
ĠÐ¡ÑĤÐµÐ¿
ĠÐ¿Ð¾Ð´Ð´ÐµÑĢÐ¶ÐºÑĥ
ĠÑģÑĤÐ¾ÑĢÐ¾Ð½Ðµ
ĠÑģÐ¾Ð¾ÑĤÐ²ÐµÑĤÑģÑĤÐ²ÑĥÐµÑĤ
41
ÑĨÐ¸Ð½
ĠÑĦÐ¸Ð³Ñĥ
ĠÐ²ÑĭÑĤ
ĠÐ¿Ð»Ð¾ÑģÐº
Ð¿ÑĢÐµÐ´
ÑĢÐ¸Ñģ
ĠÑĥÑģÑĤÐ¾Ð¹ÑĩÐ¸Ð²
ĠÐ³Ð¾Ð»Ð¾Ñģ
ĠÑģÑĤÑĢÑĥÐºÑĤÑĥÑĢ
ĠÐ¿ÑĢÐ¾ÑģÐ¿
ĠÐ´Ð¸ÑĢÐµÐºÑĤÐ¾ÑĢ
.;
ĠÐ²Ð¾Ð»Ð½
ĠÐĲÐ½Ð°ÑĤÐ¾Ð»
Ð¹ÑĤÐ¸
ĠÐ¸Ð¼ÐµÐ½
ĠÐ¥Ð¾ÑĢ
ĠÐ´Ð¸Ð½Ð°Ð¼Ð¸
06
ĠÐĲÐºÐ°Ð´ÐµÐ¼Ð¸Ð¸
Ð¸Ð¶
ĠÐŁÐ°Ð½
ĠPr
ĠÐ¾ÑĤÐ²
ĠÐ£Ð»ÑĮ
ĠÐŁÐ¾Ñħ
ĠÐ¼Ð¾Ð·Ð³Ð°
ĠÐ¿Ð¾Ð¸ÑģÐº
ÐľÐĺ
ĠÐ²Ð½ÐµÑģ
ĠÑħÐ¾Ðº
ÑĢÐ°Ð³Ð¼ÐµÐ½ÑĤ
ĠÐĹÐ°ÐºÐ¾Ð½
Ð°Ð»ÑĮÐ½Ð¾ÑģÑĤÐ¸
ĠÐ²Ð¾ÑĪÐ»Ð¸
ĠÐĳÐµÐ·
Ð»ÑĳÐ½
ĠÐľÐ¾ÑģÐºÐ²Ñĥ
Ġ1954
ĠÑĥÐ³ÑĢÐ¾Ð·
ĠÑģÐ´ÐµÐ»Ð°ÑĤÑĮ
ĠÐŃÐ»ÑĮ
ĠÐ¸ÑģÐ¿Ð¾Ð»Ð½Ñı
ÑģÐ¿Ð¾ÑģÐ¾Ð±
ĠÐŁÑĢÐµÐ·Ð¸Ð´Ð¸
ĠÐ¿ÐµÑĢÐµÐ½Ð¾Ñģ
ĠÐ´Ð¸Ð·
Ð¸Ð½ÑģÐºÐ¾Ðµ
ÐµÐ¼Ñĭ
Ð¸Ð²Ð°Ð½Ð¸Ðµ
ĠÐ·Ð°ÐºÐ»Ñİ
ĠÐĲÑĢÐ¸ÑģÑĤ
ĠÐŀÐ»ÑĮ
ĠÐĵÑĢÐµÑĨÐ¸Ð¸
ĠÐ¿ÐµÑĢÐµÐ¿Ð¸ÑģÐ¸
ĠÐ¾ÑĢÐ±Ð¸ÑĤ
ÑģÐ¾Ð²ÐµÑĤ
ĠÐ¿Ð¾Ð»Ð¾Ð²Ð¸Ð½Ñĭ
ĠÐ°ÐºÐ°Ð´ÐµÐ¼Ð¸Ðº
ĠÐ±ÐµÑĢÐµÐ³
ĠÑģÐµÑĢÐµÐ´Ð¸Ð½Ñĭ
ĠÐ½ÐµÑĥÐ´Ð°
ĠÐ¸Ð·Ð¾Ð±ÑĢÐ°Ð¶ÐµÐ½Ð¸Ñı
ĠÑĤÑĥÑĢÐ¸
ĠÐ¿Ð¸ÑĪÐµÑĤ
Ð¿ÐµÑĢÐ²
ÐµÑĢÐ½Ð¸
Ð´Ð°Ñħ
ĠÐ¼Ð°ÑĢÐº
ĠÐ±ÐµÐ»Ð¾ÑĢÑĥÑģ
Ð°ÑĢÐ½ÑĭÑħ
ĠÐŃÐ»ÐµÐºÑĤ
ĠÑģÐ¾ÐµÐ´Ð¸Ð½ÐµÐ½Ð¸Ñı
ĠÐłÐ°Ð±Ð¾ÑĤ
ĠÐ´Ð²Ð¾ÑĢÑıÐ½
ĠÐ¡Ð¾ÑĨÐ¸Ð°Ð»Ð¸ÑģÑĤÐ¸ÑĩÐµ
ĠÐºÐ³
ÑįÐ¼
ĠÑģÐ¾ÑĢÐµÐ²
08
ÐµÐ½Ñģ
ĠÐĺÑģÐº
ĠÑģÐ²ÐµÐ´ÐµÐ½Ð¸Ñı
ĠÐ¶ÐµÐ½Ð°
ĠÐºÐ¾Ð¼Ð°Ð½Ð´Ð°
ĠÑĢÑĥÑģÑģÐºÐ¸Ðµ
ÑģÑĤÐ¾ÑıÑĤÐµÐ»ÑĮ
ĠÐ¾Ð±Ð¾Ð·Ð½Ð°
ĠÐĺÑħ
ĠÐĵÐ¾ÑģÑĥÐ´Ð°ÑĢÑģÑĤÐ²ÐµÐ½Ð½Ð¾Ð¹
Ð¾Ð²Ð¾
ÑĨÐ¾
ĠÐ¿Ð¾Ð¿ÑĥÐ»Ñı
Ġ1927
ĠÐ¿Ð¸
ĠÐºÐ¾ÑģÑĤ
ÑģÐ¸ÑĢÐ¾Ð²Ð°Ð½
ĠÑĢÐ°Ð·Ð½ÑĭÐµ
ĠÐ¾ÑģÑĤÐ°ÑĳÑĤÑģÑı
ĠÐ¿Ð¾Ð·Ð²Ð¾Ð»Ñı
ĠÐ¿ÑĢÐ¾Ð²ÐµÐ´ÐµÐ½Ð¸Ñı
ĠÑįÐ¿Ð¾ÑħÑĥ
79
ĠÐľÐ¾
ĠÐĿÐ¾ÑĢÐ²Ðµ
ÑĭÑĪÐµ
Ð¸ÑĤÐ¸Ð²
ĠÐ»Ð¸ÑĤÐ¾Ð²
ĠÐ²ÑĢÐµÐ¼ÐµÐ½Ð°
ĠÐ´Ð²Ð¾Ð¹
ĠÐ²Ð¾ÑģÑģÑĤÐ°Ð½Ð¸Ñı
ĠÐľÐ°ÐºÑģÐ¸Ð¼
Ð¾ÑĤÐ¾Ñĩ
ĠÐłÐµÐ»Ð¸
ĠÐĶÐµÐ¿
ĠÐ¿ÑĢÐµÐ´ÑĭÐ´
ĠÐ¾Ð´ÐµÑĢÐ¶
ĠÑģÑĥÐ´ÑĮ
Ġ1905
ĠÐ¿ÑĢÐµÐ¾Ð±ÑĢÐ°Ð·Ð¾Ð²
ĠÑĦÐ¾ÑĢÐ¼Ð°ÑĤ
Ð°Ð¿Ð°Ð·
ĠÐ¿ÑĢÐ¾Ð´ÑİÑģÐµÑĢ
ĠÑįÐ»ÐµÐºÑĤÑĢÐ¾Ð¼
ĠÐĺÐ¼ÐµÐ½Ð½Ð¾
ĠÐ½ÐµÐ½
ĠÐ§ÑĳÑĢ
ĠÐ¸ÑİÐ½Ðµ
ĠÐ¸ÑģÑģÐ»ÐµÐ´Ð¾Ð²Ð°ÑĤÐµÐ»ÑĮ
ĠÑĤÐµÐ¿ÐµÑĢÑĮ
ÑĢÐ¸Ñİ
ĠÐ»ÐµÐ´
ĠÐļÐ°Ð¶Ð´
ÑĩÐ½Ð¾Ðµ
ÐµÐºÐ°Ð½
ĠÐ¸Ð½Ð¸ÑĨÐ¸Ð°ÑĤÐ¸Ð²
Â³
ÑĢÑĥÐ½
ĠÐ´ÑĢÑĥÐ³Ð¾Ð¼
ĠÐ¿Ð¾Ð»Ð¸ÑĤÐ¸ÐºÐ°
ĠÐ¾ÐºÐ¾Ð½ÑĩÐ°Ð½Ð¸Ñı
ĠÐ°Ð»Ð³Ð¾ÑĢÐ¸ÑĤ
ĠÑĢÐµÐ¶Ð¸ÑģÑģ
56
Ġ*
ÑĢÐ°Ð½Ñĭ
ĠÐłÐ°Ð´
ĠÐ£ÐºÑĢÐ°Ð¸Ð½Ðµ
ĠÐĿÐ°ÑĨÐ¸Ð¾Ð½Ð°Ð»ÑĮÐ½ÑĭÐ¹
ber
ÑĩÐµÐ½ÐºÐ¾
ĠÐĴÐ¾ÑĢÐ¾Ð½
ĠÑĩÑĢÐµÐ·Ð²ÑĭÑĩÐ°Ð¹
ÑĤÐ¸ÑĢÑĥ
Ð±ÐµÐ»ÑĮ
ĠÐ¼ÑĥÑĩÐµÐ½Ð¸
Ð¾Ð±Ð¸Ð»ÑĮ
ĠÐĿÐµÐ¿
ÑĭÐ²Ð°ÐµÑĤÑģÑı
ĠÐ¿Ð¾ÑĢÐ°Ð¶ÐµÐ½Ð¸Ðµ
Ð°ÐºÐ¾Ð²Ð°
ĠÐ¼ÐµÑĩ
ĠÐĴÑĭÐ¿ÑĥÑģÐº
ĠÐŀÐºÑĤÑıÐ±ÑĢÑĮ
ÑģÑĤÐ²ÐµÐ½Ð½Ð¾ÑģÑĤÐ¸
ĠÑįÑĦÑĦÐµÐºÑĤ
ĠÐ´Ð¸ÑģÑĤ
ÑĪÐµÐ´
ÐĿÐ°
ĠÐ²Ð¾ÐºÐ·
ĠÑĩÐ¸ÑģÐ»ÐµÐ½Ð½Ð¾ÑģÑĤÑĮ
ĠÐ»Ð¾Ð¶
ĠÐ¾ÑģÐ½Ð¾Ð²Ð°Ð½Ð¸Ð¸
73
Ð°Ð´ÑĮ
ĠÐ·Ð°Ð½ÑıÐ»
ÐºÐµÑģÑĤ
Ð¾ÐºÑĥÐ¿
ĠÐĵÐ¾Ð½
ĠÐ±Ð¾ÑĢÑĮÐ±Ðµ
ĠÐ½ÐµÑĦÑĤÐ¸
Ð¾ÑģÑĤÐ°Ð½
ÑĦÐ¾ÑĢÐ¼Ð°ÑĤ
ĠÑģÐ»ÑĥÑĩÐ°ÐµÐ²
ĠÐ¿Ð¾ÑģÑĤÑĢÐ¾ÐµÐ½
ĠÐºÑĢÐµÐ¿Ð¾ÑģÑĤÐ¸
our
ÐºÐ¾Ñģ
Ð»Ð¸Ñİ
ĠÑģÑĤÐ°Ð½ÑĨÐ¸Ñı
Ð¿Ð¸ÑģÑĮ
ĠÐ¿Ð¾ÑģÐ°Ð´
ÐļÐŁ
ĠÐ¿Ð¾Ð³Ð¸Ð±Ð»Ð¸
ĠÐ²ÑĢÐ°Ñĩ
ĠÐŁÐ¸Ñģ
ĠÐ¶Ð¸Ð»Ð¸
ĠÐ¿Ð°ÑĢÑĤ
ĠÐ¿Ð¾ÑĢÑĤÑĥ
ĠWind
ĠÐ²Ð½ÑĥÑĤÑĢÐµÐ½Ð½Ð¸Ñħ
up
Ð»Ð¾Ð¹
ÑĤÐµÐ³ÑĢÐ°
ĠÐ±Ð¾Ð»ÑĮÑĪÐ¸Ð¼
ĠÑģÐºÐ»Ð°Ð´
ĠÐºÐ°Ð¶Ð´Ð¾Ð¹
ĠÐŁÐ¾ÑĩÑĳÑĤÐ½ÑĭÐµ
ĠÐĴÐ»Ð°Ð´
ĠÐ²ÑģÐ»ÐµÐ´ÑģÑĤÐ²Ð¸Ðµ
ÑĬÑĳÐ¼
ĠÐ±ÐµÑĢ
ĠÐ¼ÐµÑĤÐ¾Ð´Ñĭ
ĠÐºÑĥÐ»ÑĮÑĤÑĥÑĢÐ°
ĠÑĢÐµÐºÐ¾Ð½
ĠÑģÐ¿Ð¾ÑĢÑĤ
ĠÐ·Ð°ÐºÐ¾Ð½Ð°
ĠÑĦÐ¸Ð·Ð¸ÐºÐ¸
ĠÐ¼Ð¾Ð¼ÐµÐ½ÑĤÐ°
Ð´ÑĨ
ĠÐºÐ¾Ð¼Ð°Ð½Ð´Ð¾Ð²Ð°Ð½Ð¸ÐµÐ¼
ros
ĠÐ²ÑĭÐ¿ÑĥÑģÐºÐ°
ĠÐ¿ÑĢÐ¾Ð´ÑĥÐºÑĨÐ¸Ð¸
ÑıÑĩ
Ð³ÑĢÐ°Ð½
ĠÑĢÐ°ÑģÐ¿ÑĢÐµÐ´ÐµÐ»
ĠÑĤÐ¾ÑĢÐ³Ð¾Ð²Ð»Ð¸
ĠÐ¿ÑĤÐ¸ÑĨ
ĠÑģÐ¾ÑĢÐµÐ²Ð½Ð¾Ð²
ĠÏ
ĠÐĿÐĲ
ÐµÑĢÐ¸Ð½
ĠXIV
ill
ĠÑĤÑĭÑģÑıÑĩÐ¸
ĠÐĳÐµÐ½
Ð¾ÑĩÐºÐ¸
ĠÐ¼Ð¾ÑĤÐ¸Ð²
ĠÐ¿Ð°Ðº
ĠÐ¾ÑĤÑģÑĤÑĥÐ¿
ÐµÑĢÐµÐ¹
Ð¶Ð´ÐµÐ½Ð¸Ðµ
Ð¾Ð³ÑĢÐ°Ð½Ð¸Ñĩ
ÑĤÑı
ĠÐĶÐ°
Ð¸ÑĩÐµÐ³Ð¾
ĠÑıÐ²Ð»ÑıÐ»ÑģÑı
ĠÐ¿Ð¾ÐºÑĢÐ¾Ð²
09
ĠÐ¡Ð¾ÑĦ
ĠÑħÑĢÐ¾Ð¼
ĠÐ±Ð¸ÑĤÐ²Ðµ
ĠÐ¯Ðº
ĠÐºÐ¾ÑģÐ¼Ð¾Ñģ
ĠÐ´ÐµÑĢÐµÐ²ÑıÐ½
Ð¿ÐµÑĢÐµ
ĠÑĪÐµÑģÑĤÐ¸
Ð¼ÑĭÑĪ
ĠÐ·Ð¾Ð½Ñĭ
ĠÑģÐ²ÑĭÑĪÐµ
ĠÐ¿Ð»Ð¾Ð´
ĠÐ¾ÑħÑĢÐ°Ð½
ĠÑģÑĤÑĢÑĥÐºÑĤÑĥÑĢÑĭ
ĠÐ»ÐµÐºÐ°ÑĢ
ĠÐĶÐµ
ĠÑģÐ¾ÑģÑĤÐ¾ÑıÐ»ÑģÑı
ĠÐ¿ÑĢÐ¾ÑģÑĤÑĢÐ°Ð½ÑģÑĤÐ²Ð¾
ĠÐĳÐ¸Ð±Ð»Ð¸
ĠÐ¿ÑĢÐ¾Ð²ÐµÑĢ
ĠÐ¾Ð´Ð½Ð¾Ð¸Ð¼
ÑĤÐµÑĢÐ½Ð°ÑĤÐ¸Ð²
ÑĩÑĳÑĢ
ĠÐ´Ð¾Ð·
Ð·ÑĭÐº
ĠÐ´Ð¾ÑĩÐµ
ĠÐ½Ð°ÑģÑĤÐ¾ÑıÑī
ĠÐļÐ°Ð²ÐºÐ°Ð·
ĠÐ¢Ð°Ð»
ĠÑĪÐµÑģÑĤÑĮ
ĠÐ½Ð¾Ñĩ
ÑĦÐµÐ»ÑĮ
ĠÐĳÐ¾ÑĢ
ĠÑĤÑĢÐµÐ±Ð¾Ð²
ĠÐ¿Ð¾ÑıÐ²Ð¸Ð»Ð°ÑģÑĮ
ÑĤÐ¸Ð½
ĠÐ½Ð°ÑĤÑĥÑĢÐ°
ÑĢÑıÐ´Ñĥ
ĠÑģÐ¼ÐµÑĢÑĤ
ĠÐ¿Ð¾Ð±ÐµÐ´Ñĥ
ĠÐ¸Ð½ÑĤÐµÐ½ÑģÐ¸Ð²
ĠÐŁÐ°ÑĢÐ¸Ð¶Ðµ
ĠÐ¿ÑĢÐµÐ¿Ð¾Ð´Ð¾Ð±
ĠÐ¿Ð°Ð½
Ð¸Ð½Ð³ÑĢÐ°Ð´
ĠÐ¾ÐºÐ¸Ñģ
Ġ||
ÐµÐ»Ð°Ð½Ð´
ĠÐ½Ð°Ð¸Ð±Ð¾Ð»ÑĮÑĪ
ĠÐĲÐ¿
ÑĤÐ°Ð¶
ĠÐ¿ÑĢÐ°Ð²Ð¸Ð»ÑĮ
Ð±Ð¾Ð½
Ð°ÑĤÐ¾ÑĢÑĭ
ĠÑģÐ¾ÑİÐ·Ð°
ĠÐĳÐ¾Ð»Ð³
ĠÐ¼ÐµÑĢÐ¾Ð¿ÑĢÐ¸
ĠÐ»Ð¸Ð´ÐµÑĢ
ÑĢÐ°Ð²Ð¾
ĠÐ¿ÐµÑĢÐµÐ¶
ĠÐ´Ð°Ð½Ð½Ð¾Ð³Ð¾
ĠÐ°ÑĤÐ¼Ð¾ÑģÑĦ
ĠÑĥÑĢÐ¾Ð¶
ĠÑĦÐ¾ÑĢÐ¼Ð¸
ĠÑĨÐ¸ÑĦÑĢÐ¾Ð²
ĠÐļÐ¸ÑĤÐ°Ñı
ÑĢÐµÑģÑģ
ĠÐŁÐ¾ÑģÐºÐ¾Ð»ÑĮÐºÑĥ
07
ÑĢÐ¸ÑģÑĤÐ°
ĠÐ¸ÑģÐ¿Ð¾Ð»ÑĮÐ·Ð¾Ð²Ð°Ð½Ð¸ÐµÐ¼
ĠÐ¿ÑĢÐ¸ÑħÐ¾Ð´Ð¸ÑĤÑģÑı
ĠÐ³Ð¾ÑģÐ¿Ð¾Ð´
ĠÐ¶ÐµÑģÑĤ
ĠÐĺÑģÐ¿Ð¾Ð»ÑĮÐ·
Ð·Ð¸Ñı
ĠÐ¸Ð¼ÐµÑİÑĤÑģÑı
ĠÑģÐ¾Ð´ÐµÑĢÐ¶Ð°Ð½Ð¸Ðµ
ĠÐ¿Ð¸ÑģÑĮÐ¼Ð¾
ĠÐ·Ð°Ð´Ð°Ñĩ
ĠÐ´ÐµÐ½ÐµÐ¶
ÑīÐµÐ³Ð¾ÑģÑı
ĠÐ´Ð¾Ð¼Ð°ÑĪ
ĠDe
ÑĤÑĭÐ¹
Ð³ÐµÐ±
ĠÐŁÐµÑĢÐµÐ´
ĠÑĥÑĩÐ°ÑģÑĤÐ½Ð¸Ðº
Ð½Ð°ÑĤ
Ġ1955
ĠÑģÑĤÐ¸ÑħÐ¾ÑĤÐ²Ð¾ÑĢ
ĠÐ½Ð°Ð»Ð¸ÑĩÐ¸Ðµ
ĠÐ³ÑĢÐ¸
ĠÐĺÑģÑģÐ»ÐµÐ´Ð¾Ð²
ĠÐ²Ð¾ÐµÐ½Ð½ÑĭÐµ
ĠÐºÐ°ÑĤÐµÐ³Ð¾ÑĢÐ¸Ð¸
ĠÐĳÐ°Ð³
Ð¸Ð·Ð¸ÑĢÐ¾Ð²
ÑģÑĤÐ²ÐµÐ½Ð½ÑĭÐ¼Ð¸
ĠÐ¸Ð·Ð²ÐµÑģÑĤÐµÐ½
Ð¼Ð¸Ð½Ð¸ÑģÑĤÑĢ
ĠÐĽÐ°ÑĤÐ²
52
ĠÐ¢Ð°
ĠÐ¤Ð¸Ð½Ð»ÑıÐ½Ð´Ð¸Ð¸
ĠÐ½Ð°ÑĢÐº
ĠÐľÐ¸ÑĤ
ĠÐĵÐ¸Ð¿
ĠÑįÑĤÐ½Ð¸ÑĩÐµ
Ð°ÑĤÐµÐ»ÑıÐ¼Ð¸
ĠÐ¿Ð¾ÑıÐ²Ð¸Ð»ÑģÑı
Ð¿Ð¾ÑģÐ»ÐµÐ´ÑģÑĤÐ²Ð¸Ð¸
ĠÑĦÑĥÑĤÐ±Ð¾Ð»ÑĮ
ÐµÐ½ÑĨÐ¸Ñı
ĠÑģÐ²Ð¾Ð¹ÑģÑĤÐ²
91
ÑİÐ¹
ĠÐĹÐ¾Ð»Ð¾ÑĤ
ĠÐ¿Ð¾ÑĢÑĥÑĩ
ĠÐ½Ð°ÑĥÑĩÐ½Ð¾Ð¹
ĠÐķÐ»Ð¸Ð·Ð°Ð²
ĠÐ¿ÑĢÐµÐ´ÑģÑĤÐ°Ð²Ð»ÐµÐ½Ñĭ
ĠÐ¿ÑĢÐ¾Ð³ÑĢÐ°Ð¼Ð¼Ð°
ĠÐ¿ÑĢÐ¸ÑĢÐ¾Ð´Ðµ
ĠÐļÑĢÐ°ÑģÐ½Ð¾ÑıÑĢ
ĠÐ·Ð°Ð¸Ð¼ÑģÑĤÐ²Ð¾Ð²
che
Ġ400
ĠÑĢÐ°Ð±Ð¾ÑĤÐ°ÐµÑĤ
Ð½Ð¾ÑĪÐµÐ½Ð¸Ðµ
ĠÐ¡ÑĤÐ°
ĠÑĤÐµÑħÐ½Ð¾Ð»Ð¾Ð³Ð¸Ð¸
Ð²Ð¾ÑģÑĤÐ¾Ñĩ
ĠÑģÐ¾Ð²Ð¼ÐµÑģÑĤÐ½Ð¾
ĠÑĢÐ°Ð·Ð²Ð¸Ð²
ĠÐºÑĥÐ»ÑĮÑĤÑĥÑĢÐµ
ĠÐļÐ»Ð¸Ð¼Ð°ÑĤ
ĠÐŁÐ°
ĠÑĢÐµÐ»ÑĮ
Ð¾ÑħÑĢÐ°Ð½Ð¸
ĠÐ½Ð°Ð±Ð¾ÑĢ
ÑĥÑīÐ¸Ðµ
ĠÐ²Ð·Ð°Ð¸Ð¼Ð¾Ð´ÐµÐ¹ÑģÑĤÐ²Ð¸Ñı
ĠÐºÐ°Ð»ÑĮ
ĠÐŁÐ¾Ð·Ð´
ĠÑĤÐµÐ¿Ð»Ð¾Ð²
ĠÐ±Ð¾
ĠÑįÐºÑģÐ¿ÐµÐ´Ð¸
ĠÐŀÑĢÐ³Ð°Ð½Ð¸
ĠÐ°Ð´Ð¼Ð¸Ð½Ð¸ÑģÑĤÑĢÐ°ÑĨÐ¸Ð¸
ÐºÐ°Ð»
Ð¡Ð¢
ĠÑģÑĤÑĢÐ°ÑĤÐµÐ³
ĠÐľÐ¾ÑģÐºÐ¾Ð²ÑģÐºÐ¾Ð¹
ĠÐľÐ¸ÑħÐ°Ð¸Ð»Ð°
ĠÑĨÐµÐ½
ÑĥÐ»ÑĮÑĤÑĥÑĢÐ°
Ġ|-
ĠÐ¿Ð¸ÑģÑĮÐ¼Ð°
ĠÐ°ÑģÑģÐ¾ÑĨÐ¸
ÑĥÐ¼Ðµ
ÑĦÐ¸Ð½
ÑĦÐ¸Ð·
ÑĳÐ½Ð½Ð¾Ð¼
ĠÐ½Ð°ÑĨÐ¸Ð¾Ð½Ð°Ð»ÑĮÐ½Ð¾Ð³Ð¾
ĠÑĢÐ¸Ð¼ÑģÐºÐ¸Ð¹
ĠÐ°Ð¿Ð¾ÑģÑĤ
ĠÐ¿ÑĢÐ¾Ð³ÑĢÐ°Ð¼Ð¼Ð¸ÑĢÐ¾Ð²Ð°Ð½Ð¸Ñı
ĠÐ±Ð¾Ð»ÑĮÑĪÐµÐ²
ĠÐ¿Ð¾ÑģÐµÐ»ÐµÐ½Ð¸Ñı
ĠÐļÐ°Ð±
ĠÐľÐµÑģÑĤ
ÑĢÐ¾Ð²Ð¾Ð»ÑĮ
Ð·Ð°Ð¿
ĠÐ¸ÑģÑĤÐ¸Ð½
ĠÐ¾ÑģÑĥÑīÐµÑģÑĤÐ²Ð»ÑıÐµÑĤÑģÑı
Ð±Ñİ
ÑĨÐ¸Ð¾Ð½Ð½Ð¾Ðµ
ĠÑģÐ¾Ð·Ð´Ð°Ð»
ÑĥÐ²Ð°ÑĪ
ĠÐ¡Ð¸ÑĢÐ¸
Ð°ÑĤÐµÐ»ÑĮÐ½Ð°Ñı
ÐļÐĲ
ĠÑģÐ»ÐµÐ´Ð¾Ð²
ĠÐ³Ð»Ð°Ð²Ð½ÑĭÐ¹
Ð´Ð¾Ð½
ĠÐ±Ð°Ð½Ðº
ĠÑĦÑĥÐ½Ð´Ð°Ð¼ÐµÐ½ÑĤ
ĠÐĶÐµÐ¹ÑģÑĤÐ²
ĠÐŁÑĢÐµÐ´ÑģÐµÐ´
The
Î¿
ĠÐ»ÐµÐ¹
ĠÐ¸ÑģÐ»Ð°Ð¼
ey
ĠÐłÐ¾Ð±ÐµÑĢÑĤ
ĠÐ¿Ð¾Ð´Ð²Ð¾Ð´
ĠÐ¾Ð±ÑĬÐµÐºÑĤ
ĠÐ¾ÐºÐ¾Ð½ÑĩÐ°ÑĤÐµÐ»ÑĮÐ½Ð¾
ĠÐ¾ÑĤÑģÑĥÑĤÑģÑĤÐ²Ð¸Ðµ
ÑĤÐµÑĢÐµ
ÐºÐ°Ð½Ð¸
ÐºÐ¾Ð²ÑĭÑħ
ĠÑĪÐ°Ð³
ĠÐĶÐ¶ÐµÐ¹Ð¼
ĠÐ½Ð°Ð¿ÑĢÐ°Ð²Ð»ÐµÐ½Ð¸Ð¸
Ð³Ð°Ð»ÑĮ
ĠIX
ĠÑĢÐ°Ð±Ð¾ÑĤÐ°ÑĤÑĮ
ÐĶÐ¶
ĠÐ´Ð°Ð½Ð½Ð¾Ð¹
ĠÐ¸Ð·ÑĥÑĩÐµÐ½Ð¸Ñı
Ð°ÑĢÐµÐ²
ÑħÐ¾
ĠÐ·Ð°Ð²Ð¾Ð´Ð°
ĠÐ¿ÑĢÐ¾ÑĤÐ¸Ð²Ð½Ð¸ÐºÐ°
ĠÐ²ÑĭÑĪÐ»Ð°
Ð¾Ð¿ÐµÑĢÐ°
ĠÑģÑĩÐ¸ÑĤÐ°ÐµÑĤ
Ð»Ð°Ð²ÑıÐ½
ÑħÑĥ
ĠÐºÑĥ
ĠÑĤÐ¸
ĠÐ¿Ð¾Ð»ÐµÐ·
ĠÑģÐ²Ð¾Ð±Ð¾Ð´Ñĭ
ĠÐºÑĢÐµÐ¼
ĠÐĳÐµÐ»ÑĮ
ĠÐ¼Ð°ÑĤÐµÑĢÐ¸Ð°Ð»
ass
Ð¾Ð²Ð¾Ðµ
ĠÐĿÐ°ÑĥÑĩ
ĠÐ¤ÑĢÐ°Ð½ÑĨÑĥÐ·
ĠÑĨÐ¸ÐºÐ»
ĠÐ¾Ð±Ð¾Ð·Ð½Ð°ÑĩÐµÐ½Ð¸Ñı
ĠÐºÑĢÐ°Ð¹Ð½Ðµ
ĠÐ½Ð¸ÑĩÐµÐ³Ð¾
Ð½Ð°Ð¼Ð¸
ĠÐ¡Ð¼Ð¾Ð»
ĠÐºÐ°Ð½Ð°Ð»
ĠÐ±Ð¾Ð»ÑĮÑĪÐ¸Ðµ
ĠÑĥÑĩÑĳÐ½ÑĭÑħ
53
Ð°ÐºÑĤÐ¸Ð²
ĠÐ¿Ð¾Ð»ÑĳÑĤÐ°
ĠÐĳÑĥÐ»
ĠÐ¿ÑĢÐµÐ¶
Ġ1931
ĠÑĩÐ¸ÑģÐ»ÐµÐ½Ð½Ð¾ÑģÑĤÐ¸
Ð½ÐµÐ¹ÑĪÐ¸Ðµ
ĠÐ²Ð·ÑıÑĤ
ĠÐ¿ÑĢÐµÐ´Ð¿Ð¾Ñĩ
ĠÑģÐ°Ð¼Ð¾ÑĥÐ¿ÑĢÐ°Ð²
ĠÐºÐ¾ÑĢÐ¾Ð»ÑĳÐ¼
ĠAl
ĠÐºÐ¾Ð½ÑĤÐ¸Ð½ÐµÐ½ÑĤ
ĠÑĤÑĢÐµÐ±Ð¾Ð²Ð°Ð½Ð¸Ñı
ĠÐĿÐ¸Ð¶Ðµ
ĠÐ£Ð½Ð¸Ð²ÐµÑĢÑģÐ¸ÑĤ
ĠÐ¡Ð¸Ð±Ð¸ÑĢ
ĠÐļÐ°Ð»Ð¸
ĠÐĽÐ¾Ð¼
ĠÐ´ÐµÑıÑĤ
Ð½Ð¾ÑģÑĤÑıÑħ
ung
ĠÐ¾Ð±ÑĥÑĩÐµÐ½Ð¸Ñı
ĠÐķÐ³Ð¸Ð¿ÑĤÐ°
ĠÐ¶ÑĥÑĢÐ½Ð°Ð»Ð°
ÐµÑĤÑĥ
Ð°ÑĤÑĥÑĢ
ĠÐ¨Ð²ÐµÐ¹ÑĨ
ĠÐ½Ð°Ð¿ÑĢÐ°Ð²Ð»ÐµÐ½
ĠÐ¼ÑĥÐ·ÐµÑı
ĠÐ±Ð¾Ð»ÐµÐ·Ð½Ð¸
ÑıÐ½Ð¾Ð²
ĠÐ³Ð¾ÑĢÑĭ
Ð°Ð²ÑĢÐ¸
ĠÐŁÑĢÐ¸Ð¼ÐµÐ½
Ð¤ÑĢÐ°Ð½
ĠÐºÐ°Ð½Ð°Ð´
ĠÐ¿Ð¾Ð»ÑĮÐ·Ñĥ
ÑĢÐ¾Ð²Ð°Ð½Ð¸Ñı
ĠÐ¤Ð¸Ð»Ð¾ÑģÐ¾ÑĦ
ĠÐ¾ÐºÑĢÐµÑģÑĤ
ĠÐ»ÑİÐ±Ð¾Ð²
ĠÐ»Ð¸Ð½Ð³
ĠÐ¿Ð°ÑĢÐº
ĠÐ¿ÑĢÐ¾Ð¼ÐµÐ¶
ĠÐŃÐºÐ¾Ð½Ð¾Ð¼Ð¸ÐºÐ°
ĠÐ°ÑĢÐ¼Ð¸Ñİ
Ð´Ð°Ð¼
ĠÐĴÑģÐµÐ³Ð¾
ĠÐºÐ¸ÑģÐ»Ð¾ÑĤÑĭ
ĠVIII
ĠÑĥÐ»Ð¸ÑĨÐµ
Ð¾Ð³Ð°
ĠÐ³Ð¸ÑĤ
ĠÑĦÐ¸Ðº
ĠÐĶÐ¾Ð±
ĠÐ¼Ð¸Ð½Ð¸ÑģÑĤÑĢ
Ð½Ð¸ÑĤÑĮ
ĠÑģÐ»ÐµÐ´ÑĥÑİÑīÐ¸Ð¹
ĠÐ¦ÐµÑĢÐºÐ¾Ð²ÑĮ
ĠÐ´ÑĢÑĥÐ¶
ĠÑĦÐ»Ð°Ð³
ĠÐ¿ÐµÑĢÐµÑĥÐ»
ĠÐ¾Ð¿ÑĢÐµÐ´ÐµÐ»ÐµÐ½Ð¸Ðµ
ĠÐ²Ð¾Ð¿ÑĢÐ¾ÑģÑĭ
58
ÑĩÐ¸Ð½Ñĭ
ĠÐ»Ð°Ð±Ð¾ÑĢÐ°
ÑĢÐ¾Ð¿Ð¾Ð»
ĠÑģÑĢÐµÐ´Ðµ
ĠÐ²ÐµÐºÐ°Ñħ
ĠÐ¿Ð¾Ð·Ð½
ĠÐ°ÑĢÑħÐ¸ÑĤÐµÐºÑĤÑĥÑĢÑĭ
ĠÐ¿ÑĢÐµÐ´ÑģÑĤÐ°Ð²Ð»ÑıÑİÑĤ
Ð¾ÐºÐµ
Ð»ÐµÐ½Ð½Ð¾
ĠÑģÐ¾Ð³Ð»Ð°ÑĪÐµÐ½Ð¸Ðµ
ĠÐ¨Ð°Ñħ
ĠÐ³ÐµÑĢÐ¾
ÑģÐºÑĥ
ÐµÑĢÑģ
Ð¸ÑĢÐ¾Ð²Ð°Ð½Ð¸Ðµ
Ð½Ð¾ÑĪÐµÐ½Ð¸Ñı
ÑĢÐ°Ð±Ð°ÑĤÑĭÐ²Ð°
ĠÐ¾ÐºÐµÐ°Ð½Ð°
ĠÐ¿ÑĢÐµÐ±Ñĭ
Ð¸ÐºÐ°Ð¼Ð¸
ĠÑĢÐµÐ·ÐºÐ¾
ĠÐ¾Ð´Ð¸Ð½Ð°ÐºÐ¾Ð²
ĠÐ¿ÑĢÐ¾ÑģÑĤÑĢÐ°Ð½ÑģÑĤÐ²Ðµ
ĠÐ¸ÑģÐºÐ»ÑİÑĩÐ¸ÑĤÐµÐ»ÑĮÐ½Ð¾
ÑħÐ¸Ð¼Ð¸
ĠÐĴÐ¸Ð·Ð°Ð½
ĠÑĩÑĥÐ´
ĠÐ³Ð»Ð°Ð²Ð½ÑĭÑħ
ÑįÐ½ÐµÑĢÐ³
ĠÐ¾ÑĤÐ´ÑĭÑħ
ĠÑĤÐµÐºÑģÑĤÐ°
ĠÐľÐ¸Ðº
Ð¾Ð»Ð¾Ð³Ð¸ÑĩÐµÑģÐºÐ¾Ð³Ð¾
Ð¶ÐµÐ²
ĠÐŀÐ¼
ĠÐ¶Ð¸Ð·Ð½
ĠÐ¿ÑĥÑĤÐµÑĪÐµÑģÑĤÐ²
ĠÐ³Ð¾ÑĢÐ¸Ð·
ÑĢÐµÐ»Ð¸
ĠÐĳÐ°
ĠÐĳÑĢÐ°
Ð¾ÑĢÐ°Ð·Ð´
Ġ1900
Ð·Ñĥ
Ð½Ð°ÑĢÑı
ĠÐ²Ð¾ÑģÐº
ĠÐ¸Ð·Ð²ÐµÑģÑĤÐ½Ñĭ
ĠÐºÐ¾ÑįÑĦÑĦÐ¸ÑĨÐ¸
ĠÑĦÑĢÐ¾Ð½ÑĤÐ°
Ð¸ÑĤÐ¾Ð¼
ÑģÑĤÐ²Ð¾Ð²Ð°Ð»Ð¸
ux
ÐºÐ°Ð´
ĠÐĶÐ¾Ð»
ĠÐ´Ð¾ÑģÑĤÐ°Ð²
ĠÐĵÐµÑĢÐ¼Ð°Ð½Ð¸Ñı
ĠÑģÐ¾Ð±ÑĢÐ°Ð½Ð¸Ðµ
ÑĢÐ³
Ð±Ð»
Ð¾Ð³ÐµÐ½
ort
ĠÐŀÐ±ÑīÐ°Ñı
ĠÑģÐµÐ»Ð¾
ĠÐĿÐ¾Ð²ÑĭÐ¹
ĠÐ¸ÑģÐºÑĥÑģÑģÑĤÐ²Ð¾
46
ĠÐĺÐ¾Ð°Ð½Ð½Ð°
ĠÐĿÐ¾Ð²Ð¾ÑģÐ¸Ð±Ð¸ÑĢ
ĠÐ¼Ð°Ð¹
ĠÐ¡Ð°Ðº
ĠÐ¡Ð»ÐµÐ´
ÐµÑģÐ»Ð¸
ĠÐ¿ÑĢÐ¾Ð´Ð°Ð¶
ÐµÐ½Ð³ÐµÑĢ
ĠÑģÑĤÐ°ÑĤÑĮÐ¸
ĠÑĤÐ²Ð¾ÑĢÑĩÐµÑģÑĤÐ²Ð°
ĠÐ¾ÑĤÐ»Ð¸ÑĩÐ°ÐµÑĤÑģÑı
ĠÐŁÑĢÐ¾Ðº
ĠÑįÐºÐ¸Ð¿Ð°Ð¶
ĠÐ½ÐµÐ¾Ð¿
ĠÐ¿ÐµÑĢÐµÐ²Ð¾ÑĢ
ĠÐ¿ÑĢÐµÐ´ÑģÑĤÐ°Ð²Ð»ÐµÐ½
ĠÐ±ÑĭÐ²ÑĪÐ¸Ð¹
ĠÐĿÐ°Ð¿Ð¾Ð»Ðµ
ĠÐ¾ÑĤÐ´ÐµÐ»ÑĮÐ½ÑĭÐµ
ĠÐĳÐ¾Ð³Ð°
ÑĥÐ»ÑĮÑĤÐ¸
ĠÑģÐ²ÑıÐ·Ð°Ð½
ÑıÑīÐµÐ¹
ĠÑģÐ¾Ð´ÐµÑĢÐ¶Ð°Ñī
2000
ĠÐ¡Ð¸Ð±Ð¸ÑĢÐ¸
ĠÐ¥Ñĥ
ĠÐ¾ÑģÑĤÐ°ÑĤ
ĠÐĳÐ»Ð°Ð³Ð¾Ð´Ð°ÑĢÑı
ĠÐ²Ð¾ÑģÑĮ
ĠÑĤÐµÐ»Ð¾
ĠÐ°Ð´Ð¼Ð¸Ð½Ð¸ÑģÑĤÑĢÐ°ÑĤÐ¸Ð²Ð½Ð¾
ĠÐ±ÐµÑģÑģ
ÑģÑĤÐ²Ð¾Ð²Ð°ÑĤÑĮ
ĠÑĢÐµÐ°Ð»Ð¸Ð·Ð°ÑĨÐ¸Ð¸
ĠÐ¸Ð´ÑĳÑĤ
ĠWindows
ĠÐ½Ð°Ð»Ð¾Ð³
Ð°ÐºÐ¾Ð¼
ÑĤÐ°ÑĨÐ¸Ð¸
ich
ÐµÐ´Ð¸Ð¸
ĠÐĶÐµÐ»
ĠÐ¨Ð°ÑĢ
ĠÐ²Ð·ÑĢÑĭÐ²
ĠÑĥÑĩÐ°ÑģÑĤÐ½Ð¸ÐºÐ¾Ð²
ĠÐ¿Ð°ÑĢÐ°Ð»Ð»ÐµÐ»ÑĮ
Ġ120
ĠÐľÐ¸
Ð»ÐµÐ´Ð¾Ð²Ð°ÑĤÐµÐ»ÑĮ
Ð¸Ð½Ð°Ð¼
Ð¾Ð±Ð½Ð¾Ð²
Ð²ÐµÑĢÐ´
Ð¸Ð½Ð¾ÑģÑĤÑĢÐ¾
ĠÐĲÐ±Ð´
ĠÐŁÑĢÐ¾Ð´
ĠÐ¼Ð½ÐµÐ½Ð¸Ðµ
ĠÐ¿ÑĢÐ¾Ð²ÑĳÐ»
ĠÑĢÐµÐ±ÑĳÐ½
ĠÐ½Ð°ÑĤ
ĠÐ¼Ð°ÑĤÐµÐ¼Ð°ÑĤÐ¸Ðº
ĠÐ²ÐµÑĢÑħÐ¾Ð²
ĠÐºÐ¾Ð½ÑģÐµÑĢÐ²
ÑĤÐ¸ÐµÐ¼
XI
ĠÐ³Ð°Ð·ÐµÑĤÑĭ
ĠÐŁÐ¾Ð½
ĠÑĢÐµÐ¿
Ġ$
ÑİÐ´Ð°
ÑģÑĤÐ²ÑĥÑİÑĤ
ĠÐłÐµÐ²
ĠÐĺÐ¾Ñģ
ĠÐ½Ð°ÑĨÐ¸Ð¾Ð½Ð°Ð»ÑĮÐ½Ð¾Ð¹
ĠÐ´Ð¾Ð³Ð¾Ð²Ð¾ÑĢÐ°
ĠÐ½ÐµÐ¾Ð´Ð½Ð¾Ðº
ĠÐºÐ°ÑĢÑĮ
ĠÐĹÐ¸Ð¼
ĠÐľÑĥÑħÐ°Ð¼Ð¼
âĪĴ
ĠÐ²Ð¸Ð·Ð°Ð½ÑĤÐ¸Ð¹
ĠÐļÐ¸
Ð¾Ð»Ð¾Ð³Ð¸ÑĩÐµÑģÐºÐ°Ñı
ĠÑĢÐ°ÑģÑģÐºÐ°
ĠÐºÑĥÑĢÑģ
ĠÑĤÐ°
ĠÐ¾ÑģÐ½Ð¾Ð²Ð½ÑĭÐ¼
ĠÑĢÑıÐ´Ðµ
93
Ð°Ð½ÑĨÐµÐ²
Ð¾ÑĩÐºÐ°
ĠÑģÑĦÐµÑĢÐµ
ĠÐ¿Ð°ÑĨÐ¸
ĠÑĤÐµÐ»ÐµÐ²Ð¸Ð´ÐµÐ½Ð¸Ñı
ĠÑĢÐ°ÑģÑģÑĤÑĢÐ¾Ð¹
ĠÐļÐ°ÑĢÐ»Ð°
ĠÐ±Ð¸Ð±Ð»Ð¸Ð¾ÑĤÐµÐº
ÐµÑĩÐµ
ĠÐĺÐ¸Ñģ
Ġ%).
ĠÐ´ÑĢÐµÐ²Ð½Ð¸Ñħ
ĠÐ¾ÑĤÑĢÑıÐ´
ĠÐĶÐ°Ð»
ĠÐĺÐ½ÑģÑĤÐ¸ÑĤÑĥÑĤ
ĠÐŁÐµÑĢÐ²Ð¾Ðµ
ĠÑĢÐ°Ð²Ð½Ð¾
ĠÐŁÐ°Ð¼ÑıÑĤÑĮ
Ð»ÑıÑİÑĤÑģÑı
ÑĢÐµÐ´ÐµÐ»ÐµÐ½Ð¸Ðµ
ĠÐĵÐ¸ÑĤ
ĠÐ¡Ð¾ÐµÐ´Ð¸Ð½
ĠÐļÑĢÐ°ÑģÐ½Ð¾Ð¹
ÑģÑĤÐ²ÐµÐ½Ð½Ð¾ÑģÑĤÑĮ
ÑĩÑĳÑĤÐ°
Ð°Ð½ÑĤÐ¸
ĠÐ·Ð°ÐºÐ¾Ð½Ð¾Ð¼
Ð°ÑĤÐ¾ÑĢÐ¾Ð¼
ĠÐ¾Ð±Ð¾ÑģÐ½Ð¾Ð²
ĠÐĶÐ¾Ðº
ĠÐ¼ÐµÑģÑĤÐ°Ñħ
ĠÐĸÐµÐ½
ĠÐĳÐ¾Ð¶
ĠÐŃÐ²
ĠÐŃÐ¿
ĠÐ²ÐµÑĢÐ¾ÑıÑĤÐ½Ð¾
ĠÐ»ÐµÑĤÐ¾Ð¼
ĠÐ´ÐµÑĢÐµ
ÐµÐ»ÑĮÐ·Ñı
ÐµÐºÑĤÐ¾Ð¼
ĠÑģÐ¾Ð¾Ð±ÑīÐµÐ½Ð¸Ñı
Ð¾ÑĩÐ½Ð¾
ĠÐ¼ÐµÑģÑıÑĨ
ĠÑĤÐµÑģ
Ð¡Ð¾ÑİÐ·
ÑħÑĥÐ´
ĠÐļÐµÐ¼
ÑĩÐ°Ð»ÑĮ
Ð°ÑĤÐµÐ»ÑĮÐ½ÑĭÐ¼
ĠÐ¿Ð¾Ð´Ð³Ð¾ÑĤÐ¾Ð²ÐºÐ¸
ĠÐļÑĢÑĭÐ¼
ÑĮÐµÑĤÐ½Ð°Ð¼
ÑģÐ¼ÐµÐ½
Ð¼Ð¸Ð¸
ĠÐµÐ´Ð¸
ĠÑĪÐ¸ÑĢÐ¸
ĠÐ¿ÐµÑĢÐµÐ²
ĠâĢĵ
ĠÐ¶ÐµÐ½Ð¸
ÐµÐ·Ð°
ĠÑĢÐµÐ·ÑĥÐ»ÑĮÑĤÐ°ÑĤÑĭ
ĠÐ°Ð»ÐºÐ¾Ð³
ĠÑĩÐµÐ¼Ð¿Ð¸Ð¾Ð½ÐºÐ°
ĠÐ½ÐµÐ´Ð¾ÑģÑĤÐ°ÑĤ
ĠÐłÐ¸ÑĩÐ°ÑĢÐ´
ÐºÑģ
Ð¾ÐºÐ¾Ð»Ð¾
ĠÑģÐµÐ¼ÑĮ
ĠÐķÐ²Ð³ÐµÐ½Ð¸Ð¹
ÑĩÐ½ÑĭÐ¼
ĠÐºÐ¾Ð½ÐµÑĨ
ĠÑģÐ¾Ð²Ð¿
ĠÐ¿ÑĮÐµÑģ
ĠÑģÑĥÑīÐµÑģÑĤÐ²ÐµÐ½Ð½Ð¾
ĠÐ¼Ð°ÑĤÑĮ
ĠÑĦÐ°Ð·
ÑģÑĤÑĮÑı
ĠÑĥÐ½Ð¸Ð²ÐµÑĢÑģÐ¸ÑĤÐµÑĤÐµ
ĠÐ¸Ð»Ð»Ñİ
ÐµÐ´Ð»Ð¸Ð²
ĠÐľÐµÑĢ
ĠÑģÐ²ÑıÐ·Ð°Ð½Ð½ÑĭÐµ
ĠÑĤÐ¾ÑĢÐ¶Ðµ
ack
Ð±Ð°Ð»
ÑĨÐºÐ¾Ð³Ð¾
ĠÑģÐ²ÑıÑīÐµÐ½
Ð»Ð¾Ð³Ð¾
ĠÐ¿Ð¾Ð»ÐºÐ¾Ð²
ÑıÐ½ÑĥÑĤ
ĠÐ¤Ð¸Ð»ÑĮ
ĠÐ¿ÑĢÐ¾Ð¼ÑĭÑĪÐ»ÐµÐ½Ð½Ð¾ÑģÑĤÑĮ
ĠÐŁÐ¾Ð»ÑĮÑĪÐ¸
ĠÐ¿Ñĭ
ÐµÑĤÐ¸Ð¸
ĠÐ½Ð°Ð´Ðµ
Ð»ÑıÐ»
ÑĥÑģÐ¾Ð²
ĠÐ½Ð°Ð·Ð²Ð°Ð½
ÑĢÐ¸ÐºÐ°Ð½
ĠÐ½Ð°ÑģÑĤÑĢÐ¾
ÐµÑĢÐ±ÑĥÑĢÐ³Ð°
ĠÐļÐ¾Ð½Ñģ
ĠÐłÐ¸Ð¼Ðµ
Ð¾Ð³Ð¾ÑĢ
ĠÐ´ÑĢÑĥÐ·
ĠÐ¼ÑıÐ³
ĠÐ·Ð°Ñģ
ĠÐ¤Ð¸Ð»
ĠÐ±ÑĭÐ²ÑĪÐµÐ³Ð¾
ÑĤÐ¾Ð¹
Ð¿Ð°ÑĢ
ĠÐ´Ð¸Ð°Ð¿Ð°Ð·
ĠÑĤÐ¾ÑĩÐºÐ°
ĠÐ´Ð²Ð°Ð¶Ð´Ñĭ
Ð»Ð¾ÑīÐ°Ð´ÑĮ
ĠÐĴÐ¼ÐµÑģÑĤÐµ
ĠÐ»Ð¸ÑĤÐµÑĢÐ°ÑĤÑĥÑĢÐ°
ĠÐ¸Ð½ÑĦÑĢÐ°
pt
ÐµÐ·Ð´Ñĭ
ĠÐ¸Ð¼Ð¿ÐµÑĢÐ¸Ñı
ĠÐ¾Ð±ÑīÐµÑģÑĤÐ²ÐµÐ½Ð½ÑĭÐ¹
ĠÐ»ÐµÑģÐ°
ĠÐ¿ÑĢÐ¸Ð½Ð°Ð´Ð»ÐµÐ¶Ð¸ÑĤ
ĠÐĿÐ¸ÐºÐ¾Ð»Ð°ÐµÐ²Ð¸Ñĩ
ĠÐ½ÑĥÐ¶Ð½Ð¾
ĠÐ¿ÐµÑģÐ½Ñı
ĠÑģÐ¸Ð»Ð°Ð¼Ð¸
ĠÐ¡Ð¸Ð»
Ð°Ð»ÑĮÐ½Ð¾ÑģÑĤÑĮ
ĠEn
ĠÑĤÑĢÐ¾Ð¿
ÐµÐ´Ð¸ÑĨÐ¸Ð¸
Ð°Ð½Ð´Ð¸Ð½
ĠÐ³Ð¾ÑĢÐ¾Ð´ÑģÐºÐ¸Ñħ
ÐĺÑģÑĤ
Ð½Ð¸ÑĨÐµ
ĠÐ´Ð¾ÑĢÐ¾Ð³Ð°
ĠÑģÑĥÐ¿ÑĢÑĥÐ³
ĠÐĶÑİ
ĠÐ¿Ð¾Ð´Ð½Ñı
ÐºÐ¾Ð¼Ð°
ĠÐ³ÑĢÑĥÐ¿Ð¿Ðµ
ĠÐ¿ÑĢÐµÐ´ÑģÐµÐ´Ð°ÑĤÐµÐ»Ñı
Ð½Ð¸Ð½
Ð¿Ð°ÑĢÑħ
ĠÐ¥ÑĥÐ´
ĠÑģÑĤÐ¸Ð»Ðµ
ĠÐ¤ÑĢÐ°Ð½ÑĨÐ¸Ñı
ĠÐ³ÑĢÐ°Ð²Ð¸ÑĤÐ°
Ð¾Ð³Ð°Ð½
ĠÐ¼Ð¾ÑĢÐ°
ÑĳÐ½Ð½ÑĥÑİ
ĠÑĪÐµÑģÑĤ
Ð³ÑĥÑĪ
ĠÑģÑĢÐµÐ´Ð½ÐµÐ¹
ĠÐ³ÑĢÑĥÐ¿Ð¿Ñĥ
ĠÐ½Ð°ÑĢÐ¾Ð´Ð½ÑĭÑħ
ĠÑĢÐ¾ÑģÑģÐ¸Ð¹ÑģÐºÐ¾Ð¹
ĠÐ¿Ð¾ÑĩÑĤÐ¾Ð²
Ð¼Ð¾Ð´
ĠÐ¡Ð¸ÑģÑĤÐµÐ¼
ĠÑįÐ²
ĠÑĦÑĢÐ°Ð³Ð¼ÐµÐ½ÑĤ
ĠÐĳÑĢÑİ
ĠÑĢÐµÑĦÐµÑĢ
ÑĢÐ°Ð·Ð¸Ð»Ð¸
ĠÐ½Ð°Ð¹ÑĤÐ¸
ÑĨÐ²ÐµÑĤ
ÐµÐ½Ð°ÑĩÐ°Ð»ÑĮ
ĠÐ¦ÐµÑĢÐºÐ²Ð¸
ĠÐĿÐ°Ð·Ð²Ð°Ð½Ð¸Ðµ
ĠÑģÐµÐ¹ÑĩÐ°Ñģ
Ð¿ÑĤÐ¾Ð¼
ĠÑĥÐ½Ð¸Ðº
Ġ1912
ĠÐºÐ¾Ð¼Ð¼Ñĥ
ĠÑİÐ³
ĠÐľÐ¾Ð¶
ĠÐ´Ð°Ð½Ð½ÑĭÐ¹
ĠÐ¿Ð¾ÑĩÑĳÑĤ
ĠÐ²ÑģÑĤÑĢÐµÑĩ
ĠÐŁÑĢÐµÐ´ÑģÑĤÐ°Ð²
ĠÐºÐ»ÑĥÐ±Ð°
ÑĥÐ±ÐµÐ¶
ÐłÐ¾Ð´Ð¸Ð²ÑĪÐ¸ÐµÑģÑı
ÑĢÐ°Ð²Ð¾Ð¾ÑħÑĢÐ°Ð½
ĠÐĴÐ°ÑĪ
ÐµÑģÑģÐ°
Ð¾Ð±ÑĢÐ°Ð·Ð¾Ð²
ĠÑĥÑģÑĤÑĢÐ¾Ð¹ÑģÑĤÐ²Ð¾
ĠÐļÐ¸ÑĤÐ°Ðµ
57
ĠÐ¿ÑĢÐ¸Ð½ÑĨÐ¸
ĠÐ´Ð¾ÑģÑĤÐ¸Ð¶ÐµÐ½Ð¸Ñı
ĠÐ¼Ð¸Ð½Ð¸ÑģÑĤÑĢÐ¾Ð²
ĠÐ´Ð·
ÐµÐ·Ð¶
ĠÑįÐ¿Ð¸Ð·
ĠÃ
ĠÐ¿ÐµÑĤ
ÑĢÐ¸ÑĢÐ¾Ð²Ð°Ð½
ĠÐ½Ð°ÑĢÑıÐ´Ñĥ
ÑĥÑħÐ°
Ð¸ÑĨÑĥ
ĠÐ¡Ð²ÑıÑī
ĠÐĽÑĥÑĨÐ¸Ð¹
ĠÑĨÐµÐ½ÑĤÑĢÐ°Ð»ÑĮÐ½Ð¾Ð¹
ÑĭÐ½
ĠÐĹÐ½Ð°Ñĩ
ĠÐ¿Ð¾ÐºÐ¸Ð½
ĠÐ³Ð»Ð°Ð²Ñĭ
ĠÐ±ÑĥÐ´Ð´
ĠÐĿÐ°Ð³ÑĢÐ°
ĠQ
ÐµÐ½ÑĨÐµÐ²
ÑĳÐ½Ð½Ð¾ÑģÑĤÐ¸
Ð£Ð¼ÐµÑĢÑĪÐ¸Ðµ
Ġ1952
ica
ĠÐºÐ¾ÑĪ
ĠÐ§ÐµÑĩ
ĠAr
ĠÑĦÐ¾ÑĢÐ¼Ð¸ÑĢÐ¾Ð²Ð°Ð½Ð¸Ñı
Ð¿Ð¾Ð»ÑĮ
ĠÐļÐ°ÑģÐ¿
ĠÐ¼ÐµÑģÑıÑĨÐ°
59
ĠÐ¾Ñī
ĠÑģÐ¾Ð²Ð¾ÐºÑĥÐ¿
ĠÐŁÑĥÐ±Ð»Ð¸
ĠÐ¿Ð¾ÑģÑĤÑĢÐ¾Ð¹
ĠÐ¿Ð¾Ð±ÐµÑĢÐµÐ¶ÑĮÐµ
Ð´Ð»Ñı
ĠÐ½Ð°ÐºÐ°Ð·
ĠÐĴÐ°Ð¶
Ð¸ÑĢÑĥÑİÑĤ
ĠÐ¸Ð·Ð´Ð°Ð½Ð¸Ñı
ĠÐ¾Ð±ÑĬÐµÐ´Ð¸Ð½ÐµÐ½Ð¸Ñı
ĠÐ¢Ð°Ð½
ĠÐ²Ð¾ÐµÐ²
ĠÐºÐ¾Ð°Ð»Ð¸
ĠÐ¾ÑģÐ½Ð¾Ð²Ñĥ
ĠÐ¿ÐµÑĢÑģÐ¾Ð½
ĠÑĢÐ°Ð·ÑĢÐ°Ð±Ð¾ÑĤÐºÐ¸
Ð¾Ð¾ÑĤ
Ġ1910
ĠÐ²ÑģÑĤÑĥÐ¿Ð¸Ð»
Ð°ÑĢÐ½Ð¾Ð¹
ĠÐ¾ÑĢÐ³Ð°Ð½Ñĭ
ĠÑģÐ´ÐµÐ»Ð°Ð»
ĠÐ¡Ð°ÑĢÐ°ÑĤÐ¾Ð²
ĠÑĦÐ¸Ð·Ð¸
ĠÐ³Ð°Ð·ÐµÑĤÐ°
51
iz
ĠÑĩÑĳÑĤ
ĠÐĴÑĤÐ¾ÑĢÐ°Ñı
ĠÐ§Ð¶
ĠÐ°Ð½Ð°Ð»Ð¸Ð·Ð°
Ġ36
ĠÑħÐ¸Ð¼Ð¸Ð¸
ĠÐķÐ¡
Ġ150
ive
ĠÐ¿ÐµÑĢÐµÑģÐµÐ»
ĠÐ§Ð°ÑĢ
ĠÐ¼Ð°Ð½Ð¸
ĠÐ³Ð¾ÑģÑĤ
ĠÐ·Ð¾Ð½
ĠÐ¡ÑĢÐµÐ´Ð½ÑıÑı
ĠÐ¿ÐµÑħ
ĠÐ½Ð°ÑĪÐµÐ¹
ĠÐ°ÑĢÑĤ
ĠÐ¡ÑĤÐ°Ð²
ĠÐ¼Ð½Ð¾Ð³Ð¾ÑĩÐ¸ÑģÐ»ÐµÐ½Ð½ÑĭÐµ
ĠÐ¾Ð±ÑģÑĥ
ĠÐ¿ÑĢÐ¸ÑģÑĤÑĥÐ¿
ĠÑĨÐ¸ÑĤ
ĠÐ·Ð²Ð°Ð½Ð¸Ñı
ĠÑĥÐ´Ð¾Ð²Ð»ÐµÑĤ
ÑģÐ¸ÐµÐ¹
ĠÐ¿ÑĢÐµÐ²Ð¾Ñģ
ÑĦÐµÐ¹
ĠÐľÐĴ
ĠÑģÐ¾Ð·Ð´Ð°ÑĤÑĮ
ĠÐ²Ð¾ÑģÐ¿Ð¸ÑĤ
ork
ĠÐ¸Ð·Ð´Ð°Ð½Ð¸Ðµ
ĠÑģÑĤÐµÐ¿ÐµÐ½ÑĮ
ĠÐ²Ð»Ð¸ÑıÐ½Ð¸Ñı
ĠÐ¿ÑĢÐ¾ÑĨÐµÑģÑģÐ¾Ð²
ĠÑģÐ¾ÑģÑĢÐµÐ´
ĠÐŃÑĤÐ¸Ð¼
ĠÑĩÑĥÐ²ÑģÑĤÐ²
ĠÐ¤ÑĳÐ´Ð¾ÑĢÐ¾Ð²
ĠÑĥÐ¿ÑĢÐ°Ð·Ð´Ð½
ĠÐ¿ÑģÐµÐ²Ð´
Ð¾Ð·Ð¾Ð²
ĠÐ¿Ð¾Ð´ÑĢÐ¾Ð±
ÐµÑĨÐºÐ¸Ð¹
ĠÑģÐ½Ñı
ĠÑĪÑĤÑĥÑĢ
ĠÑįÐºÑģÐ¿ÐµÐ´Ð¸ÑĨÐ¸Ð¸
ĠÐ³ÐµÐ½ÐµÑĢÐ°Ð»Ð°
ĠÑĥÑģÐ»ÑĥÐ³
Ð¿ÐµÐ²
ĠÐ´ÑĭÑħ
Ð¾Ð¹ÑĤÐ¸
Ð¼ÐµÑĢÑĤ
Ð»Ð¾Ð¶ÐµÐ½Ð¸Ñı
ĠÑĥÐ¿Ð¾Ð¼Ð¸Ð½Ð°ÐµÑĤÑģÑı
ÐłÑĥÑģ
ĠÐ¼ÐµÑĤÐ°Ð»Ð»Ð¾Ð²
Ð»ÑĭÑħ
Ð¾ÑĢÑıÐ¶
ĠÐ°Ð³ÐµÐ½ÑĤ
ĠÐºÑĢÐµÐ¿Ð¾ÑģÑĤÑĮ
ĠÐºÑĢÐ¸Ð·Ð¸Ñģ
ĠÐľÐĵ
ĠÐ¿ÐµÑĢÐµÐ¼ÐµÑī
ÑģÑĤÐ¸ÑĩÐµÑģÐºÐ¸Ðµ
Ð¾ÑĢÐ°Ð·Ð´Ð¾
ĠÐ£Ð¶Ðµ
ÐºÑĢÐ°Ñģ
ĠÐ¿Ð¾ÑģÐ»ÐµÐ´Ð½Ð¸Ñħ
ÐŁÐµÑĤÐµÑĢÐ±ÑĥÑĢÐ³Ðµ
ĠÑĨÐµÐ»Ð¸
ÐĺÐļ
ĠÐłÐ¸Ð¼Ð°
Ð¾Ð±Ð°
ĠÑĢÐ¾ÑģÑģÐ¸Ð¹ÑģÐºÐ¾Ð³Ð¾
ĠÑĢÐ°Ð·Ð²Ð¸ÑĤÐ¸Ð¸
ĠÐ¶ÐµÐ½ÑīÐ¸Ð½Ñĭ
ĠÐ½Ð°Ð»Ð¾Ð³Ð¾Ð²
Ġ1913
ĠÑģÐ¾Ð±Ð¾ÑĢÐ°
ĠÐ¯ÐºÐ¾Ð²
ĠÐ°ÑĥÐ´
ĠÐ¿Ð¾Ð»ÐºÐ¾Ð²Ð¾Ð´
Ð¸ÐµÐ¿Ð¸ÑģÐºÐ¾Ð¿
ĠÐ±Ð¾Ð»ÑĮÑĪÐ¾Ð³Ð¾
ĠÑģÐ¾Ð²ÐµÑĢÑĪÐµÐ½Ð½Ð¾
ĠÐ¿Ð¾Ð±ÐµÐ´Ñĭ
ĠÐ¾ÑģÐ°Ð´ÐºÐ¾Ð²
ĠÐłÐ¾ÑģÑĤÐ¾Ð²
ĠÐļÐ¸ÑĢÐ¾Ð²
Ð²Ð°ÑĢÐ¸
ĠÐ£ÐºÐ°Ð·
ÑĥÐ½Ð³
ĠÐĴÐ¾Ð¾ÑĢÑĥÐ¶
ĠÐ½Ð°ÑĩÐ°Ð»Ð¾Ð¼
ĠÐ°ÑĢÑħÐ¸ÑĤÐµÐºÑĤÐ¾ÑĢ
ĠÐ²Ð¾Ð¿
ĠÑģÑĭÐ½Ð¾Ð²
ĠÐĴÐ°Ð²Ð¸Ð»
ĠÐ½ÐµÑĢÐµÐ´
ĠÑģÐ¾ÑģÑĤÐ°Ð²Ð¸Ð»Ð°
Ð´ÐµÐ¼Ð¾ÐºÑĢÐ°
ĠÐ¿ÑĢÐ°ÐºÑĤÐ¸ÐºÐµ
ĠÐ¿ÑĢÐ¸Ð±Ð»Ð¸Ð·
ĠÑĢÐ°Ð·Ð´ÐµÐ»Ñı
ĠÑĤÑİÑĢÑĮ
ĠÐĲÐ»ÐµÐºÑģÐ°Ð½Ð´ÑĢÐ¾Ð²Ð¸Ñĩ
ĠÐ²Ð°Ð»ÑİÑĤ
ĠÑĢÐ°Ð·Ð»Ð¸
ĠÐ¦Ð¸
ĠPro
ĠÐ¼Ð¸Ð½ÐµÑĢÐ°
ÑĦÑĥ
Ð°Ð²Ñĭ
ĠÐĶÐ°Ð³
ĠÐ¶ÑĳÑģÑĤ
Ð¸ÑıÐ¼Ð¸
ĠÐĳÐ¾Ð»ÑĮÑĪÐ°Ñı
ĠÐ¿ÑĢÐ¸ÑĪÐ»Ð¾ÑģÑĮ
ĠÐĲÐ²Ð³ÑĥÑģÑĤ
ĠÐĴÐ°Ð½
Ð¾Ð¿ÑĢÐ¾
ĠÐ§Ð°ÑģÑĤ
Ð»ÐµÑĤÑĢÑıÑģ
ĠÐ¿Ð¾ÑģÐ»ÐµÐ´Ð½ÐµÐ³Ð¾
ĠÐ²Ð·ÑĢÐ¾Ñģ
Ð¿ÑıÑĤ
ĠÑĦÑĢÐ°Ðº
ĠÐ¨Ð²ÐµÑĨÐ¸Ð¸
ĠÐŁÐ¾Ð·Ð¶Ðµ
ĠÐ¾ÑĤÐºÑĢÑĭÑĤÐ¸Ñı
ĠÑģÐ¾Ð¾Ð±ÑīÐµÐ½Ð¸Ðµ
ĠÐ´Ð°Ð²Ð»ÐµÐ½Ð¸Ñı
ĠÐ¿Ð¾ÑĢÑıÐ´ÐºÐµ
ĠÐ¾ÑĤÐºÐ°Ð·Ð°Ð»ÑģÑı
||
ÑĦÐ°Ðº
Ð¾ÑģÐ¾Ð¼
Ð°Ð²ÑĪÐ¸Ð¼
ĠÐµÐ´Ð¸Ð½Ð¸ÑĨÑĭ
ĠÐ¼ÐµÑħÐ°Ð½Ð¸Ð·Ð¼
ĠÐŁÐ°Ð²Ð»Ð¾Ð²
ĠÐ»Ð¾ÑĪ
ĠÐ¥Ð°Ð¹
ĠÐ·Ð²ÑĥÑĩ
ĠÑĢÐ¾Ð¼Ð°Ð½Ð°
ĠÐ¡ÐµÑĢÐ±
ÑģÐ¸Ð»Ð¸
ĠÐ¼Ð°Ð»ÐµÐ½ÑĮ
ĠÐ²Ð¾Ð·Ð²ÑĭÑĪ
ĠÐľÐµÐ¶Ð´ÑĥÐ½Ð°ÑĢÐ¾Ð´Ð½ÑĭÐ¹
ĠÑģÐµÑĢÐµÐ±ÑĢÑı
ou
ĠÐ½Ð¾Ð¼Ð¸Ð½
Ð¼Ð¸ÑĢÐ°Ð»
ĠÐ¿ÑĢÐ¸Ð¼
ĠÐŀÑĦÐ¸ÑĨÐ¸Ð°Ð»ÑĮÐ½ÑĭÐ¹
pp
ÑĢÐµÐ½Ð¸Ðµ
ĠÑĢÐ°ÑģÑĤÐ²Ð¾ÑĢ
ĠÑģÐ¸Ð³Ð½Ð°Ð»
ĠÐ¸Ð·Ð²ÐµÑģÑĤÐ½ÑĭÐµ
ĠÑģÑĤÐ°Ð±Ð¸Ð»ÑĮ
ÑģÑıÑī
ĠÐľÐ°
ĠÐľÑĥÑĢ
ĠÐ¿ÑĢÐµÑĤ
ĠÑģÑĤÐ¾Ð»ÐºÐ½Ð¾Ð²
ĠÐ²Ð¸ÑĨÐµ
ĠÐ½Ð°Ð·Ð²Ð°Ð»
tern
ĠÐ»ÐµÐ³Ð¸
ĠÐĴÑģÐºÐ¾ÑĢÐµ
ĠÐľÐµÐ»
Ð¸ÑĩÐµÑģÐºÐ¾Ð¼Ñĥ
ĠÐ¥Ð°ÑĢÑĮ
ÑģÐ¿ÐµÐºÑĤÐ¸Ð²
ĠÑįÑĤÐ½
ĠÐ¿ÑĢÐ°Ð²Ð¸Ð»
ĠÑĥÐ»ÑĮ
ĠÐ²ÑĭÑģÑĤÑĥÐ¿Ð¸Ð»
ĠÐĺÐ²Ð°Ð½Ð°
ĠÑģÑĤÑĢÑĥÐºÑĤÑĥÑĢÐ°
ĠÐ¸Ð·Ð³Ð½
ĠÐŀÐ±Ñĭ
ĠÑģÐ²Ð¸Ð½
ÑĨÐµÐ»
ĠÐ½Ð¾Ð²ÑĥÑİ
ĠÐ²Ð¾Ð´Ðµ
ĠÐ¼Ð¾ÑĢÑģÐºÐ¾Ð¹
ĠÑĤÐµÐºÑģÑĤÐ¾Ð²
ĠÐĽÑİÐ´
ÑģÑĤÐµÑĤ
Ð³Ð°Ð»
ont
ĠÐĺÐ½Ð¾Ð³Ð´Ð°
ĠÑĥÐ³Ð¾Ð»Ð¾Ð²
ĠÐ´Ð¾ÑĩÐµÑĢÐ¸
Ð¾ÑĤÑĥ
ĠÐ¿Ð¾Ð»Ð½Ð¾
Ð¸Ð´Ðµ
ĠÐ¼ÐµÑĤÐ°Ð»Ð»Ð¸
ĠÐ½Ð°ÑĩÐ¸Ð½Ð°ÐµÑĤ
ĠÐ¡Ð¾Ð»Ð½ÑĨÐ°
Ð¼Ð¾Ð¼
ĠÐ¸Ð´ÐµÐ¹
ÑĪÐ°Ð»
Ð»Ð°ÑĢÐ°
ĠÐ¢Ð¸ÑĤ
ĠÑĨÐ°ÑĢÑģÑĤÐ²Ð°
ĠÐ¸ÑĤÐ¾Ð³Ð°Ð¼
ĠÐĽÑĮÐ²Ð¾Ð²
ĠÐ¸Ð½ÑĤÐµÐ»Ð»ÐµÐº
ĠÐĺÐ¼Ð¿
ĠÐľÐ°ÑĤÐµÑĢÐ¸
ĠÐ³Ð»Ð°Ð²Ð½Ð¾Ð³Ð¾
ĠÐĲÑĦÑĢÐ¸ÐºÐ¸
Ð¸Ð¹ÑģÐºÐ¾Ð¹
ĠÑĥÐ»Ð¸ÑĨ
ĠÐ³ÐµÐ½ÐµÑĤ
ĠÐļÐ°Ð²
ĠÑĢÑĥÐºÐ¸
Ð¾Ð¿Ð¸ÑģÐ¸
ies
ĠÐ²Ð¾ÑģÑĤÐ¾ÐºÐµ
ĠÐ´Ð¸ÑģÐ¿
Ð»Ð¸Ð²Ð°ÐµÑĤÑģÑı
ĠÐ¥ÑĢÐ¸ÑģÑĤ
ĠÐ²ÐµÑĢÐ½ÑĥÑĤÑĮ
ĠÐĽÐ°ÑĥÑĢÐµ
ĠÑĥÑĩÐ¸ÑĤÑĭ
ĠÑģÑĥÐ»
ĠÐļÐ¸Ð¿
Ġ1915
ÑıÑĤÐµÐ¶
ÐļÐ¾Ð¼
ĠÐ°Ð½Ð³Ð»
ĠÐŁÐµÑĤÑĢ
ĠÐ°ÑĤÐ¼Ð¾ÑģÑĦÐµÑĢ
ĠÐ¿Ð°ÑĢÑĤÐ½
ĠÐ´Ð¾Ð²
ÐµÐ¼Ðµ
ĠÐĴÐ¾Ð·Ð¼Ð¾Ð¶
Ð°Ð½Ð¸ÑıÐ¼
ÐµÑĢÑģÐ¾Ð½
ĠÐĴÑĢÐµÐ¼ÐµÐ½
ĠÐĶÐµÐº
ĠÐĲÑĢÐ³
ĠÐĺÑģÑĤÐ¾Ñĩ
ĠÐ¼ÑĥÐ·ÑĭÐºÐ°Ð½ÑĤ
ĠÐ§ÐµÐ¼
Ð½Ð¸ÐºÐ¾Ð²Ð°
ÑĢÐ°Ð¸Ð»ÑĮ
ÑĢÑĥÐ±
ĠÐ´Ð¾Ð¼Ð¾Ð²
ĠÐĺÐµÑĢÑĥÑģÐ°Ð»Ð¸Ð¼
ĠÐĳÐ°ÑĤ
ĠÐ·Ð´Ð°Ð½Ð¸Ð¹
ĠÐºÐ°ÑĩÐµÑģÑĤÐ²Ð°
ĠÑĪÐºÐ¾Ð»Ðµ
ĠÐĲÐ¼ÐµÑĢÐ¸ÐºÐµ
ĠÑģÐµÐ´
ÐµÐºÑģÑĥ
ÑĢÐ°ÑĤÐ½ÑĭÐ¹
ĠÐ°Ð´ÑĢÐµ
ĠÐŁÐ¾Ð»ÑĥÑĩ
ĠÑĪÑĤÐ°ÑĤ
ĠÐ¿ÑĢÐ¸ÑĩÐ¸Ð½Ð¾Ð¹
ĠÑģÐ¶
ĠÐ¥ÑĢÐ¸ÑģÑĤÐ°
ĠÐ¾Ð±ÑĬÐµÐºÑĤÐ¸Ð²
ĠÑĤÐµÐ»ÐµÐºÐ°Ð½
ĠÐ³Ð»ÑĥÐ±Ð¾Ðº
ĠÐºÐ½ÑıÐ¶ÐµÑģÑĤÐ²Ð°
Ð°ÑĢÑģÐºÐ¾Ð³Ð¾
ÑįÐ½ÑĮ
ĠÐ¼ÐµÑĤÐ°Ð»Ð»ÑĥÑĢÐ³
Ð»Ð¸ÑĪÐºÐ¾Ð¼
Ð¾Ð¿Ð°ÑĤ
Ð¸ÑģÑĤÐ°
ond
ĠÑįÐ½ÐµÑĢÐ³ÐµÑĤ
ĠÐ¿Ð¾Ð¿ÑĭÑĤÐºÐ¸
ĠÐ¾ÑĤÐ¾Ð±ÑĢÐ°Ð¶
ĠÐĿÐ¸Ð´ÐµÑĢÐ»Ð°Ð½Ð´
ĠÐłÐ¾ÑģÑģÐ¸ÐµÐ¹
ĠÑģÐ²ÑıÐ·Ð°Ð½Ð½ÑĭÑħ
ĠÐ·Ð°Ð½ÑıÑĤ
ĠÐ¿Ð¾ÑħÐ¾Ð¶
ĠÑĢÐµÐ³Ð¸Ð¾Ð½Ð¾Ð²
Î¹
ĠÐ½ÑĢÐ°Ð²
ÐµÐ¹ÑĤ
ĠÐŁÐ¾Ð³
ĠÐ¾Ð±ÑīÐµÑģÑĤÐ²ÐµÐ½Ð½Ð¾Ð³Ð¾
ĠÑģÑĥÐ´Ð¾Ð²
ĠÐ¦ÐµÐ½ÑĤÑĢÐ°Ð»ÑĮÐ½Ð¾Ð¹
ĠÐļÐ¾Ð¿
ĠÐ¤ÐµÐ¾Ð´
Ð²ÐµÐ¶
Ð½Ð¸ÑĨÑĥ
ĠÐ°Ð¿Ð¿Ð°ÑĢÐ°ÑĤ
ĠÐ´Ð¸ÑģÑĨÐ¸Ð¿
ĠÑĤÑı
ĠÐºÐ¾ÑĤÐ¾ÑĢÑĭÐ¼Ð¸
ĠÑĢÐ°Ð·Ð²Ð¸ÑĤÐ¸Ñİ
Ð»ÐµÐ¹Ð±
ĠÐ·Ð°Ð»Ð¸Ð²
Ð¾Ð½Ð¸Ñı
ĠÐŁÐ¾Ð»ÑĮ
ÑĥÑīÐµÑģÑĤÐ²Ð°
ÑĥÑīÐ°Ñı
ÑĦÐ¸ÑĨÐ¸ÑĢÐ¾Ð²
Ð²ÑģÐµ
ĠÐĲÑĪ
ĠÐ½Ð¾Ð²Ð°Ñı
ast
ĠÑģÐµÐ²ÐµÑĢÐ½Ð¾Ð¹
ĠÐłÑĥÑģÑģÐºÐ¾Ð¹
ĠÐºÐ°Ð½Ð´Ð¸Ð´Ð°ÑĤ
ÑĪÐ»Ð¾
ĠÐ¿ÑĢÐ¾ÑģÑĮ
ĠÐ¸Ð½Ð²ÐµÑģÑĤÐ¸
ĠÐ´ÐµÐ»Ð°ÐµÑĤ
ĠÐ·ÐµÐ¼Ð»Ðµ
ĠÐ»Ð¸ÑĩÐ½Ð¾ÑģÑĤÐ¸
ĠÑģÐ¾ÑĨÐ¸Ð°Ð»ÑĮÐ½Ð¾Ð¹
ĠÐ¾ÑģÐ²Ð¾Ð±Ð¾Ð¶Ð´
Î½
ĠÐĲÐ½Ð½Ð°
ĠÑĥÑĩÑĳÑĤ
ĠÑģÑĤÐ¾Ð»Ð¸ÑĨÑĭ
ĠÐŁÑĢÐµÐ·Ð¸Ð´Ð¸ÑĥÐ¼Ð°
ĠÑĢÐ°ÑģÑĤÐ²Ð¾
ĠÐ½ÐµÐ±ÐµÑģ
ĠÐ¿Ð¾ÑĢÑĤÑĥÐ³Ð°Ð»ÑĮ
ĠÐŁÐ°ÑĤÑĢÐ¸
Ð°Ð³Ð°Ð½
ĠÑģÐ²ÑıÐ·Ð°Ð½Ñĭ
1945
ĠÐ¸Ð½ÑĤÐµÐ³ÑĢÐ°
ĠÐ¿Ð¾ÑįÑĤÐ°
ĠÐ°Ð²ÑĤÐ¾ÑĢÐ¾Ð²
ĠÑĤÐ°ÑĤÐ°ÑĢ
ÑĢÐºÑĥÑĤ
ÑĪÑĤÐµÐ¹Ð½
ĠÐ²Ð¾ÑģÐ¿Ð¾Ð¼Ð¸Ð½
ĠÐĴÐ¿ÐµÑĢÐ²ÑĭÐµ
ĠÐ±Ð¾ÑĢ
ĠÐļÑĳ
ĠÐ¾ÑĤÐ¿
ĠÑıÑģ
Ġ1908
ĠÑĦÐ¸Ð»ÑĮÐ¼Ðµ
ĠÐ·Ð°Ð¿Ð°Ð´Ðµ
ĠÐ½ÐµÐ²Ð¾Ð·Ð¼Ð¾Ð¶Ð½Ð¾
ĠÐ½ÐµÐ»ÑĮÐ·Ñı
ĠÐ´ÑĢÑĥÐ³Ð¾Ð³Ð¾
ĠÑģÐ¾ÑģÑĤÐ¾ÑıÐ»Ð°ÑģÑĮ
ĠÑģÑĤÑĥÐ¿
ĠÐ½Ð¾Ð²ÑĭÐ¼
ĠÐ³Ð¾ÑĢÐ°Ð·Ð´Ð¾
Ð¸ÑģÐ»Ð°Ð²
Ð¸Ð·Ð°
ĠÐ¼Ð¾Ð½ÐµÑĤ
ĠÐ½Ð°Ð·ÑĭÐ²Ð°Ð»Ð¸
ÐµÐ²Ð¾
ĠÑĥÐ³Ð»ÐµÑĢ
ĠÐ¿ÑĢÐ¸Ð³Ð»Ð°ÑĪ
ff
Ð¸ÑĢÐ¾Ð²Ð°Ð»
ĠÐĲÑĢÑĤ
ĠÑĦÑĥÐ½ÐºÑĨÐ¸Ð¾Ð½Ð°Ð»ÑĮ
ÑĢÐ¸Ð½Ð°
ĠÑģÐ¿Ð¾ÑģÐ¾Ð±Ð½Ð¾ÑģÑĤÑĮ
ĠÑĥÑģÐ»Ð¾Ð²Ð¸Ð¹
ĠÐ½ÐµÐ¾Ð´Ð½Ð¾ÐºÑĢÐ°ÑĤÐ½Ð¾
ĠÐŁÑĢÐ¸Ð½
ĠÐ¿Ð¾ÐºÑĥÐ¿
ĠÐ´Ð¸Ð°Ð¼ÐµÑĤ
ĠÑĩÐµÐ»Ð¾Ð²ÐµÐºÐ¾Ð¼
ĠÐĴÐµÐ»Ð¸ÐºÐ¸Ð¹
ÑĮÐµÑĢÐ°
ĠÐ¸ÑģÑĤÐ¾ÑĢÐ¸ÑĩÐµÑģÐºÐ¸Ñħ
ĠÑĤÑĢÐ°Ð³
ĠÐ½Ð¾ÑĩÑĮ
ĠÐ¾Ð±ÑģÑĤÐ¾ÑıÑĤÐµÐ»ÑĮ
ĠÐ¾ÑģÑĤÐ°Ð»ÑĮÐ½ÑĭÐµ
ĠSp
ĠÐ³Ð°ÑĢÐ°Ð½
ĠÐļÐ¾Ð½ÑģÑĤÐ¸ÑĤÑĥÑĨÐ¸Ð¸
Ð±Ð°ÑĤ
ÐµÐ²ÑģÐºÐ¾Ð³Ð¾
ĠÑĦÐµÑĢ
Ð¸Ð·Ð¸Ð¾Ð½
ĠÐ´Ð¾ÐºÑĤÐ¾ÑĢÐ°
ĠÐŁÐ°Ð²Ð»Ð°
ĠÑģÐ¸ÑĤÑĥÐ°ÑĨÐ¸Ð¸
ĠÐºÐ¾Ð¼Ð¸ÑĤÐµÑĤÐ°
ĠÑĤÐµÐ½Ð´ÐµÐ½
ĠÐ¶Ð¸ÑĤÐµÐ»Ð¸
ĠÐ²Ð¾ÐµÐ½Ð°ÑĩÐ°Ð»ÑĮ
ĠÐ¼ÐµÐ¶Ð´ÑĥÐ½Ð°ÑĢÐ¾Ð´Ð½Ð¾Ð³Ð¾
ĠÐ±Ð¾ÐµÐ²ÑĭÑħ
ĠÐ´ÑĢÐµÐ²Ð½ÐµÐ³ÑĢÐµ
ĠÐ¡Ð¾Ð·Ð´
ĠÐļÐ»Ð°ÑģÑģÐ¸
Ð¸Ð»Ð»
ÑĤÐ¸Ð²Ð½Ð¾
ĠÑĢÐµÐ³Ð¸Ð¾Ð½Ðµ
ÑĢÐ°ÑĤÐ°
ÑĤÐ¾ÑĢÐ¸Ð¸
ĠÐ¿Ð¾Ð»ÑĥÑĩÐ°ÐµÑĤ
ĠÐ·Ð°Ð´Ð°ÑĩÐ¸
ÑģÐºÐ¾Ð»ÑĮÐºÐ¾
ĠÐ·ÐµÑĢ
ĠÐĺÐ¼Ðµ
ĠÑģÐ°Ð¼Ð¾Ð»
ĠÐ°ÑĢÑħÐ¸ÑĤÐµÐºÑĤÑĥÑĢ
Ð¿ÑĢÐ¾Ð¸Ð·Ð²Ð¾Ð´
ĠÐ´Ð¾Ð¶Ð´
ĠÐºÐ¾Ð¼Ð¼ÐµÐ½ÑĤ
Ð¸ÑĢÐ°Ð¼Ð¸
ÑĢÐµÑģÐ¿
Ð¾Ð¼Ð°
ĠÐ¾Ð±ÑĪÐ¸ÑĢ
Ġ1916
ĠÑĥÑģÑĤÑĢÐ¾
ĠÐŀÐºÐ¾Ð»Ð¾
ĠÑģÐ¾ÑģÑĢÐµÐ´Ð¾ÑĤÐ¾Ñĩ
ĠÐŁÑĤÐ¾Ð»
ĠÐ²Ð¾Ð·Ð¾Ð±Ð½Ð¾Ð²
ĠÐ´ÐµÐ»ÐµÐ½Ð¸Ðµ
ĠÐ¾Ð·ÐµÑĢÐ°
ĠÐ¼ÑĭÑģÐ»Ð¸
ĠÐ·Ð°Ð³ÑĢÑıÐ·
ĠÐ¿Ð¾ÑģÑĢÐµÐ´ÑģÑĤÐ²Ð¾Ð¼
ĠÑģÐ»Ð¸ÑĪÐºÐ¾Ð¼
ÑĢÐµÐµ
ĠÑĢÐ°Ð·Ð½Ð¾Ð²Ð¸Ð´
ĠÑĨÐ¸Ð²Ð¸Ð»Ð¸
ĠÐ°Ð²Ð¸Ð°ÑĨÐ¸Ð¸
ĠÐĴÐ¿Ð¾ÑģÐ»ÐµÐ´ÑģÑĤÐ²Ð¸Ð¸
Ð¾ÐºÑĥ
Ð°Ð¼Ð¸Ð½
Ð¸Ð·ÐµÐ¼
Ð¸ÑıÑħ
Ð²Ð¸Ð´Ð°
Ð²ÐµÐ´ÐµÐ½Ð¸Ñı
ÑĥÑİÑīÐ°Ñı
Ð¾ÑĢÐµÐ¹
ĠÐ¼Ð¾Ð´Ð¸
ĠÑĥÐ»Ð¸ÑĨÑĭ
ĠÐ¿ÑĢÐ¾Ð¿Ð¾Ð²ÐµÐ´
Ð²Ð¸Ð»Ð°
Ð½Ð¾Ð·Ð½Ð°Ñĩ
Ð¾Ð¾Ð±
ĠÐ²ÑĭÐ·ÑĭÐ²Ð°ÐµÑĤ
ÑĦÐ¸ÑĨÐ¸ÑĢÐ¾Ð²Ð°Ð½
ĠÐºÐ¾Ð½ÑģÑĤÑĢÑĥÐºÑĨÐ¸Ð¸
ĠÐ¡Ð°Ñħ
ĠÑĥÑħÐ¾Ð´
ĠÑĩÐ¸Ð½Ð¾Ð²
Ð¸Ð»Ð¾Ð²
ĠÐ¿ÑĢÐ¸Ð¾Ð±ÑĢÐµÑĤ
Ð¸Ð²ÑĪÐ°Ñı
Ð½Ð¾Ð²Ð¾Ð´
ÑĭÐ²Ð°ÑĤÑĮ
ĠÐ²ÑĭÑħÐ¾Ð´Ð°
ĠÐºÐ»ÑİÑĩÐµÐ²
ĠÐ¸ÑģÑĩÐµÐ·
ver
ÑĢÐ¾Ð¼Ð°
ĠÐµÐ²ÑĢÐ¾Ð¿ÐµÐ¹ÑģÐºÐ¸Ñħ
ĠÐ¿ÐµÑĩÐ°ÑĤÐ¸
ĠÐ½ÐµÑĢÐµÐ´ÐºÐ¾
ĠÐ¼Ð¸ÑĢÑĥ
ĠÐ¾ÑģÐ²Ð¾
ĠÐ¿ÑĢÐ¸Ð¿Ð¸Ñģ
Ð¾Ð»ÑĮÐ½ÑĭÑħ
ĠÑĢÐµÑĩÑĮ
Ð½ÐµÑĪ
ĠÑĢÐµÑĪÐ¸Ð»
Ġ1906
ĠÑĥÑĩÐ°ÑģÑĤÐ²Ð¾Ð²Ð°Ð»
ĠÐĴÑĭÐ¿ÑĥÑģÐºÐ½Ð¸ÐºÐ¸
ÑĨÐ¸Ð½Ð°
ĠÐ·Ð¾Ð½Ðµ
ĠÐ¾Ð±Ð¾Ð±Ñī
ĠÐ²ÑĭÐ¸Ð³ÑĢÐ°
ĠÑģÐ¾Ð±ÑĢÐ°Ð½Ð¸Ñı
ĠÐĿÐ¾Ð²Ð¾Ð¹
ĠÐ½ÐµÐ³Ð°ÑĤÐ¸Ð²
ĠÐ·Ð°ÑģÐ»ÑĥÐ³Ð¸
ĠÐ²ÑĢÐµÐ´
ĠÐ±Ð¾Ð¹
ĠÐ¡Ð¾Ñĩ
ĠÑħÑĢÐµÐ±
ĠÐ³ÑĢÐ°Ð¼Ð¾ÑĤ
ĠÐ¾ÑĤÑģÑĤÐ°Ð²ÐºÑĥ
ĠÑģÐµÐ»Ðµ
ĠÐ®Ð³
ĠÐŁÐµÑĢÐ²Ð¾Ð½Ð°Ñĩ
ĠÐ¿ÑĢÐ¸Ð½ÑıÐ»Ð¸
ĠÐĲÑģÑĤ
ĠÐŀÐ´Ð½Ð¸Ð¼
Ð½Ð¾ÑģÑĤÑıÐ¼Ð¸
ĠÐºÐ½Ð¸Ð³Ñĥ
Ð»ÑĳÐ²
ĠÐ¿Ðµ
ÑĢÐµÐ»ÑĮ
Ð±ÐµÑĢÑĤ
ĠÐŁÐ»Ð°Ð½
Ð¸ÑĢÑĤÑĥ
Ð°Ð³Ð°
ĠÑĢÐ°ÑģÐ¿Ð¾Ð»Ð¾Ð¶ÐµÐ½Ð°
ÑĢÐ¾Ð»Ð»ÐµÐ¹Ð±
ĠÑĢÐ¾ÑģÑĤÐ°
ĠÐ²ÐµÑģÑĤÐ¸
ĠÐĹÐ°Ð¼
ĠÐ¿ÐµÑĢÐµÐ²ÐµÐ´
ĠÑģÐ¾Ð²ÐµÑĤÑģÐºÐ¾Ð³Ð¾
ĠÑģÑĬÑĳÐ¼
ĠÐºÐ¾ÑĢÐ¿ÑĥÑģÐ°
ĠÐ»ÐµÑĩÐµÐ½Ð¸Ñı
ĠÐºÐ°ÑĢÐ°
Ð¶Ð½ÑĭÐ¹
ĠÑģÑĤÐ°ÑĤÑĮÐµ
ĠÑİÐ¶Ð½Ð¾Ð¹
Ð°Ð»Ð¸Ð½
ĠÐ¸Ð¼ÐµÐ»Ð°
ÑĥÑħÐ¾Ð²
ĠÐ¼Ð½Ð¾Ð³Ð¾Ðº
ĠÑįÐ½ÐµÑĢ
ĠÐ½ÑĭÐ½ÐµÑĪ
ĠÐĴÐµÑģÑĤ
Ð¸ÑĩÐ½ÑĭÐ¹
ĠÐ°ÑĢÐ¼Ð¸ÐµÐ¹
ĠÑĢÐ°ÑģÐ¿ÑĢÐ¾ÑģÑĤÑĢÐ°Ð½ÐµÐ½Ð¸Ñı
Ð¾Ð·ÐµÑĦ
ĠÐĺÑģÐ°
ĠÐŁÐµÑĢÐ²ÑĭÐ¼
ĠÑģÐ¾Ð²ÐµÑĢÑĪÐ¸Ð»
ĠÐ¿ÑĢÐ¾ÑĪÐ»Ð¸
ĠÐĴÐĴÐŁ
ĠÐ¿ÑĢÐ¾Ð½Ð¸Ðº
Ð¾Ð»Ð³Ð¾
ĠÑıÐº
ÑĳÑĢÑĤ
ĠÐ¿Ð¾ÑĤÐµÐ½ÑĨÐ¸
Ð»Ð°Ð½Ð´Ð¸Ð¸
ĠÑĢÐµÑģÐ¿ÑĥÐ±Ð»Ð¸ÐºÐ°Ð½
Ð³Ð»ÑıÐ´
ĠÐ·Ð°ÐºÐ°Ð·
ĠÐ¾Ð±ÑĬÐµÐºÑĤÑĭ
ĠÑĤÐµÑĢÑĢÐ¸ÑĤÐ¾ÑĢÐ¸Ð¹
ĠÐºÐ¾Ð½ÑĦÐµÑĢÐµÐ½ÑĨÐ¸Ð¸
ĠÑįÐ¼
ĠÑĢÐ°Ð²Ð½Ð°
ĠÑģÐ»ÐµÐ´ÑĥÑİÑīÐ¸Ð¼
ĠÑĥÑĩÑĢÐµÐ¶Ð´ÐµÐ½Ð¸Ð¹
ĠÐ²ÑĭÑĢÐ°Ð·
ĠÑģÐ²Ð¾Ð´
Ġ33
ĠÐ¾ÐºÐ°Ð·Ð°Ð»ÑģÑı
ĠÐ±Ð»Ð¸Ð¶Ð°Ð¹
ĠÐ°Ð²ÑĤÐ¾ÑĢÐ¸
int
ĠAm
ĠÐ¼Ð°ÑģÑĪÑĤÐ°Ð±
ĠÐ²Ð½ÐµÑĪÐ½ÐµÐ¹
Ð²Ð¸Ð²Ð°Ð»
ÑĢÑĥÑİÑĤÑģÑı
Ġ1911
ÑĤÐ¸ÑĩÐµÑģÐºÐ¾Ðµ
ĠÐ¿ÑĢÐµÐ´ÑĥÑģÐ¼Ð°ÑĤÑĢÐ¸
man
ÐµÐºÑģÑĤ
ĠÐ½ÐµÐ¿Ð¾Ð´
ĠÑĢÐ¾Ñģ
ĠÐ¾ÑĤÐºÑĢÑĭÑĤÐ¸Ðµ
ĠÐĳÐ°Ð»ÑĤÐ¸Ð¹
ÐºÑĤÐ°
ĠÐ¡ÐľÐĺ
ĠÑĢÐ°Ð´Ð¸Ðº
Ð°Ð½Ð³ÐµÐ»ÑĮ
ĠÐ¾Ð±Ð¾
ĠÐ¾ÑģÐ½Ð¾Ð²Ð°Ð½Ð°
ĠÐ³ÑĢÐ°Ð¶Ð´Ð°Ð½ÑģÐºÐ¾Ð¹
ĠÐ°ÑĢÑĤÐ¸ÑģÑĤÐºÐ°
ĠÑĦÑĢÐ¾Ð½ÑĤ
ĠÐĺÐ·ÑĢÐ°Ð¸Ð»Ñı
Ð¾ÑĩÐµÑĢ
Ð°Ð´Ñĥ
Ġ75
ĠÑĥÑĩÑĢÐµÐ¶Ð´ÐµÐ½Ð¸Ñı
ĠÐ¿Ð¾ÑħÐ¾ÑĢÐ¾Ð½
ĠÐºÐ²Ð°ÑĢÑĤ
ÑĢÑĥÑĤ
Ð¾ÑĢÐ°Ð¼Ð¸
Ð½Ð¸ÑĨÐµÐ¹
ĠÐ¿Ð¾Ð´Ð´ÐµÑĢÐ¶ÐºÐ¸
ĠÐ¸Ð¾Ð½
Ð±Ð¾Ð²
ĠÐ½Ð°Ð¼ÐµÑĢ
Ð¾ÑĤÐ°Ð½Ð¸
ĠÐĵÐ°Ð·
ĠÐºÐ¾ÑĢÐ°Ð±Ð»ÐµÐ¹
Ġ),
Ð±Ð¸Ð½Ð°
ĠÑģÑĤÐ¾Ð¸ÑĤ
ĠÐľÐµÐºÑģÐ¸
ĠÑĢÐ°ÑģÐ¿Ð¾ÑĢÑıÐ¶
ĠÑĢÐ°ÑģÑģÑĤÑĢÐµ
ĠÑĥÐºÑĢÐ°Ð¸Ð½ÑģÐºÐ¸Ð¹
ĠÑĢÐµÑĦÐ¾ÑĢÐ¼Ñĭ
Ð°Ð½Ð¸ÑıÐ¼Ð¸
ÐĲÐł
ÑĥÑĪÐºÐ¸
ĠÐ¦ÐµÐ½ÑĤÑĢ
="
ĠÐłÐµÑĩ
ĠÐ³Ð¾ÑģÑĥÐ´Ð°ÑĢÑģÑĤÐ²Ð¾Ð¼
ĠÐºÐ¸Ð½Ð¾Ð°ÐºÑĤ
ĠÑģÐµÐ»ÑĮÑģÐºÐ¾Ð³Ð¾
ĠÐ±ÑĢÐ°ÑĤÐ°
ĠÑģÐºÐ°Ð·Ð°Ð»
ĠÐºÑĢÐµÐ´
ĠÐĴÐµÐ½Ðµ
Ð°ÑĢÐ½ÑĭÐ¹
ĠÐ¿Ð¾Ð»Ñİ
Ġ1951
ĠÐĳÑĭÐ»
ÐµÐ¼Ð¾ÑģÑĤÐ¸
ĠÑĢÐµÐ´ÐºÐ¾
ĠÐ¼ÐµÑĤÐ¾Ð´Ð¾Ð²
Ġi
ÐµÐ´Ð¾Ð²
ĠÑĢÐ°ÑģÐ¿Ð°Ð´Ð°
Ð²ÐµÐ´ÐµÐ½Ð¸Ðµ
ÑĥÑĪÐºÐ°
ĠÐŁÐ¾ÑħÐ¾ÑĢÐ¾Ð½
ĠÐ¿Ð¾ÑıÑģ
ÑĥÐ»ÑĮÑĦ
ĠÐ¸Ð¼Ð¿ÑĥÐ»ÑĮ
ÑģÑĤÐ¸ÑĩÐµÑģÐºÐ¸Ð¹
ĠÑģÐµÐ¼ÑĮÑı
ĠÐ¿ÑĢÐµÐ´Ð¿ÑĢÐ¸Ð½Ð¸Ð¼
Ð°Ð²ÑĪÐ¸Ð¹ÑģÑı
ĠÐ¿ÑĢÐ¸Ð±ÑĭÐ»
ĠÐ¶ÐµÑĢÑĤÐ²
ĠÑĤÐµÑħÐ½Ð¾Ð»Ð¾Ð³Ð¸Ð¹
ĠÐ³ÑĢÐ°Ð¼Ð¼Ð°ÑĤ
ÑģÐ¸Ñģ
ĠÑģÑĢÐµÐ´Ð½ÐµÐ³Ð¾
ĠÐ¾Ð¿Ð¸ÑģÐ°Ð½Ð¸Ðµ
100
ĠÐ·Ð°Ð´ÐµÑĢÐ¶
ÑĥÐ¼ÐµÑĢ
ĠÑģÐ¿Ð¸ÑĢ
ĠÐķÑĳ
Ð½ÑģÐºÐ¸Ð¹
Ð´ÑĤ
ĠÐºÑĢÐ°ÐµÐ²
ĠÐºÑĢÐ¸ÑĤÐ¸Ðº
ĠÐĲÑĢÐ¸ÑģÑĤÐ¾ÑĤ
Ð°Ð¼Ð¿
Ð¼ÐµÑģ
Ð¾ÑħÐ¸Ð¼Ð¸
ĠÐ¸ÑģÐ¿Ð¾Ð»ÑĮÐ·Ð¾Ð²Ð°Ð»
ĠÐ´Ð¾Ð¼Ð¸Ð½
ĠÐ¸Ð·Ð»ÑĥÑĩÐµÐ½Ð¸Ñı
ĠÐ¼Ð½Ðµ
ĠÐļÑĢÐµ
ĠÐĲÑģÑģ
Ð³Ð¸ÐµÐ¹
ĠÐ¿ÑĢÐ¾Ð¸Ð·Ð²ÐµÐ´ÐµÐ½Ð¸Ðµ
ĠÐ½Ð°ÑĩÐ°Ð»Ñĥ
ÑĤÐµÑħÐ½Ð¸ÑĩÐµ
ÑıÐ»Ð¸ÑģÑĮ
ÑĢÐ°ÐºÑĤ
Ð¾Ð´Ð¸
ĠÑĩÐ°ÑģÑĤÐ¸ÑĨÑĭ
ĠNew
ĠÐ¿ÑĢÐ¾Ð¸ÑģÑħÐ¾Ð¶Ð´ÐµÐ½Ð¸Ðµ
ĠÐłÐ¾Ð¼Ð°Ð½
ĠÐ½Ð°Ð³ÑĢÐ°Ð¶Ð´
ĠÐ¾ÑĢÑĥÐ´
Ð¸Ð»ÐµÑĤ
ĠÐ´Ð¾ÐºÑĤÐ¾ÑĢ
ĠÐĴÐ»Ð°Ð´Ð¸Ð¼Ð¸ÑĢÐ¾Ð²
ĠÑĤÑĥÑĢÐµÑĨ
ĠÐ¾ÑĦÐ¾ÑĢÐ¼
ÐµÑĢÐµÐ¼Ð¾Ð½
ÐļÑĢÐ°Ñģ
ĠÑįÐºÐ¾Ð½Ð¾Ð¼Ð¸ÑĩÐµÑģÐºÐ¾Ð¹
ĠÐ¿ÑĢÐ¸Ð³Ð¾ÑĢÐ¾Ð´
Ð³ÑĢÐ°Ð´Ð°
Ð¿Ð¾Ð»Ð½Ðµ
ĠÐ´Ð¸ÑģÑģ
ĠÐ¥Ð°Ð±
ĠÐĲÐ²ÑģÑĤÑĢÐ¸Ð¸
Ð¸ÑĤÐµÐ»ÑıÐ¼
ĠÐĲÑĤÐ»Ð°Ð½
ĠÑĥÑĩÐ¸Ð»Ð¸ÑīÐµ
ĠÐ¾Ð±Ð¸ÑĤ
ĠÐķÐ»ÑĮ
ĠÐ¿ÑĢÐ¾ÑĤÐ¸Ð²Ð¾Ð¿
ĠÐºÐ¾Ð½ÑĤÐ°Ðº
ĠÑĢÐ¸ÑģÑĥÐ½
oft
ĠÑģÐ¸ÑĤÑĥÐ°ÑĨÐ¸Ñı
ĠÐĺÐ½ÑĤÐµÑĢÐ½ÐµÑĤ
ĠÐ¿ÑĢÐ¸ÑĪÑĳÐ»
ĠÐĶÐ²
ÐłÐ¾ÑģÑģÐ¸
ĠÐ½ÐµÐºÐ¾ÑĤÐ¾ÑĢÐ¾Ðµ
ĠÐŁÐµÑĢÐ¼
ĠÐ¨Ð¸ÑĢ
ĠÐ´Ð¾Ð»Ñı
ĠÐ²ÑģÐµÐ¼Ð¸
Ð²ÑıÐ·
ÑģÐºÐ°Ð´
ÑĢÐµÑģÑģÐ¸Ð²
ĠÐ·Ð°Ð¿Ð°Ð´Ð½Ð¾Ð¹
ĠÐĽÐ¾Ð½Ð´Ð¾Ð½
ĠÑĦÐ¸Ð»Ð¸Ð°Ð»
Ð²Ð°Ð»Ð¾ÑģÑĮ
ÑıÐ·Ñĭ
ĠÑĨÐµÐ»ÑıÑħ
ÑĥÐ·Ð¾Ð²
ĠÐ¼Ð¸Ð½Ð¸ÑģÑĤÐµÑĢ
ĠÐ¿Ð¾Ð»ÑĮÑģÐºÐ¸Ð¹
ĠÐ¸Ð±Ð½
Ð°Ð½Ð½ÑĭÐ¼Ð¸
ĠÐ·ÐµÐ»Ñĳ
ĠÐ°Ð»ÑĮÑĤÐµÑĢÐ½Ð°ÑĤÐ¸Ð²
ĠÑģÐ¼ÑĭÑģÐ»
ÑĥÐ¶Ðµ
ĠÑģÐºÐ¾
Ð¾Ð´Ðµ
ĠÐ³Ð»Ð°Ð²Ð½Ð¾Ð¹
ĠÑģÐ¾ÑģÑĤÐ°Ð²Ð»ÑıÐ»Ð°
ĠÑģÐ¾ÐµÐ´Ð¸Ð½ÐµÐ½Ð¸Ð¹
ign
ĠÐ¼Ð¸ÑĦÐ¾Ð»Ð¾Ð³Ð¸Ð¸
Ġr
ĠÐ²ÐµÐ½
ĠÑĦÐ¾Ð»ÑĮ
ĠÐ°Ð»Ð³ÐµÐ±
ÑĢÐ¾ÑĩÐµÐ¼
ĠÐ¿ÑĢÐ°Ð²Ð¾ÑģÐ»Ð°Ð²Ð½Ð¾Ð¹
Ð¾Ð´Ð¾Ð»
ĠÐ²ÑĭÑıÐ²
ÑĢÐ°Ð½Ðµ
ĠÐ¾ÑĢÐ³Ð°Ð½Ð¸Ð·Ð¼Ð°
Ð½ÑĮÑĪÐµ
ĠÑĤÐµÐ¼Ð¿ÐµÑĢÐ°ÑĤÑĥÑĢ
ĠÐ¿ÐµÑĢÐµÐ²Ð¾Ð´ÑĩÐ¸Ðº
ĠÐ¿ÑĢÐ¾Ð¿Ð°Ð³
ĠÐµÐ¶ÐµÐ³Ð¾Ð´Ð½Ð¾
ĠÑĢÐ°Ð½ÑĮÑĪÐµ
sp
ÑĥÐ½ÑĮ
ÐĲÐĹ
ÑĥÑīÐµÐµ
ĠÑĩÐµÑĪ
ĠÐ½Ð°ÑĢÐ¾Ð´Ð½Ð¾Ð³Ð¾
ĠÐ¼Ð°ÑģÑģÐ°
ĠBe
olog
ĠÑģÐ¾ÑĩÐ¸Ð½ÐµÐ½Ð¸Ð¹
ĠÐĽÐµÐ¾Ð½Ð¸Ð´
ÐļÐ¡
ÑģÑĤÑĢÑĥÐºÑĤÐ¾ÑĢ
ĠÐ¿ÑĥÐ½ÐºÑĤÐ¾Ð²
ĠÐľÐ¸ÑħÐ°Ð¹Ð»Ð¾Ð²Ð¸Ñĩ
ĠÐ¾Ð´Ð¾Ð±
ĠÑĢÐ°ÑģÑĩÑĳÑĤ
ĠÐ°ÑĢÑħÐ¸ÐµÐ¿Ð¸ÑģÐºÐ¾Ð¿
ĠÑģÐ¾ÑĨÐ¸Ð°Ð»ÑĮÐ½Ð¾
ĠÐµÐ²ÑĢÐµÐµÐ²
ire
ĠÐ´Ð¸ÑĦÑĦÐµÑĢ
Ð¸ÑģÑģÐ»ÐµÐ´Ð¾Ð²Ð°ÑĤÐµÐ»ÑĮ
ĠÐ¾ÑĤÑĢÐµÐ·
ĠÐ¾ÑĤÐºÐ»Ð¾Ð½
Ð»Ð¸Ð½Ð³
ĠÐ¿Ð¾ÑĢÑıÐ´Ð¾Ðº
ight
Ð¾ÑĩÐµ
ÑĩÐ°Ð½
ĠÐĳÐ°Ñħ
ĠÐĶÐ°Ð½Ð¸Ð¸
Ð»ÑĮÐ½Ð¾Ð¹
ĠÐ¼Ð½Ð¾Ð³Ð¾Ð¼
ĠÑģÐ¾ÑĨÐ¸Ð°Ð»Ð¸ÑģÑĤÐ¸ÑĩÐµ
ĠÐ¢ÑĢÐ°Ð½ÑģÐ¿Ð¾ÑĢÑĤ
Ð±ÑĥÑĢÐ³Ð°
Ð¼Ð°Ð·
Ġ1904
ĠÐ¾Ð¿ÐµÑĢÐ°ÑĨÐ¸Ð¹
ld
ÑģÐºÐ°ÑĢ
ÑĨÐ¸Ð¾Ð½Ð½ÑĭÐ¼
ĠÐ´ÐµÐ½ÑĮÐ³Ð¸
ĠÐĲÐ²ÑģÑĤÑĢÐ°Ð»Ð¸Ð¸
Ð°Ð½Ð¸ÑģÑĤ
ĠÑĪÑĤÐ°Ð±
ĠÐ²Ð¾Ð¹ÑģÐºÐ¾
Ð»Ð°Ð½Ð°
ĠÐ²Ð¸ÑĢÑĥ
ĠÐĶÐ·
ĠÑģÐ»ÑĥÐ¶Ð±Ñĥ
Ð¾Ð´Ð¸Ð½Ð°Ð¼Ð¸
ĠÐ¸Ð·Ð»Ð¾Ð¶
ĠÐ¾Ð±ÑīÐµÑģÑĤÐ²Ðµ
ĠÐ¾ÑĢÐ³Ð°Ð½Ð¸Ð·Ð¼
ĠÐ£ÑĢ
ĠÐ¿Ð¾Ð¼Ð¸Ð¼Ð¾
ĠÑĦÑĢÐ°Ð½ÑĨÑĥÐ·ÑģÐºÐ¾Ð³Ð¾
ĠÐ¼Ð°ÑĤÐµÑĢÐ¸Ð°Ð»Ñĭ
ĠÑģÑĤÐ°ÑĤÐµÐ¹
ĠÐ²ÑĭÑģÐºÐ°Ð·ÑĭÐ²
ĠÐĺÑĢÐ°
ĠÐ·Ð²ÑĥÐºÐ¾Ð²
ĠÐ¸Ð¼Ð¿ÐµÑĢÐ°ÑĤÐ¾ÑĢÐ¾Ð¼
sch
ĠÐ¡ÐµÐ¹
ĠÐ½ÐµÐ¶
Ð¸ÑģÑĤÐ¾ÑĢÐ¸
ĠÐ£Ð³
ĠÐĴÐ°Ð»ÐµÐ½ÑĤ
ĠÐ¾ÑģÐ²Ð¾Ð±Ð¾Ð´
ĠÐĴÐ°ÑģÐ¸Ð»ÑĮÐµÐ²Ð¸Ñĩ
sk
ÑħÐ¾Ð¶Ð´ÐµÐ½Ð¸Ñı
Ð°Ð½ÑģÐºÐ¾Ð¼
Ġ64
ÑģÑĤÐ¸ÑĩÐµÑģÐºÐ°Ñı
ĠFM
ĠÑĥÐºÑĢÐ°ÑĪ
Ð¾Ð½Ð¸Ð¸
ĠÐĺÐ¾Ð³Ð°Ð½
ĠÐ¿ÐµÑĢÐµÑĢÐ°Ð±Ð¾ÑĤ
ĠÐ¥Ð¸Ð¼Ð¸
ĠÑĢÐ°Ð±Ð¾ÑĤÐ°ÑİÑĤ
ĠÐ±ÑĥÐ´ÑĥÑīÐµÐ³Ð¾
ÑİÑīÐ°ÑıÑģÑı
Ð°Ð½Ð´Ð¸Ð½Ð°Ð²
ĠÐļÐµÑĢ
Ð¼ÐµÑĩÐ°ÑĤÐµÐ»ÑĮ
ĠÑħÐ¸Ð¼Ð¸ÑĩÐµÑģÐºÐ¸Ñħ
ĠÐ½Ð°ÑĥÐºÐ°
ĠÑĤÐ¾ÑĩÐºÐµ
ÑĪÐµÐµÑģÑı
ĠÐŁÐ¾Ñı
ĠÐĿÑĮÑİÑĤ
Ð½ÐµÑĨ
ĠÐ¿Ð°ÑĢÑĤÐ¸Ð·
ĠÐ¡ÑĤÐ¸
ĠÐ¿Ð¾Ð´Ð²ÐµÑĢ
ĠÐłÐ¾ÑģÑģÐ¸Ñİ
ĠÑģÐ¿ÐµÑĨÐ¸ÑĦ
ĠÑĢÐ°ÑģÑģÑĤÐ¾ÑıÐ½Ð¸Ðµ
ĠÐŀÐ±ÑĬÐµÐ´Ð¸Ð½
Ð¾ÑĩÐ½Ð¾Ð³Ð¾
ĠÑĤÐµÐ¾ÑĢÐµÐ¼
ĠÐµÐ´Ð¸Ð½ÑģÑĤÐ²ÐµÐ½Ð½ÑĭÐ¼
ĠÐ¿ÑĢÐ¸Ð½ÑıÑĤÑĮ
ĠÐ¡ÐµÐ²ÐµÑĢÐ½Ð¾Ð³Ð¾
ĠÐ¿ÑĢÐ¾ÑĨÐµÑģÑģÑĭ
ĠÑıÐ´ÑĢÐ°
Ġ65
ĠÑģÐ¾Ð´ÐµÑĢÐ¶Ð°ÑĤ
ĠÐĺÐ³Ð¾ÑĢÑĮ
ĠÐĴÐ°ÑĪÐ¸Ð½Ð³
ĠÐ²ÑĭÑĢÐ¾Ñģ
ĠÐ¿ÑĢÐµÐ¾Ð±Ð»Ð°
ĠÑĢÐ¾Ð´ÑģÑĤÐ²ÐµÐ½
ĠÐ¿Ð¾Ð±ÐµÑĢÐµÐ¶ÑĮÑı
ĠÐ·Ð½Ð°
ÑĦÐ¾ÑĢÐ¼Ñĥ
ĠÐĿÐ¾Ð²Ð°Ñı
ĠÐ¿ÑĢÐ¾ÑĪÑĳÐ»
ĠÐ¿ÑĢÐ¾Ð´ÑĥÐºÑĤÐ¾Ð²
ae
ĠÑģÐµÐ»Ð°
ĠÑĤÑĢÐ°Ð½Ð·
ĠÑĤÐµÐ¾ÑĢÐ¸Ñİ
Ð½ÐµÑĢÑĥÑģ
ĠÐ²Ð°Ð³
Ð¾Ð»Ðµ
Ð¸ÑĤÐ²Ð°
ĠÐ¿Ð¸ÑģÐ°ÑĤÐµÐ»ÐµÐ¹
ĠÑĥÐ½Ð¸Ð²ÐµÑĢÑģ
ĠÐ²ÑĭÑģÐ¾ÐºÐ¸Ñħ
Ð»Ð°ÑģÑĤ
ĠÐłÑıÐ·
ĠÐ½Ð°ÑħÐ¾Ð´Ð¸Ð»Ð¸ÑģÑĮ
ĠÐ¾Ð±ÑīÐµÐ¼
ĠÐ²Ð¾Ð·ÑĢÐ°ÑģÑĤÐ°
Ð²Ð¾ÑģÑĤ
ĠÐĽÐµÑĤÐ¾Ð¼
ĠÐ³ÑĢÐ°Ð´
ĠÐļÐ¾ÑĢÐ¾Ð»ÑĮ
ĠÑĢÑĥÐºÐ¾Ð²Ð¾Ð´ÑģÑĤÐ²Ð¾
ĠÐ³Ð»Ð¾Ð±
ÑģÐµÐ»ÑĮ
Ð¿Ð¸Ð½
ÑĦÐ¸Ñİ
ĠÐ´ÐµÐ¹ÑģÑĤÐ²ÑĥÑİÑĤ
ĠÑģÐ¸Ð¼Ð¿ÑĤÐ¾Ð¼
ĠÐ³ÑĢÐ°Ð¶Ð´Ð°Ð½Ðµ
ĠÐ¿ÑĢÐµÐ´Ð¿ÑĢÐ¸ÑıÑĤÐ¸
ÐµÑĨÐ¸
ĠÐ¿ÐµÐ½
Ð´Ð¸ÑĢÐ¾Ð²
ĠÐ³ÑĢÐ°Ð½Ð¸ÑĨÐµ
ÑĩÐ°ÑģÑĤÑĥÑİ
ĠÐ¸Ð·Ð±Ð¸ÑĢÐ°ÑĤÐµÐ»ÑĮ
Ð¾Ð»Ð¾Ð¼
Ġ34
ÑıÑīÐ°Ñı
ĠÐ¼Ð¾Ð½Ð°Ñħ
ĠÐļÐ¸ÑĢÐ³Ð¸Ð·
ĠÐ¿Ð°Ð»ÑĮ
ĠÐ¡Ð°Ð´
ÐµÐ²Ð°Ñı
ĠÐ½ÐµÐ¼ÐµÑĨÐºÐ¸Ñħ
Ð½Ð¾Ð¶Ðµ
Ð´Ð¸Ð»
ÑĤÐ¸ÐºÑĥ
ĠÐ½Ð°Ð¿ÑĢÐ°Ð²Ð»ÐµÐ½Ð¸Ðµ
ĠÐ¾Ð±Ð»Ð°ÑģÑĤÐµÐ¹
ĠÑģÑĤÑĥÐ´ÐµÐ½ÑĤÐ¾Ð²
Ð´Ñı
ÐµÐ½ÑģÐºÐ°Ñı
ĠÐ²Ð¾ÑĪÑĳÐ»
ĠÐ·Ð°ÐºÐ¾Ð½Ð¾Ð²
ĠÐ²ÑģÐµÐ¼Ñĥ
ĠÐŁÑģÐºÐ¾Ð²
ĠÐŁÐ»Ð¾ÑīÐ°Ð´ÑĮ
ĠÐĵÐ°Ð³
ĠÐĽÐµÑĤ
ĠÐ¿Ð¾Ð»ÑĥÑĩÐ°ÑİÑĤ
ĠÐ·ÐµÐ¼Ð»Ñİ
ĠÐ½ÐµÐ¼ÐµÑĨÐºÐ¾Ð³Ð¾
ÑĩÐ¸ÐºÐ¸
ĠÑģÑĤÐ¸Ð»Ñı
ĠÐľÐ°Ð»ÑĮ
ĠÑģÑĤÑĢÐ°Ð½Ñĥ
ĠÐ£ÐºÑĢÐ°Ð¸Ð½Ð°
ĠÑĨÐ°ÑĢÑģÑĤÐ²Ð¾
ĠÐ¿Ð°ÑĢÐ»Ð°Ð¼ÐµÐ½ÑĤÐ°
ÑĩÐ½Ð¾ÑģÑĤÐ¸
ĠÐĲÐ¼ÐµÑĢÐ¸ÐºÐ°Ð½
ĠÐłÐ¾Ñģ
ÑĢÐ¸ÑģÑĤÐ¾Ð²
ĠÐ³ÐµÑĢÐ¾Ñı
ĠÑģÐµÑĢÐ´Ðµ
Ð»Ð¾ÐºÐ°
ĠÐµÐ´
Ð¸Ð²ÑĪÐ¸Ñħ
ĠÐ¸Ð½ÑĦÐ¾ÑĢÐ¼Ð°ÑĨÐ¸Ñİ
ĠÑĥÑĩÐ°ÑģÑĤÐ¸Ñı
ĠÑĤÑĢÐµÐ½ÐµÑĢ
Ð°Ð²Ð°ÑĤÑĮ
ĠÐ¾ÑģÑĥÐ¶Ð´
ĠÐ²ÑĤÐ¾ÑĢÐ¾Ð¼
ĠÐ¡Ð¿Ð°Ñģ
ĠÐ¸Ð·Ð¾Ð±ÑĢÐ°Ð¶ÐµÐ½Ð¸Ðµ
ĠÐ¿Ð»Ð°Ð½ÐµÑĤÑĭ
ĠÐ´ÐµÐ¿ÑĥÑĤÐ°ÑĤ
ÑħÐ¾Ð·
ĠÐ¡ÐµÐ½ÑĤ
Ð°ÑĢÐ½ÑĭÐµ
ĠÐ¾Ð±Ð½Ð¾Ð²
ĠÐ¾ÑĤÐ²ÐµÑĢ
Ð¾ÐºÐºÐ¾
ĠÑĨÐµÐ½ÑĤÑĢÐ¾Ð²
ÑĢÐ°ÑĪ
Ð¾ÑĩÐ½Ð°Ñı
ĠÐ¾Ð´ÐµÐ¶Ð´
ĠÑģÐ°Ð¼Ð¾Ðµ
ĠÐ°Ð½ÑĤ
ĠÐ·Ð°ÐºÐ¾Ð½Ñĭ
ĠÐ¸ÑģÐ¿Ð¾Ð»ÑĮÐ·Ð¾Ð²Ð°Ð»Ð¸ÑģÑĮ
ĠÑħÐ°ÑĢÐ°ÐºÑĤÐµÑĢÐ¸ÑģÑĤÐ¸
ĠÐºÐ¾Ð½ÑĨÐµÑĢ
ĠÐ²ÑĭÑģÑĤÑĥÐ¿Ð°ÐµÑĤ
ĠÐ½Ð°Ð·Ð½Ð°ÑĩÐµÐ½Ð¸Ñı
ÐĶÐŁ
ĠÐ²Ð¾Ð´Ð¾Ð¹
ĠÐ¸ÑģÐ¿Ð¾Ð»ÑĮÐ·Ð¾Ð²Ð°ÑĤÑĮÑģÑı
Ġ1907
ĠÐĵÐµÐ¾ÑĢ
ĠÐ¿ÑĢÑıÐ¼Ð¾Ð¹
ĠÐ¼ÐµÑĤÑĢÐ¾Ð¿Ð¾Ð»Ð¸ÑĤ
ĠÑģÐ¸Ð¼Ð¼ÐµÑĤ
ĠÐ¼Ð°ÑĪÐ¸Ð½Ð¾ÑģÑĤÑĢÐ¾
ĠÐ¶Ð¸Ð²Ð¾Ð¿Ð¸ÑģÐµÑĨ
ĠÑģÑĤÑĢÐ¾Ð¹
ĠÐ¿ÑĢÐ¸Ð½Ð¸Ð¼Ð°ÐµÑĤ
ĠÐ·Ð°ÑĢÑĥÐ±ÐµÐ¶
ĠÐ½Ð°Ð¸Ð¼ÐµÐ½
Ð°Ð»ÐµÐ¹
ĠÐłÑĥÐ¼Ñĭ
ĠÐĵÐ°Ð½
Ð¸ÑĩÐ½ÑĭÐµ
ĠÐ¢Ð¾Ð¼Ð°Ñģ
ĠÐ¢ÑĥÑĢÑĨÐ¸Ð¸
ĠÑĦÐµÐ´ÐµÑĢÐ°Ð»ÑĮÐ½Ð¾Ð³Ð¾
ĠÐ¡ÐĿ
ĠÑĤÑĭÑģÑıÑĩÐµÐ»
ĠÐ¸Ð½ÑĤÐµÑĢÐ½ÐµÑĤ
ĠÐĶÐµÐ¿ÑĥÑĤ
ĠÑĢÐµÐºÐ¾Ð½ÑģÑĤÑĢÑĥÐº
Ð¼ÑĥÑĤ
ĠÐ¾ÑĤÐ±
ĠÐŃÐ¼Ð¸
ĠÐ·ÐµÐ¼Ð»ÐµÑĤÑĢÑıÑģ
ĠÐĵÐ¾ÑģÑĥÐ´Ð°ÑĢÑģÑĤÐ²ÐµÐ½Ð½ÑĭÐ¹
ĠÐ½Ð°Ð±Ð»ÑİÐ´Ð°ÐµÑĤÑģÑı
ĠÐĲÐ½Ð°ÑĤÐ¾Ð»Ð¸Ð¹
ĠÑħÐ°ÑĢÐ°ÐºÑĤÐµÑĢÐ°
ĠÑĢÐ°Ð½Ð½Ð¸Ñħ
ĠÐ¼Ð¾Ð½Ð°ÑģÑĤÑĭÑĢÑı
ĠÑģÐ¾Ð»Ð½
Ð¾Ð±Ð¸
ÐĴÐ¾ÑģÑĤÐ¾Ñĩ
ĠMic
ĠÐ°Ð½Ð³Ð»Ð¸Ð¹ÑģÐºÐ¾Ð³Ð¾
ĠÐĿÐĲÐ¢Ðŀ
les
ĠÐĺÑĢÐºÑĥÑĤ
ĠÐ¾ÑģÐ»Ð°Ð±
ĠÑĥÑĩÐµÐ½Ð¸Ðµ
ĠÐ¿ÑĢÐ¸Ð·Ð½Ð°
ĠÐ¼Ð°Ð³Ð°Ð·
ÐµÐºÑĨÐ¸Ð¸
ĠÐ°ÑĢÑħÐ¸Ð²
ĠÐĴÑģÐµÑĢÐ¾ÑģÑģÐ¸Ð¹
Ð°Ð²ÑĪÐ¸ÑħÑģÑı
ĠÑģÐ¾ÑħÑĢÐ°Ð½Ð¸Ð²
ĠÐŁÐµÑĢÐ¸
ĠÐĳÐµÑĢÐ½
ĠÐ¥Ð°Ð½
ĠÐŁÑĢÐ¾Ð¸Ñģ
ĠÑĤÐ²Ð¾ÑĢÑĩÐµ
ĠÐ¾ÑĢÑĥÐ¶Ð¸Ðµ
Ġ&
Ð¾Ð³Ð¸
ÐµÐ²Ð½Ð°
ĠÐľÑį
ĠÐ²ÑĭÑģÐºÐ°Ð·
ÑĥÐ´Ð¾Ð²
ĠÐ¡ÑĤÑĢÐ¾
ĠÐ¾Ð±ÐµÑģÐ¿ÐµÑĩÐµÐ½Ð¸Ðµ
ĠÑģÑĤÐ¸Ð¼
ĠÐĵÐ¾Ð¼
ĠÐ¢ÐµÑħ
ĠTh
ĠÐ²Ð¾Ð·Ð½Ð¸ÐºÐ°ÐµÑĤ
ĠÐ¿Ð¸ÑĤÐ°Ð½Ð¸Ñı
ÑĨÐ¸Ð·Ð¼
ĠÐļÑĥÐ»ÑĮÑĤÑĥÑĢÐ°
Ð°Ð²ÑĪÐµÐ¹
ĠÐĳÐ°Ð²
ĠÐ´Ð²Ð¾ÑĢÐµÑĨ
ĠÐµÐ´Ð¸Ð½ÑģÑĤÐ²ÐµÐ½Ð½ÑĭÐ¹
ĠÑĪÐºÐ¾Ð»Ñĥ
ÑİÑīÐµÐ¹ÑģÑı
ĠÐľÐµÐ¶Ð´Ñĥ
ĠÐĴÐ°Ð»ÐµÑĢÐ¸Ð¹
ĠÑĤÐµÐ½Ð½Ð¸
ÐµÑĢÐµÑı
ĠÐ²Ð¾ÑģÑĤÐ¾ÑĩÐ½Ð¾Ð¹
ĠÐķÐ³Ð¸Ð¿ÐµÑĤ
ĠÐ¿ÑĢÐµÑģÐ»ÐµÐ´Ð¾Ð²
Ã¡
Ð¾ÑĢÑĥ
ĠÑĥÑī
ĠÐ»Ð¾Ð´
ĠÐĶÐ½ÐµÐ¿
ĠÐ¸Ð¼Ð¼ÑĥÐ½
ÐŁÑĢÐ¸
ĠÑĦÐ°ÐºÑĤ
ĠÐĶÐ¼Ð¸ÑĤÑĢÐ¸
ĠÐŁÐ¾Ð·Ð´Ð½ÐµÐµ
ÑĳÐ¹
Ð»ÑĮÐ½ÑĭÑħ
ÐºÐ¾Ð²ÑĭÐµ
ĠÑģÐµÐ¼Ð¸
ĠÐ¿ÑĢÐµÐ²ÑĢÐ°ÑĤÐ¸
Ð¼ÐµÐ´
ĠÐ²Ð¿Ð¾Ð»Ð½Ðµ
ÑĢÐ°ÑģÐ¿
Ð°ÑĤÐµÐ»Ñİ
ĠÐ¼Ð°ÑĢÐºÐ¸
ĠÐ´Ð¾Ð±ÑĢÐ¾Ð²Ð¾Ð»ÑĮ
ĠÐ¼Ð°ÑĪÐ¸Ð½Ñĭ
ĠÐµÐ³Ð¸Ð¿ÐµÑĤ
Îµ
Ġ37
ath
ĠBo
ĠÐºÐ¾Ð½ÑĤÑĢÐ¾Ð»Ñı
ĠÑĤÐµÐ»ÐµÑĦÐ¾Ð½
te
Ð½ÑĳÐ¼
Ð»ÐµÐºÐ¾Ð¿
ĠÑģÐ¸ÑģÑĤÐµÐ¼Ð¾Ð¹
Ð¾Ð¿ÑĢÐ¸ÑıÑĤ
ĠÐºÐ¾Ð¼Ð¸ÑģÑģÐ¸Ð¸
ĠÐĵÑĢÐ¸Ð³Ð¾ÑĢÐ¸Ð¹
ĠÐ¿ÑĢÐ¸Ð¼ÐµÐ½Ð¸
ĠÐ¾Ð¿ÑĢÐµÐ´ÐµÐ»ÑıÐµÑĤ
ĠÑģÐµÐ·Ð¾Ð½
ÑĤÐ¾Ð½Ð°
Ð±Ð°Ñģ
ĠÐĳÑĢÐ°Ð·Ð¸Ð»Ð¸
ĠÐ²ÑĭÐ·ÑĭÐ²
ÐµÐ·Ð¸Ð¸
ĠÐ¿ÑĢÐµÐ´ÑģÑĤÐ°Ð²Ð»ÐµÐ½Ð°
ĠÑħÐ¾Ð·ÑıÐ¹ÑģÑĤÐ²Ð¾
Ð³ÑĢÑĥÐ¿Ð¿Ñĭ
ÑĥÑīÐµÐ¹
ĠÑģÐ¾ÑĨÐ¸Ð°Ð»ÑĮÐ½ÑĭÑħ
Ð³ÑĥÐ½
ĠÐ§ÑĤ
ĠÐ´Ð²ÑĥÐº
Ð°ÑİÑīÐ¸Ñħ
ÑģÐ¾Ð²ÐµÑĢÑĪ
ĠÐ·Ð¾Ð»Ð¾ÑĤÐ°
ĠÐĳÐµÐ»Ð¾ÑĢÑĥÑģÑģÐ¸Ð¸
ĠÐ¸Ð¼ÐµÐ²
ÐºÐ¾Ð¼Ð¿
ory
ĠÐ¾Ð¿ÑĥÐ±Ð»Ð¸ÐºÐ¾Ð²Ð°Ð»
ĠÑĥÑģÐ¿ÐµÑĪÐ½Ð¾
Ð»Ð°ÑĤÑĭ
Ġ38
ĠÐŀÐ»Ð¸Ð¼Ð¿Ð¸Ð¹ÑģÐºÐ¸Ñħ
ĠÐĵÑĢÐ¾Ð·
ÑĢÐ°Ð²Ð½Ð¸
ÐłÐ¾ÑģÑģÐ¸Ñı
ÐµÑĢÐ¿
Ð¾Ð»ÑĮÐ·Ð¾Ð²
ĠÐ¢ÐµÐ¾ÑĢÐ¸Ñı
Ð¾Ð¿ÑĢÐ¸Ð¼ÐµÑĩÐ°ÑĤÐµÐ»ÑĮ
Ð½Ð°Ð²
ĠÑģÑĥÑī
ĠÐ½Ð°Ð·ÑĭÐ²Ð°ÑİÑĤÑģÑı
ĠÐ·Ð½Ð°ÑĩÐ¸ÑĤÐµÐ»ÑĮÐ½Ð¾Ð¹
ÑĦÐ¸Ð»ÑĮÐ¼
Ð°Ð½ÑĨÑĭ
ÐµÑĤÐ¸
ĠÐŁÐ¸ÑĢ
ĠÐļÐ¾Ð²
ĠÐĽÐ¸ÑĤÐ¾Ð²
ÑĥÐ±ÐµÑĢÐ½
ĠÐ¾Ð±ÑīÐµÐµ
ĠÐ²Ð¾Ð¿ÑĢÐ¾ÑģÐ°Ð¼
ĠÐŁÐ¾ÑĢÑĤÑĥÐ³Ð°Ð»Ð¸Ð¸
ci
ĠÐ¿Ð¾Ð´Ð·ÐµÐ¼
ĠÐ¿Ð¾ÑģÐ»ÑĥÐ¶
ĠPh
ĠÐ¾ÑħÐ¾ÑĤ
ĠÐ¾ÑīÑĥÑī
ĠÐ¿ÑĢÐµÐ²Ð¾ÑģÑħÐ¾Ð´
ĠÐ¿Ð¾Ð»Ð½Ð¾Ð¹
ĠÐ½Ð°ÑĩÐ°Ð»Ð¸ÑģÑĮ
ĠÑĤÐ¾ÑĩÐµÐº
ĠÐµÐ´Ð¸Ð½Ð¸ÑĨÐ°
ĠÑĢÐµÐ»Ð¸Ð³Ð¸Ð¾Ð·Ð½ÑĭÑħ
Ð´Ð·
ĠÐ²Ð¾Ð²
ĠÑģÐ¼ÐµÑī
ĠÐ¡ÑĤÐµ
Ð½Ð°ÑģÑĤ
ĠÐĿÐ°ÑĩÐ¸Ð½
ĠÐ¼Ð°ÑĤÐµÑĢÐ¸Ð°Ð»Ð°
Ð³ÑĢÐµÑģÑģ
á½
Ġ).
ĠÑģÑģÑĭÐ»
ĠÑĩÐ¸ÑģÐ»Ñĥ
Ġ600
ĠÐ¿ÐµÑĢÑģÐ¿ÐµÐºÑĤÐ¸Ð²
ĠÑĥÑĩÑĳÐ½ÑĭÐµ
ĠÑĤÑĢÑĥÐ±
ĠÐ±ÑĥÐºÐ²Ñĭ
ĠÐ¾Ð¶Ð¸Ð´
Ð¸ÑĤÐµÐ»ÑĮÑģÑĤÐ²Ð¾
Ð»ÐµÐ½Ð½Ð¾Ð¹
ÑĢÐµÐ·Ð¸Ð´ÐµÐ½ÑĤ
ĠÑĤÑĢÐµÐ±ÑĥÐµÑĤ
ĠÐ¿ÑĢÐ¸ÑĩÐ¸Ð½Ðµ
Ð»ÐµÐºÐ¾Ð¿Ð¸ÑĤÐ°
Ð»Ð¾Ð±
Ð°ÑĤÐ¾
ĠÐĶÐ°ÑĢ
Ġ48
ĠÐ¸ÑģÑĤÐ¾ÑĩÐ½Ð¸ÐºÐ¾Ð¼
ĠÐ¼Ð°ÑĤÐµÐ¼Ð°ÑĤÐ¸ÐºÐ¸
ĠÐ²ÑĭÐ½ÑĥÐ¶Ð´ÐµÐ½
ĠÐ§Ð°ÑģÑĤÑĮ
ĠÐ±Ð°ÑĤÐ°Ð»ÑĮ
Ð¿Ð¾Ð»Ð½
ĠÐ°Ð´ÑĢÐµÑģ
ĠÑģÐ°Ñħ
ĠÐ¢ÑĢÐµÑĤÑĮ
Ð¾Ð»Ð¾Ð³Ð¸
ĠÐ»ÑĥÑĩÑĪÐµ
Ð¸Ð¼ÑĭÑħ
ĠÑģÐ²ÑıÐ·Ð°Ð½Ð°
ĠÐ¿ÑĢÐ¾Ð³ÑĢÐ°Ð¼Ð¼Ðµ
ĠÐ³ÐµÑĤ
Ð¾ÑģÐµ
ĠÐĳÐ°Ðº
ĠÐĹÐ°Ñħ
ĠÐ²Ð»Ð°ÑģÑĤ
ĠÐ¿ÑĢÐ¾ÑĨÐµÐ´
ĠÑħÐ¾ÐºÐºÐµ
Ð°Ð½ÑģÐºÐ¾Ðµ
ĠÐĴÐ¸ÑĪ
ĠÑĢÐ°Ð´
ÑĤÐ¸Ð½Ñĭ
ĠÑįÐ¼Ð¾
ĠÐ¿ÑĢÐ°Ð²Ð¾Ð¼
ĠBl
ĠÐ¿ÑĥÐ±Ð»Ð¸ÑĨÐ¸ÑģÑĤ
ĠÑĥÐºÐ°Ð·ÑĭÐ²Ð°ÐµÑĤ
ĠÐ³Ð¾Ð´Ð¾Ð¼
ĠÐŃÐ»
ĠÑįÐºÐ·ÐµÐ¼
ĠÐ¼Ð¾Ð½Ð°ÑģÑĤÑĭÑĢÑĮ
ĠÐ°ÑĢÐ³ÑĥÐ¼ÐµÐ½ÑĤ
ĠÐļÐ¾Ð·
ĠÐ¾ÑĢÐ±
ĠÐ¸ÑģÐ¿Ð¾Ð»ÑĮÐ·Ð¾Ð²Ð°Ð»Ð¸
ĠÐ½Ð¾ÑģÐ¸ÑĤ
ÑĥÐ³Ð°
ÑĮÑıÐ½
ĠÐĴÐ¾ÑģÑĤÐ¾ÐºÐ°
ĠÐ¢Ð¸Ð¿
Ð½ÐµÑģÑĤ
ĠÐ¼ÐµÑģÑĤÐ½Ð¾ÑģÑĤÐ¸
ĠÐºÐ¸Ð½ÐµÐ¼Ð°ÑĤ
Ð·Ð¼Ñĭ
ĠÐŁÐ¾ÑĢ
ĠÐ½Ð°ÑģÐµÐ»ÑĳÐ½Ð½ÑĭÑħ
ĠÐ¼ÐµÑģÑĤÐ¾ÑĢÐ¾Ð¶Ð´ÐµÐ½Ð¸Ñı
ĠÐ½Ð°ÑĢÐºÐ¾ÑĤ
ÑĢÐ°ÑĤÑĮ
Ð·Ð°Ð¼
ĠÐ¼ÑıÑĤÐµÐ¶
ÑĨÐ¸Ð´
ĠÑįÐ»ÐµÐ¼ÐµÐ½ÑĤÐ°
ĠÐ±Ð¾Ð»Ð³Ð°ÑĢ
ÐµÑĢÐ½ÑĭÐ¹
ÐºÐ¾Ð½ÐµÑĨ
ĠÑĦÐ¾ÑĤÐ¾
ĠÐºÐ¾Ð¼Ð¿Ð»ÐµÐºÑģÐ°
ern
ĠÐŀÐ±ÑĢÐ°Ð·Ð¾Ð²Ð°Ð½Ð¸Ðµ
Ð¸Ð·Ð¼Ðµ
Ð´Ð°ÑİÑĤÑģÑı
Ð²ÐµÑĢÑħ
ÑĥÐ¼Ð¸
ĠÐ±ÐµÐ½Ð·
ĠÐļÐ²Ð¸Ð½
ĠÑģÑĤÐ¸Ð»ÑĮ
ĠÐ¨Ð¾ÑĤÐ»Ð°Ð½Ð´
ÐĺÐĶ
ĠÐ½Ð°ÑģÐµÐ»ÐµÐ½Ð¸ÐµÐ¼
ĠÐ´Ð»Ð¸Ð½Ð°
ĠÐ¾ÑģÐ²ÐµÑī
2005
ÑıÑīÐ¸ÑħÑģÑı
ĠÐ»Ð¸ÐºÐ²Ð¸Ð´
ÑıÑīÐµÐ³Ð¾
ĠÐ²ÑĤÐ¾ÑĢÐ°Ñı
Ð¸Ð²ÑĪÐ¸Ðµ
ĠÐ·Ð°ÑĦÐ¸Ðº
Ġ1909
ĠÐ¼Ð°Ð³Ð¸ÑģÑĤ
ĠÐ²Ð¾Ð»ÑĮ
ĠÐ²ÐµÐ½Ð³ÐµÑĢ
ĠÐ·Ð°Ð½Ð¸Ð¼Ð°ÑİÑĤ
ĠÐĴÐ¾ÑĢÐ¾Ð½ÐµÐ¶
ĠÑģÐ½Ð¸Ð¼
ÑģÑĤÐ¸Ð½Ñĭ
ĠÐ¢ÐµÐ»
ĠÑįÐºÐ²Ð¸Ð²Ð°Ð»
ĠÐ¿Ð¾ÐºÐ»Ð¾Ð½
Ð¿Ð¸Ð¾Ð½
ĠÐ¸ÑģÑĤÐ¾ÑĩÐ½Ð¸ÐºÐ¸
ĠÑĤÐ¾Ð²Ð°ÑĢÐ¾Ð²
ĠÐºÐ¾Ð¼Ð¸ÑĤÐµÑĤ
ĠÐ¸Ð¼ÐµÐ½Ð°
Ð¾Ð»Ð¾Ð³Ð¸Ñİ
ĠÑģÐ¾Ð·Ð´Ð°Ð½Ñĭ
ĠÐŀÑģÐ¼Ð°Ð½
Ð¾ÑĢÐ¸ÑĤÐµÐ»ÑĮ
ÐĹÐ°Ð¿Ð°Ð´
ĠÑĤÑĢÐ¾Ð»Ð»ÐµÐ¹Ð±
Ð½Ð¾ÐºÐ¾Ð¼
ĠÐ¸Ð½ÑĤÐµÑĢÐµÑģÐ¾Ð²
Ð³Ð¸Ð´
ĠÐ´ÑĥÐ±
ĠÐ´Ð»Ð¸Ð½Ñĭ
ĠÐŁÑĢÐµÐ¿
ÐµÐ»Ð¾Ð²ÐµÐº
ĠÑĥÐ±ÐµÐ¶Ð´
ĠÑģÐ¼ÐµÐ½Ð¸
ĠÐĵÐµÐ½ÑĢÐ¸ÑħÐ°
ĠÐ¿Ð°Ñģ
Ð¾Ð³Ð¾Ð½
ĠÑĥÑģÐºÐ¾ÑĢ
ĠÐ¾Ð±Ð°
ĠÐłÑĥÐ´
ĠÐĿÐ°Ð²
ĠÑĪÑĤÐ°
ĠÐ¾ÑģÐ½Ð¾Ð²Ñĭ
ĠÑĢÐ°ÑģÑĪ
ĠLe
Ġ1903
ĠÑĥÑĢÐ¾Ð²Ð½ÐµÐ¼
ĠÐ¾ÑĤÐ¿ÑĢÐ°Ð²Ð¸Ð»ÑģÑı
ĠÑĩÐµÑĢÑĤÑĭ
ĠÐ¢ÐµÑĢÐ¼Ð¸Ð½
ĠÐ¢ÐµÑĢÑĢÐ¸ÑĤÐ¾ÑĢÐ¸
ĠÐŃÐ¹Ð½
ĠÑĤÑĢÐµÑĥÐ³Ð¾Ð»ÑĮÐ½Ð¸ÐºÐ°
ĠÑģÐ¾Ð·Ð²
ĠÐ³ÐµÑĢÐ¾Ð¹
ÐŁÐµÑĤÐµÑĢÐ±ÑĥÑĢÐ³Ð°
ĠÑĢÑĥÐ±ÐµÐ¶
ĠÐ¿Ð¾ÑıÐ²Ð»ÑıÐµÑĤÑģÑı
ĠÐ¿ÐµÑĢÐµÑĥÐ»Ð¾Ðº
ĠÑģÐ°Ð¼Ð¾Ð»ÑĳÑĤÐ°
yst
Ð°Ð½ÑģÐºÐ¸Ð¼
Ð³Ð¾Ð¼
ĠÑĥÐºÐ°Ð·ÑĭÐ²
ĠÐłÑĥÐ±
ĠÐ¾ÑģÐ½Ð¾Ð²Ð¾Ð¹
ĠÐ¸ÑģÐ¿Ð¾Ð»ÑĮÐ·ÑĥÐµÑĤ
ĠÐľÐ°ÑĢÐ¸Ð¸
ĠÐ±Ñĥ
ÑįÑĤÐ°Ð¶
ĠÐľÑĥÑģ
ĠÐ¿ÑĢÐµÐ´ÑģÑĤÐ°Ð²Ð»ÐµÐ½Ð¸Ðµ
ĠÐ¼Ð°ÑĤÑĢÐ¸
ÑģÑĤÐ¸ÑĩÐµÑģÐºÐ¾Ð³Ð¾
Ð¸ÑīÐ°
ĠÐĲÐ±ÑħÐ°Ð·
ĠÑĢÐµÐ³Ð¸ÑģÑĤÑĢÐ°
ĠÑĦÐ¸Ð³ÑĥÑĢ
ÑĭÐ¶
Ð°ÑĤÑĤ
Ð¸Ð½Ñı
Ġ(;
ĠÐ¡ÑĥÐ»
ĠÐŁÐ¸ÑĤ
ĠÐ¿Ð¾Ð²Ð¾Ð´Ñĥ
ÑĭÐ²Ð°ÐµÑĤ
ĠÐ¿Ð»Ð°Ð½ÐµÑĤ
ĠÐ´Ð¸ÐºÑĤ
],
ĠÐ¸ÑģÐ¿Ñĭ
ÐĵÐĳ
ĠÐ³ÑĢÑĥÐ¿Ð¿Ð¾Ð¹
ĠÑĦÐ¸Ð·Ð¸ÐºÐµ
ÑĩÐµÐ½Ð¸Ñı
Ð°ÑĢÑģÐºÐ¾Ð¹
ÐµÐ´Ð¶
ÑĢÐ¾Ð½Ð¾Ð²
ĠÐķÐºÐ°ÑĤÐµÑĢÐ¸Ð½
ĠÐ¾Ð·Ð½Ð°Ñĩ
ĠÐĳÐ¸ÑĢ
ÑĨÐ¸ÑıÐ¼
ĠÐ¿Ð¾ÑįÐ·Ð¸Ð¸
ĠÐļÐ¾Ð¼Ð¸ÑĤ
ĠÐ¾ÐºÐ¾Ð½ÑĩÐ¸Ð»
Ð½ÐµÐº
ĠÐĴÐ½ÑĥÑĤ
ĠÐļÐ°Ð´
ĠÑģÑĤÐ¾Ð»ÑĮ
ĠÐŀÐ»ÐµÐ³
ĠÑģÐ°Ð¼ÑĭÐµ
ĠÐ²Ð¾Ð´Ð°
ĠÐ´ÑĢÐµÐ²Ð½ÐµÐ¹
ĠÑįÑĤÐ°Ð¿
Ð»ÑıÐ»Ð¸
Ð¾Ð»ÑĮÑģÐºÐ¸Ð¹
ĠÐĳÐ¾
ĠÐŃÐ»Ð¸
ĠÐ¿ÑĢÐ¾ÑĤÐ¾ÐºÐ¾Ð»
2010
ĠÐķÐ²Ð°Ð½Ð³
ĠÐ´ÐµÑĢÐµÐ²Ð½Ñı
ĠÐ°Ð»ÑĦÐ°Ð²Ð¸ÑĤÑĥ
ÑĢÐ¾Ð¶Ð´
ĠÐ¸ÐºÐ¾Ð½
ÑĳÑĢÐ¾Ð²
ÑĢÐ¾Ð²Ð°Ð½Ð¸Ðµ
Ð»ÐµÑĤÐ½Ð¸Ð¹
ĠÐ»ÑİÐ´ÑĮÐ¼Ð¸
per
ĠÐľÐ°Ð´
ĠÐ¸Ð·Ð½Ð°ÑĩÐ°Ð»ÑĮÐ½Ð¾
ĠÐłÐ°ÑģÑģ
ĠÐĶÑĥÐ±
ĠÐ£ÑĩÐ°ÑģÑĤ
ĠÐ·Ð´ÑĢÐ°Ð²Ð¾Ð¾ÑħÑĢÐ°Ð½
ĠÐ·Ð°ÑħÐ²Ð°
ational
ĠÐĴÐµÐ½Ð³ÑĢÐ¸Ð¸
ĠÐºÑĥÐ´Ð°
ĠÐ¢Ð°ÐºÐ¸Ðµ
ÑĮÑıÐ¼Ð¸
ĠÐ²ÐµÐºÑĤÐ¾ÑĢ
ĠÐ»ÑİÐ±Ð¾Ð³Ð¾
Ġ250
ĠÐºÐ»Ð°ÑģÑģÐ¸ÑĩÐµÑģÐºÐ¾Ð¹
ĠÐºÐ¾Ð»Ð»ÐµÐ´Ð¶
ÑĢÑĳÐ»
ĠÐµÐ¿Ð°ÑĢÑħ
ĠÐ¿ÑĢÐ¾ÐµÐ·Ð´
ĠÐ¿Ð¾Ð»ÑıÑĢ
ĠÐ³Ð¾Ð²Ð¾ÑĢÑıÑĤ
ĠÐ¼ÐµÑĢÑĭ
ĠÐ½ÐµÐ·Ð½Ð°Ñĩ
ĠÐĹÐ½Ð°Ð¼
ĠÐ¥ÑĢÐ°Ð¼
Ð¾Ð³Ð¾Ð²Ð¾ÑĢ
ĠÑģÐµÐºÑģÑĥ
ĠÐ½Ð°ÑĨÐ¸Ð¾Ð½Ð°Ð»ÑĮÐ½ÑĭÐ¹
ĠÑģÑĤÐ°ÑĢÐµÐ¹
ÐµÐ³Ð°
ĠÐ²ÑĤÐ¾ÑĢÐ¸
ĠÐŁÐµÑģ
ĠÐŀÐ³
ĠÐľÐ¾ÑģÐºÐ¾Ð²ÑģÐºÐ¸Ð¹
ĠÐ²ÐºÐ»ÑİÑĩÐ°
ĠÐ°ÑįÑĢÐ¾Ð¿Ð¾ÑĢÑĤ
ĠÐ´ÑĢÑĥÐ³Ð¾Ðµ
ĠÐ²ÑĭÑĤÐµÑģ
ĠÑįÑģ
ĠÐ¼Ð¾Ð³Ð»Ð°
ĠÐĲÐ²ÑĤ
ĠÐŁÐ¾ÑĢÑĤ
ĠÐ»Ð¸ÑĩÐ½Ð¾
ĠÐ¾ÑĤÐ´ÐµÐ»ÐµÐ½Ð¸Ñı
ĠÐºÐ²Ð°Ð½ÑĤÐ¾Ð²Ð¾Ð¹
Ð±ÑĥÑĢ
ĠÐ¼ÐµÐ¼Ð¾ÑĢÐ¸
ÑĤÐ¾ÑĢÐµ
ĠÑģÐºÐ¾Ð½Ñĩ
ĠÐ¿Ð¾Ð´Ð´ÐµÑĢÐ¶ÐºÐµ
ĠÐ¾Ð¿Ð¸ÑģÐ°Ð½Ð¸Ñı
ĠÐ¾ÑĩÐµÐ²Ð¸Ð´
ĠÐĺÐ¾Ð°Ð½Ð½
ĠÐ±Ð»Ð°Ð³Ð¾
ĠÐĿÐ°ÑĩÐ¸Ð½Ð°Ñı
ost
Ð²Ð°Ð»Ð°
Ð±ÐµÐ·
ĠÐĴÑĮÐµÑĤÐ½Ð°Ð¼
ĠÐ²Ð¾Ð¹Ð½
ĠÐ¸ÑģÑģÐ»ÐµÐ´Ð¾Ð²Ð°ÑĤÐµÐ»Ð¸
ĠÐĴÐµÐ»Ð¸ÐºÐ¾Ð±ÑĢÐ¸ÑĤÐ°Ð½Ð¸Ñı
Cl
ĠÐ¾ÑĢÐºÐµÑģÑĤ
ÐĺÐĺ
ĠÑĨÐµÑĢÐº
ĠÑģÐ¾Ð¿ÑĢÐ¾Ð²Ð¾Ð¶Ð´
ÑĢÑĭÐ¹
ĠÑģÐ½ÑıÑĤ
Ð¸ÑĩÐ½Ð¾
ÑģÑĤÐ²Ð¾Ð²Ð°Ð½Ð¸Ñı
ĠÐºÐ¾ÑĢÐ¿Ð¾ÑĢÐ°
Ð²Ð¾Ð½
ĠÐłÑıÐ´
ĠÐ¡ÐµÑĢÐ³Ðµ
ĠÐ¾ÐºÑĢÑĥÐ¶Ð°ÑİÑīÐµÐ¹
ĠÐ¿Ð¸Ð»Ð¾ÑĤ
ÐµÑģÑģÐ¸Ð¸
ĠÐ£ÑģÐ¿
ĠÐ¸Ð¼Ð¿ÐµÑĢÐ¸
ĠÐ²Ð¿ÐµÑĩÐ°ÑĤ
ĠÑįÐºÐ¾Ð½Ð¾Ð¼Ð¸ÑĩÐµÑģÐºÐ¾Ð³Ð¾
ivers
ah
ue
ÑİÐ»ÑĮ
Ð½Ð°Ñģ
Ð½Ð°Ñħ
ĠÐ¿ÑĢÐµÐµÐ¼
ĠÐĿÐ°Ð±
ĠÐĶÐ¾Ð½ÐµÑĨ
ĠÐŁÑĤÐ¾Ð»ÐµÐ¼
ÑıÐ»ÑģÑı
ÑĩÑĤÐ¾
ĠÑģÐµÑĢÐ±
Ð¾Ð¿Ð¾ÑĤ
ĠÐ¸ÑģÐ¿Ð°Ð½ÑģÐºÐ¸Ð¹
2008
ÐµÐ²ÑĭÐµ
ĠÐ¾Ð´Ð½Ð¾Ð¼Ñĥ
ĠÐ¾ÐºÐ°Ð·Ð°Ð»Ð¸ÑģÑĮ
ĠÐŀÑģÑĤÑĢÐ¾Ð²
ĠÐłÐ°Ð´Ð¸Ð¾
Ð¾ÑģÐ¸Ð¿
ĠÐ£Ñį
Ð°Ð»Ð¸Ð·Ð°ÑĨÐ¸Ñı
ĠÐ·Ð´Ð°Ð½Ð¸Ð¸
ĠÐ¾ÑģÑĤÑĢÐ¾Ð²Ð°Ñħ
ĠÐ¿ÐµÑĢÐµÐ³Ð¾Ð²Ð¾ÑĢÑĭ
Ð±Ð»Ð¸Ð·Ð¸
ĠÐ²ÑĥÐ»
ĠÐĴÐµÑĤ
ĠÐŁÑĢÐ¾ÑĤÐ¸Ð²
ĠÐ¾Ð±ÐµÑī
ĠÐĲÐ¿Ð¾Ð»
ĠÐ¿Ð¾Ð²ÐµÐ´ÐµÐ½Ð¸Ñı
ÑĤÐ¾ÑĢÐ°Ð¼Ð¸
ĠÐĵÐµÐ¾ÑĢÐ³Ð¸Ð¹
Ð½Ð¾ÑĢÐ¾Ð´
ĠÐ¸ÑĢ
ĠÑĤÑĳ
ĠÐ¡Ð¾Ðº
Ð¸Ð²ÑĪÐ¸ÑģÑĮ
ĠÐ¿ÑĢÐµÐ¼Ð¸Ñı
ĠÑĥÑĢÐ°Ð²Ð½ÐµÐ½Ð¸Ñı
ĠÐ±Ð¾Ðº
ĠÐ±Ð¾Ð³Ð¾Ð²
ĠÐ½Ð°ÑĩÐ°Ð»ÑģÑı
ĠÑģÐ°ÑĤ
ĠÐ±ÑĥÑħ
ĠÑĦÐµÐ¾Ð´
ĠÑĨÐµÑĢÐµÐ¼Ð¾Ð½
ÑĨÐ¸Ð¾Ð½ÐµÑĢ
Ġ55
ĠÑĥÐ¿Ð¾Ð¼
ĠÐ½Ð°ÑĨÐ¸Ð¾Ð½Ð°Ð»ÑĮÐ½ÑĭÑħ
ĠÐ½ÐµÐ±Ð¾Ð»ÑĮÑĪÐ¾Ð¹
ĠÐºÐ¾ÑģÐ¼Ð¸ÑĩÐµÑģÐºÐ¾Ð³Ð¾
ach
ÐµÐ¼Ð¾ÑģÑĤÑĮ
ĠÐĵÑĢÐ°Ð½
Ð´Ð°Ð¿
ĠÐ³Ð¾ÑĢÐ¾Ð´Ñĥ
ÑĤÐ¸Ð²Ð½Ð¾Ðµ
ĠÐ¸Ð´ÐµÑı
ĠÐ±ÐµÑĢÐµÐ³Ð¾Ð²
ĠÐ¿ÑĢÐµÐ´ÐµÐ»Ð°Ð¼Ð¸
ĠÐ£Ð·Ð±ÐµÐº
Ã¶
ĠÐ¸Ð·Ð²
Ð¡Ð¨ÐĲ
ĠÐ°Ð½ÑĤÑĢÐ¾Ð¿
ĠÐ·Ð°Ð¼ÐµÐ½Ð¸
ĠÐ¿ÑĢÐ¸Ð²Ð»ÐµÐº
ĠÑĤÑĢÐµÑĤÐ¸Ð¹
ĠÐ¡ÑĥÑīÐµÑģÑĤÐ²ÑĥÑİÑĤ
ĠÑĢÐµÐ¼Ð¾Ð½
Ð²Ð°Ð¼Ð¸
ÑĥÑīÐµÐ½
ĠÑħÑĢÐ°Ð¼Ð°
Ð°Ð»Ñı
ĠÐļÐ¸Ð¼
ĠÐ¢Ð¸Ð±
ĠÑģÐ¾ÑģÑĤÐ¾ÑıÐ»Ð¾ÑģÑĮ
ĠÐļÐ¾Ð»Ñĩ
ĠÑĤÐµÐ»ÐµÐ²ÐµÐ´
ĠÐ´Ð¾ÑģÑĤÐ¸Ð³Ð°ÐµÑĤ
ĠÑģÐ¸ÑģÑĤÐµÐ¼Ð°ÑĤ
ĠÑĢÐ°Ð·Ð»Ð¸ÑĩÐ½ÑĭÐ¼Ð¸
ĠÑģÑĤÐ¾Ð»Ð¸ÑĨÐµÐ¹
ier
Ð»Ð¸Ð¼Ð¿Ð¸
Ð»ÐµÐ½Ð½Ð¾ÑģÑĤÑĮ
ÑģÑĤÐ°Ð½Ðµ
ĠÐ¿Ð¾Ð³Ð»Ð¾Ñī
ĠÑĤÐµÐ¼Ð¿ÐµÑĢÐ°ÑĤÑĥÑĢÐµ
Ð¾ÑĢÐµÐ½
ĠÐ¾Ð±Ð¾Ð»
Ð¸Ð²Ð°Ñı
Ð¸ÑĩÐ½ÑĭÑħ
ĠÐ·Ð°Ð¿Ð¸ÑģÑĮ
Ð¸ÑĤÐ°ÐµÑĤÑģÑı
ĠÐ¡Ð¾Ð²ÐµÑĤÑģÐºÐ¾Ð¹
Ġst
ĠÐ¸Ð·ÑĢÐ°Ð¸Ð»ÑĮ
ĠÐµÐ¶
ĠÐ¤Ð°Ðº
ĠÐºÐ¾Ð¼Ð¿Ð°Ð½Ð¸Ð¹
ĠÐ·Ð°Ð¼ÐµÑĩ
ĠÐ¿Ð¾ÑĢÐ°Ð¶ÐµÐ½Ð¸Ñı
Ð¾Ð½ÑĤÐ¾Ð²
Ġ44
ĠÐ¼Ð¸Ð½Ð¸ÑģÑĤÑĢÐ°
ical
ĠÐĴÑģÐµÐ»
ĠÐ½Ð°Ð¿ÑĢÑıÐ¶
ĠÐŀÐ±ÑĭÑĩÐ½Ð¾
ĠÐĺÑģÑĤÐ¾ÑĩÐ½Ð¸ÐºÐ¸
ÐºÑĢÐµÐ¿
ĠÐ±ÐµÐ³
ĠÐ²ÑĭÑģÑĪÐµÐ³Ð¾
ÐĳÐµÐ»
ĠÐ¾Ð±ÑīÐ¸Ð½Ñĭ
ĠÐĽÑİÐ´Ð¾Ð²
ĠÐ²Ð¾Ð¾ÑĢÑĥÐ¶ÑĳÐ½Ð½ÑĭÑħ
ĠÐ²Ð¾Ð·Ð³Ð»Ð°Ð²Ð¸Ð»
ĠÐĽÐ¾Ð½Ð´Ð¾Ð½Ðµ
ĠÐŃÐ´ÑĥÐ°ÑĢÐ´
ĠÑįÐ»ÐµÐºÑĤÑĢÐ¾Ð¼Ð°Ð³Ð½Ð¸ÑĤ
ĠÐ§ÑĤÐ¾Ð±Ñĭ
Ïģ
ÑĳÑĢÑĭ
ÐµÑĢÐ°ÑĢ
ĠÐ²ÑĭÑģÑĪÐ¸Ñħ
ate
ĠÐ»ÑĥÑĩÑĪÐ¸Ñħ
ĠÐºÐ»ÐµÑĤÐ¾Ðº
ĠÐ·Ð°ÐºÑĢÑĭÑĤ
ĠÐ¸Ð½ÑĦÑĢÐ°ÑģÑĤÑĢÑĥÐºÑĤ
ĠÑĤÐºÐ°Ð½
ĠÐĴÐ¸Ð»ÑĮÐ³ÐµÐ»ÑĮÐ¼
ĠÑģÐºÐ¾ÑĢÐµÐµ
ÑĤÐ¸ÐºÐ¾Ð²
ÑĤÐ¸ÑĢÐ¾Ð²Ð°Ð½
ĠÐ¾Ð´Ð¸Ð½Ð¾
Ð»ÑİÐ±
ÑıÐ½ÑĮ
ĠÐ¿ÑĢÐ¾Ð¸Ð·Ð²Ð¾Ð»ÑĮ
ÑĢÐ¾ÑģÐ¾Ð²
ĠÐºÐ¾Ð½ÑĨÐµÑĢÑĤ
ĠÐ²ÐµÐ»Ð¸ÑĩÐ¸Ð½Ñĭ
ĠÐ°Ð»ÑĮÐ±Ð¾Ð¼Ð°
Ð¾ÑĢÐ¸Ð½
Ð»ÑİÐ¼Ð¸Ð½
ure
Ð¾Ð´Ð¾Ð¼
ÐµÐ»Ð¸Ð¹
ĠÐļÐ¸Ð½
Ð¾Ð±Ð¸Ð»Ð¸
ĠÐ¿ÑĢÐµÐ´Ð»Ð°Ð³Ð°
Ð¸ÑĢÐ¾Ð²ÐºÐ¸
ĠÐĲÐ½ÑĤÐ¸Ð¾Ñħ
ĠÑĥÐ´ÐµÑĢÐ¶
ĠÐ´ÐµÐ±
inux
ĠÐ½Ð°Ð·ÑĭÐ²Ð°ÐµÐ¼ÑĭÐ¹
ĠÐ¸Ð¼Ð¿ÐµÑĢÐ°ÑĤÑĢÐ¸
ĠÐ½Ð°ÑģÐ»ÐµÐ´Ð¸Ñı
Ð°ÑİÑīÐ¸Ðµ
ĠÐ½Ð°Ð¼ÐµÑģÑĤ
Ð°Ð²ÑĪÐ¸ÐµÑģÑı
ĠÐ´Ð¸ÑĢÐµÐº
2006
ĠÐ¿ÑĢÐ¾ÑĤÐ¸Ð²Ð¾ÑĢÐµÑĩ
ÑĦÐ¾Ð²
ÑĤÐ¸Ñİ
ĠÐ¸Ð·Ð¾ÑĤÐ¾Ð¿
ĠÑģÐ»Ð¾Ð²Ð°Ð¼Ð¸
ĠÐ¸ÑģÐºÑĥÑģÑģÑĤÐ²Ðµ
ĠÑĢÑĥÐºÐ¾Ð²Ð¾Ð´Ð¸ÑĤÐµÐ»ÑĮ
ĠÐ¡ÐµÐ¼Ñĳ
ĠÐľÐ¾Ð»Ð´Ð°Ð²
ĠÐ¾ÑĤÑħÐ¾Ð´
ÐµÐ²ÑĭÐ¼
ÑģÑĤÐ²Ð°Ñħ
Ð¸ÑģÐºÐ¸
ĠÐ²Ð»Ð¸
Ð¶Ð½ÑĭÑħ
ĠÐ²ÑĭÐ´ÐµÑĢÐ¶
ĠÐ¢Ð¾Ð»ÑĮÐºÐ¾
ĠÐ¿Ð¾Ð»ÐºÐ°
ĠÐ¿Ð¾Ð´Ñģ
Ð½Ð¾Ð¼ÐµÑĢ
Ð¾Ð´Ð¾ÑĢ
ĠÐłÐ¾Ð·
ĠÐ¾Ð±Ð»Ð°Ð´Ð°ÑİÑĤ
ĠÑĤÐµÑħÐ½Ð¸Ðº
ĠÐºÐ¾Ð¾ÑĢÐ´Ð¸Ð½Ð°ÑĤ
ĠÐŃÑģÑĤÐ¾Ð½Ð¸Ð¸
ĠÐ²Ð¾ÑģÐºÑĢÐµÑģ
ĠÐļÐ¾ÑĤ
Ð»ÐµÐ³Ð°
ĠÐ¼Ð°ÑģÑģÐ¸Ð²
ĠÑģÐ»ÑĥÐ¶Ð¸ÑĤ
ust
ĠÐ¿ÑĢÐ¸Ð±Ð»Ð¸Ð¶
az
ne
ÑĢÐ¸ÐºÐ°
Ð¾Ð±Ð¾ÑĢ
ĠÐ¢Ð¾
ĠÐ¾ÑĤÐºÑĢÑĭÑĤÐ°
ĠÐ·Ð²ÑĥÐº
ĠÐ¿ÑĥÑĤÐµÐ¹
ÐºÑĢÐ°ÑĤÐ½ÑĭÐ¹
ĠÐ¿ÑĢÐ¾Ð¿Ð°Ð³Ð°Ð½Ð´
Ð¾ÑĦÐ¸ÑĨÐ¸Ð°Ð»ÑĮ
Ð¾Ð±Ð¾ÑĢÐ¾ÑĤ
ĠÐĿÐµÐº
ÑĥÐ»Ñĥ
ĠÑĢÐµÐ¶Ð¸Ð¼Ð°
ĠÐ¿Ð¾ÑģÑĤÑĢÐ¾ÐµÐ½Ð°
ĠÐ¿ÑĢÐ¾ÑħÐ¾Ð´ÑıÑĤ
ĠÐ¢Ð¾Ð»ÑģÑĤ
ĠÑģÐ½Ð°Ð±
Ð°ÑĢÐ½Ð¾Ð³Ð¾
Ð°ÑĤÑĮÑı
Ð¾ÑĢÐ¸Ð¼
Ð¾Ð»Ð¾Ð³Ð¸ÑĩÐµÑģÐºÐ¾Ðµ
Ġ43
ĠÐºÐ°Ð½ÑĨ
ĠÐ»ÐµÐºÑģÐ¸
ĠÐ¿ÑĢÐµÐ´Ð¾ÑĤÐ²
ĠÐ´Ð²Ð°Ð´ÑĨ
ĠÐ·Ð½Ð°Ð½Ð¸Ñı
ry
ĠÐ¿ÑĢÐ¸Ð·ÑĭÐ²
ÑĤÐ¸Ð²Ð½ÑĭÐµ
ĠÐ²ÑĤÐ¾ÑĢÐ¾Ðµ
Ð°Ð´Ð°ÑİÑĤ
ĠÐ¼Ð°ÑģÑģÐ¾Ð²Ð¾Ð¹
ĠÐ°ÑĢÐ¸ÑģÑĤ
ĠÐŁÐ°Ðº
Ð¸ÑĩÐµÑģÑĤÐ²Ð¾
ĠÐ·Ð°ÑģÐ»ÑĥÐ¶ÐµÐ½Ð½ÑĭÐ¹
ÑħÐ¾Ð»
Ð°Ð½Ð½ÑĥÑİ
Ð¡Ð¾Ð²
ĠÑĥÑĩÐµÐ½Ð¸Ñı
1991
ÑĳÐ¼Ðµ
ĠÐĲÐ½Ð°
Ð°Ð»ÑĮÐ½Ð¾Ð¼Ñĥ
ĠÑģÐ¾Ð±ÑģÑĤÐ²ÐµÐ½Ð½Ð¾
ĠÐ¡ÑĤÐ°Ð½Ð¸
ĠÐ¸ÑģÐ¿Ð¾Ð»ÑĮÐ·Ð¾Ð²Ð°Ð½Ð¸Ð¸
ĠÑĨÐ¸ÑĢ
Ġder
ĠÐ¸Ð³ÑĢÐ°ÐµÑĤ
ĠÑĥÐ²ÐµÑĢ
Ð»ÐµÐ¿
Ð¢Ðł
ĠÐ¿ÑĢÐµÐ²ÑĭÑĪÐ°ÐµÑĤ
ĠÐ¸Ð½ÑĭÑħ
ĠÐ¿Ð¾ÑģÐ»ÐµÐ´Ð½ÐµÐ¹
2004
ĠÐºÐ°Ð½Ð¾Ð½
ĠÐ¼Ð°Ð»ÑĮ
Ð¾ÑĤÐ²ÐµÑĤ
ĠÐ°ÑģÑģÐ¸
ĠÑĦÐ°Ð¹Ð»Ð¾Ð²
ĠÑĥÐºÑĢÐ°Ð¸Ð½
ĠÐºÐ»ÐµÑĤÐºÐ¸
ĠÑģÐµÐ·Ð¾Ð½Ð°
ĠÐ¿Ð¾Ð²ÐµÐ´ÐµÐ½Ð¸Ðµ
Ð°ÑİÑīÐ¸Ð¹
ĠÐ¾Ð±ÑīÐµÑģÑĤÐ²ÐµÐ½Ð½ÑĭÑħ
ĠÐºÐ¾Ð¼Ð°Ð½Ð´Ð¸ÑĢ
ĠÐļÐ¾Ð»ÑĥÐ¼Ð±
ĠÐ¸Ð½ÑĦÐ¾ÑĢÐ¼Ð°ÑĨÐ¸Ñı
Ġal
ĠÐ¿ÑĥÐ½Ðº
ĠÐ²ÑĢÑĥÑĩ
ÑĩÐµÐ½ÑĮ
ĠÐĿÐµÐ´
ÐµÑĢÐ°Ð¼
TP
Ð»Ð¸Ð²Ð¾
ĠÐĴÐ°Ð»ÑĮ
ĠÐ¿ÑĢÐµÐ´Ð¼
ĠÐĹÐµÐ»Ð°Ð½Ð´
ĠÐ¾Ð±ÑĬÑĳÐ¼Ð°
ĠÐ®Ð³Ð¾
ĠÐ½Ð°ÑĢÐ¾Ð´Ð½Ð°Ñı
ĠÐŁÑĢÐ¾Ð¸Ð·Ð²Ð¾Ð´
Ġz
Ð»Ð¸ÐºÐ°
ÐºÐ¾Ð²Ð¾
ĠÐĹÐ°Ñģ
Ð¢ÐĴ
ĠÐ±ÑĥÐ´ÑĥÑĩÐ¸
].
ĠÐ¼Ð¾ÑĢÑĦ
ĠÑĥÑģÑĤÐ°Ð½Ð¾Ð²Ð»ÐµÐ½Ð°
ĠÐ»ÐµÐ¶Ð¸ÑĤ
ÑģÐ°Ð¼Ð±
ĠÐ¼Ð»ÐµÐºÐ¾Ð¿Ð¸ÑĤÐ°
ÑĦÑĤ
Ð¸Ð·Ð½ÑĮ
ĠÐ¢Ð²ÐµÑĢ
ĠÐºÑĢÑĥÐ¿Ð½ÑĭÐ¹
ĠÑĤÐ¾ÑĩÐ½Ð¾
ĠÐ¤ÑĳÐ´Ð¾ÑĢ
ĠÐŁÐµÑĢÐ²Ð¾Ð½Ð°ÑĩÐ°Ð»ÑĮÐ½Ð¾
ÐµÐ½Ð½Ð¾ÑģÑĤÑĮÑİ
ÑĩÑĳÐ²
Ð±Ð¸Ð»Ð¸
ĠÐĵÐ¾ÑĢÑĮ
Ð·ÑĭÐºÐ°
ĠÑĢÐ¸ÑĤÑĥ
ĠÐ¸Ð·Ð¼ÐµÐ½ÐµÐ½Ð¸Ð¹
ĠÐ¾Ð±ÑĬÐµÐ´Ð¸Ð½ÐµÐ½Ð¸Ðµ
ĠÐļÐ¾Ð½ÑģÑĤÐ°Ð½ÑĤÐ¸Ð½Ð¾Ð¿Ð¾Ð»ÑĮ
ĠÐ¿Ð°ÑģÑģÐ°Ð¶Ð¸ÑĢÐ¾Ð²
ĠÐ¾ÑĤÐ¼ÐµÑĩÐ°ÐµÑĤ
ĠÑĥÑĤÐ²ÐµÑĢÐ¶Ð´Ð°ÐµÑĤ
ĠÑįÐ²Ð°ÐºÑĥ
ĠÑĤÐ¾ÐºÐ°
ĠÐ¸Ð·Ð´Ð°ÑĤÐµÐ»ÑĮ
ĠInt
ĠÐĶÐ¶ÐµÐ¹Ð¼Ñģ
ĠÐ´Ð¾ÑĢÐ¾Ð¶
ĠÐ¾Ð¿Ð¸ÑĢÐ°
ĠÐĵÐµÐ¾Ð³ÑĢÐ°ÑĦÐ¸Ñı
Ð¸Ð²ÑĪÐ¸Ð¹ÑģÑı
ĠÐºÐ²Ð°Ð´ÑĢÐ°ÑĤ
Ð¿Ð¸Ð¸
Ð°Ð½Ð½Ð¾Ð¼
ĠÐ´Ð¾Ð½
ĠÐ¿ÑĢÐµÐ¿ÑıÑĤ
Ð¸ÑĩÐ½Ð¾Ð¹
ĠÐ²ÐµÑĢÐ½Ñĥ
ĠÑģÐ²ÑıÑĤÐ¾Ð¹
ĠÐ½Ð¾Ð¼ÐµÑĢ
ĠÐĵÑĥÐ¼Ð¸
Ð²Ð¸Ð·
ÑĩÐ»ÐµÐ½
ÑİÑīÐµÐ³Ð¾ÑģÑı
ÐµÑĢÐ¾Ð½
ĠÐŁÑĢÐ¾Ð³ÑĢÐ°Ð¼
ĠÐ¿ÑĢÐ¾Ð²Ð¾Ð´Ð¸ÑĤÑģÑı
ĠÐĶÐ°Ð³ÐµÑģÑĤ
Ð°Ð»Ð»
ĠÐ¿Ð¾Ð´ÑĩÑĳÑĢ
ĠÐ¿Ð¾Ð·Ð½Ð°ÐºÐ¾Ð¼
ĠÐ¾Ð¿ÑĢÐµÐ´ÐµÐ»Ð¸ÑĤÑĮ
ĠÑģÐ²ÑıÑĤÐ¾Ð³Ð¾
Ð½Ð¾ÐºÐ¾Ð¼Ð°Ð½Ð´
ÐµÐ»Ð¸Ð½
ĠÐ°Ð½Ð¸
ÑĤÐ¸Ð²Ð½Ð¾Ð¹
ĠÑģÐ¾Ð·Ð´Ð°Ð½Ð¸Ñİ
ĠÐ°Ð½Ð³Ð»Ð¸Ð¹ÑģÐºÐ¾Ð¼
ĠÐ±Ð¸Ð±Ð»Ð¸Ð¾ÑĤÐµÐºÐ¸
ÑĳÐº
ĠÑĢÐ°Ð·ÑĢÐ°Ð±Ð°ÑĤÑĭ
ĠÐ¾Ð±ÑĢÐ°Ð·ÑĥÑİÑĤ
Ð³Ð¾ÑĢÐ¾Ð´ÑģÐºÐ¾Ð¹
ĠÑģÐ¸Ð¼Ð²Ð¾Ð»Ð¾Ð²
ÑĥÐ»Ð°
ĠÐĴÐ½ÐµÑĪ
ĠÐľÐµÑħ
ĠÐĽÐµÑģ
ĠÐķÑĦ
ĠÐ´ÐµÐ¹ÑģÑĤÐ²Ð¸ÐµÐ¼
ÑĦÑĦÐ¸Ðº
Ð¾ÐºÐ¾Ð¼Ð¾ÑĤ
Ġund
Ð°ÑĢÐ¸Ð½Ð°
ĠÐ¿ÑĢÐ¸Ð½ÑĨ
ĠÐ¸ÑģÑĤÐ¾ÑĩÐ½Ð¸ÐºÐ°Ñħ
ĠÐ¿ÑĢÐ¾Ð¸Ð·Ð¾ÑĪÑĳÐ»
ÑĪÑĤÐµÐ¹Ð½Ð°
ĠÐ¿ÐµÑĢÐµÐ½ÐµÑģ
ĠÑįÐºÐ·ÐµÐ¼Ð¿
Ð±Ð°Ñħ
ĠÐ´Ñĭ
ĠÐĴÐ¾Ð´
ĠÑįÑģÑĤÐµÑĤ
1990
ĠÐ¿ÑĢÐ¸Ð¼ÐµÑĢÑĥ
ĠÐ°ÑĤÐ¾Ð¼Ð¾Ð²
ĠÑģÑĥÑĤÐ¾Ðº
ĠÐŁÐ»ÑĥÑĤ
ÐºÐ¾Ð»ÑĮ
ÑħÐ¸Ð½
ĠÐ´Ð½ÐµÐ²
ĠÐĵÑĢÑĥÐ¿Ð¿
ĠÐ²Ð¾Ð´Ñĥ
ĠÑĢÐµÐºÐ¾ÑĢÐ´
ĠÐ»ÑĥÐ½Ðµ
ĠÐ·Ð°ÐºÐ»ÑİÑĩÐ°ÐµÑĤÑģÑı
ĠÐ¾ÑĤÐ´ÑĭÑħÐ°
ĠÑģÐ¸
ÐµÐ¼ÑĮ
ĠÑĥÐµÐ·Ð´
ĠÐļÑĢÐ¸ÑģÑĤ
ĠÑģÑĤÐ°ÑĢÐ°
Ð²Ð°ÑĢÐ¸ÑĤÐµÐ»ÑĮ
ÑĢÐ¾Ð½Ð¸ÐºÐ°
orm
ĠÐ¸ÑģÐºÐ¾Ð¿Ð°
ĠÐ¸Ð·Ð¼ÐµÐ½ÐµÐ½Ð¸Ðµ
ĠÑģÐ±Ð¾ÑĢÐ½Ð¸Ðº
ĠÑģÐºÑĥÐ»ÑĮÐ¿ÑĤÐ¾ÑĢ
ÏĦ
Ð»ÑıÑĨÐ¸Ñı
ĠÑĨÐµÐ»ÐµÐ¹
ÐºÐ¾Ð¼Ñĥ
ĠÑģÐ»Ð¾Ð²Ð°ÑĢÑĮ
ĠÐ¿ÑĢÐ¾Ð¿Ð¾ÑĢ
ĠÐ¾Ð±Ð¾ÑĢÑĥÐ´Ð¾Ð²Ð°Ð½Ð¸Ñı
ĠÑĥÐ´Ð¾Ð²Ð»ÐµÑĤÐ²Ð¾ÑĢ
Ð¼ÐµÐ»ÑĮ
ĠÐĶÐµÐ²
ĠÐ´Ð°Ð½Ð½Ð¾Ð¼
ĠÐ²Ð·ÑıÐ»
ĠÐ¿ÑĢÐ¸ÑģÑĥÑĤ
ĠÐ²Ð»Ð°ÑģÑĤÑĮÑİ
ĠÐ¿Ð»ÐµÐ¼ÑĳÐ½
ĠÐ£Ð¿ÑĢÐ°Ð²
ish
ĠÐ¿ÑĢÐ¾Ð¼ÑĭÑĪÐ»ÐµÐ½Ð½ÑĭÑħ
ĠÐłÑĭÐ±
ĠÐ¸Ð½ÑĤÐµÑĢÐ²ÑĮÑİ
ĠÐ·Ð´Ð¾ÑĢÐ¾Ð²ÑĮÑı
Â·
ÑıÑĤÐ¾
ĠÑģÐ¾Ð¶
ĠÑģÐ°Ð½Ðº
ĠÐ±ÑĭÑĤÐ¾Ð²
Ð»ÐµÑĤÐ¸Ñİ
ĠÐ¿Ð¾ÑģÐ»ÐµÐ´Ð½ÐµÐµ
ĠÐ²ÐµÐ´Ð¾Ð¼
Ð°ÑģÐºÐµÑĤ
Ġet
ĠÐ¿Ð¾ÑıÐ²Ð»ÐµÐ½Ð¸Ñı
ĠÐ´Ð»Ð¸Ð½Ð¾Ð¹
ĠÑĢÐ°ÑģÐ¿Ð¾Ð»Ð°Ð³Ð°ÐµÑĤÑģÑı
ĠÐ¶ÑĥÑĢÐ½Ð°Ð»Ðµ
Ð¿Ð¾ÑģÑĤ
ĠÑģÐ¸ÑģÑĤÐµÐ¼Ð°Ñħ
ĠÐ¸ÑģÐ¿Ð¾Ð»ÑĮÐ·Ð¾Ð²Ð°Ð»ÑģÑı
ĠÑģÐ¾Ð²ÑĢÐµÐ¼ÐµÐ½Ð½ÑĭÐµ
Ð¾Ð»ÑıÑĢ
ĠÐºÐ°Ð·Ð½
ĠÐ»Ð¸ÑĨÐµÐ½Ð·
ĠÐ²ÐºÐ»ÑİÑĩÐ°ÑİÑĤ
ÑģÑĤÑĢÐ¾Ð¹ÐºÐ¸
ĠÐºÐ²Ð°ÑĢÑĤÐ¸
ÑĥÐºÐ¸
Ð½Ð°ÑĩÐµ
ium
ug
Ð¾Ð´ÐµÐ»ÑĮ
ĠÐļÑĢÐµÐ¼
Ð¸Ð´ÐµÐ¼
ĠÐ¤ÑĢ
ÑİÑīÐµÐ¼
ĠÐ¾Ð±ÑĢÐ°Ð·ÑĥÐµÑĤÑģÑı
ĠÑĦÑĢÐ°Ð½ÑĨÑĥÐ·ÑģÐºÐ¾Ð¹
ĠÐ±Ð¾Ð³Ð°
Ð°ÑĢÑĥ
ĠÐĲÐ¡Ð¡Ðł
ÐµÐ½ÑĤÐ°Ð¼Ð¸
ĠÐ¾Ð¿ÑĤÐ¸
ÐŁÐ¦
ÑĦÐ¾ÑĢÐ´
ĠÐ¿Ð¾Ð·Ð²Ð¾Ð»Ð¸Ð»Ð¾
ĠÐ¿ÑĢÐ¸ÑģÐ²Ð¾ÐµÐ½Ð¾
ĠÐ¿ÐµÑĢÐ²Ð¾Ð½Ð°ÑĩÐ°Ð»ÑĮÐ½Ð¾
ĠÐĸÐµÐ»ÐµÐ·Ð½Ð¾Ð´Ð¾ÑĢÐ¾Ð¶
ĠÐºÑĢÐ¸ÑĤ
ĠÐŁÑĢÐ¾Ð¼ÑĭÑĪÐ»ÐµÐ½
ĠÐļÐ»Ð°Ð²
ĠÐ¡Ð²Ð¾Ð±Ð¾Ð´
ĠÐ¿ÑĢÐ¸Ð½ÑıÑĤÐ°
ĠÐ²Ð¼ÐµÑĪ
ĠÐ¿ÑĢÐ¸Ð²ÐµÐ»Ð¸
ĠÑģÐ¾ÑģÑĤÐ°Ð²Ð»ÑıÐ»Ð¸
Ð¾Ð½ÑĮ
Ð¸Ð·Ð´
ĠÐ²ÐµÑĢÑĤÐ¸Ðº
ĠÐ¿Ð¾Ð²ÑĢÐµÐ¶Ð´
ĠÐ¨ÐµÐ²
ĠÐļÐ¾Ð½ÑģÑĥÐ»Ñĭ
ĠÐ¾ÑģÑĤÐ°Ð»ÑĮÐ½ÑĭÑħ
ĠÐ»ÑİÐ±Ð²Ð¸
ĠÑģÐ»ÑĥÐ¶Ð¸Ð»
ĠÐ³Ð¾Ð»Ð»Ð°Ð½Ð´
ĠÐ¾Ð±ÐµÑģÐ¿ÐµÑĩÐ¸Ð²Ð°ÐµÑĤ
ĠÐ¿ÑĢÐµÐ¾Ð±ÑĢÐ°Ð·Ð¾Ð²Ð°Ð½Ð¸Ñı
ĠÐĲÐ½Ð´ÑĢÐµÑı
Ð¿Ð¾ÑĢ
ĠÐ·ÑĢÐ¸ÑĤ
ÑĢÐ¾Ð²Ð¾Ð¹
ĠÐĽÐµÐ±
ĠÐ¿ÑĢÐµÐ´Ð»Ð¾Ð¶ÐµÐ½Ð¸Ðµ
ĠÐĴÐ°ÑĢÑĪ
ĠÐĴÐµÐ´
ĠÐłÐµÑĪ
ĠÐ¿Ð¾Ð»ÑĥÐ¿
Ð¼ÑĭÑģ
ĠÐºÐ¾ÑĢÐ°Ð±Ð»ÑĮ
ĠÐ½Ð°Ð¹Ð´
ĠÐĲÑĦÑĢÐ¸ÐºÐµ
ĠÐ¾ÑģÐ²Ð¾Ð±Ð¾Ð¶Ð´ÐµÐ½Ð¸Ñı
ĠÑģÐ°Ð¼Ð¾ÑĥÐ¿ÑĢÐ°Ð²Ð»ÐµÐ½Ð¸Ñı
ĠÐ³Ð¾ÑĢÐ¸Ð·Ð¾Ð½ÑĤ
Ð²Ð°Ð»Ð¸ÑģÑĮ
ĠÐľÐµÑģ
ĠÐĵÐµÑĢÐ±
ĠÐ¿Ð¾ÑģÐµÐ»ÐµÐ½Ð¸Ðµ
Ð²Ð¸Ð¶ÐµÐ½Ð¸Ðµ
Ġ1897
ĠÑĤÑĳÐ¼
ĠÐĿÐµÐ·
ÐµÐ»ÑıÐ¼Ð¸
ĠÐ¼Ð°ÑĤÑĩ
ÑģÑĤÐ²Ð¾Ð²Ð°Ð»Ð¾
ĠÑģÐ¸Ð½Ð´
ĠÐ¾Ð±Ð»Ð°ÑģÑĤÑıÑħ
ĠÑĤÐ¾Ð¿Ð»Ð¸Ð²Ð°
ĠÐĺÐ·ÑĢÐ°Ð¸Ð»ÑĮ
Ð²Ð¾ÑģÑĤÐ¾ÐºÐµ
Ð·Ð¸ÑĢÐ¾Ð²
Ð¸ÑĤÐµÐ»ÑĮÐ½ÑĥÑİ
ÑĦÐ¸Ð¾Ð¿
ĠÑĢÑĥÑģÑģÐºÐ°Ñı
ĠÐºÐ¾Ð½ÑģÑĤÐ¸ÑĤÑĥÑĨÐ¸Ð¸
Ð³Ð¾ÑĤ
ĠÐºÐ»Ð°Ð²
ĠÐ½Ð°ÑĨÐ¸ÑģÑĤ
ÑĢÐ¾Ñī
2002
ĠÑģÐ»ÐµÐ´ÑĥÑİÑīÐ¸Ñħ
ĠÑĤÐµÐ¿Ð»Ð¾
ĠÑĦÐ°ÐºÑĥÐ»ÑĮÑĤÐµÑĤ
Ð»Ð¾ÑĢÐ°
Ð½Ð¾ÑģÐ¸ÑĤ
ĠÐ£Ñģ
Ð¼ÐµÑĢÑĤÑĮ
ĠÐ¿Ð¾Ð»Ð¸ÑĤÐ¸ÐºÑĥ
Ð¸ÑĢÑĥÑİÑĤÑģÑı
ĠÐ¿ÐµÑĢÑģÐ¸Ð´
ĠÑĢÐµÑģÐ¿ÑĥÐ±Ð»Ð¸ÐºÐ°
ĠÑģÐ¾ÑħÑĢÐ°Ð½Ð¸Ð»Ð¸ÑģÑĮ
ÑĢÐ¾Ð¶Ð´ÐµÐ½Ð¸Ñı
ÐºÐµÑĢ
ĠÐ´ÑĥÐ¼
orld
Ð¾ÑħÑĢÐ°Ð½Ð¸Ð»Ð¸
ix
ĠÐ²Ð¾ÑĢ
ÑģÑĤÑĮÐµ
ĠÐ¼ÐµÑĤÑĢÐ¾
ĠÐ¾Ð±ÑĢÐ°Ð·Ð¾Ð²Ð°Ð½Ð¸ÐµÐ¼
Ġ1896
ĠÐ·Ð°ÑıÐ²Ð»Ñı
ÑĢÐ¾ÑģÑĤÐ°Ð½
ĠÐ´ÐµÐ½ÐµÐ³
ĠÑĥÐµÐ·Ð´Ð°
ĠÐľÐĵÐ£
ĠÐ½Ð°ÑħÐ¾Ð´Ð¸Ð»Ð°ÑģÑĮ
ĠÐ¾ÑĤÐºÑĢÑĭÑĤÐ¾
ĠÐ»Ð¸Ð½Ð¸Ð¹
ÑĤÐµÐ½Ð°Ð½ÑĤ
ĠÐĶÐĿÐļ
ĠÐ²Ð¾Ð·Ð±Ñĥ
ÑĥÑīÐµÑģÑĤÐ²Ð¾
ĠÐºÐ°Ð±
ÐľÐ¸ÑĢ
ĠÑģÑĥÐ²ÐµÑĢ
ĠÐ¿ÑĢÐµÐ´ÑģÐµÐ´Ð°ÑĤÐµÐ»ÐµÐ¼
ĠÐ¡Ð¸ÑĢÐ¸Ð¸
ĠÐ½ÐµÐ¾Ð±Ñĭ
ĠÐºÐ¸Ð½Ð¾ÑĤÐµ
ĠÐ¿Ð°Ð¼ÑıÑĤÐ½Ð¸ÐºÐ¾Ð²
ĠÐ·Ð¸Ð¼Ð¾Ð¹
Ð»Ð°Ñı
ÑįÐ´
ĠÐĵÑĢÐ¸Ð³
ĠÐ·Ð°ÑĩÐ°ÑģÑĤÑĥÑİ
ÑĢÐ°Ð½ÐµÐµ
ĠÑĢÑĥÐ´
ĠÐĲÐ²ÑĤÐ¾ÑĢ
ÐķÐ²
ĠÑĢÐµÑģÑĥÑĢÑģÐ¾Ð²
Ð±Ð°ÑĢÐ´Ð¸ÑĢÐ¾Ð²
ĠÑģÐ¿Ð¾ÑĢÑĤÑģÐ¼ÐµÐ½
ĠÐłÐ¾Ð¶Ð´Ðµ
Ð¸Ð²ÑĪÐ¸ÑħÑģÑı
ĠÑģÑĬÐµÐ·Ð´Ð°
ĠÑĦÐµÑģÑĤÐ¸Ð²Ð°Ð»ÑĮ
ĠÐ·Ð°ÑĢÐµÐ³Ð¸ÑģÑĤÑĢÐ¸ÑĢÐ¾Ð²
ĠÑģÐ¸Ð»Ð¾Ð¹
2003
ĠÐºÑĢÐµÐ¿Ð¾ÑģÑĤ
ĠÐ¢ÑĢÑĥÐ´Ð°
Ð¸ÑīÐµ
Ð»ÑĥÑĪ
Ð±Ð¸ÑĢ
ĠÐ¤ÐµÐ´
2012
Ġto
Ð²Ð¸Ð´Ñĥ
ĠÐ½ÐµÑĦÑĤÑı
ĠÐľÐµÐ½Ð´ÐµÐ»
ÑĢÐµÑģÐ¿Ð¾Ð½Ð´
Ð²ÐºÐ»ÑİÑĩ
Ð¾ÑĤÐ¾
ĠÐ»Ð°Ð½Ð´
Ġ39
1996
Ġ1890
Ð°Ð¼Ð±Ð»Ðµ
ĠÐ±Ð°Ð½ÐºÐ¾Ð²
ĠÐºÐ¾Ð½ÑĨÐµÐ¿ÑĨÐ¸Ð¸
ĠÐ½Ð°Ð³ÑĢÑĥÐ·
ĠÐ±ÑĢÐ¾Ñģ
Ð³Ð¾ÑĢÐ°
Ġ42
ĠÑĢÐ°Ð²Ð½Ð¾Ð²
ĠÑģÑĩÐ¸ÑĤÐ°Ð»Ð¸
ĠÐŃÐºÑģÐ¿
ĠÐ´ÐµÐ¼Ð¾Ð½ÑģÑĤÑĢÐ°
ĠÐľÐ¸Ð½Ð¸ÑģÑĤÐµÑĢÑģÑĤÐ²Ð°
ĠÐºÐ¸Ð»Ð¾Ð¼ÐµÑĤÑĢÐ¾Ð²
ÐµÐ»Ð»Ð¸
ĠÐ¼ÑĥÐ´
ÑĦÐ¸ÑĢ
ĠÐ£Ð´
St
ÐºÐ°ÐµÑĤ
ÐµÐ²Ð¾Ð³Ð¾
ĠÐĳÐ»Ð°
ĠÐ¸ÑģÑĤÑĢÐµÐ±
ĠÑģÐºÑĢÑĭ
ÑĢÐ°ÑīÐµÐ½Ð¸Ðµ
ĠÐ°Ð²ÑĤÐ¾ÑĢÑĭ
ĠÑģÑĤÐ°ÑĤÑĮÑı
ĠÐ´ÐµÑĢÐµÐ²Ð½Ð¸
ĠÐ°Ð»ÑĦÐ°Ð²Ð¸ÑĤ
ĠÑģÐ¾Ð·Ð½Ð°Ð½Ð¸Ñı
ĠÐ§Ð°Ð¹
ĠÑģÑĢÐµÐ´Ð½ÑıÑı
ÑĥÑİÑīÐ¸Ð¼Ð¸
ĠÐĸÐ¸Ð²
ĠÐ²ÑĭÑģÐ¾ÐºÐ¾
ĠÐ¼Ð¸Ð½Ð¸Ð¼ÑĥÐ¼
ÐºÐ°ÑĤ
Ð°Ð»Ð»Ð¸
Ġ(+
ĠÐ¡Ð°ÑĢ
Ð°Ð´ÑĨ
ĠÐ¾Ð±ÑĢÐ°Ð·ÑĥÐµÑĤ
Ð¾ÑĪÐµÐ½ÐºÐ¾
ĠMar
ĠÑģÐ¿Ð¾ÑģÐ¾Ð±Ð½Ð¾ÑģÑĤÐ¸
ĠÑĥÑĩÐµÐ±Ð½ÑĭÑħ
ĠÐ³ÑĢÐ¾Ð¼
ÐµÐ¼ÑĥÑİ
ĠÐ²ÑģÐµÐ¾Ð±Ñī
ĠÑģÐ¾Ð´ÐµÑĢÐ¶Ð°Ð½Ð¸Ñı
ĠÐ¡ÑĢÐµÐ´Ð¸Ð·ÐµÐ¼
ĠÑĤÑĢÐ°Ð¼Ð²Ð°Ð¹
ĠÐ¡ÑĥÑħ
ĠÑģÐ¾Ð±Ð»ÑİÐ´
ĠÑģÑĢÐµÐ´ÑģÑĤÐ²Ð¾
2009
ĠÐľÐµÐ´Ð°Ð»ÑĮ
ĠÑģÐµÐ¼ÐµÐ¹ÑģÑĤÐ²Ð°
ĠÑģÐ¾Ð¿ÑĢÐ¾ÑĤÐ¸Ð²Ð»ÐµÐ½Ð¸Ðµ
ĠÐ¸Ð½Ð¸ÑĨÐ¸Ð°ÑĤÐ¸Ð²Ðµ
ft
ÑĤÐµÑĢÐ°
ĠÐ±Ð°Ð·Ñĭ
ÑĨÐ¸Ð½Ñĭ
Ð¾Ð¿Ð¸ÑģÑĮ
ĠÐ½ÐµÐ¼Ð½Ð¾Ð³Ð¾
ĠÐ¾ÑĤÐ´Ð°Ð»
ĠÐ´Ð¸Ð¿Ð»Ð¾Ð¼Ð°ÑĤÐ¸ÑĩÐµÑģÐºÐ¸Ðµ
ĠÐ²Ð¾Ð·Ð½Ð¸ÐºÐ½Ð¾Ð²ÐµÐ½Ð¸Ñı
ÑıÑı
Ð·ÐµÐ½
ÑīÐ¸Ñħ
Ð¾Ð¶Ð¸Ð´
ĠÐĳÐ»Ð¸Ð¶
ĠÐļÐ¾ÑĢÐ½
ĠÐ±ÑĢÐ¾Ð½Ð·Ð¾Ð²
ÑīÐ¸Ð½Ñĭ
Ð°ÑĢÐ¾Ð¼
ĠÐŁÑĢÐ°
ĠÐ¢Ð¾Ð¿
ĠÑĤÐ°ÐºÐ¾Ð¼
ĠÐ¼ÐµÐ¶Ð´ÑĥÐ½Ð°ÑĢÐ¾Ð´Ð½Ð¾Ð¹
ĠÐ°ÑįÑĢÐ¾Ð´
ÐµÐ½ÑģÑĤÐ²Ð¾
Ð»Ð°Ð¼Ð°
ĠÐ½ÐµÑĢÐ°Ð²
ĠÐĹÐ°Ð±
ĠÐĿÐ¾ÑĢÐ²ÐµÐ³Ð¸Ð¸
ĠÐ¾ÑĤÐ²ÐµÑĢÐ³
ĠÑģÐ°Ð¼Ð°
ĠÑĩÐ°ÑģÑĤÐ¾ÑĤ
ĠÐļÐ¸ÐµÐ²Ðµ
ĠÐ³Ð°ÑĢÐ¼Ð¾Ð½
ĠÐ¡ÐĿÐĵ
ÑįÐ»
ĠÑĦÐ¾Ð½Ðµ
ĠÑĢÐ°ÑģÐ¿ÑĢÐ¾ÑģÑĤ
Ġ1895
ÑĢÐµÐ²Ð¾Ð»Ñİ
ÐµÑĢÐ½ÑĭÐµ
ÑįÐ¿
ÐµÐºÑĤÐ¾ÑĢ
ĠÐľÐ¾Ð³
ĠÐ¸ÑģÑģÐ»ÐµÐ´Ð¾Ð²Ð°ÑĤÐµÐ»ÐµÐ¹
ĠÐ¾Ð±ÑĢÐ°Ð±Ð¾ÑĤÐºÐ¸
ĠÐ¾Ð±ÑıÐ·Ð°Ð½Ð½Ð¾ÑģÑĤÐ¸
ĠÐ¸ÑģÐ¿ÑĭÑĤÑĭ
ĠÐĴÐ·
ĠÑģÐ°Ð¼Ð°Ñı
ĠÐ°Ð½Ð³Ð»Ð¸Ñĩ
ĠÐŁÐµÑĢÑģÐ¾Ð½
ĠÐ¿Ð¾Ð³Ð¸Ð±ÑĪÐ¸Ñħ
ĠÐ¿Ð¾ÑĤÐµÑĢÐ¿
ĠÑĤÑİÑĢÐº
Ð·Ð°Ð¿Ð°Ð´Ðµ
ĠÐĵÐ¾ÑģÐ¿Ð¾Ð´
ĠÑħÐ¾ÑĤÐµÐ»
ĠÑĢÐ¸ÑĤ
ĠÐ»Ð°Ð²
Ð¾ÑĩÐµÑĤ
Ð¸ÐºÐ¾Ð¹
ĠÑĥÐ±ÐµÐ´
ĠÑĪÐºÐ¾Ð»ÑĮ
ĠÐļÐ°Ð»Ð¸Ð½Ð¸Ð½Ð³ÑĢÐ°Ð´
ĠMicros
ĠÐ¾ÑģÐ¸
ĠÐ°Ñģ
ĠÐ¸Ð·Ð±ÐµÐ¶
ĠÑĨÐ¸ÐºÐ»Ð°
ĠÑģÐ¿ÑĥÑĤÐ½Ð¸ÐºÐ¾Ð²
ĠÐ½Ð°ÑģÑĤÐ¾Ð»ÑĮÐºÐ¾
!Â»
ÐµÐ´ÐµÐ»ÑĮ
ĠÐłÐ°Ð¼
ÐĲÐ»
2011
org
ĠÑģÐ¿Ð¾ÑģÐ¾Ð±Ð¾Ð¼
ÐµÐ½ÑģÑĤÐ²Ð°
ÑĦÐ°Ð½ÑĤÐ°
ĠÐĶÐ²Ð°
ĠÐºÐ¾Ð¼Ð¸ÑģÑģ
ĠÑĢÑĥÐºÐ°Ñħ
ĠÐ³Ð°Ð·ÐµÑĤ
ĠÐ¾Ð±Ð»Ð°ÑģÑĤÐ½Ð¾Ð³Ð¾
Ġj
ĠÐĵÐ¸Ð±
ĠÐĵÐ°Ð±
ĠÐ¼ÐµÑģÑĤÐ½ÑĭÐµ
Ð¾Ð¶Ð´ÐµÐ½Ð¸Ð¹
ÑĢÐµÑģÑģÐ°
ĠÐ¼Ð¸Ð»Ð»Ð¸Ð¾Ð½Ð°
ĠÑĢÐµÐ¹ÑĤÐ¸Ð½Ð³
Ð¼Ð¸Ð½Ð¸ÑģÑĤÑĢÐ¾Ð¼
ÑıÑĩÐµ
ĠÑĤÐ°ÐºÐ¸Ð¼Ð¸
ĠÐ£ÑĢÐ°
ÑģÐ»Ð°Ð½Ð´
ĠÐ¿ÑĢÐ¸Ð½ÑıÑĤÐ¸Ñı
Ġ1899
ĠÐĴÐµÑĢÑħÐ¾Ð²Ð½ÑĭÐ¹
ĠÐ²ÐµÐ»Ð¸ÐºÐ¾Ð³Ð¾
ĠÐŁÑĥÑĪÐºÐ¸Ð½Ð°
ĠÑįÑĢÑĭ
ĠÑģÐ¾Ð±ÑĢÐ°Ð½Ð¸
ĠÐ¿Ð¸ÑģÐ°ÑĤÐµÐ»ÑĮÐ½Ð¸ÑĨÐ°
ĠÐ²ÐµÐ´ÑĳÑĤ
ĠÐ´Ð¾Ñģ
ĠÐļÐ»Ð°
ĠÐŀÐ·
ĠÑĥÐ´Ð¾ÑģÑĤÐ¾
ĠÐ´Ð°Ð²Ð»ÐµÐ½Ð¸Ðµ
ĠÐ¿Ð¾Ð´Ð¿Ð¸ÑģÐ°Ð»
ĠÐ¿ÑĢÐµÐºÑĢÐ°ÑĤÐ¸
ĠÑģÑĤÐ¸ÑħÐ¸
ĠÐ³Ð°ÑĢÐ½Ð¸Ð·
Ð°ÑĢÐ¾Ð²Ð°
ĠÑģÑĤÑĢÐ¾Ð³Ð¾
ÑĥÑĢÐ½Ð°Ð»
ĠÑħÐ»ÐµÐ±
ĠÑģÐ¿Ð»Ð°Ð²
ĠÐºÐ°Ð±Ð¸Ð½
Ġ1898
ĠÐ¿ÐµÑĢÐµÐ²Ð¾Ð´Ðµ
ĠÐ¿ÐµÑĢÐµÑħÐ¾Ð´Ð°
ĠÑĦÐ¸Ð»ÑĮÐ¼Ð¾Ð²
ĠÐ¿ÑĢÐ¸Ð½Ð¸Ð¼Ð°ÑĤÑĮ
ĠÑįÐºÐ²Ð¸Ð²Ð°Ð»ÐµÐ½ÑĤ
Ġx
ĠÐ²Ð±Ð»Ð¸Ð·Ð¸
ÐºÐ¾Ð²Ð¾Ð³Ð¾
ĠÑĢÐ°Ð·ÑĥÐ¼
Ð°ÑģÐ¾Ð²
ĠÐĲÑĦÐ³Ð°Ð½Ð¸
BM
ĠÐºÐ»ÑİÑĩ
ĠÑģÐ¾Ð²ÑĢÐµÐ¼ÐµÐ½Ð½Ð¾Ð¼
ĠÑģÐ¿ÐµÑĨÐ¸Ð°Ð»ÑĮÐ½ÑĭÑħ
ĠÑģÑĤÑĢÑĥÐºÑĤÑĥÑĢÑĥ
ÐµÐ½ÑģÐ°
Ġ1902
ĠÐ²ÑģÐ¿Ð¾Ð¼
ÑĩÐ½Ð¾ÑģÑĤÑĮ
ĠÐ¡Ð¾Ð»Ð¾Ð²
ĠÐ¿ÑĢÐ¸ÐºÐ»Ð°Ð´
ĠÐ¸ÑģÐ¿ÑĢÐ°Ð²
ĠÐ¦Ð°ÑĢÑĮ
ĠÐ¾Ð±ÑīÐ¸Ð½
ĠÐŁÑĢÐµÐ´Ð¿Ð¾Ð»
ĠÐ²ÑĭÑĢÐ°Ð¶ÐµÐ½Ð¸Ðµ
ĠÐ¼ÑĥÐ½Ð¸ÑĨÐ¸Ð¿Ð°Ð»ÑĮÐ½Ð¾Ð³Ð¾
age
ĠÐĽÐ°ÑĤÐ²Ð¸Ð¸
ĠÐ¿ÑĢÐ¸Ð²Ð»ÐµÑĩ
ĠÑģÐ¾Ð¿ÐµÑĢ
ĠÐ²Ð½ÑĥÑĤÑĢÐµÐ½Ð½ÐµÐ¹
ĠÐŁÐµÑĤÑĢÐ¾Ð²Ð¸Ñĩ
ĠÑģÐ¾ÑģÑĥÐ´
Ð°Ð»Ð¸Ð¹
ĠÐ½Ð°ÐºÐ¾Ð¿
ĠÐ¿ÑĢÐ¸Ð²ÐµÑģÑĤÐ¸
Ð»ÐµÐ½Ð½Ð¾Ð³Ð¾
ĠÑģÑĤÑĢÐ°Ð½Ð°Ð¼Ð¸
ĠÐ¿ÑĢÐ¾ÐµÐºÑĤÑĥ
ĠÐ¿Ð¸ÑģÑĮÐ¼Ðµ
ÑģÐ¾ÐµÐ´Ð¸Ð½
ÑģÐ°Ð¼Ð¸
ĠÐ²Ð°Ð½
ĠÐ¸Ð½Ð¾Ð¹
ÑĢÐ¸Ð±Ñĥ
ĠÐºÐ¾Ð´Ð°
ĠÑĢÐ°ÑĨÐ¸Ð¾Ð½Ð°Ð»ÑĮ
ĠÑĢÐ°Ð±Ð¾
ĠÐ¾ÑĤÐµÑĩÐµ
ĠÐŀÐ½Ð¾
Ð³Ð¸Ð¾Ð½
Ð»Ð¾Ð¶ÐµÐ½Ð¸Ðµ
2007
ĠÑģÑĤÑĢÑĥÐºÑĤÑĥÑĢÐµ
ĠÐ´Ð¾ÐºÑĥÐ¼ÐµÐ½ÑĤÐ¾Ð²
ĠÐŁÑĢÐµÐ·Ð¸Ð´ÐµÐ½ÑĤÐ°
ĠÐ²Ð¾ÐµÐ½Ð½Ð¾ÑģÐ»ÑĥÐ¶
ĠÐľÐĵÑĨ
ĠÐ¾Ð±Ð¾Ð¸Ñħ
ĠÐ±Ð¾Ð»Ð¾ÑĤ
Ð»Ð¸Ð²Ð°ÐµÑĤ
ĠÐ¿ÑĢÐµÐ´Ð»Ð°Ð³
ĠÐ·Ð½Ð°ÑĩÐµÐ½Ð¸Ð¹
ĠÑĨÐµÐ½ÑĤÑĢÑĭ
ĠÐĴÐ¾ÐµÐ½Ð½Ð¾
ĠÐ¿Ð¾ÑıÐ²Ð¸Ð»Ð¾ÑģÑĮ
ĠÑģÑĬÐµÐ·Ð´
//
ML
Ð·Ð½
ĠÐ²ÑĭÑĢÐ°Ð±Ð¾ÑĤ
ÑĥÑĤÑĭ
ĠÐ¾Ð¿ÑĢÐ°Ð²
ÑĨÐ¸Ð¾Ð½Ð½ÑĥÑİ
ÑĤÐ¾ÑĢÐ¸Ñı
ĠÐ´Ð¾ÑģÑĤÐ¾
ĠÑĩÐµÐ¼Ð¿Ð¸Ð¾Ð½Ð°ÑĤÐ°
ÑĥÐ¼Ð°Ð½Ð¸ÑĤÐ°ÑĢ
ĠÑĩÑĳÐ¼
ĠÑĤÐ°ÐºÐ°Ñı
ĠÐ§ÐµÐ»Ñı
ĠÑĦÐ¸Ð·Ð¸ÑĩÐµÑģÐºÐ¾Ð¹
ĠÐĳÐ¾Ð»ÑĮÑĪÐ¾Ð³Ð¾
Ð¸Ð½Ð´
ĠÐ¿ÑĢÐ¾Ð³ÑĢÐ°Ð¼Ð¼Ñĥ
Ġ1901
ĠÐ¼Ð°Ð³Ð¸ÑģÑĤÑĢÐ°
ĠÐ½Ð°ÑģÑĤÑĥÐ¿Ð»ÐµÐ½Ð¸Ðµ
ĠÐ¡Ð¸ÑĨÐ¸
ĠÐĴÐ¸Ð·Ð°Ð½ÑĤÐ¸Ð¸
ÐµÐ»ÑĳÐ½Ð½ÑĭÐµ
Ð½Ð°Ð¹
ĠÐĹÐµÐ²
ĠÑĢÐµÑĪÐµÐ½Ð¸Ð¹
ĠÐ°Ð¼ÐµÑĢÐ¸ÐºÐ°Ð½ÑģÐºÐ¾Ð¹
ĠÑĤÑĢÐ°Ð½ÑģÐ¿Ð¾ÑĢ
ĠÑħÑĥÐ´Ð¾Ð¶Ð½Ð¸ÐºÐ°
ĠÐ¡ÑĤÐ°Ð»Ð¸Ð½
ĠÐ¸Ð·Ð¾Ð±ÑĢÐµÑĤÐ°ÑĤÐµÐ»ÑĮ
ÐĻÐ¾ÑĢÐº
ial
ĠÐĵÐ¸Ð¼
ÐļÐ¾ÑĢ
ĠÐºÐ°Ð¶Ð´Ð¾Ð¼
ĠÑģÑĤÐ¾Ð»Ð¸ÑĨÐµ
ĠÐ¼ÐµÐ¶Ð´ÑĥÐ½Ð°ÑĢÐ¾Ð´Ð½ÑĭÐ¹
ĠÐ¾ÐºÐ°Ð·Ð°Ð»Ð°ÑģÑĮ
ĠÐ²ÑĭÐ¿Ð¾Ð»Ð½ÐµÐ½Ð¸Ñı
ĠÐ¿Ð¾Ð´ÑĤÐ²ÐµÑĢÐ¶Ð´
ĠÐŃÑĤÐ¸Ð¼Ð¾Ð»Ð¾Ð³Ð¸Ñı
ĠÐ®Ð³Ð¾ÑģÐ»Ð°Ð²
Ð¾ÑģÐµÐºÑģÑĥ
Ð¾ÐºÐ¾Ð½
ĠÐ¾ÑģÐ½Ð¾Ð²Ð¾Ð¿Ð¾Ð»Ð¾Ð¶
ĠÐ½ÐµÐ¼ÐµÑĨÐºÐ¾Ð¹
ĠÐ±ÑĢÐ¸Ð³
ĠÐ¿ÑĢÐ¸Ð´ÐµÑĢÐ¶
ĠÐ¸Ð½Ð´ÐµÐ¹
Ð´Ð¸Ñİ
ĠÐ°Ð½Ð°Ð»Ð¸ÑĤ
ĠÑĢÐ°Ð±Ð¾ÑĤÐ°Ñħ
ĠEx
ĠÐ¿ÑĢÐ°Ð·Ð´Ð½Ð¾Ð²
ĠÐ¼Ð¸ÑĤÑĢÐ¾Ð¿Ð¾Ð»
ĠÐĳÑĥ
ĠÐ¿Ð¾ÑģÐ¾Ð»ÑĮ
ĠÐ¥ÑĢÐ¸ÑģÑĤÐ¸Ð°Ð½
ÐķÐ´Ð¸Ð½
ĠÐ±ÐµÑĢÐµÐ³Ð°
ĠÑĥÑĤÐ²ÐµÑĢÐ¶Ð´Ð°Ð»
ĠÐ½Ð°ÑĥÐºÐµ
ĠÑģÐ¾Ð³Ð»Ð°ÑĪÐµÐ½Ð¸Ñı
ĠÐ³Ð¾Ð²Ð¾ÑĢÐ¸Ð»
ĠÑģÐ¿ÑĢÐ°Ð²ÐµÐ´Ð»Ð¸Ð²
ĠÐ¿Ð¾Ð»ÑĥÐ¾ÑģÑĤÑĢÐ¾Ð²
ĠÐ¿ÑĢÐ¸Ð±Ð»Ð¸Ð·Ð¸ÑĤÐµÐ»ÑĮÐ½Ð¾
ment
Ð¾Ð¿Ð¾Ð´
ĠÐĳÑĢÑĥ
ÐŀÑĤ
ĠÐ¾ÑĤÐºÑĢÑĭÐ»
ĠÐ¾Ð±ÑĢÐ°Ð·Ð¾Ð²Ð°Ð½
ĠÑĥÐ³Ð»Ð¾Ð²
ĠÑģÐ¸Ð´
ĠSh
ĠÐ·Ð°ÑĤÑĢÑĥÐ´
ĠÑģÑĤÐ¾Ð»Ð¸ÑĨÑĥ
Ð°Ð½Ñĩ
ÑĳÐ¼Ñĭ
ÑģÑģÑĭ
ĠÐ¿ÑĢÐ¾ÑĤÐµÐºÐ°
ĠÐ¸ÑģÑĤÐ¾ÑĢÐ¸ÑĩÐµÑģÐºÐ¾Ð¹
ĠÐ²ÑĭÑģÐ¾ÑĤÑĭ
Ð¸Ð³ÑĢÑĭ
ĠÐ½ÐµÐºÐ¾ÑĤÐ¾ÑĢÑĭÐ¼
ĠÐ¸ÑģÑģÐ»ÐµÐ´Ð¾Ð²Ð°Ð½Ð¸Ðµ
ĠÑģÐ»Ð¾Ñı
ĠÑģÑĤÑĢÐ°Ð´
ĠÑĤÑĢÐµÐ±ÑĥÐµÑĤÑģÑı
ĠÑĢÐµÐ³ÑĥÐ»Ð¸ÑĢÐ¾Ð²
ĠÐ²Ð½Ð¸Ð¼Ð°Ð½Ð¸Ñı
ĠÐ¡ÑĤÐµÑĦ
ys
á¼
ÑĤÑĢ
ĠÑģÐ»Ð°
Ð»ÑıÑı
ÐľÐ¾ÑģÐº
ĠÐ¿ÑĢÐ¾ÑĤÐ¸Ð²Ð¾ÑģÑĤÐ¾Ñı
ĠÐļÐ¾Ð¼Ð¼ÐµÐ½ÑĤ
rom
ĠÐ½ÐµÐ·Ð°Ð²Ð¸ÑģÐ¸Ð¼Ð¾
ĠÑıÐ²Ð»ÐµÐ½Ð¸Ðµ
ÑĢÐ°ÑĦ
ÑİÑĢÐ¸
ĠÐ¶ÑĳÐ»
ÑĥÑĤÑģÑı
ĠÐ¿Ð¾ÑĤÐµÑĢÐ¸
ĠÐµÐ²ÑĢÐ¾
ĠÐłÑĥÑģÑģÐºÐ¸Ðµ
ĠÑģÐµÐºÑĢÐµÑĤÐ°ÑĢÑĮ
ĠÑģÐ¿ÐµÑĨÐ¸Ð°Ð»Ð¸ÑģÑĤÐ¾Ð²
ĠÐ¿Ð¾Ð´ÑĩÑĳÑĢÐºÐ¸
Ð²Ð°Ð»ÑģÑı
ĠÐ´Ð°ÑĤÑĮ
ĠÐ°Ð´Ð°Ð¿
ĠÐŁÑĢÐ¾Ð±
ĠÐ¾ÑĤÑĩÑĳÑĤ
ĠÐłÐ°Ð±
ĠÐ¤ÑĢÐ°Ð½Ðº
2001
ĠÐ²ÐµÐ»Ð¸ÐºÐ¸Ð¹
ĠÑĢÐ°ÑģÐºÑĢÑĭ
ÑĪÑĥ
ĠÐļÐ°Ñģ
ĠÐľÑĭ
Ð¾Ð·Ð´ÑĥÑĪ
ĠÑĢÐ°ÑģÑģÐµ
ĠÐ¿ÑĢÐ¾Ð¸Ð·Ð²Ð¾Ð´ÑģÑĤÐ²Ðµ
ĠÐ½ÑĥÐ¶Ð´
ĠÐ¿ÑĢÐµÐ¾Ð´Ð¾Ð»
ĠÐ²ÑĭÑģÐ¾ÑĤÐµ
ĠÑĩÐ°ÑģÑĤÐ½ÑĭÑħ
ĠÐ´ÐµÐ¹ÑģÑĤÐ²Ð¸ÑĤÐµÐ»ÑĮÐ½Ð¾
ĠÑįÐ»ÐµÐºÑĤÑĢÐ¾Ð´
ĠÑģÐºÐ¾ÑĢÐ¾ÑģÑĤÑĮÑİ
ĠÐĲÐ´Ð°Ð¼
ĠÐ¿Ð»Ð¾ÑĤÐ½Ð¾ÑģÑĤÑĮ
ĠÐ»Ð¸ÐºÐ²Ð¸Ð´Ð°
ĠÐ´Ð¸ÑĢÐ¸Ð¶ÑĳÑĢ
ĠÑĢÐ°ÑģÐ¿ÑĢÐ¾ÑģÑĤÑĢÐ°Ð½Ð¸
Ð±ÐµÐ¶
Ð¾Ð´Ð¾Ð²
Ð¾Ð¼Ð¾ÑĢÑĦ
ĠÐĳÐ¾Ð½
Ð¸Ð²ÑĪÐµÐ³Ð¾
ĠÐ¥Ð°ÑĢÐ°ÐºÑĤ
ÑĤÐ¸ÑĩÐµÑģÐºÐ¸Ð¼
ĠÑĢÐ°ÑģÐ¿ÑĢÐ¾ÑģÑĤÑĢÐ°Ð½ÐµÐ½Ñĭ
ĠÑĢÐµÐ²Ð¾Ð»ÑİÑĨÐ¸Ñı
ĠÐ²Ð»Ð°Ð´ÐµÐ»ÑĮ
ĠÐ¿Ð°ÑģÑĤ
ĠÐĴÐ¾Ð»Ð¾Ð³
ÑģÑĤÐ²Ð°Ð¼Ð¸
ĠÐ½Ð¾ÑĢÐ²ÐµÐ¶
ĠÐ·Ð°Ð½Ð¸Ð¼Ð°Ð»ÑģÑı
ĠÑĦÐ¾Ð»ÑĮÐºÐ»
ĠÐ´Ð¾Ð³
Ð¸Ð¼Ð¾Ð¹
ĠÑģÐºÑĢÐ¸Ð¿
ĠÑĥÑĩÐ°ÑģÑĤÐ¸ÐµÐ¼
Ð²Ð°ÑĤÑĮÑģÑı
ÑīÐ¸ÐºÐ°
Ð°ÑĢÐ½Ð°Ñı
ĠÐĽÐ¸Ð±
Ð¼Ð°Ð³
ĠÐ¿Ð¾ÑĤÐµÐ½ÑĨÐ¸Ð°Ð»ÑĮ
ĠÐ²Ð¾Ð´Ð¾
ĠÐºÐ°Ð½Ð°Ð»Ð°
ĠÑģÐ½Ð¸Ð·
ĠÐĲÑĢÑħÐ°Ð½Ð³ÐµÐ»ÑĮ
ĠÐĶÑĢÐµÐ²Ð½ÐµÐ¹
ĠÐ±ÑİÐ´Ð¶ÐµÑĤ
ram
ĠÑĥÐ¶
Ð¸Ð·Ð°ÑĨÐ¸Ñı
ĠÑģÐ¿ÐµÑĨ
ĠÑģÐ¾Ð±ÑģÑĤÐ²ÐµÐ½Ð½Ð¾Ð¹
ÐľÐ°Ð½
ĠÐ¯Ð²Ð»Ñı
Ġ800
ĠÐ¶ÐµÐ»ÑĥÐ´
ĠÐ¡Ð²ÑıÑĤÐ¾Ð¹
ĠÐºÐ¾Ð½ÑĦÐ»Ð¸ÐºÑĤÐ°
ĠÐĴÐ¾Ð¹Ð½Ð°
ÑĢÐ¸ÑĦÐ¼ÐµÑĤ
ĠÐ¯Ð·Ñĭ
ĠÐ¿Ð¾Ð·Ð²Ð¾Ð»ÑıÑİÑĤ
ĠÐ¾ÐºÑĢÑĥÐ³Ðµ
ĠÐºÐ»Ð°ÑģÑģÐ¸ÑĦÐ¸ÐºÐ°ÑĨÐ¸Ð¸
ĠÐ·Ð½Ð°ÑĩÐ¸ÑĤÐµÐ»ÑĮÐ½Ð¾Ðµ
ĠÐ¾ÑĤÐ´ÐµÐ»ÐµÐ½Ð¸Ðµ
ĠÐĶÐµÐ¿ÑĥÑĤÐ°ÑĤÑĭ
ÐµÐ´Ð½ÐµÐ²
ĠÑģÑĤÑĢÐ¾Ð³
Ð°Ð½Ð¾Ð²Ð¸Ñĩ
ĠÐ¼ÐµÑģÑĤÐ¾Ð¼
ĠÐ¿ÑĢÐµÐ´Ð¿ÑĢÐ¸ÑıÑĤÐ¸Ðµ
ĠÑģÑĤÐ°Ð½Ð¾Ð²ÑıÑĤÑģÑı
ĠÐ¿Ð¾Ð´ÑĢÐ°Ð·ÑĥÐ¼
Ð»Ð¸Ñģ
ĠÐ¡Ð¸Ð»ÑĮ
ĠÑģÐ²ÑıÐ·ÐµÐ¹
ĠÐ¶Ð¸Ð²Ð¾Ð¿Ð¸ÑģÐ¸
ĠÐ¾ÑĦÐ¸ÑĨÐµÑĢÐ¾Ð²
ĠÐ¿ÑĢÐ¾Ð»Ð¸Ð²
Ð´Ð°Ð½
ĠÑĥÑħÑĥÐ´
ĠÑįÐ»
ĠÐ´ÐµÐ»Ð¸ÑĤÑģÑı
ĠÐ´Ð¾Ð»Ð»
ĠÐ²ÑĭÑģÑĤÑĥÐ¿Ð»ÐµÐ½Ð¸Ñı
Ð»ÐµÐ²Ð¾
ĠÐ¶ÐµÐ½Ñĭ
ĠÑĢÐ°Ð·Ð»Ð¸ÑĩÐ¸Ñı
ĠÐ½ÐµÐ´ÐµÐ»Ð¸
ĠÐĵÐ¾ÑģÑĥÐ´Ð°ÑĢÑģÑĤÐ²ÐµÐ½Ð½Ð¾Ð³Ð¾
ĠÐ¿Ð»Ð¾ÑģÐºÐ¾ÑģÑĤÐ¸
ĠÑĤÐµÑģÑĤ
ĠÐ¸Ð·Ð¾Ð±ÑĢÐ°Ð·
ÐºÑĥÐ´Ð°
ĠÐ²Ð¾Ð¿ÑĢÐ¾ÑģÐ¾Ð²
ĠÐ´Ð¸Ð²Ð¸Ð·Ð¸Ð¸
ain
Ġ!
ÐºÐ°Ð»ÑĮ
ÐµÐ½Ð¾Ñģ
ÑĢÐµÐ³Ñĥ
ĠÐĲÐ±Ñĥ
ĠÑģÑĤÐµÐ½Ñĭ
ĠÐ¸Ð¼ÐµÐ½Ð¾Ð²
ĠÐŀÐ´Ð½Ð°
ĠÐ¼Ð°ÐºÐµÐ´Ð¾Ð½
ĠIntern
ĠÐĳÐ¾Ð»Ð³Ð°ÑĢÐ¸Ð¸
Ð°Ð»ÐºÐ¸
ÐµÐ»Ð»Ð°
Ð»Ð¸Ð³
ĠÑĢÐ°Ð·ÑĢÑı
ÐļÐ¾Ð½
ĠÑģÐ¾Ð±ÑģÑĤÐ²ÐµÐ½Ð½ÑĭÐµ
ÑĢÐ¾ÑģÐ°
1995
ÐµÐ½ÑĤÐ¸ÑĢÐ¾Ð²Ð°Ð½
ĠÐ¢ÑĢÐ°Ð´Ð¸
ĠÐ°Ð¼ÐµÑĢÐ¸ÐºÐ°Ð½ÑģÐºÐ¸Ñħ
ĠÐ¾Ð·ÐµÑĢÐ¾
Ð°ÑīÐ¸Ðµ
ĠÐĵÐµÐ½ÑĢÐ¸
ĠÐºÑĢÐ°Ð¹Ð½ÐµÐ¹
ĠÐ±Ð¸ÑĤÐ²Ð°
bo
Ð·Ð¾ÑĢ
ĠÐ»Ð¸Ð¼
ĠÐłÐµÐ¹Ð½
ĠÑĢÐµÑĨÐµÐ¿
ĠÐ¿ÑĢÐ¾ÑĪÐµÐ´
Ġ1870
ĠÐ¾ÑĤÐ»Ð¸ÑĩÐ°ÑİÑĤÑģÑı
.Â»
ĠÐļÐ½Ñı
ÑģÑĤÐ¸ÐºÐµ
ĠÐ¼Ð¾Ð³Ð»Ð¾
ĠÑĢÐ°Ð·Ð²Ð¸ÑĤÐ¸ÐµÐ¼
ĠÐ¸Ð½ÑĤÐµÑĢÑĦÐµÐ¹
ĠÑĦÐ¸Ð½Ð°Ð½ÑģÐ¸ÑĢÐ¾Ð²
ĠÐŁÑĢÐ°Ð²Ð¸ÑĤÐµÐ»ÑĮÑģÑĤÐ²Ð°
ĠÐ¾Ð¿Ð¿Ð¾Ð·Ð¸
ĠÐºÐ¸Ð½ÐµÐ¼Ð°ÑĤÐ¾Ð³ÑĢÐ°ÑĦ
Ð°Ð»Ð¸Ñİ
ĠÐ²Ð¾ÑĪÐ»Ð°
ĠÐ¾Ð±Ð»Ð°Ð´Ð°
Ð»Ð¸Ð¹ÑģÐºÐ¸Ð¹
ĠÑģÐ¿ÐµÑĨÐ¸Ð°Ð»ÑĮÐ½Ð¾
ĠÐ¾ÑĤÐºÑĢÑĭÑĤÑĭÐ¹
ĠÑģÐ¾ÐºÑĢÐ°
ĠÐ±Ð°ÑģÐºÐµÑĤ
ĠÐĶÐ¶Ð¾Ð½Ð°
ĠÐŀÐ´Ð½Ð¾Ð²ÑĢÐµÐ¼ÐµÐ½Ð½Ð¾
uss
Ġ1880
ĠÐ¿Ð¾ÑħÐ¾Ð´Ð°
ĠÐ¡ÑĤÐ°Ð»Ð¸Ð½Ð°
ĠÐ²ÐµÐ»Ð¾ÑģÐ¸Ð¿
ET
ÐºÑĥÑĢ
ĠÐºÑĢÐµÐ¹
ÑĪÐµÐ²
ĠÐ±Ð°ÐºÑĤ
ĠÐ¾ÑĤÐ²Ðµ
Ð¸ÑĤÐµÐ»ÑĮÐ½ÑĭÐ¼Ð¸
ĠÐ¿Ð»ÐµÐ¼ÐµÐ½Ð°
ĠÐ¿Ð¾ÑģÑĤÑĥÐ¿Ð¸Ð»
ĠÐ»ÑĳÑĤÑĩÐ¸Ðº
ĠÐ¾ÐºÐ°Ð·ÑĭÐ²
ÑĨÐ¸Ð·Ð¼Ð°
ĠÐ³Ð»Ð°Ð²Ð¾Ð¹
ĠÐ±ÐµÑģÐ¿Ð»Ð°ÑĤ
ĠÐŁÐ¾Ð±ÐµÐ´Ñĭ
ĠÐ¸Ð·Ð´ÐµÐ»Ð¸Ð¹
IX
ĠÐ½Ð¸Ñĩ
Ð°Ð»Ð¾Ð½
ĠÑĢÐµÐºÑĥ
ence
iss
ĠÑģÐµÐ»ÑĮÑģÐºÐ¸Ñħ
ĠÑģÐºÐ°
Ð°Ð»Ð°Ð¼
ĠÐĺÐ»
ĠÐ¿Ð¾Ð²Ðµ
ĠÐ¾ÐºÑĢÑĥÐ¶Ð½Ð¾ÑģÑĤÐ¸
ĠÐ¿Ð¾Ð¿ÑĥÐ»ÑıÑĢÐ½Ð¾ÑģÑĤÑĮ
ĠÑĤÐµÐ»ÐµÐ²Ð¸Ð·Ð¸Ð¾Ð½
ĠÑģÐ¾Ð±ÑģÑĤÐ²ÐµÐ½Ð½Ð¾ÑģÑĤÐ¸
ĠÐ½Ð¸ÐºÐ°ÐºÐ¸Ñħ
ĠÐ¡Ð¡
ĠÑĦÐµÑĢÐ¼
ĠÐºÐ¾Ð½ÑĦÐ¸
ĠÐµÐ²ÑĢÐ¾Ð¿ÐµÐ¹ÑģÐºÐ¾Ð¹
ĠÑħÐ°ÑĢÐ°ÐºÑĤÐµÑĢÐ¸Ð·ÑĥÐµÑĤÑģÑı
ĠÐ¿ÑĢÐ¾Ð¼ÐµÐ¶Ñĥ
land
ÑĢÐ°ÑģÐ¾Ð²
Ð¿ÑĢÐµÐ·Ð¸Ð´ÐµÐ½ÑĤ
ÑĨÐ°Ñħ
ÐºÐ°Ñģ
ĠÑįÑģÐºÐ°Ð´
ĠÐĵÐ¸Ð´
ÐµÑĨÐºÐ¾Ð³Ð¾
ĠÐ¾ÑģÑĤÐ°Ð»ÑģÑı
lin
ĠÐĴÐ¾Ð»ÑĮ
ĠÐĺÐ´Ðµ
Ð¡ÐµÐ²ÐµÑĢ
ĠÐķÐ»ÐµÐ½Ð°
ĠÐ²Ð¾Ð´Ð¾ÑħÑĢÐ°Ð½Ð¸Ð»Ð¸
ĠÐ¼Ð°ÑĢÑĪÑĢÑĥÑĤ
ĠÐ²Ð¾ÑģÑĮÐ¼Ð¸
ÑĢÑĥÐ¶Ðµ
ĠÑĦÐ°ÑĢ
ĠÐ¿Ð¾Ð»Ð½Ð¾Ðµ
ĠÐ¼ÐµÑĤÐ¾Ð´Ð°
ĠÐ¿Ð¾ÑıÐ²Ð»ÐµÐ½Ð¸Ðµ
ĠÐĺÐ¾ÑģÐ¸ÑĦ
ÑĤÐµÐº
Ð»ÑĳÑĤ
ĠÐ¿ÑĢÐ¾Ð·Ð°
ĠÑĤÑĢÐ°Ð´Ð¸ÑĨÐ¸Ð¾Ð½Ð½Ð¾
ĠÐ±Ð¾ÑĢÑĮÐ±Ð°
ĠÑĤÐ¾Ðº
ĠÐłÐµÐ¶
ÐłÐĵ
ĠÐ°Ð½ÑģÐ°Ð¼Ð±
ĠÐ´ÐµÐ¹ÑģÑĤÐ²Ð¸ÑĤÐµÐ»ÑĮÐ½Ð¾ÑģÑĤÐ¸
ĠÐºÐ°ÑĢÐ´Ð¸Ð½
ĠÐ²ÑģÑĤÑĢÐµÑĩÐ°
ĠÐŁÐ¾Ð´Ð¾Ð±
ĠÐ¸ÑģÑĤÐ¾ÑĩÐ½Ð¸Ðº
ĠÐ¿ÑĢÐ¾ÑĪÐ»Ð°
ĠÐºÐ»Ð°ÑģÑģÐ¾Ð²
ĠÐ½Ð°Ð·Ð½Ð°
ÑģÑĤÑĢÐ¸ÑĢÐ¾Ð²
ĠÐ²Ð¸ÑĢÑĤÑĥ
ÑīÐµÐ½Ð¸Ðµ
Ð°Ð½Ð´Ð°ÑĢÑĤ
Ð¸ÑĢÐ¾Ð²Ð°Ð»Ð¸
ĠÐ¿ÑĢÐ¾Ð´Ð¾Ð²Ð¾Ð»ÑĮ
ĠÐ²ÑģÑĤÑĢÐµÑĤÐ¸
ĠÐ·Ð°Ð¿Ð°Ð´Ð½ÑĭÑħ
ĠÐ»Ð¸ÑĤÐµÑĢÐ°ÑĤÑĥÑĢÐ½ÑĭÐ¹
ĠÐ¾ÑĨÐµÐ½ÐºÐ¸
ĠÑģÐ²ÑıÑīÐµÐ½Ð½Ð¾Ð¼
Ð²Ð¾Ðº
ĠÐ¿Ð¾Ð³ÑĢÐ°Ð½Ð¸Ñĩ
ĠÐ°ÑĢÐµ
ÑĳÑĢÐ¾Ð¼
ĠÐłÐ°ÑģÑĤ
ĠÐ²ÑĭÑģÐ¾ÐºÐ¸Ð¼
ĠÐķÐºÐ°ÑĤÐµÑĢÐ¸Ð½Ñĭ
ĠÑħÑĢÐ°Ð½ÐµÐ½Ð¸Ñı
ÐµÐ¼ÑĭÐ¼Ð¸
ĠÐ¾Ð±ÐµÐ·
ÑıÑĤÐ¾Ð¹
ĠÐķÑģÑĤÑĮ
ĠÑĥÐ³Ð¾Ð»
ÐŃÐ½
ĠÑģÐ¿ÐµÑĨÐ¸Ð°Ð»ÑĮÐ½ÑĭÐµ
ĠÐĽÐ°ÑĥÑĢÐµÐ°ÑĤÑĭ
Ð±Ð¾Ð»ÑĮÑĪ
ĠÐ¡Ð¸Ð´
ĠÑĦÐ¾Ð½Ð´
Ð¼ÐµÑģÑĤÐ¸Ð¼
ĠÑĪÐ²ÐµÐ¹ÑĨ
ÑĥÑħÐ¸
ĠÐ·Ð²ÑĥÐºÐ°
ĠÐ¿ÑĢÐµÐ´Ð¼ÐµÑĤÐ¾Ð²
oh
ĠÑģÑĦÐ¾ÑĢÐ¼Ñĥ
ĠÐ°Ð²Ð°
Ð½ÐµÑģÑĤÐ¸
ĠÑģÐ²Ð¾Ð±Ð¾Ð´Ñĥ
ĠÐ¿Ð°Ð¼ÑıÑĤÐ½Ð¸ÐºÐ¸
ĠÐķÐºÐ°ÑĤÐµÑĢÐ¸Ð½Ð°
ĠÐĺÐ¸ÑģÑĥÑģÐ°
Ð¾Ð´Ð¾ÑĢÐ¾Ð´
ĠÐ¿ÑĢÐµÐ´Ð²Ð°ÑĢÐ¸ÑĤÐµÐ»ÑĮ
2014
ĠÐ½Ð°Ð¿Ð¾Ð¼Ð¸Ð½Ð°
ĠÐ¿ÑģÐ¸ÑħÐ¾Ð»Ð¾Ð³Ð¸Ð¸
ĠÐºÐ¸Ð¿
Ð¾ÑĢÐ¾
ĠÐ½ÐµÐ¿ÑĢÐ°Ð²
ĠÑħÐ°Ð»Ð¸
ÐĿÐµ
Ð°ÑĪÐ°
ĠLa
ĠÐ¿ÑĢÐ¸ÑĢÐ¾Ð´Ð½ÑĭÑħ
ĠÐ¿ÑĢÐ¾Ð¶Ð¸Ð²
ĠÐ¥Ð°ÑĢÑĮÐºÐ¾Ð²
pe
ĠÐ°Ð»ÑİÐ¼Ð¸Ð½
ĠÐ²Ð¸Ð´Ñĥ
Ð¿ÑĥÑģÑĤ
ĠÑģÐ»Ð¾Ð¶Ð½Ð¾ÑģÑĤÐ¸
ĠÑģÐ°Ð¼Ð¾ÑģÑĤÐ¾ÑıÑĤÐµÐ»ÑĮÐ½Ð¾
ÐºÑĥÐ»ÑĮÑĤÑĥÑĢ
ĠÐ¿Ð°Ð»Ðµ
Ð¼Ð¸Ð½Ñĭ
ÐµÐ²ÑĢÐ¾Ð¿ÐµÐ¹
Ð¸Ð²Ð°ÑĤÑĮÑģÑı
ĠÐ§ÐµÐ±
ĠÐ¾Ð¿ÑĢÐµÐ´ÐµÐ»ÑĳÐ½Ð½ÑĭÑħ
ĠÑįÐ½ÐµÑĢÐ³Ð¸Ñı
ĠÑģÐ¿ÐµÐºÑĤÐ°Ðº
ĠÐĵÐµÐ¾ÑĢÐ³Ð¸
ĠÑģÐ¾Ð½
ĠÐĵÑĥÑģ
ĠÐ¶Ð°ÑĢ
ĠÐ¸ÑģÐ¿Ð¾Ð²ÐµÐ´
ice
ĠÐ¿ÑĢÐ°Ð²Ð¸ÑĤÐµÐ»ÑĮÑģÑĤÐ²Ð¾Ð¼
ĠÐ²ÑħÐ¾Ð´Ð¸Ð»Ð¸
ĠÐ»Ð¸ÑĨÐ¾
ĠÐ¿ÑĢÐµÐºÑĢÐ°Ñģ
Ð±ÐµÑĢÐ³Ð°
AT
ĠÐ²ÐµÑģÑĤ
Ð¸Ð½ÐºÐ°
ĠÐ¡ÑĥÐ¼
ĠÐĵÐµÐ¹
ĠÐ¾ÐºÑģÐ¸
Ġ46
ĠÐ¦Ð°ÑĢ
1993
ĠÑĦÐ¾ÑĤÐ¾Ð³ÑĢÐ°ÑĦÐ¸Ð¸
ĠÐ½Ð°Ð½ÐµÑģ
ĠÐ³Ð¾Ð²Ð¾ÑĢÐ¸ÑĤÑĮ
ĠÐĿÐ°Ð³ÑĢÐ°Ð´Ñĭ
ĠMicrosoft
ĠÐ¼ÑĥÐ»ÑĮÑĤÐ¸
ĠÐŁÑĮÐµÑĢ
ĠÐļÐ°Ð¹
ĠÐ¾ÑĤÑĢÐ°Ð²
Ð¾Ð¿ÑĥÑĤ
ĠÐ²Ð¾Ð·Ð»Ðµ
ĠÐ¼ÐµÑĤÐµ
ĠÑĢÐµÐ·ÐµÑĢÐ²
ĠÐ²ÐµÑīÐµÑģÑĤÐ²Ð¾
ĠÑĦÐ¾ÑĢÐ¼Ð¸ÑĢÐ¾Ð²Ð°Ð½Ð¸Ðµ
pr
Ð¿ÑĢ
ĠÐ»Ð°Ð·
ÐµÐ·Ñĥ
ĠÐ½Ð°Ð´ÑĳÐ¶
ĠÐ´Ð¾ÑģÑĤÐ¾Ð²ÐµÑĢ
ĠÐ½ÐµÐ¾Ð±ÑħÐ¾Ð´Ð¸Ð¼Ð¾ÑģÑĤÑĮ
ĠÐĴÑģÐµÐ²
ĠÐ²Ð½ÐµÐ´
ĠÐ»ÑİÐ´ÑıÐ¼
ÑĥÑģÑĤÐ¸
ÑĩÐ½Ð¾Ð¼
ÐµÑĢÑı
ĠÐ´ÐµÐ»ÑĮ
Ð¾Ð»ÑĮÐ´
ĠÑĦÐµÐ½Ð¾Ð¼
ĠÑģÐ¾Ð±ÑģÑĤÐ²ÐµÐ½Ð½ÑĭÑħ
ĠÑĢÑĥÐºÐ¾Ð²Ð¾Ð´ÑģÑĤÐ²Ð°
ĠÑıÐ²Ð»ÐµÐ½Ð¸Ð¹
ĠÐ¼ÑĥÐ½Ð¸ÑĨÐ¸Ð¿Ð°Ð»ÑĮÐ½ÑĭÑħ
ĠÐ²ÑĭÐ´ÐµÐ»ÑıÑİÑĤ
ĠÐ±Ð¾Ð¼Ð±Ð°ÑĢÐ´Ð¸ÑĢÐ¾Ð²
cl
Ð¸Ð½ÑģÐºÐ¸Ð¼
ĠÐĲÐŀ
ĠÐ¢Ð°ÑĤÐ°ÑĢ
Ð½ÐµÐ·
ĠÐ·Ð°Ð¿Ð¾Ð²ÐµÐ´
ĠÐ²Ð¾Ð´Ð¾ÑĢÐ¾Ð´Ð°
ĠÑĥÑħÑĥÐ´ÑĪ
ĠÐ±ÑĢÐ°Ðº
Ð¸Ð¼Ð¾Ð²
ÑĢÐ¾Ð²ÐµÐ´
Ð¾ÑĢÐ¸Ð¹
ĠÐ·Ð½Ð°ÑĤ
ĠÑģÑĤÐ°Ð´Ð¸Ð¸
ĠÐ±Ð°ÑģÑģÐµÐ¹
ĠÐŁÐµÑĩ
Ð»ÑıÑħ
ĠÐ¾Ð±ÑīÐµÐ¾Ð±ÑĢÐ°Ð·Ð¾Ð²
ĠÐ½Ð°Ð·ÑĭÐ²Ð°ÐµÐ¼ÑĭÐµ
ĠÑĩÐ°ÑģÐ°
ĠÐ°Ð¿Ð¿Ð°ÑĢÐ°ÑĤÐ°
ĠÐ¿ÐµÑĢÑģÐ¾Ð½Ð°Ð¶
ĠÑĤÑĳÐ¿Ð»
ĠÑģÐ³Ð¾
ÑħÐ°Ð¹
ĠÐ½Ð°Ð¾Ð±Ð¾ÑĢÐ¾ÑĤ
ĠÐĵÐ¾Ð´
ĠÐ¿Ð¾Ð»Ðº
ĠÐ£Ð¾Ð»
ert
ĠÐ²ÑĭÑģÐ¾ÐºÐ°Ñı
ĠÐ¼Ð¾ÑĢÑģÐºÐ¸Ñħ
ĠUnivers
ĠÐ§Ð°ÑĢÐ»ÑĮ
ĠÐºÐ²Ð°Ð»Ð¸
Ð½Ð¸Ð³
ÐµÐ´Ð¸Ñı
ĠÐļÑĢÐ¾Ð½
ĠÐłÐļ
ÑĤÐ¸Ð²Ð½ÑĭÑħ
ary
ĠÐ·Ð°ÐºÐ»ÑİÑĩÐµÐ½Ð¸Ñı
Ð³ÑĢÐ°ÑĨÐ¸Ð¸
ĠÐ²Ð»Ð°ÑģÑĤÐµÐ¹
ĠÐ¶ÐµÐ»ÐµÐ·Ð°
ĠÐºÐ°Ð·Ð°Ñħ
ĠÑĢÐµÐ¹Ñħ
ĠÐ´ÑĥÑĪÐ¸
ĠÐ³Ð¸Ð±ÐµÐ»Ð¸
ĠÐĴÐ¾ÑģÑģÑĤ
Ð¼Ð¾Ð»
ĠÐĵÐ°Ð»Ð¸
ĠÐ²ÐµÑĢÑĭ
ĠÐ´ÐµÑĤÐ¸
ĠÐ³Ð°Ð·Ð¾Ð²
ÑĭÐ²Ð°ÑİÑĤ
1992
ĠÐ²Ð°Ð¶Ð½ÑĭÐ¼
ĠÑģÐ¿ÐµÑĨÐ¸Ð°Ð»Ð¸Ð·Ð¸ÑĢÐ¾Ð²
ĠÐ½ÐµÑĦÑĤÐµÐ¿
ĠÐĿÐ°ÑģÐµÐ»ÑĳÐ½Ð½ÑĭÐµ
ĠÐŁÑĢÐ¸Ð¼ÐµÐ½ÐµÐ½Ð¸Ðµ
Ð¼ÑĥÑĢ
Ð»Ð°Ð·
ĠÐ¡Ð¸Ð³
ĠÐĳÐ¾Ñģ
ĠÐ¢Ð°Ð´Ð¶
ÐºÐ¾Ð²ÑĭÐ¹
Ð¸ÑĤÐµÐ»ÑĮÐ½Ð¾Ð¼
ĠÐºÐ°ÐºÐ¸Ñħ
ong
ĠÐ¡ÑĢÐµÐ´Ð½Ðµ
ĠÐŀÑģÐ½Ð¾Ð²Ð½Ð¾Ð¹
ĠÑģÑĤÐ¾ÑĢÐ¾Ð½Ð½Ð¸ÐºÐ¾Ð²
ĠÑģÐµÐ²ÐµÑĢÐ°
ĠÐ¿Ð¾ÑģÐ»ÐµÐ´Ð¾Ð²Ð°ÑĤÐµÐ»ÑĮÐ½Ð¾ÑģÑĤÐ¸
ĠÐłÐµÐ²Ð¾Ð»Ñİ
Ð»ÑĭÐ¹
ÑģÑĤÐ²Ð¸ÐµÐ¼
ÐµÐ¼Ð¾Ð½
ĠÐ¿ÐµÑĢÐµÑĪÑĳÐ»
ĠÐ¢ÑĥÑĢÐº
ĠÐ¿ÑĭÑĤÐ°Ð»ÑģÑı
ĠÐ³ÐµÐ¾Ð¼ÐµÑĤÑĢÐ¸
ÑĩÐºÐ°
ĠÐ½Ð¸ÑĤ
ĠÐĲÑĢÐ°Ð±
ÐĹÐ²
ĠÐ¸Ð³ÑĢÐµ
ĠÐ¡Ð¾ÑĨÐ¸Ð°Ð»Ð¸ÑģÑĤÐ¸ÑĩÐµÑģÐºÐ¾Ð³Ð¾
ĠÐ½Ð°ÑĤÑĢÐ¸Ñı
ĠÐ·Ð´ÑĢÐ°Ð²Ð¾Ð¾ÑħÑĢÐ°Ð½ÐµÐ½Ð¸Ñı
ĠÑģÐ²ÑıÑīÐµÐ½Ð½Ð¾Ð¼ÑĥÑĩÐµÐ½Ð¸
Ġ'
ÑĥÑĢÐ¾Ð²
ÑĢÐ¸Ð´Ð¶
ĠÐ±Ð¾Ðµ
ĠÐĴÐ°Ð³
ĠÐľÐ¾Ð»Ð¾Ð´
ĠÐ²ÑĭÐ²
ÐµÐ·Ð´Ð¾Ð²
ĠÑĩÐ¸ÑģÐ»Ð¾Ð¼
ĠÐ¼Ð¸Ð½ÐµÑĢÐ°Ð»ÑĮ
ĠÐ¿Ð¾ÑģÑĤÑĢÐ¾ÐµÐ½Ñĭ
ĠÑģÐ²Ð¾ÐµÐ¾Ð±ÑĢÐ°Ð·
Ð¸ÑĦÑĢÐ¾Ð²
ĠÐ¡ÐµÑĢÐ³ÐµÑı
ĠÐ´Ð²Ð¸Ð³Ð°ÑĤÐµÐ»Ñı
ĠÐ½Ð°Ð¹Ð´ÐµÐ½
ĠÐ¡Ð¸ÑģÑĤÐµÐ¼Ð°
Ð¼Ð°Ðº
ĠÐĽÐ¸Ð¿
ÑĥÐ»ÐµÐ¼
ĠÐ¿ÑĢÐ¸Ð¼ÐµÐ½ÑıÑİÑĤÑģÑı
ĠÐŀÑĢÐ»Ð¾Ð²
ĠÑģÑĤÑĢÐ¾Ð¸ÑĤÐµÐ»ÑĮÑģÑĤÐ²Ðµ
ĠÑħÑĥÐ´Ð¾Ð¶Ð½Ð¸ÐºÐ¾Ð²
ĠÑģÑĥÑīÐµÑģÑĤÐ²Ð¾Ð²Ð°Ð»Ð¾
ĠÑģÑĢÐ°Ð²Ð½Ð¸ÑĤÐµÐ»ÑĮÐ½Ð¾
ĠÐ±Ð¸ÑĤÐ²Ñĭ
ĠÐ¶Ð°Ð½ÑĢÐ°
ĠÐ¸Ð½ÑĤÐµÐ»Ð»ÐµÐºÑĤÑĥ
ÑĥÐ±Ð¸Ð¹
ÐĽÑİ
ĠÑĢÐµÐ·ÑĥÐ»ÑĮÑĤÐ°ÑĤÐ¾Ð²
ĠÐ¸Ð·ÑĥÑĩÐµÐ½Ð¸Ðµ
ÑİÑīÐ¸Ð¼ÑģÑı
ĠÐŁÑĢÐµÐ¼Ð¸Ñı
ĠÐ²Ð¾Ð¶Ð´
ÑīÐµÐ½ÐºÐ¾
ĠÐŁÐ»Ð¾ÑĤ
ĠÐ¾Ð±ÑĢÑı
ÑĢÑıÐ½
ĠÐ¾Ð±ÑĬÑıÐ²Ð»Ñı
ĠÐ¿ÑĢÐ¾ÑĪÐ»Ð¾Ð¼
ĠÐŁÐ¾ÑıÐ²
Ġla
Ð½ÑıÑĤÑĮ
ĠÐ´ÑĥÐ¼Ñĭ
ĠÐ¡ÑĤÐ¸Ð²
Ð¼Ð¸ÑģÑĤ
ĠÐ§ÑĥÐ²Ð°ÑĪ
ĠÑģÐ¾Ð·Ð´Ð°Ð½Ð¾
ĠÑĤÐ¸Ð¿Ñĭ
ĠÑĦÐ¸Ð·Ð¸ÑĩÐµÑģÐºÐ¸Ñħ
ĠÐłÐ¾ÑģÑģÐ¸Ð¹ÑģÐºÐ°Ñı
ĠÐºÐ¾Ð»Ð¸ÑĩÐµÑģÑĤÐ²Ð¾Ð¼
ĠÑįÑĦÑĦÐµÐºÑĤÐ°
ĠÐ¿ÑĢÐ¾Ð¸Ð·Ð¾ÑĪÐ»Ð°
ÑħÑĤ
ÑĬÐµÐ·Ð´
ĠÐ²ÑĭÑģÐ°Ð´
ĠÐ¸Ð¼Ð¿ÐµÑĢ
ĠÐ°ÐºÑģÐ¸
ĠÐĹÐµÐ¼Ð»Ñı
ĠÐ¾ÑĤÑģÑĥÑĤÑģÑĤÐ²ÑĥÐµÑĤ
ĠÑģÐ¼ÐµÑģÐ¸
ĠÐ¾Ð±ÑĢÐ°ÑīÐµÐ½Ð¸Ñı
ĠÐĶÐ¾ÑģÑĤÐ¾ÐµÐ²
ĠÐ½ÐµÐ²ÐµÑĢ
ĠÐ±Ð°Ñģ
ĠÐĶÐ°Ð½
ĠÑģÑĢÐµÐ´Ð½Ð¸Ñħ
ĠÐ¿Ð¾Ð¿ÑĢÐ°Ð²
ĠÑįÐºÐ¾Ð½Ð¾Ð¼Ð¸ÑĩÐµÑģÐºÐ¸Ñħ
ĠÐ·Ð°Ð±Ð¾Ð»ÐµÐ²Ð°Ð½Ð¸Ñı
Ð°ÑģÑĤÐ¸
ÑĥÐ»Ñİ
ĠÐºÐ¾Ð¼Ð¿Ð°ÐºÑĤ
ĠÑģÑĤÐ°ÑĢÑĪÐ¸Ð¹
ĠÑĥÑĩÐ°ÑģÑĤÐ¾Ðº
Ġfor
ĠÑįÐºÐ·ÐµÐ¼Ð¿Ð»Ñı
ĠÐ±Ð¾ÑĤÐ°Ð½Ð¸
ĠÐĴÐ¸Ð»
ĠÐĳÑĥÑĤ
Ġ47
Ð¾ÑĪÑĳÐ»
ÑģÑĤÐ²Ð¾Ð²Ð°Ð»Ð°
ĠÐ²Ð¾Ð»Ð½Ð¾Ð²
ĠÑģÑĤÑĢÐµÐ¼Ð¸
ĠÑģÑĦÐµÑĢÑĭ
ĠÐºÐ¸ÑģÐ»Ð¾ÑĢÐ¾Ð´
ĠÑģÐµÑĢÐ¸Ñı
Ð³ÑĢÐ°Ð´Ðµ
ĠÑĢÐµÐ·Ð¸Ð´
ĠÐĲÑĢÐ¼ÑıÐ½
ĠâĨ
ĠÑĨÐ¸Ðº
ÐķÐ¡
ĠÑĢÐµÐ·ÑĥÐ»ÑĮÑĤÐ°ÑĤÐ°Ð¼
ĠÐŁÑĢÐ¾Ð¸ÑģÑħÐ¾Ð¶Ð´ÐµÐ½Ð¸Ðµ
ĠÐ£Ð·Ð±ÐµÐºÐ¸ÑģÑĤ
ÑģÐµÐº
ÑĮÑĳÐ²
ÐµÑĤÐ¸ÐºÐ°
ĠÐĴÐ¾Ð¿ÑĢÐ¾Ñģ
ĠÐ²ÑĭÑħÐ¾Ð´Ð¸ÑĤ
Ð»ÐµÐ½Ð´
ĠÑĪÐ¾Ñģ
Ġdes
ĠÐ²ÑĭÐ±Ð¸ÑĢÐ°
ĠÑĢÑĭÑĨ
ĠÐ¼Ð°Ð»ÑĭÑħ
ĠÐļÐ½Ð¸Ð³Ð°
ÐµÐ½ÐµÐ¹
ĠÐĺÑĢÐ°Ðº
Ð»Ð°ÑģÐ¸Ð»
ĠÐ¿ÑĢÐ¸Ð½ÑıÐ»Ð°
ĠÐ¿Ð¾ÑıÐ²Ð»ÑıÑİÑĤÑģÑı
ĠÐļÐ°Ð¶Ð´ÑĭÐ¹
ÐµÐºÑģÐ°
Ð¸Ð¼Ð¾Ð¼Ñĥ
ĠÑĢÐ¸ÑģÐº
ĠÐľÐ°ÐºÑģÐ¸
ĠÐ³Ð°Ð»Ð°Ðº
ĠÐ¿Ð¾Ð»Ð½Ð¾Ð³Ð¾
Ð»ÐµÐ½Ð½Ð°Ñı
ĠÐ½ÐµÐ´Ð°Ð²
ĠÐ·Ð°Ð½ÑıÐ»Ð¸
ĠÐ·Ð°Ð»Ð¸Ð²Ð°
ĠÐ¡ÐµÐ²Ð°ÑģÑĤ
ĠÐºÐ°Ð»Ð¸
ĠÑģÐ»ÑĥÑĪ
ĠÐķÑĢ
ĠÑģÑĤÑĢÐ°Ñħ
ĠÑģÑĭÐ½Ð¾Ð¼
ĠÐºÐ½Ð¸Ð¶
ĠÐ¾ÑħÐ²Ð°ÑĤÑĭ
Ġ1860
ĠÑģÑĩÐ¸ÑĤÐ°ÑİÑĤÑģÑı
ĠÐºÑĢÑĥÐ¿Ð½ÐµÐ¹ÑĪÐ¸Ð¹
ĠÐ³ÑĢÐ°Ð½Ð¸ÑĨÑĥ
ÑĢÐ°Ð¹Ð¾Ð½
ĠÐŁÐ¾Ð»ÑĮÑĪÐµ
ava
ĠÐĴÐĴÐ¡
Ð¾ÐºÐ¾Ð¼Ð¾ÑĤÐ¸Ð²
ĠÐ³Ð¾ÑĢÐµ
ĠÐ¾Ð±ÑģÑĤÐ°Ð½Ð¾Ð²
ĠÐĵÐ¸Ð»ÑĮ
Ð½Ð¾Ð²ÑģÐºÐ¸Ð¹
ĠÑĢÐ¾Ð·
ÑĳÐ½Ð½Ð¾Ð¼Ñĥ
ÑĦÑĦÐµÐºÑĤÐ¸Ð²
ĠÐ»ÐµÐ³ÐµÐ½Ð´
ĠÑĤÐ²Ð¾ÑĢÑĩÐµÑģÑĤÐ²Ð¾
ĠÐŁÐµÑĢÐµÐ²Ð¾Ð´
ĠÑģÑĥÐ¿ÐµÑĢ
ĠÑģÐ²ÐµÐ´
ÐºÐ¾Ð²Ð°Ñı
ĠÐºÐ°ÑĢÑĤÑĭ
ĠÑĤÐµÐºÑģÑĤÑĭ
ĠÐ¿ÑĢÐ¾ÑģÑĤÑĭÑħ
ĠÐ²ÑĭÑĩÐ¸ÑģÐ»Ð¸ÑĤÐµÐ»ÑĮ
ĠÐ´Ð¸ÑģÐºÑĥÑģ
ĠÐ³Ð¾ÑģÑĤÐ¸Ð½
ystem
ÐµÑĢÐ¾Ð³
ÑĦÑĢÐµÐ´
ĠÐ°Ð²ÑģÑĤÑĢÐ°
ĠÐºÐ¾Ð¼Ð¿Ð°Ð½Ð¸ÐµÐ¹
ĠÐ¼Ð½ÐµÐ½Ð¸Ñı
ĠÐ´ÐµÐ¹ÑģÑĤÐ²Ð¾Ð²
ĠÐ§ÐµÑħÐ¾ÑģÐ»Ð¾Ð²
ÏĤ
ĠÐĳÐµÑĢÐµ
ĠÐ¨Ð°Ð½
Ġ41
ĠÐ°ÐºÑĤÐ¸Ð²Ð½Ð¾ÑģÑĤÐ¸
ĠÑħÑĢÐ¸ÑģÑĤÐ¸Ð°Ð½ÑģÑĤÐ²Ð°
ĠÑĪÑĤÐ°ÑĤÐ°
ĠÐ¾Ð±ÑĥÑĩÐµÐ½Ð¸Ðµ
ĠÐ¿ÑĢÐ¾ÑĦÐµÑģÑģÐ¾ÑĢÐ°
ÐºÐ²Ð°ÑĢ
Ð°Ð»Ð¾Ð³Ð¾Ð²
ĠÐłÐµÐ´
ĠÐ¿ÑĢÐµÐ´ÑģÐºÐ°Ð·
1918
ĠÐºÐ¾Ð¼Ð¿Ð¸Ð»Ñı
ĠÐ·ÐµÐ¼Ð»ÐµÐ´
ĠÐ²ÐµÑĤÑĢÐ°
ĠÐķÐ³Ð¸Ð¿ÑĤÐµ
ĠÑĢÑĭÐ½ÐºÐ°
ÑħÑĢÐ¾Ð½
ÐµÑĤÐ¾Ð½
ĠÐ±Ð»Ð¸
ĠÐ¡ÐµÐ»ÑĮ
ĠÑĦÑĥÐ½
ĠÐ¸ÑģÐ¿Ð¾Ð»ÑĮÐ·ÑĥÑı
ĠÐ²ÑģÑĳÐ¼
ĠÐ½ÐµÐ¼ÐµÐ´
ĠÐºÐ¾Ð½ÑĤÐµÐº
ĠÑģÑĤÐ¾Ð»ÐµÑĤÐ¸Ñı
ĠÐ²ÑĭÑĢÐ°Ð¶ÐµÐ½Ð¸Ñı
ĠÐŀÐºÐ¾Ð½Ñĩ
ĠÐºÐ¾Ð½ÑģÑĥÐ»ÑĮ
ĠÐ¾Ð¿Ð¸ÑģÑĭÐ²Ð°ÐµÑĤ
ÑĳÑĢÑĤÐ²
ĠÐļÐ°ÑĤÐ¾Ð»
ĠÐĲÑģÑĤÑĢÐ°
ĠÐ²Ð¾Ð·Ð²ÐµÐ´
ĠÑıÐ²Ð»ÑıÐ»Ð¸ÑģÑĮ
ĠÐ¿Ð¾Ð²ÐµÑĢÑħÐ½Ð¾ÑģÑĤÑĮ
ĠÑģÑĤÑĢÐµÐ»ÑĮ
ĠÐºÐ¾ÑģÐ¼Ð¸ÑĩÐµÑģÐºÐ¸Ñħ
ĠÐ¿ÑĢÐ¾ÑĩÐ¸Ñħ
ĠÐļÐ°Ð·Ð°ÑħÑģÑĤÐ°Ð½
ĠÐ´Ð¸ÑģÑģÐµÑĢÑĤÐ°
Ð¿Ð»Ð°Ð²
Ð¾Ð»Ð½Ñı
ĠÑĤÐµÑĤ
ĠÐĴÐµÐ¹
Ð¾ÐºÑĥÑģ
Ð³Ð¾ÑĢÐ¸
ĠÐ¾Ð±ÑīÐ¸Ð¹
ĠÐ²ÑĭÑģÐ¾ÐºÐ¸Ð¹
ĠÑģÐ»ÐµÐ´ÑĥÑİÑīÐµÐ¼
ĠÑĪÐ¸ÑĢÐ¾ÐºÐ¾Ðµ
ĠÐ¼ÐµÐ½ÑĮÑĪÐµÐ¹
ĠÐ¾ÑĤÑĢÐ°ÑģÐ»Ð¸
ĠÐ¿ÑĢÐ°
Ð±ÑĥÐ½
ÑģÑĤÐ²Ð¸Ð¹
Ð°ÑĪÐ¸ÑģÑĤ
ĠÐ¿ÑĢÐ¾Ð¸Ð·Ð²Ð¾Ð´ÑģÑĤÐ²Ñĥ
ĠÑħÐ¸Ð¼Ð¸Ðº
ĠÐļÑĢÐ°ÑģÐ½Ð¾Ð³Ð¾
ĠÐ¿ÑĢÐ¸Ð½Ð¸Ð¼Ð°Ð»
ĠÑĦÐ°ÐºÑĥÐ»ÑĮÑĤÐµÑĤÐ°
ĠÐ¡ÑĭÐ½
ĠÐºÐ¾Ð½ÑĨÐµÐ½ÑĤÑĢÐ°ÑĨÐ¸Ð¸
ĠÐºÐ¸ÑĢÐ¿
ĠÐ½Ð°ÑĪÐ¸Ñħ
ĠÐĶÐµÐ½Ð¸
ĠÐĶÐ¸Ð¾Ð½
ĠÐ£ÑģÑĤÐ°Ð½Ð¾Ð²
Ð¾ÑĦÐ¸Ð·
ĠÐ´Ð¸Ð°Ð»Ð¾Ð³
ĠÑģÐ»ÑĥÐ¶Ð¸ÑĤÑĮ
ĠÐ¾ÑģÑĤÐ°Ð²Ð°Ð»ÑģÑı
ĠÐ¼ÐµÑħÐ°Ð½Ð¸ÐºÐ¸
ĠÐºÐ¾ÑĢÐ¾Ð»ÐµÐ²ÑģÑĤÐ²Ð°
ĠÐ¿ÑĢÐµÐ´Ð»Ð¾Ð¶ÐµÐ½Ð¸Ñı
ĠÑģÐ¾ÑģÐ»Ð¾Ð²
ĠÑĥÐ¼Ð½Ð¾Ð¶
ĠÐ²Ð»Ð°Ð´ÐµÐ½Ð¸Ñı
ĠÐ±Ð°ÑĪÐºÐ¸ÑĢ
ĠÐ»Ð¸Ð´ÐµÑĢÐ¾Ð²
Ð¾Ð¶Ð´ÐµÑģÑĤÐ²
ĠÐĴÐĺ
ĠÑĥÐ½
ĠÐŀÐ¿Ð¸Ñģ
ĠPar
ĠÑħÐ¸Ð¼Ð¸ÑĩÐµÑģÐºÐ¾Ð¹
âĢľ,
ĠÐ¼Ð½Ð¾Ð³Ð¾ÑĩÐ¸ÑģÐ»ÐµÐ½Ð½ÑĭÑħ
ĠÐ¡ÑĤÐ°Ð²ÑĢÐ¾Ð¿
Ð±Ð»Ð¾Ðº
ĠÐ²ÑĭÑıÑģ
Ð¸ÐºÐ¾Ð¼
Ð·Ð°ÑĨÐ¸Ñİ
ĠÑįÐºÑģÑĤ
Ð·ÑĭÐ²Ð°ÐµÑĤÑģÑı
ĠÐºÐ°ÑĢÑĤÐ¾
ĠÐ¿Ð¾Ð¿ÑĭÑĤÐºÐ°
ĠÐ°Ð²ÑĤÐ¾Ð¼Ð¾Ð±Ð¸Ð»ÐµÐ¹
ĠÐ½ÐµÐ¸Ð·Ð¼ÐµÐ½
ĠÐ¶Ð¸Ð´ÐºÐ¾ÑģÑĤÐ¸
ĠÑģÐ¾Ð¾ÑĢÑĥÐ¶ÐµÐ½Ð¸Ñı
ĠÐŁÑĢÑĥÑģÑģÐ¸Ð¸
AS
Ñ£
ÐºÑĥÐ»Ñı
ĠÐ¿ÑĢÐ¾Ð²ÐµÑģÑĤÐ¸
ith
1999
ĠÐ¿Ð¾Ð´Ð¿Ð¸ÑģÐ°Ð½
ĠÐ±Ð¾ÑĢÑĮÐ±Ñĥ
ĠComp
ÑģÐ¾ÑĢ
ÐºÐ¾ÑĤ
ÑĦÐ¸Ð»
ÐµÐ»ÑĮÐ´
ĠÐ¾Ð±Ð¾Ð³
ĠÐ²ÑĤÐ¾ÑĢÐ³
Ð»ÑĥÐ³Ð¸
ÑĢÐ°Ð·Ð´Ð½Ð¸ÐºÐ¸
Ð±ÑĥÑĢÐ³Ðµ
ĠÑĤÐµÑĢÐ¼Ð¾Ð´Ð¸Ð½Ð°Ð¼Ð¸
ĠÐ²Ð²ÑĳÐ»
ĠÑĩÑĢÐµÐ·Ð²ÑĭÑĩÐ°Ð¹Ð½Ð¾
Ð»ÐµÑģ
ÑĢÐ¸Ð±
Ð°Ð»ÐµÐºÐ¾
ĠÐĵÐŃÐ¡
ĠÐĳÐµ
ĠÐ¤Ð¾ÑĤ
Ð¼ÐµÐ½Ð°
Ð³ÑĥÐ½Ð°
ĠÐ¿Ð¾Ð»Ð¸ÑĤÐ¸ÑĩÐµÑģÐºÐ¸Ðµ
ics
ĠÐĿÐ¾Ð²Ð¾Ð³Ð¾
Ð¸Ð·Ð¼Ð¾Ð¼
ĠÐŀÑħ
Ð¸ÑĩÐ½Ð°Ñı
Ð°ÑĢÐ¸ÑĦ
ĠÑĦÐ¾ÑĤÐ¾Ð³ÑĢÐ°ÑĦ
ĠÐ½Ð°Ð±Ð»ÑİÐ´ÐµÐ½Ð¸Ñı
Ð¾Ð´ÑģÑĤÐ²Ð¾
ĠÐ¿ÑĢÐµÐ´ÑĥÐ¿
Ð¼ÑĥÐ·Ñĭ
ĠÑĥÑĤÑĢÐ°
ĠÐ·Ð°ÑīÐ¸ÑĤÑĥ
ĠÐ¿Ð¾ÑģÑĳÐ»ÐºÐ°
ĠÑĩÐµÐ»Ð¾Ð²ÐµÑĩÐµÑģÑĤÐ²Ð°
ĠÐ´Ð¸Ð°Ð»ÐµÐºÑĤ
ĠÐ¡Ð°ÐºÑģÐ¾Ð½
ÑĤÐµÐ»
ĠÐłÐµÐº
ĠÐ¿Ð¾Ð»ÐµÐ¼
ÐĲÐ¹
Ð»Ð¸Ð·Ð¾Ð²
ĠÑĥÑģÑĤÐ°Ð½Ð¾Ð²Ð»ÐµÐ½Ñĭ
ĠÑĢÐµÐ³Ð¸ÑģÑĤ
ĠÐŁÐ°Ð»ÐµÑģÑĤ
ĠÐ³Ð¾ÑĤ
ÑĦÐ°Ð»ÑĮ
ÑįÑĢÐ°
ĠÐļÐ¾Ð»ÑĮ
ÐµÐ»ÑĮÐ½ÑĭÑħ
Ð¾Ð·Ð°Ð²
ĠÐĳÐ¸ÑĤÐ²Ð°
ĠÑĨÐ°ÑĢÐ¸
Ġ49
ĠÐŀÐ´ÐµÑģ
ĠÐ³Ð¾Ð»ÑĥÐ±
ĠÐ¨Ð²ÐµÐ¹ÑĨÐ°ÑĢÐ¸Ð¸
ĠÐŁÐµÑĢÑģÐ¾Ð½Ð°Ð»Ð¸Ð¸
ek
ÐµÐ½ÑĤÐ¸ÑĢÐ¾Ð²
ÑīÐ¸ÐºÐ¸
Ð½Ð¸ÑģÑĤ
ĠÐ¿ÑĢÐ¸ÑģÑĤÐ°Ð²
Ð½ÑıÐ¼Ð¸
ĠÑĢÐ°Ð±Ð¾ÑĤÐ½Ð¸ÐºÐ¾Ð²
ĠÐ¸Ð·Ð²ÐµÑģÑĤÐ½ÑĭÐ¼
ĠÐºÐ½ÑıÐ·ÐµÐ¹
ĠÐ¼ÑĥÐ·ÑĭÐºÐ°Ð»ÑĮÐ½ÑĭÐ¹
ĠÑģÐ¾ÑĩÐ¸Ð½ÐµÐ½Ð¸Ñı
ĠÑĥÑĩÑĳÑĤÐ¾Ð¼
ĠÑıÐºÐ¾Ð±Ñĭ
ĠÐºÐ¾Ð²
ĠÐ½Ð°ÑĢ
ĠIP
ÑĤÐ¸Ð²Ð½Ð°Ñı
ĠÑĥÑģÑĤÑĢÐ°Ð½
ĠÑĢÐ°ÑģÑģÐ¼Ð¾ÑĤÑĢ
ĠÐ½Ð°ÑĢÑĥÑĪÐµÐ½Ð¸Ñı
ĠÐ¿ÑĢÐµÐ¿Ð°ÑĢÐ°ÑĤÐ°
ĠÑģÐ°Ð¼Ð¾Ð»ÑĳÑĤÐ¾Ð²
ĠÐ²ÐµÐ±
ĠÐĴÐµÐ»
ĠÐ´ÑĢÐµÐ²Ð½ÐµÑĢÑĥÑģ
ĠÑĢÐ°Ð´Ð¸ÑĥÑģ
Ð±ÑĥÐ´ÑĮ
Ð¾ÑĤÐµÑħ
ĠÑĩÐµÑĢÑĤ
Ð¾Ð±Ð»Ð°Ð´
ĠÐŀÐ¿ÐµÑĢÐ°
Ð¸Ð¿ÐµÐ»
ĠÐ¿Ð¾ÐºÐ°Ð·Ð°Ð»
ĠÐ´Ð¾ÑģÑĤÑĥÐ¿Ð°
ĠÐ±Ð°Ð½ÐºÐ°
ĠÐ¿ÑĥÑĤÐµÑĪÐµÑģÑĤÐ²ÐµÐ½
ĠÐ¾Ð±Ð»Ð°Ð´Ð°ÑĤÐµÐ»ÑĮ
ĠÐ²Ð°ÑĢ
ĠÐĴÐ°ÑĤ
ĠÐ½ÐµÐ¾ÑĤ
ĠÐĵÐ¾Ð³
ĠÐ¤ÑĢÐµÐ´
ĠÐ¿ÑĢÐµÐ´ÑĪÐµÑģÑĤÐ²ÐµÐ½
ĠIBM
ĠÑĢÑĥÑģÑģÐºÐ¸Ð¼
ĠÑįÐºÑģÐ¿Ð¾Ð·
ĠÐĳÐ¾Ð³Ð¾Ð¼
ĠÑĥÐ²ÐµÐ»Ð¸ÑĩÐµÐ½Ð¸Ðµ
ĠÐ²Ð²ÐµÐ´ÑĳÐ½
ĠÐ¾Ð±Ð¾ÑĢÐ¾ÑĤ
ĠÑĢÐµÐ³ÑĥÐ»ÑıÑĢÐ½Ð¾
ĠÑįÐ»ÐµÐºÑĤÑĢÐ¾ÑįÐ½ÐµÑĢÐ³
ĠÑĦÑĥÑĤÐ±Ð¾Ð»ÑĮÐ½ÑĭÐ¹
ÑĤÐ°Ñı
Ð²ÑĪÐ¸Ñħ
ĠÐ²Ð¸ÑĤ
ĠÐ³Ð¸Ð³
Ð°ÐºÐ¸Ð¸
ĠÐľÐ¸ÑĪ
ÑĢÐ¾Ð²ÑģÐºÐ¸Ð¹
ĠÐ¿ÑĢÐ¸Ð·Ð½Ð°Ð²
1980
ÐµÑĢÐ°ÑĢÑħ
Ð°ÑĤÐµÐ»ÑĮÑģÑĤÐ²
ĠÐ°Ð¼ÐµÑĢÐ¸ÐºÐ°Ð½ÑģÐºÐ¾Ð³Ð¾
ĠÑĢÐ°Ð²Ð½
ĠÐļÐ¾Ð¼Ð°Ð½Ð´
ĠÑħÐ°ÑĢÐ°ÐºÑĤÐµÑĢÐ¸ÑģÑĤÐ¸ÐºÐ¸
ĠÐ¾ÐºÐµÐ°Ð½
ĠÑĤÐµÑĢÑĢÐ¾ÑĢÐ¸
ĠÐ£Ð»ÑĮÑıÐ½Ð¾Ð²
ĠÐ¿ÑĢÐ¾ÑĤÐ¸Ð²Ð¾Ð¿Ð¾ÑģÑĤÐ°Ð²
ÑĭÐ¿
ĠÐ¿Ð¾Ð¹
ĠÐŁÑĢÐµÐ¼
Ð¸Ð·Ð²ÐµÑģÑĤ
ÑĢÐ¾Ð¼ÐµÑĤ
ĠÐ¾Ð±ÑīÐ¸Ð¼
ĠÐ½Ð°Ð·ÑĭÐ²Ð°ÐµÑĤ
1994
ĠÐ¾Ð±ÑĢÐ°ÑīÐµÐ½Ð¸Ðµ
Ð¾ÑģÐ¿Ð¾ÑģÐ¾Ð±
ĠÐ±ÐµÐ¶Ð°Ð»
ĠÐłÐµÐ»Ð¸Ð³Ð¸Ð¾Ð·
ĠÐ¡Ð²ÐµÑĢÐ´
ĠÐĿÐļ
Ð»ÑĮÐ½ÑĭÐµ
ĠÑĤÐµÐ»ÐµÑģ
ĠÑĦÑĢÐ°Ð½ÑĨÑĥÐ·ÑģÐºÐ°Ñı
ĠÐ´Ð¾ÑģÑĤÐ¸Ð¶
ĠÐ¿Ð»Ð¾ÑīÐ°Ð´ÑĮÑİ
ĠÐ¿ÑĢÐµÐ±ÑĭÐ²Ð°Ð½Ð¸Ñı
ĠÑģÐ¾Ð´ÐµÐ¹ÑģÑĤÐ²
ĠÐ¼Ð¾Ð±Ð¸Ð»ÑĮ
ĠÐ·Ð°ÑĢÐ°Ð±Ð¾ÑĤ
Ð¸ÑģÑĤÐºÐ°
ĠÐ¿ÐµÑĢÐµÑħÐ¾Ð´Ð¸ÑĤ
ĠÐ¿Ð°ÑĢÐ¾Ð²
ÑĢÐ°ÑĤÐ¸ÑĤÑĮ
ĠBr
ĠÑĥÑĤÐ¾Ð¿
ĠÐ¾ÐºÑĢÑĥÐ³Ð¾Ð²
Ġ->
ĠÐ½Ð¾ÑĢÐ¼Ñĭ
ĠÑģÑĥÑĤÐ¸
ĠÑĤÑĢÐµÐ¼Ñı
ÐµÐºÑĤÐµ
ÑĢÐ°Ð»ÑĮÐ½ÑĭÐ¹
ĠÐłÑĥÑģÑģÐºÐ¸Ð¹
ĠÐ¶ÐµÐ½Ð¸Ð»ÑģÑı
ÐľÐ¾ÑģÐºÐ²Ð°
Ð½Ð¾ÑĢ
Ð²Ð¾Ð±Ð¾Ð´
ĠÐ·Ð¾
ĠÐŀÑģÐµÐ½ÑĮÑİ
ĠÐ½Ð°Ð¿Ð¸ÑĤ
ĠÐŀÑĤÐµÑĨ
ĠÐĵÐ¾ÑĢÐ±Ð°
ĠÐ¾ÑĢÐ´ÐµÐ½Ð¾Ð¼
ĠÑĤÐµÑĢÐ¼Ð¸Ð½Ð°
ĠÐļÑĢÑĥÐ¿Ð½ÐµÐ¹
ĠÐ»Ð¸Ð½Ð³Ð²Ð¸
ĠÑĪÑĤÐ°Ð±Ð°
ĠÐĴÑıÑĩÐµ
ĠÐ¿Ð¾Ð´Ð²Ð¸Ð¶
Ð¾ÑĦÐµ
ĠÐ¾ÑĤÐºÑĢÑĭÐ»ÑģÑı
ĠÑĦÑĥÐ½ÐºÑĨÐ¸Ñİ
ĠÑĤÐ¾Ð»ÐºÐ¾Ð²
ĠÐ´ÐµÐºÐ¾ÑĢÐ°
ĠÐ¿ÑĢÐµÐ¿Ð¾Ð´Ð¾Ð±Ð½Ð¾Ð³Ð¾
ÑĤÐ¾Ð³Ð¾
ÑĢÐ°ÑĨÐ¸Ð¸
Ð°Ð²ÑĪÐ¸ÑģÑĮ
ĠÐ·Ð°Ð²Ð¸
1998
ĠÐłÐµÑģÐ¿ÑĥÐ±Ð»Ð¸ÐºÐµ
ĠÑįÐ»ÐµÐºÑĤÑĢÐ¾Ð½Ð½Ð¾Ð¹
ĠÑģÐ²ÑıÑĤÑĭÑħ
ĠÑĤÑĢÐµÑĤÑĮÐµÐ¹
ĠÐ¾ÑĤÐ¼ÐµÑĩÐ°Ð»
ĠÐ¿Ð°Ð´ÐµÐ½Ð¸Ñı
ĠÐ³ÑĥÐ±ÐµÑĢÐ½Ð°ÑĤÐ¾ÑĢ
ĠÐ¿Ð¾ÐºÐ¾Ð»ÐµÐ½Ð¸Ñı
--
Ã³
ÐºÑĢÐ¾Ð²
ÐµÐ»ÑĮÐ½ÑĭÐ¹
ÐŀÑģ
Ð¼Ð°ÑĤÐ¸Ð²
ĠÐ´Ð¾ÑĢÐ¾Ð³Ðµ
ĠÐ¾ÐºÐ°Ð·Ð°Ð»Ð¾ÑģÑĮ
ĠÐĺÑĤÐ°Ð»Ð¸Ñı
ĠÐ³Ð»Ð°Ð·Ð°
ĠÐ²Ð¾ÐµÐ½Ð°ÑĩÐ°Ð»ÑĮÐ½Ð¸Ðº
Ð¸ÑĦÐ°
ĠÐ¼ÑıÑģ
ĠÐ¤ÑĥÐ½Ðº
Ð»ÐµÐ½Ð½Ð¾Ðµ
Ð´ÐµÑģÑıÑĤ
ĠÐ¿ÑĢÐ¾Ð¼ÑĭÑģ
ĠÐ¿ÑĢÐµÐ´Ð¿ÑĢÐ¸Ð½Ñı
ĠÐºÐ°ÑĢÑĤÐ¸Ð½Ñĭ
ĠÐĲÑĢÑħÐ¸ÑĤÐµÐº
ĠÐ·Ð°ÑħÐ²Ð°ÑĤÐ¸Ð»Ð¸
ĠÐ¿ÐµÑĢÑģÐ¾Ð½Ð°Ð¶ÐµÐ¹
ĠÑģÑİÐ¶ÐµÑĤ
ĠÐĳÐ¸Ð±Ð»Ð¸Ð¸
ÑĩÐ½ÑĭÐ¼Ð¸
ĠÐ±Ð¸ÑĢ
ĠCl
ĠÐ·Ð°Ð¼ÑĥÐ¶
ĠÐ¼Ð½Ð¾Ð¶ÐµÑģÑĤÐ²
ĠÐĵÑĢÐ°Ð¶Ð´Ð°Ð½ÑģÐºÐ¾Ð¹
ĠÐ¿ÑĢÐ¸Ð½ÑĨÐ¸Ð¿Ð¸
ĠÑĥÐ³Ð»ÐµÑĢÐ¾Ð´Ð°
ĠÑģÐ¾Ð·Ð²ÐµÐ·Ð´
ÑĩÐºÐ¸
Ð±Ð°Ð½
ĠÐ¿Ð¾ÑģÑĤÑĢÐ°Ð´
Ð°ÑĤÐµÐ»ÑıÐ¼
ĠÐ¿ÑĢÐ¾Ð²Ð¾Ð´ÑıÑĤÑģÑı
ĠÐµÐ¿Ð¸ÑģÐºÐ¾Ð¿Ð°
ĠÑĤÐ¸ÑĢÐ°Ð¶
ĠÑģÐºÐ¾Ð½ÑĩÐ°Ð»ÑģÑı
Ð°Ð½Ð½Ð¾
Ð½Ð¸Ð±ÑĥÐ´ÑĮ
ĠÐ¾Ð±Ñģ
Ð¾Ð¿ÑĢÐ¾Ð²Ð¾Ð´
ĠÐ¿Ð¾Ð»Ð¸ÑĨÐ¸Ð¸
ĠÐ°Ð½Ð°ÑĢÑħ
ĠÐ¸Ð´ÐµÑİ
ĠÐ¡Ð¿Ð¾ÑĢÑĤ
ĠÐ±Ð¾Ð»ÑĮÐ½ÑĭÑħ
ĠÐºÐ°Ð¼Ð¿Ð°Ð½Ð¸Ð¸
ĠÐŀÑģÐ¼Ð°Ð½ÑģÐºÐ¾Ð¹
Ð¾Ð½Ð³
Ġ110
ÑīÐ¸Ð½Ð°
ĠÐŁÐ°ÑĤ
ĠÑģÐ¸Ð³Ð½
ĠÐľÐ°ÑĢÑĤÐ¸Ð½
ĠÐĺÑģÐºÑĥÑģ
Ð²ÐºÐ»ÑİÑĩÐ°Ñı
.);
ĠÐ±Ð¾ÑĢÑĤÑĥ
ĠÐĲÐ»Ðµ
ÑģÐ¸Ðµ
ĠÐ¿ÐµÑĢÐµÑĪÐ»Ð¸
2016
ĠÑģÑĭÑĢ
ĠÐ²ÑĭÑģÐ¾ÐºÐ¾Ð³Ð¾
1997
ĠÐ·Ð½Ð°ÑĩÐ¸ÑĤÐµÐ»ÑĮÐ½ÑĭÐµ
ide
ĠÐ´Ð²Ð¾ÑĢÑĨÐ°
ĠÑģÑĤÐ¾Ð¸Ð¼Ð¾ÑģÑĤÑĮ
ĠÑĥÑģÐ¸Ð»Ð¸Ñı
ĠÐºÐ²Ð°
ÐµÐ¼Ð¾Ð¼
ĠÐ·ÐµÑĢÐº
Ð¾Ð¿Ð¾Ð»Ñı
Ð²Ð°Ð¶
ĠÑģÐ¾Ð²ÐµÑĤÑģÐºÐ¸Ðµ
ÑıÑīÐ¸Ð¼
ĠÑģÐµÐºÑĥÐ½
ĠÐ²ÑĭÐ¿ÑĥÑģÑĤ
Ð°ÑĤÐ°ÑģÑĤÑĢÐ¾ÑĦÐ°
ĠÑįÐ½ÑĨÐ¸ÐºÐ»Ð¾Ð¿ÐµÐ´Ð¸Ñı
ĠPress
Ð¸ÑĢÐµ
ÑĩÐ¶
ĠÐ°ÐºÑĥ
ĠÑĢÐµÐ°Ð³
ĠÐ¿Ð¾Ð»ÑĥÑĪ
ĠÐ³ÑĢÐ°ÑĦÐ°
2013
ĠÐ·ÐµÐ¼Ð½Ð¾Ð¹
ĠLinux
ĠÐºÑĢÐ¸ÑĤÐ¸ÐºÐ¾Ð²
ÑģÐ¾Ð¼Ð¾Ð»ÑĮ
ĠÑĢÐ°ÑģÑģÑĤÐ¾ÑıÐ½Ð¸Ñı
ĠÐļÐ¾Ð¼Ð¼ÐµÐ½ÑĤÐ°ÑĢÐ¸Ð¸
CP
ĠÐ¡ÐµÐº
Ð¡Ð¸Ð±Ð¸ÑĢ
ĠÐ¿Ð¾Ð»Ð¸Ð¼
ÑĤÐµÐ»ÐµÐ¹
ÑıÐ²Ð¸Ð»Ð°
ĠÐºÐ¸ÑĢÐ¸
ÑĦÐ°Ð³
ĠÐļÑį
ĠÐ¿ÐµÑĢÐµÐ¿ÑĢÐ°Ð²
ĠÐ¾ÑģÐ½Ð¾Ð²Ð½Ð¾Ð³Ð¾
ĠÑĢÐµÑĪÐµÐ½Ð¸ÐµÐ¼
isch
ĠÐĲÐ»ÐµÐºÑģÐµÑı
ĠÐ±ÑĢÐ°ÑĤÑĮÐµÐ²
ĠÐ²ÑĭÐ¶
ĠÐ¢ÐĴ
ĠÐ³Ð¾ÑģÑĥÐ´Ð°ÑĢÑģÑĤÐ²ÐµÐ½Ð½ÑĭÐµ
ÐŃÐ»ÐµÐºÑĤ
ĠÐ¿ÑĢÐ¾Ð´Ð¾Ð»Ð¶Ð°Ð»
ĠÐłÐ°Ð·Ð²Ð¸ÑĤ
ĠÐĳÑĭÐ»Ð¸
ĠÐĴÐ°ÑģÐ¸Ð»Ð¸Ñı
ĠÑģÐµÑĢÐ´ÑĨÐ°
ÑĳÐ¶Ð¸
ĠÐ¿ÑĢÐ¸ÑĪÐ»Ð¸
Ð»ÐµÐ¼Ð°
are
ĠÐ¿Ð¸ÑģÐ°ÑĤÐµÐ»Ð¸
ĠÐ¿ÐµÑĢÐµÐ´Ð°Ñĩ
Ð°ÑĢÐ´Ð¾
ĠÐŁÑĢÐ°Ð²Ð¸ÑĤÐµÐ»ÑĮÑģÑĤÐ²Ð¾
ĠÑģÑĥÑĤÐºÐ¸
ĠÐ·Ð°Ð¼ÐµÑģÑĤÐ¸ÑĤÐµÐ»ÑĮ
ĠÐ¾Ð±ÑģÑĥÐ¶Ð´
ĠÑĤÑĢÐ¾Ð»Ð»ÐµÐ¹Ð±ÑĥÑģ
IS
ÑģÑĤÑĢÐ°Ð½
ĠÐ¿ÑĢÐ¸ÑĳÐ¼Ð°
ĠÐ¿ÑĢÐ°Ð²Ð»ÐµÐ½Ð¸Ðµ
Ð¾Ð»Ð¾Ð³Ð¾Ð²
ĠÑĥÑĩÑĢÐµÐ´
ĠÐ¾Ð±ÑīÐ°Ñı
ĠÐ²Ð¾Ð¿ÑĢÐ¾ÑģÑĥ
ĠÐ¿ÑĢÐ¸Ð±ÑĭÐ»Ð¸
ĠÐļÑĥÐ±ÐºÐ°
Ð³Ð¸ÑĤ
ĠÐ¡ÑĤÐ¾
ĠÐºÐ¾Ð½Ð´ÐµÐ½
Ð¸ÑĢÐ¾Ð²Ð°Ð½Ð½ÑĭÑħ
ĠÐ¿Ð¾Ð²ÐµÑģÑĤÐ¸
ĠÑĤÐµÐ¼Ð°ÑĤ
ĠÑĥÐ¿ÑĢÐ¾Ñī
ĠÐ²ÑĤÐ¾ÑĢÑĭÐ¼
ĠÐļÐ¾ÑĢÐ¾Ð»
ĠÐ¾ÑĤÑģÑĥÑĤÑģÑĤÐ²Ð¸Ñı
ĠÐ²ÑģÐµÐ¼Ð¸ÑĢ
ĠÑĢÐµÐ¶Ð¸ÑģÑģÑĳÑĢÐ°
ĠÐ¿Ð¾Ð»Ð¸
ÐĲÐ¡
ÑĢÐ¾Ð¼Ð°ÑĤ
ĠÐ½Ð°Ð´Ð¾
ĠÑįÐºÐ¾Ð½Ð¾Ð¼Ð¸ÐºÐµ
ĠÑĦÐ¸Ð·Ð¸ÐºÐ¾
old
1989
ĠÐ¾Ð±ÑĭÐºÐ½Ð¾Ð²
ĠÐ¼Ð»ÐµÐºÐ¾Ð¿Ð¸ÑĤÐ°ÑİÑīÐ¸Ñħ
ĠÐ½Ð°ÐºÐ¾Ð½ÐµÑĨ
ĠÐļÐ¾Ðº
ĠÑģÑĤÐ°Ð´Ð¸
ĠÐ¿ÐµÑĢÐµÑĪÐ»Ð°
ĠÑģÐ¾Ð±ÑģÑĤÐ²ÐµÐ½Ð½Ð¾Ð³Ð¾
ĠÐ¡Ð¾Ð²ÐµÑĤÑģÐºÐ°Ñı
ÑĭÐ²Ð°Ð»
ĠÐ²ÑĭÐ´Ð²Ð¸Ð½
ĠÐļÐ°Ð·Ð°ÑħÑģÑĤÐ°Ð½Ð°
ĠÑģÑĭÐ³ÑĢÐ°Ð»
ĠÐ§Ð¸ÑģÐ»ÐµÐ½Ð½Ð¾ÑģÑĤÑĮ
ĠÐ²Ð°ÐºÑĥ
ÑĩÐ½ÑĥÑİ
Ð°ÑĤÐ¾ÑĢÐ¸Ð¸
ĠÐ·ÑĥÐ±
ĠÐ²ÑĭÑģÑĪÐµÐ¹
Ġ95
ĠÐ¾Ð±ÑĢÐ°ÑĤÐ½Ð¾
ĠÐ·Ð°Ð±Ð¾Ð»ÐµÐ²Ð°Ð½Ð¸Ð¹
ĠÐłÐ°ÑģÐ¿Ð¾Ð»Ð¾Ð¶
ĠÐ²ÑĭÑģÐ¾ÑĤÐ¾Ð¹
ww
ÑĢÐ¾Ðµ
Ð²Ð°ÑĤÐ°
ĠÐ¿Ð¸Ðº
ĠÐĲÑĢÐ°Ð²
ĠÐľÑİÐ½
ÐĲÐ»ÑĮ
ons
ĠÐ¿ÑĢÐ¸Ð·Ð½Ð°Ð»
ĠÐ¡Ð¾Ð²ÐµÑĤÑģÐºÐ¸Ð¹
ĠÑĢÐ°Ð·ÑĢÐ°Ð±Ð¾ÑĤÐºÐµ
ĠÐłÑĥÐºÐ¾Ð²Ð¾Ð´
ÑİÑīÐµÐµÑģÑı
ĠÐ²ÐµÐ»Ð¸ÑĩÐ¸Ð½Ð°
ĠÐ¿Ð°Ð¿Ð°
ĠÐ¦ÐµÐ·Ð°ÑĢÑĮ
ĠÐĴÐµÑģÐ½Ð¾Ð¹
ĠÐ°ÑĤÐ¼Ð¾ÑģÑĦÐµÑĢÑĭ
ĠÐļÐ°Ð»Ð¸ÑĦÐ¾ÑĢ
ĠÐŁÐµÑĢÐ¸Ð¾Ð´
com
ĠÑģÐ½Ð°ÑĢÑı
Ð°Ð»ÑĮÐ´
ĠÐºÐ¾Ð»Ð¸ÑĩÐµÑģÑĤÐ²Ñĥ
ĠÐ¾Ð¿ÐµÑĢÐ°ÑĨÐ¸Ñı
ĠÐ½Ð°Ð¿ÑĢÐ¾ÑĤÐ¸Ð²
ĠÐŀÑģÐ½Ð¾Ð²Ð½Ð°Ñı
ĠÑįÑĤÐ°Ð¿Ðµ
ĠÐĹÐµÐ¼Ð»Ðµ
ĠÐ½ÐµÐ±Ð¾Ð»ÑĮÑĪÐ¸Ñħ
ock
ĠÑģÐ²ÑıÐ·ÑĭÐ²
ĠÐ³Ð¾Ð²Ð¾ÑĢÑı
ÑĤÐ°Ð¼
ÑĩÑĥÐº
ĠÑģÐ°Ðº
ÑĦÐµÑģÑĤ
Ð¾Ð±ÐµÑĢÐµÐ¶
Ð¼ÐµÑĪ
ĠÐ¾ÑģÐµÑĤ
ĠÑĪÐ¾ÑĤÐ»Ð°Ð½Ð´
ĠÐ³ÑĢÐ°Ð½Ð¸ÑĨÐ°
Ð¾Ð³ÑĢÐ°ÑĦÐ¸ÑĩÐµÑģÐºÐ¸Ðµ
ĠÐ²Ð»Ð°Ð¶
ĠÑĦÐ°ÐºÑĤÐ¾ÑĢÐ¾Ð²
ĠÐ½Ð°Ð±ÐµÑĢÐµÐ¶
ĠÐ¸ÑģÑĤÐ¾ÑĩÐ½Ð¸ÐºÐ°
ĠÐĲÐ´ÑĢÐ¸
ĠÐ¿ÑĢÐµÐ´ÐµÐ»Ñĭ
ĠÐ´ÐµÑģÑıÑĤÑĮ
Ð·Ð¼Ðµ
ĠÐ´Ñĥ
Ð¸Ð»Ð¸ÑĤ
ĠVol
ĠÐ¿Ð¾Ð´ÑĤÐ²ÐµÑĢÐ¶
ĠÐ¾ÐºÐ°Ð·ÑĭÐ²Ð°ÐµÑĤÑģÑı
ĠÐ±Ð°ÑģÑģÐµÐ¹Ð½Ð°
Ð°ÑĢÑĤÐ°
Ð¾Ð»ÑĮÐ½ÑĭÐ¹
Ð½Ð°ÑĨÐ¸Ð¾Ð½Ð°Ð»ÑĮ
Ġ1812
ĠÐºÐ¾Ð»ÐµÑģ
ĠÐ¿Ð¾Ð»ÑĥÑĩÐ¸Ð»Ð¾
ĠÐ´Ð¾ÐºÐ»Ð°Ð´
ĠÑģÐ¾ÑĨÐ¸Ð°Ð»ÑĮÐ½Ð¾Ð³Ð¾
ĠÐ»ÐµÐ³ÐµÐ½
ĠÑĦÐ¾ÑĢÐ¼Ð°Ð»ÑĮÐ½Ð¾
ĠÐ²ÑĭÑĪÐ»Ð¸
ĠÐ¼Ð¾Ð»Ð¾Ð´ÑĳÐ¶
ĠÐ²Ð´Ð¾Ñħ
ĠÐ²Ð¾Ð·Ð´ÐµÐ¹ÑģÑĤÐ²Ð¸Ñı
ĠÐ¿Ð¾Ð»Ð½Ð¾Ð¼Ð¾ÑĩÐ¸Ð¹
ĠÐĶÐ¾Ð¿
ĠÐ¾ÑĤÐ½Ð¾ÑģÑıÑī
ĠÐ¾ÑĤÐ¼ÐµÑĩÐ°ÐµÑĤÑģÑı
ĠÐ½Ð°ÑĩÐ°Ð»ÑĮÐ½Ð¸Ðº
ĠÐ³ÐµÑĢÐ±Ð°
ĠÑģÐ¾ÑĤÑĢÑĥÐ´Ð½Ð¸ÑĩÐµÑģÑĤÐ²Ð°
ĠÐ²Ð°Ðº
ÑħÐ²Ð°ÑĤ
Ġ(â
ĠÐ¿ÑĢÐ¸Ð»Ð°Ð³
ĠÑħÐ¸ÑĢÑĥ
ĠÐŃÐ¼
ĠÐ¿Ð¾ÑĤÐ¾Ðº
ĠÐ¸Ð·Ð²ÐµÑģÑĤÐ½Ð¾Ð³Ð¾
ĠÐ²ÑĭÐ¿ÑĥÑģÑĤÐ¸
ĠÑĢÐ°ÑģÑģÐ¼Ð°ÑĤÑĢÐ¸Ð²Ð°ÐµÑĤÑģÑı
ĠÑĢÐ°ÑģÑģÑĤÐ¾ÑıÐ½Ð¸Ð¸
ĠÐ¿ÑĢÐ¸ÑģÑĥÑĤÑģÑĤÐ²ÑĥÐµÑĤ
ĠÑįÐºÑģÐ¿Ð»ÑĥÐ°ÑĤÐ°ÑĨÐ¸Ñİ
ĠÐ¿Ð¾Ð»ÑĥÐ¾ÑģÑĤÑĢÐ¾Ð²Ð°
ĠÐĴÑģÐµÐ»ÐµÐ½Ð½Ð¾Ð¹
ÑĩÐ°Ð¹
ĠÐľÐ°ÑĪ
ĠÐ¾ÑģÐ¾Ð±Ð¾
ĠÐĵÐµÑĢÐ¼Ð°Ð½
ĠÐ½Ð°ÑĥÑĩÐ½Ð¾Ð³Ð¾
Ġ1891
ĠÐ¿ÑĢÐ¾Ð±Ð»ÐµÐ¼Ð°
ĠÐ¿Ð»Ð°ÑģÑĤÐ¸Ð½
ĠÐ´Ð°Ð»ÐµÐºÐ¾
ĠÐ¿Ð¾Ð´Ð¾Ð±Ð½ÑĭÑħ
ĠÑĢÐ°ÐºÐµÑĤÑĭ
ĠÐ¿ÑĢÐ¸ÐºÐ°Ð·Ð°Ð»
ĠÐ¿Ð°Ð´ÐµÐ¶
ĠÐŁÑĢÐ¾Ð´Ð¾Ð»Ð¶
Ð´Ð¸Ñı
ĠÐºÐ¾Ð³
ĠÐ¿ÑĢÐ¸Ð²Ñĭ
ĠÐ²ÑĭÐ³Ð¾Ð´
ĠÐ³Ð¾Ð´Ð°Ð¼Ð¸
Ġ1889
ĠOp
ĠÐ²Ð¾Ð·Ð´ÑĥÑħÐµ
ĠÐ°ÑĦÑĢÐ¸ÐºÐ°Ð½
ĠÐºÐ¸ÑģÐ»Ð¾ÑĢÐ¾Ð´Ð°
Ð°Ð½ÐºÐ¸
ĠÑĥÑģÑĤÐ°Ð²
ĠÐ¾ÑĤÐ¾Ð¶Ð´ÐµÑģÑĤÐ²
ĠÐĶÑĥ
Ð¿Ð¾Ð»ÐºÐ¾Ð²
ĠÐ´Ð¾Ð»Ð³Ð¾Ðµ
ĠÐºÑĢÐµÐ´Ð¸ÑĤ
ÑĩÐ¸Ð½Ð°
ĠÐ½ÐµÑģÑĤ
ĠÑĢÐµÑĦÐ¾ÑĢÐ¼
ĠÐ¤Ð»Ð°Ð²
ÐŁÐ¾Ñģ
ĠÐ´ÐµÐ¿ÑĢÐµÑģ
ĠÐ¶Ð¸Ð²ÑĭÑħ
ĠÐ·Ð½Ð°Ð½Ð¸Ð¹
ĠÑģÐ¾Ð¿ÑĢÐ¾ÑĤÐ¸Ð²Ð»ÐµÐ½Ð¸Ñı
ĠÐ°ÑĢÑĤÐ¸Ð»Ð»ÐµÑĢÐ¸Ð¹
ĠÐ¾Ð±Ð»Ð¸
Ð¸Ð¼ÑĭÐµ
ÐºÐµÐ¿
Ð¾Ð»Ð¾Ð³Ð¸ÑĩÐµÑģÐºÐ¸Ð¼
ĠÐ¸ÑģÑĤÐ¾ÑĢÐ¸ÐºÐ¾
âĢ¦Â»
ĠÐ¿Ð¾Ð´ÑĩÐ¸Ð½ÐµÐ½Ð¸Ñı
Ð¾Ð»ÑİÐ±
ĠÑĥÑĢÐ°Ð²Ð½ÐµÐ½Ð¸Ð¹
ĠÐ¿Ð¾Ð·Ð¸ÑĨÐ¸Ñİ
ĠÑģÑĤÐ¸Ð»Ð¸
ĠÐĽÐ¾Ð³
ĠÐ´ÑĢÑĥÐ³Ñĥ
Ġ58
ore
1970
ĠÐ¢Ð¸Ð¼Ð¾ÑĪÐµÐ½ÐºÐ¾
ĠÐ¿ÑĢÐµÑģÑĤÑĥÐ¿Ð»ÐµÐ½Ð¸Ñı
ĠÐĽÐµÐ¹Ð±
ĠÐ²Ð¾Ð¿Ð»Ð¾Ñī
ÐµÐ¼Ð¸Ð½
ĠÑĢÐ°ÑģÑģÐ»ÐµÐ´Ð¾Ð²
ĠÐ¾ÑģÐ½Ð¾Ð²Ð°Ð»
ĠÐ¾Ð¿ÑĢÐµÐ´ÐµÐ»ÑĳÐ½Ð½Ð¾Ð¹
ĠÑĢÑĭÐ½Ð¾Ðº
ĠÐĵÐµÑĢÐ¾Ñı
ult
ĠÑĤÐµÐ»ÐµÑģÐºÐ¾Ð¿
ĠÐ¿ÑĥÐ±Ð»Ð¸ÐºÐ°ÑĨÐ¸Ð¸
ĠÐ´ÐµÐ±ÑİÑĤ
Ġre
ÑģÐ°Ð½
ÑıÑīÐµÐµ
ĠÐ¢Ð¾Ðº
ÐµÐ½ÑĮÐµ
Ġ56
ĠÐ¿Ð¾Ð»Ð¸ÑĤÐ¸ÐºÐµ
Ġ1892
ĠÐ²Ð°Ð¶Ð½ÑĥÑİ
ĠÑĢÐ¸Ð¼ÑģÐºÐ¾Ð³Ð¾
Ð°Ð»Ð¸ÑģÑĤÐ¾Ð²
Ð¡Ð¿Ð°ÑĢÑĤ
ĠÑĤÐµÐ°ÑĤÑĢÐ°Ð»ÑĮÐ½ÑĭÐ¹
ĠÑĢÐµÐ±ÑĳÐ½ÐºÐ°
ĠÐ¿ÑĥÑĪ
Ð³Ð¸Ð±
ĠÐ»Ð¸ÑģÑĤ
Ð¸ÑĨÐºÐ¸Ð¹
ĠAir
ĠÑįÐºÑģÐ¿Ð¾ÑĢÑĤ
ĠÐ¿Ð¾Ð½ÑıÑĤÐ¸
Ġ1894
ĠÐ²ÑĭÑģÑĤÑĥÐ¿Ð°Ð»
ĠÑĤÑĢÐµÑĤÑĮÐµÐ³Ð¾
ĠÑĢÑĭÐ½ÐºÐµ
ĠÐŁÑĥÑĤÐ¸Ð½
SD
ĠÐ¤Ð»Ð¾ÑĢ
Ð°Ð¹Ð´
Ġ52
ĠÐ´ÐµÐ»Ð°ÑĤÑĮ
ĠÐ¿ÑĢÐ¾Ð¸Ð·Ð²Ð¾Ð´Ð¸ÑĤÑģÑı
ĠÑĢÐ°ÑģÑģÐ¼Ð¾ÑĤ
ĠÑĢÐ°Ð´Ð¸Ð¾ÑģÑĤÐ°Ð½
ĠÐ¾Ð±Ð»Ð°ÑģÑĤÐ½Ð¾Ð¹
ĠÐ²ÐµÑģÐ½Ð¾Ð¹
ĠÐ²Ð·Ð°Ð¸Ð¼Ð¾Ð´ÐµÐ¹ÑģÑĤÐ²Ð¸Ðµ
ĠÐ²ÑĳÐ»
ĠÐ¸Ð½Ð°ÑĩÐµ
ĠÐ¿ÑĢÐ¸Ð³Ð¾Ð²Ð¾ÑĢ
ĠÐ½ÐµÐ¾Ð¶Ð¸Ð´
ĠÐ¿Ð¾Ð»Ð½ÑĭÐ¹
Ð¾ÑĩÐ½Ð¾Ðµ
ĠÐ´Ð²Ð¾ÑĢÐµ
ĠÑĢÐµÐ¶Ð¸Ð¼Ðµ
VI
ÑĥÐ¸
Ð·ÑĮ
ĠÐŁÐ°Ñģ
ĠÐļÐ¾ÑĢÐ°
Ð¾Ð·Ðµ
ÑĢÐ¾ÑģÐºÐ¾Ð¿
ĠÐĿÐ°Ð¸Ð±Ð¾Ð»ÑĮÑĪ
Ð¸ÑĢÐ¾Ð²Ð°Ð½Ñĭ
ĠÐ¾ÑĤÐºÑĢÑĭÑĤÑĭ
ĠÐ´Ð¾ÐºÑĥÐ¼ÐµÐ½ÑĤÑĭ
ĠÐ¿ÑĥÑģÑĤÑĭ
ĠÑĥÐ¿Ð¾Ð¼Ð¸Ð½Ð°Ð½Ð¸Ðµ
ĠÐ²ÑģÐ¿Ð¾Ð¼Ð¾Ð³
Ð¾ÑĨÐ¸Ð¸
ĠÐĵÐ°Ð¼Ð±
ĠÐĽÐ¾ÑĢÐµÐ½
ĠÐ¿Ð¾Ð´Ð¼
ĠÐĹÐ°Ð³
ĠÐĴÑĭÐ±Ð¾ÑĢ
ĠÑģÑĥÐ¼Ð¼Ð°
ĠÑĢÐµÐ³ÑĥÐ»Ð¸
ĠÑģÐ¾Ð³Ð»Ð°ÑģÐ¾Ð²
ĠÐ¿Ð¸ÑĢÐ°Ð¼Ð¸
ĠÐ·Ð²ÐµÐ·Ð´Ñĭ
ĠÑģÐ¾ÑħÑĢÐ°Ð½ÐµÐ½Ð¸Ñı
ĠÐ¯Ð¿Ð¾Ð½Ð¸Ñı
ĠÑįÐ»ÐµÐºÑĤÑĢÐ¾Ð½Ð¾Ð²
oph
ĠÐ¿ÐµÑĢÐµÐ³Ð¾Ð²Ð¾ÑĢÐ¾Ð²
ĠÐ¿Ð¾Ð»Ð½Ð¾Ð¼Ð¾ÑĩÐ¸Ñı
ÑĢÐ°Ð¼Ð°
ĠÐ¡Ð¾Ð³
ĠÐ¡Ð»Ð°Ð²
ÑĤÐ¸ÑģÑĤ
ĠÐľÐ°Ñı
ÑģÐ¿ÐµÑĢÐ°Ð½
Ð¸ÑĩÐ½Ð¾Ð³Ð¾
ÑĤÐ¸Ð²Ð½Ð¾Ð³Ð¾
Ġ51
Ġ54
ĠÐŁÐ¾ÑģÑĤÐ°Ð½Ð¾Ð²
ÐµÐ¾
Ð¾Ð½Ð°Ð¼Ð¸
ĠÐĳÑİ
ĠÐ¿Ð¾Ð»Ð¾ÑĤ
ĠÐ¾Ð±ÑīÐ¸Ñħ
ĠÐ²Ð¿Ð°Ð´
ĠÑģÐºÐ¾ÑĢÐ¾ÑģÑĤ
ĠÐ¾Ð³ÑĢÐ°Ð½Ð¸ÑĩÐµÐ½Ð¸Ñı
ĠÐ·Ð°Ð½Ð¸Ð¼Ð°Ð»
ĠÐ¼Ð¾Ð»Ð¾Ð´ÑĳÐ¶Ð¸
ĠÐ¿Ð¾ÑģÑĤÑĢÐ¾Ð¹ÐºÐ¸
ĠÐĴÐ»Ð°Ð´Ð¸Ð¼Ð¸ÑĢÐ¾Ð²Ð¸Ñĩ
AR
Ð¾Ð½ÑģÐºÐ¸Ð¹
ĠÐļÐĿÐł
Ð°Ð²ÑĤÐ¾ÑĢ
Ð¸Ð¹ÑģÐºÐ°Ñı
ÐĵÐ¾ÑĢÐ¾Ð´
ĠÑĢÐµÐ·ÑĥÐ»ÑĮÑĤÐ°ÑĤÐ¾Ð¼
ĠÐºÑĢÑĥÐ¿Ð½ÑĭÐ¼
ÑĦÐ¾ÑĢÐ¼Ð°ÑĨÐ¸Ð¸
ĠÑģÐ¾Ð¾ÑĤÐ²ÐµÑĤÑģÑĤÐ²ÑĥÑİÑīÐ¸Ñħ
ĠÐ¿Ð¾Ð»Ð¾Ð²Ð¸Ð½Ð°
ĠÑĢÐ°Ð·Ð¼ÐµÑĢÐ°
Ð¼Ñı
ÐµÑĢÐ¾Ð½Ð°
Ð¸Ð²Ð°Ð»Ð¸ÑģÑĮ
ĠÐ¸ÑģÑĤÐ¾ÑĢÐ¸ÑĩÐµÑģÐºÐ¾Ð³Ð¾
ĠÐ²ÑĤÐ¾ÑĢÐ¶ÐµÐ½Ð¸Ñı
ĠÐ¶ÐµÐ½ÑīÐ¸Ð½Ð°
ĠÐľÐµÐ´Ð²ÐµÐ´
ĠÐ¿Ð°ÑĢÑĤÐ¸Ñİ
Ð»ÑĭÐµ
ĠÐ³ÑĥÐ¼
ĠÑĢÐ°ÑģÐºÐ¾Ð¿
ĠÐļÐ°Ð»ÑĮ
Ð¸ÑģÐ»Ð¾ÑĤ
ĠÐ²ÑĭÑĢÐ°Ñī
ĠÑĢÐ°Ð·Ð¾ÑĢ
ĠÐ¿Ð°ÑĢÑĭ
ĠÐ³Ð°Ð·ÐµÑĤÐµ
ĠÐ¶ÐµÐ½Ð¾Ð¹
ĠÐĲÐ»ÑĤÐ°Ð¹
ĠÐłÐ¾Ð´Ð¸Ð»ÑģÑı
ĠÐļÐ°Ð½Ð°Ð´Ñĭ
ubl
ĠÐ²Ð·Ð³Ð»ÑıÐ´Ñĭ
ĠÐºÑĢÐ¸ÑģÑĤÐ°Ð»Ð»Ð¸
ĠÐºÑĢÐ¸Ð·Ð¸ÑģÐ°
ĠÑģÐµÐ³Ð¾Ð´Ð½ÑıÑĪ
ĠÐ¡ÐµÑĢÐ²
ÐµÐ²ÑģÐºÐ¾Ð¹
ĠÐ²ÑĭÐ·Ð²Ð°Ð»Ð¾
ĠÐ¡Ð¾Ð»Ð½Ðµ
ĠÐ¸Ð½Ð´ÑĥÑģÑĤÑĢÐ¸
ĠÐĴÐ¾ÑģÑĤÐ¾Ðº
ĠÐĿÐ°ÑĤ
ÑĢÐ¾Ð²Ð°ÑĤÑĮ
ĠÐ¿ÑĢÐ¾ÑĤÐ¾Ðº
ĠÐ·Ð°Ð¿ÑĢÐµÑĤ
ĠÑģÐ¾Ð·Ð´Ð°ÑĤÐµÐ»ÑĮ
ĠÐĲÑĢÐ¼Ð¸Ð¸
ĠÐ½ÐµÐ´Ð¾Ð²Ð¾Ð»ÑĮ
ĠÑĤÐµÑĩÐµÐ½Ð¸Ñı
ĠÐºÐ°Ð·Ð°Ñĩ
ĠÐ¿Ð»ÐµÐ¼ÑıÐ½
ĠÐ³Ð¸Ð´ÑĢÐ¾
ĠÑģÑĤÐ¾Ð»Ð¸ÑĨÐ°
Ð²ÑĤÐ¾ÑĢ
ÑģÑĤÐ°ÑĢ
ÐµÐ½Ð½Ð¾Ð¼Ñĥ
ĠÐ³ÑĢÐ¾Ð·
ĠÐĺÑĢÐ°Ð½
ĠÐĽÐ¾Ñģ
ĠÐĽÐ°Ð±
ĠÑĢÐ°Ð·Ð½ÑĭÐ¼
ĠÐ¿ÑĢÐµÐ»Ð¾Ð¼
ĠÐ®ÐĿ
ĠÐ¿Ð¾Ð»Ð¸ÑĤÐ¸ÑĩÐµÑģÐºÐ¾Ð³Ð¾
ĠÐºÐ¾Ð½ÑĤÑĢÐ°ÐºÑĤ
ĠÑįÐºÑģÐ¿Ð¾Ð½
ĠÐ¸Ð³ÑĢÐ°Ñħ
ĠÐ¿Ð¾Ð³Ð¸Ð±Ð»Ð¾
Ð¸ÑģÐ¿ÑĭÑĤ
ĠÐ¼Ð¾ÑģÑĤÐ°
ĠÐ³Ð¾ÑģÐ¿Ð¸ÑĤ
ĠÑģÐµÑĢÐµÐ±ÑĢÐ°
ĠÐ´Ð¾ÑĩÐµÑĢ
ĠÐ¿Ð¾ÐµÐ·Ð´Ð°
ÐĴÐµÐ»Ð¸Ðº
ĠÐ´ÐµÐ»Ð°Ð¼
1944
ĠÐ¿ÑĢÐ¸Ð½ÑĨÐ¸Ð¿Ñĭ
ĠÐĳÑĭÐ»Ð¾
ĠÐ¾Ð¿Ð¿Ð¾Ð·Ð¸ÑĨÐ¸Ð¸
Ð½ÐµÐ½Ð¸Ð¹
ĠÐ³ÑĥÐ¼Ð°Ð½Ð¸ÑĤÐ°ÑĢ
ĠÐĴÐ¾ÑģÑĤÐ¾ÐºÐµ
ĠÐ¡ÑĥÐ½
ÐµÐºÑĤÐ¸Ð²Ð°
ĠÑĢÐµÑĦ
ĠÐ¾ÑĤÐ½Ð¾ÑĪÐµÐ½Ð¸ÑıÑħ
ĠÐ¡ÐµÐ²ÐµÑĢÐ½Ð°Ñı
ĠÑĤÐ¾Ð²Ð°ÑĢÐ¸
ĠÑĦÐ°Ð¼Ð¸Ð»Ð¸Ñı
ĠÐ¤ÑĢÑįÐ½
ÑĥÑĤÐ°
ĠÐ¡Ð¾Ð±ÑĭÑĤÐ¸Ñı
Â»);
ĠÐ¢Ð²Ð¾ÑĢ
Ð¸Ð±Ð»ÐµÐ¹
ĠÐ¦Ð¸ÑĨ
ĠÐ¿Ð»Ð°Ð½Ðµ
ĠÐŀÑĤÑģ
Ġ1887
ĠÑģÐºÐ°Ð·Ð°ÑĤÑĮ
ĠÐ¿Ð¾ÑģÑĤÐ°Ð½Ð¾Ð²Ð»ÐµÐ½Ð¸Ðµ
ĠÑĦÐ°Ð±ÑĢÐ¸ÐºÐ°
ĠÐ¡Ð¼Ð¾Ð»ÐµÐ½
ĠÐ½Ð¸Ð´ÐµÑĢÐ»Ð°Ð½Ð´
Ð°Ð½ÑģÐ°
ĠÐŁÐµÐº
ĠÐĺÐ½ÑģÑĤÐ¸ÑĤÑĥÑĤÐ°
ĠÐ¸Ð·Ð²ÐµÑģÑĤÐ½Ð¾ÑģÑĤÑĮ
ĠÑģÑĤÐ°ÑĤÑĥÑģÐ°
ĠÐ²ÑĭÐ±Ð¾ÑĢÐ°
ĠÐ¼Ð¸ÑĢÐ¾Ð²Ð¾Ð³Ð¾
ĠÐĴÑĭÐ¿
Ð°ÑĢÐ¼Ð°Ðº
ÑĦÐ¸Ñģ
ĠÐ¾ÑĤÑĩ
Ð°ÑĢÐ°ÑĤ
ĠÐ³Ð»Ð°Ð²Ð½Ð¾ÐºÐ¾Ð¼Ð°Ð½Ð´
ĠÐ´Ð²Ð¸Ð¶ÐµÐ½Ð¸Ð¸
ĠÐ¼ÑĥÐ·ÑĭÐºÐ°
ĠÐľÑĥÐ·ÑĭÐºÐ°
ĠÐ¾Ð±Ð¾ÑĢÑĥÐ´Ð¾Ð²Ð°Ð½Ð¸Ðµ
ĠÑĢÐµÑģÑĥÑĢÑģÑĭ
ĠÐ±ÑĥÐ´ÑĥÑīÐµÐ¼
ron
Ð¿Ð¾Ð±
ĠÐĶÐ¶Ðµ
ĠÐ¿ÑĢÐµÐ´Ð²Ð¾Ð´
ĠÐ·Ð½Ð°ÑĩÐ¸ÑĤ
ĠÐ¡Ð¾ÑĨÐ¸Ð°Ð»ÑĮ
ĠÐŁÑĢÐ¾ÑĦ
ĠÐĽÐ¸ÑĤÐ²Ñĭ
ĠÑįÐ²Ð¾Ð»ÑİÑĨÐ¸Ð¸
ĠÐĵÐ¸ÑĤÐ»ÐµÑĢ
ĠÐ°ÑĢÐ¸ÑģÑĤÐ¾ÐºÑĢÐ°
ÑĮÐ¼
ÑĦÑĥÐ½Ðº
ĠÐ¾Ð±Ð»ÐµÐ³
ĠÐ¢ÐµÑĢÐµ
ĠÐĽÐ¸Ñģ
ĠÐ¿Ð¾Ð´Ð»Ð¸Ð½
Ð½ÐµÑĦ
ÑĢÑıÐ¶
ĠÐ¥ÑĢÑĥ
Ġ85
ĠÐļÐ¾Ð¼Ð¼ÑĥÐ½Ð¸
ĠÐ°ÐºÐ°Ð´ÐµÐ¼Ð¸Ñı
ĠÑĤÐµÑħÐ½Ð¾Ð»Ð¾Ð³Ð¸Ñı
ep
Ð¿ÑģÐ¸Ñħ
Ð³Ð¾ÑģÑĥÐ´Ð°ÑĢ
ĠÐĿÐ°ÑĤÐ°Ð»ÑĮ
ĠÐ¢ÐµÐ¿
ĠÐ¤Ð¾Ð½
ĠÐĿÐ°ÑħÐ¾Ð´
ÑıÐ·ÑĮ
Ð¸ÑĪÑĮ
ĠÑģÐ¾Ð´ÐµÑĢÐ¶Ð¸ÑĤÑģÑı
ĠÐ´ÑĢÐµÐ²Ð½Ð¾ÑģÑĤÐ¸
ĠÐ¾ÑĤÐ½Ð¾ÑģÐ¸ÑĤÐµÐ»ÑĮÐ½Ð¾ÑģÑĤÐ¸
ĠÐŃÐ½ÑĨÐ¸ÐºÐ»Ð¾Ð¿ÐµÐ´
ĠÐ¼Ð¾Ð»ÐµÐºÑĥÐ»
ĠÑģÐ¾Ð»Ð¸
ĠÐ¡Ð°Ð»ÑĮ
ĠÐ¾ÑĤÐºÑĥÐ´Ð°
ĠÐ£Ð¿
ÑĦÐ¸Ð»Ð°Ðº
ĠÑĩÐµÑĢÐµÐ¿
ĠÑģÑĤÑĢÐ°Ð½Ð¾Ð¹
Ð¾Ð³ÑĢÐ°ÑĦÐ¸ÑĩÐµÑģÐºÐ°Ñı
ĠÑįÐºÑģÐ¿ÐµÑĢ
oll
ĠÑĢÐ°Ð±Ð¾ÑĩÐ¸Ð¹
ĠÐĶÐµÐ¼Ð¾ÐºÑĢÐ°
Ð½Ð°Ð´ÑĨÐ°ÑĤÑĮ
ÐµÐ¹ÑģÐºÐ¾Ð³Ð¾
ÐºÐ°Ð²
ÐµÐ²ÑģÐºÐ°Ñı
ĠÐĳÑĢÐ°Ð½
ĠÑħÐ²Ð¾ÑģÑĤ
ĠÐ´Ð²ÐµÐ½
ĠÐ¿Ð¾ÑģÐ»ÐµÐ´ÑģÑĤÐ²Ð¸Ñı
Ð²Ð¸Ð´Ð¸Ð¼Ð¾Ð¼Ñĥ
ĠÐ·Ð°Ð½Ð¸Ð¼Ð°ÐµÑĤÑģÑı
ĠÑıÐ¿Ð¾Ð½ÑģÐºÐ¸Ð¹
Ð¾Ð½Ð°Ñħ
ĠÑĤÐ¾ÐºÑģÐ¸
ÑĢÐ¾Ð²ÑĭÑħ
ĠÐ¸Ð¼ÑĳÐ½
ÐºÐ¾Ð½Ñĭ
ÐľÐ°ÑĢ
ÐĿÐ¾Ð²
Ð¦ÐµÐ½ÑĤ
ĠÐĴÐ¸ÐºÑĤÐ¾ÑĢÐ°
ĠÐĶÐ°Ð»ÐµÐµ
ĠÐ´Ð²ÐµÐ½Ð°Ð´ÑĨ
Ð²ÑĭÑģ
ĠÑģÑĨ
ĠÑĤÑĢÐ¾Ð½
ĠÑĢÐµÐ¼ÐµÑģ
Ġ700
ĠÐ²Ð¾ÑģÐµÐ¼ÑĮ
ĠÐ·Ð²ÐµÐ·Ð´Ð°
ĠÐ¸Ð·Ð´Ð°Ð»
ĠÐĳÐ¾Ð³Ð¾ÑĢÐ¾Ð´
ĠÐ¿Ð¾ÑģÐµÐ»ÐµÐ½Ð¸Ð¹
ĠÐºÐ°ÑĢÑĤÐ¸Ð½
ĠÐ´ÐµÑĢÐ¶Ð°Ð²
ĠÐ¿ÐµÑĢÐµÐ¸Ð¼ÐµÐ½Ð¾Ð²Ð°Ð½
ĠÑģÐ¾ÐºÑĢÐ°ÑĤÐ¸
Ð½ÑģÐºÐ¾Ð³Ð¾
ĠÐ½ÑĥÐº
Ð¾Ð»ÐµÐ¹
ĠÐ´Ð°ÑĤÐ°
Ð¾ÑģÑĭ
ĠÐ¿ÑĢÐ¾ÐµÐºÑĤÐ¾Ð²
ĠÑģÐ¾Ð±Ð¾ÑĢÐµ
ĠÐ½Ð°ÑĢÐ¾Ð´Ñĭ
ĠÐ¿ÑĢÐ¾ÑĨÐµÐ½ÑĤ
ĠÐ²Ð·ÑıÑĤÑĮ
ĠÐ¿Ð¾Ð´Ð´ÐµÑĢÐ¶ÐºÐ°
Ġ1893
ĠÐĵÐµÐ½Ð½Ð°Ð´
ĠÐ½Ð°ÑĩÐ¸Ð½Ð°ÑİÑĤ
ĠÐĳÐ¾ÑĢÐ¸ÑģÐ°
ĠÐ¡Ð»Ð¾Ð²Ð¾
Ð¾Ð²Ð°Ð½Ñĭ
ĠÐŁÐ¸Ð»
ĠÐļÐ°ÑĢÑĤ
Ð¸Ð²ÑĪÐ¸Ð¼
ĠÑħÐ¸Ñī
Ð¸ÑĩÐ¸
ÑģÑĤÐ²Ð¾Ð²Ð°Ð½Ð¸Ðµ
ĠÐ½ÐµÐ·Ð°ÐºÐ¾Ð½
ĠÑģÐ½Ð¸Ð¶ÐµÐ½Ð¸Ðµ
ĠÐłÐ°Ð¹Ð¾Ð½
FC
ĠÑĤÑĢÐ¾Ð¹
2020
Ð¿ÑĢÐµÑģÑģ
ĠÐ°Ð²ÑĤÐ¾ÑĢÐ¾Ð¼
ĠÐĺÐ¾Ð³Ð°Ð½Ð½
ĠÐ¢ÐµÑĢÑĢÐ¸ÑĤÐ¾ÑĢÐ¸Ñı
ĠÐľÐ¸ÑĦ
ĠÐºÐ¾Ð¼Ð±Ð¸Ð½Ð°
ĠÐ²Ð¾Ð´Ð¾ÑĢÐ¾Ð´
ĠÐ½Ð°ÑĢÐ¾Ð´Ð½Ð¾Ð¹
ĠÐ³Ð¾ÑĢÐ½ÑĭÑħ
ĠÐ²Ð¾ÑģÑĤÐ¾ÑĩÐ½ÑĭÑħ
ĠÐ¿Ð¾ÑģÐµÑĤÐ¸Ð»
ĠÐºÐ¾Ð¼Ð±Ð¸Ð½Ð°ÑĤ
ĠÐ§Ð°ÑģÑĤÐ¾
ĠÐ¿Ð°ÑĢÐ¸
Ð°Ð½ÑĤÐ¾Ð¼
ĠÐĵÐ¾ÑĤ
ĠÐºÐ¾Ð¼Ð½
Ð°Ð»Ð°ÑĪ
ÐŀÑĢ
ÑĦÐ¸Ð½Ñĭ
ĠÐ®ÑĢÑĮ
ĠÐ¸Ð·Ð²ÐµÑģÑĤÐ½Ð°
ĠÐ¾ÑģÑĤÐ°Ð²Ð¸Ð»
ĠÐºÑĢÐ¸ÑĤÐ¸ÐºÐ¸
ĠÐ¿ÑĢÐ¸ÐºÐ°Ð·Ñĥ
ĠÐ¿Ð¾Ð´Ð²ÐµÑĢÐ³Ð°
ÐµÐ³Ð¾Ð²
ĠÐ²ÑģÑĤ
ĠÐºÑĢÑĥÐ¶
ĠÐĴÐ¡
ĠÐĳÐ°ÐºÑĥ
ĠÑĤÐ¾ÑĢÐ³Ð¾Ð²ÑĭÑħ
ĠÐ°Ð·ÐµÑĢÐ±Ð°Ð¹Ð´Ð¶
ĠÐłÐµÐ·ÑĥÐ»ÑĮÑĤ
ĠÐĳÑĥÐ»Ð³
ĠÑįÐºÐ¸Ð¿Ð°Ð¶Ð°
ĠÐ»Ð¾ÑĪÐ°Ð´
Ð·Ð¸Ð½
ÑĨÐ¸ÑĤ
ÐµÑĢÑģÐºÐ¸Ð¹
ĠÐ³Ð¾ÑĢÐ°
ĠÐ¡Ð¾Ð¼
ĠÐ°ÑĢÐ¸ÑĦÐ¼ÐµÑĤ
ĠÐºÐ°ÐºÐ¸Ðµ
ĠÐ¸Ð¼ÐµÑİÑīÐ¸Ñħ
ĠÐ¾Ð±ÑīÐµÑģÑĤÐ²ÐµÐ½Ð½Ð¾Ð¹
ĠÑįÐ¿Ð¸Ð´ÐµÐ¼
ĠÑģÐ¸Ð½ÑĤÐ°Ðº
ĠÑģÑĤÐ°Ð½ÑĨÐ¸Ð¹
ĠÐ¡ÐµÐ¼ÑĮÑı
ĠÐ²Ð¾Ð·Ð½Ð¸ÐºÐ°ÑİÑĤ
ĠÐ¿Ð¸Ð°Ð½Ð¸ÑģÑĤ
ĠÐ»ÑİÐ±Ð¾Ð²ÑĮ
uc
ĠÐ¥ÑĥÑģ
ĠÑģÐºÐ¾Ð»ÑĮÐºÐ¾
ĠÐ¾ÑģÑĤÐ°Ð»Ð¸ÑģÑĮ
ĠÐºÑĢÐ°Ðµ
ĠÐ½Ð°ÑĥÑĩÐ½ÑĭÐµ
ĠÐļÐ¾Ð»Ð¸ÑĩÐµÑģÑĤÐ²Ð¾
ĠÐ¾ÑģÑĥÑīÐµÑģÑĤÐ²Ð»ÑıÐµÑĤ
Ġ1885
ĠÐ¾ÑħÑĢÐ°Ð½Ñĭ
ĠÑģÐ»ÐµÐ´Ð¾Ð²Ð°ÑĤÐµÐ»ÑĮÐ½Ð¾
Ð¾Ð½Ñģ
Ð°Ð¼Ð¼Ð°
ĠÐĳÑĢÐ¾Ð´
ĠÐĺÑĥÐ´
ĠÑıÐ¹
ÐŁÐ¾
ÑĥÑīÐ¸Ð¼
ĠÐ¼Ð°ÑģÑģÐ¸
ÐµÑīÐ°Ð½Ð¸Ðµ
ĠÑĩÐµÐ¼Ð¿Ð¸Ð¾Ð½Ð°ÑĤ
ĠÐ¾Ð³Ð½Ñı
ĠÐ²Ð»Ð¸ÑıÑĤÐµÐ»ÑĮ
Ð°ÑĤÑĭÐ¹
ĠÐĶÐ²Ð¾ÑĢ
ĠÐ¢ÑĥÐ»ÑĮ
ĠÐ¢Ð°Ð±
ĠÐĲÐ½Ð½Ñĭ
ĠÐ²ÐµÑĢÑģÐ¸Ð¹
ĠÐ´ÐµÐ»ÑıÑĤÑģÑı
Ð¿Ð¾ÑģÐ»Ðµ
ĠÑģÑĥÑĦÑĦÐ¸Ðº
ĠÐ´ÐµÑģÑıÑĤÐºÐ¾Ð²
ĠÐŁÐ¾ÑħÐ¾ÑĢÐ¾Ð½ÐµÐ½Ð½ÑĭÐµ
Ð¾Ð¿ÑĢÐ¸Ð¼ÐµÑĩÐ°ÑĤÐµÐ»ÑĮÐ½Ð¾ÑģÑĤÐ¸
Ð²Ð¾ÑģÑĤÐ¾Ðº
âĢĵ
ĠÐĴÐ¸Ð´
Ð°Ð²ÑĤ
Ð¸Ð²Ð°Ð»ÑģÑı
ĠÐ¾ÑģÐ½Ð°
ÑĢÐ¾Ð½Ñĭ
ĠÑģÐ¿Ð¸ÑģÐº
Ġ53
ĠÑģÐ¾Ð¿Ð¾ÑģÑĤÐ°Ð²
ĠÐ¾ÑĦÐ¸ÑĨÐ¸Ð°Ð»ÑĮÐ½ÑĭÐ¼
ĠÑģÐ¾Ð·Ð´Ð°ÑĳÑĤ
ĠÐļÐ°Ð²ÐºÐ°Ð·Ð°
ĠÑħÐ¾ÐºÐºÐµÐ¸ÑģÑĤ
ĠÐ·Ð°ÑĦÐ¸ÐºÑģÐ¸ÑĢÐ¾Ð²
Ð¸ÑģÐºÐ°
ÑĮÐµÐ¼
ÐµÐ½Ð´Ð¾Ð²
ÑĢÐ°Ð½Ð¸Ðµ
ĠÑģÐºÐ¸
ĠÐ¼Ñı
Ð¸Ð»Ð¸Ð¹
Ð»Ð¾Ð²Ð¾
ÐĴÐĶ
ann
Ð¾Ð³ÑĢÐ°ÑĦÐ¸ÑĩÐµÑģÐºÐ¸Ð¹
ĠÐ¿ÑĢÐ¾Ð´Ð¾Ð»Ð¶Ð°ÐµÑĤ
ĠÑĢÐ°ÑģÑģÑĩÐ¸ÑĤ
ĠÐ²ÑģÑĤÑĢÐµÑĩÐ¸
ĠÑĦÐ¾Ð½Ð´Ð°
ĠÐĴÐ¾Ð»Ð³Ð¸
ĠÐĴÐ¾ÑģÑģÑĤÐ°Ð½Ð¸Ðµ
Ð°ÑĨÐ¸ÐµÐ¹
Ð¸Ð½ÑĤÐµÑĢÐµ
ĠÐļÑĢÐµÑģÑĤ
Ð°Ð¼ÐµÐ½
ĠÐ¶Ð¸ÑĤÑĮ
ĠÐ¿Ð¾Ð»ÑĥÑĩÐ°
ĠÐ¡ÑĢÐµÐ´Ð½ÐµÐ²ÐµÐº
ĠÐ¿Ð¾ÐºÐ°Ð·Ð°ÑĤÐµÐ»ÑĮ
ĠÐ²Ð¾Ð·Ð½Ð¸ÐºÐ»Ð°
ĠÐ²Ð²ÐµÐ´ÐµÐ½Ð¸Ñı
ĠÑĥÑģÑĤÑĢÐ¾Ð¹ÑģÑĤÐ²
ĠÑģÑĢÐ°Ð¶ÐµÐ½Ð¸Ðµ
ĠâĨĴ
ÑīÐµÐ½Ð¸Ñı
ĠÐĿÐµÐ±
Ð¸ÑĢÐ¾Ð²ÐºÐ°
ĠÑģÐ¾ÑģÑĤÐ°Ð²Ð¸Ð»Ð¸
ĠÐĲÐ½Ð°Ð»Ð¾Ð³
ĠÑĢÐ°Ð±Ð¾ÑĤÐ°Ð»Ð¸
ĠÐºÐ¾Ð»Ð¾Ð½Ð¸
ĠÐ¸Ð·Ð³Ð¾ÑĤÐ¾Ð²Ð»ÐµÐ½Ð¸Ñı
ĠÐ·Ð°ÑģÐµÐ´Ð°Ð½Ð¸Ð¸
ĠÐ¼ÐµÐ´Ð¸ÑĨÐ¸Ð½Ñĭ
ĠÐ¿ÑĭÑĤÐ°
IV
ĠÑģÐ¼Ð¾ÑĤ
ĠÐĴÐ¸ÐºÐ¸
ĠÐĴÐļÐŁ
Ð¸Ð·Ð½
ĠÐŀÐ»Ð¸Ð¼Ð¿Ð¸
ĠÐ¢ÑĢÐµ
ĠÐ¿ÑĢÐ¾ÑĤÐµÐº
Ð°Ð¿Ð¿Ð°ÑĢÐ°
ĠÐ°ÐºÑĨÐ¸Ð¹
ĠÑĩÐ»ÐµÐ½Ð°Ð¼Ð¸
ĠÐļÐ°ÑĢÐµ
Ġ1882
ĠÐ¼Ð¾ÑīÐ½Ð¾ÑģÑĤÐ¸
ĠÐ´ÐµÑģÑıÑĤÐ¸Ð»ÐµÑĤÐ¸Ñı
ĠÐļÐ²Ð¸Ð½ÑĤ
ma
ĠÐ²Ð¾ÑĤ
Ð½Ð¾Ð²ÐµÐ½Ð¸Ðµ
ÐĳÐ¾Ð»ÑĮÑĪ
ĠÐ¿ÑĢÐ¸Ð·ÑĳÑĢ
ĠÐ·Ð½Ð°ÑĩÐ¸ÑĤÐµÐ»ÑĮÐ½ÑĥÑİ
ĠÐ¿ÑĢÐ°Ð·Ð´Ð½Ð¸Ðº
ĠÑĦÐ¸Ð³ÑĥÑĢÑĭ
ĠÐ¾ÑĤÐ²ÐµÑĢÑģÑĤÐ¸
ĠÑĢÐ°Ð±Ð¾ÑĩÐµÐ³Ð¾
ĠÐºÐ¸ÑĢÐ¸Ð»Ð»Ð¸
ÑĤÑĢÐ°Ð½
Ð´Ð°Ð»ÑĮ
ĠÐ¡Ð°Ð¹ÑĤ
ĠÐ¿Ð¾Ð´Ð¾Ð·
ĠÑģÐ»Ð¾
ÑĨÐ¸Ð¾Ð½Ð½Ð¾Ð¼
Ð³ÑĢÐ°ÑĢ
ĠÐ¸Ð¼ÐµÑİÑīÐ¸Ðµ
ĠÐ¼ÐµÑĤÐ¾Ð´Ð¾Ð¼
1940
ĠÑģÑĥÑīÐµÑģÑĤÐ²Ð¾Ð²Ð°Ð»Ð¸
ĠÐĵÑĢÐ¸Ð³Ð¾ÑĢÑĮ
ĠÐ½Ð°Ð·ÐµÐ¼
ÐµÐ¹ÑģÐºÐ¸Ð¹
ĠÐĵÐ¾Ð²
ĠÑĢÐ¾Ð¶Ð´Ð°
ĠÐ¿Ð¸ÑģÐ°ÑĤÑĮ
ĠÐŁÑĢÐ¾ÑĨÐµÑģÑģ
ĠÑħÐ°ÑĢÐ°ÐºÑĤÐµÑĢÐ¸ÑģÑĤÐ¸ÐºÐ°
ĠÐ³ÐµÑĢÑĨÐ¾Ð³Ð°
ĠÑģÑĭÐ½Ð¾Ð²ÐµÐ¹
ĠÐŁÐ»ÑĥÑĤÐ°ÑĢÑħ
ÑĤÐ¾Ðº
Ð¼Ð°Ð»
ĠÐ¸ÐµÑĢÐ°ÑĢÑħ
ĠÑĤÐºÐ°Ð½Ð¸
ĠÐĴÐľ
ĠÐ¿Ð¾ÐºÐ¸Ð½Ñĥ
ÐĳÐ°Ð»
Ð»Ð¸ÑıÐ½Ð¸Ðµ
Ð²Ð¸Ð¶ÐµÐ½Ð¸Ñı
ĠÐ²Ð¾ÐµÐ½Ð½Ð¾Ðµ
ĠÐºÐ°Ð¶Ð´Ð°Ñı
ĠÐºÐ¾ÑĢÐ°Ð±Ð»Ð¸
ĠÐļÐ¾Ð½ÑģÑĤÐ°Ð½ÑĤÐ¸Ð½Ð°
ĠÑħÑĥÐ´Ð¾Ð¶ÐµÑģÑĤÐ²ÐµÐ½Ð½ÑĭÐ¹
ĠÐ·Ð°Ð¿Ð°ÑģÑĭ
ĠÐ½ÐµÐ¾Ð¿ÑĢÐµÐ´ÐµÐ»
ĠÐ¡ÐµÐ¼ÑĳÐ½Ð¾Ð²
ĠÐ°Ð¼Ð¿
ĠÑįÑĦÐ¸ÑĢ
ĠÐ¿ÑĢÐ¸Ð³Ð¾ÑĤÐ¾Ð²
ĠÑĦÐ°Ñģ
Ð»ÑĮÐ½Ð°Ñı
ĠÐ¿ÑĢÐµÐ´ÑģÑĤÐ°Ð²Ð¸ÑĤÐµÐ»ÑıÐ¼Ð¸
ĠEd
ĠÐ²Ð¸Ð´ÐµÐ¾
ĠÐĴÑģÑĳ
Ġ1881
Ġ1886
ĠÐ¿Ð¾ÐºÐ°Ð·Ð°Ð»Ð¸
ĠÐ²ÑĭÐ´ÐµÐ»Ð¸ÑĤÑĮ
ĠÐ¾ÑĨÐµÐ½ÐºÐ°Ð¼
ĠÑģÑĢÐµÐ´ÑģÑĤÐ²Ð°Ð¼Ð¸
ĠÐ²Ð¾Ð·Ð³Ð»Ð°Ð²Ð»Ñı
ĠÐŁÐ¾ÑģÐ»ÐµÐ´Ð½Ð¸Ð¹
ĠÐ¾ÑĤÑĢÑıÐ´Ð°
ĠÑĨÐµÑĢÐºÐ²ÐµÐ¹
ÑĤÐ°Ð²
ĠÐ¸ÑĥÐ´
ÑħÐ°Ð½Ð°
ĠÐ·Ð¾Ð½Ð°
ĠÐ¾ÑģÐµÐ½ÑĮÑİ
ĠÑĨÐµÐ½Ð·
Ð¸ÑĩÐ½ÑĭÐ¼
Ð¿ÑĢÐµÐ¶
ĠÑįÐ»ÐµÐºÑĤÑĢÐ¾ÑģÑĤÐ°Ð½
ĠÑĥÑģÐ»ÑĥÐ³Ð¸
ĠÐ¡Ð²Ð¾Ð¹
ĠÐ¿ÑĢÐ¸Ð·Ð½Ð°Ð½Ð¸Ðµ
ĠÑģÐ»Ð°Ð²Ñĭ
ĠÑĥÑĩÐ°ÑģÑĤÐ²Ð¾Ð²Ð°Ð»Ð¸
ĠÐ¨Ð¾ÑĤÐ»Ð°Ð½Ð´Ð¸Ð¸
ĠÐĴÐ°ÑĢÑĪÐ°Ð²
Ð¿ÑĢÐ¾Ð¼
ĠÐ¡Ð¼ÐµÑĢÑĤÑĮ
ĠÐŁÐ°ÑĢÐº
ĠÐĵÑĳÑĤ
ĠÐ²ÑĭÐ²ÐµÐ´
ÐŁÑĢÐ°Ð²
ĠÐ»ÑİÐ±ÑĭÑħ
ĠÐ¾Ð±ÐµÑģÐ¿ÐµÑĩÐ¸ÑĤÑĮ
ĠÐļÑĢÐ°ÑģÐ½Ð¾Ð´
ĠÐ½Ð°Ð·ÑĭÐ²Ð°ÑĤÑĮ
ĠÐĺÐ½Ð´Ð¾Ð½
ĠÑĦÐ¾ÑĢÐ¼ÑĥÐ»Ð¸ÑĢÐ¾Ð²
ĠÐ¿Ð¾ÐºÐ¸Ð½ÑĥÐ»
CO
ÐºÐµÑĤ
ÐºÐ¾ÑĤÐ¾ÑĢ
ĠÐĺÐ±
ĠÐ¤Ð¸Ð´
ĠÐ¾ÑģÐ½Ð¾Ð²Ð°ÑĤÐµÐ»ÐµÐ¹
ĠÑĤÐ¾ÑĩÐºÑĥ
ĠÐ²Ð°Ð¶Ð½ÑĭÑħ
ĠÑĢÐ°ÑģÑģÐ¼Ð°ÑĤÑĢÐ¸Ð²Ð°ÑĤÑĮ
ĠÑģÐ²Ð¾Ð¹ÑģÑĤÐ²Ð°Ð¼Ð¸
ĠÐĿÐ°ÑĢÐ¾Ð´Ð½ÑĭÐ¹
ĠÑģÐ¼Ð¾Ð³Ð»Ð¸
ĠÐºÐ¾Ð¼Ð¼ÑĥÐ½Ð¸ÐºÐ°
ĠÐ¿ÐµÑī
Ð¿ÑĢÐ¾Ð´
ĠÐ±Ð»Ñİ
Ð½Ð¸Ð»Ð¸
ĠÐ¿ÑĢÐ¸Ð±Ð¾ÑĢ
ĠÐ¨Ð»Ð¸
ĠÑĥÑģÑĤÑĢÐ°
ĠÑĩÐ°ÑģÑĤÑıÑħ
ĠÑİÐ³Ñĥ
ĠÐĵÐµÑĢÐ¼Ð°Ð½Ð¸ÐµÐ¹
ĠÐ¡Ð¾Ð²ÐµÑĤÐ¾Ð²
ĠÑħÑĢÐ¸ÑģÑĤÐ¸Ð°Ð½ÑģÑĤÐ²Ð¾
ĠÐ·Ð½Ð°ÐºÐ¾Ð²
ace
ĠÐ¦ÐµÐ½ÑĤÑĢÐ°Ð»ÑĮÐ½ÑĭÐ¹
ĠÑĥÑĢÐ°Ð²Ð½ÐµÐ½Ð¸Ðµ
ĠÑĥÐ±Ð¸Ð¹ÑģÑĤÐ²Ð°
ĠÐ¶ÐµÑģÑĤÐ¾Ðº
ĠÐµÐ¶ÐµÐ´Ð½ÐµÐ²
ÑĢÐ°Ð·Ñĭ
Ð·Ð°Ðº
Ð°ÑĤÐ¾Ð³Ð¾
ĠÐ¿ÑĢÐ¸ÑģÐ¿Ð¾ÑģÐ¾Ð±
ĠÑģÐ»Ð¾Ð±Ð¾Ð´
Ð»Ð¸Ð½Ð´
ĠGo
ĠÐ²ÐµÑĢÑħÐ½ÐµÐ¹
ĠÐ±Ð¾Ð»ÑĮÐ½Ð¸ÑĨÐ°
ĠÐ½Ð°Ð»Ð¸ÑĩÐ¸Ð¸
ĠÐŀÐºÑĤÐ°Ð²Ð¸
ĠÐ±ÑİÐ´Ð¶ÐµÑĤÐ°
))
ev
Ð°ÑĢÑĳÐ¼
ÑĩÐµÑģÐºÐ¾Ð¼Ñĥ
ĠÑįÑĦÐ¸
ĠÐĲÐ²Ð¸
ĠÑĥÐ¿Ð°Ð´
ick
ĠÐ°ÑĢÑħÐ¸Ð¿ÐµÐ»
ĠÑĥÑģÑĤÐ°Ð½Ð¾Ð²ÐºÐ¸
ĠÐ¾Ð±Ð½Ð°ÑĢÑĥÐ¶ÐµÐ½Ñĭ
ĠÑĩÐµÐ»Ð¾Ð²ÐµÑĩÐµÑģÐºÐ¾Ð³Ð¾
Ð¿Ð°Ð½
ÐµÑĢÐ²Ð°
ÐµÐ¼Ð»ÐµÐ¼
ĠÐŁÐ°Ð»Ðµ
ĠÐļÐ²
ÐĴÐ¾Ð»
ĠÐºÐ¾Ð½ÑĨÐ¾Ð²
ĠÐ°ÑĤÐ¾Ð¼Ð°
ĠÐ·Ð¾Ð»Ð¾ÑĤÐ¾
ĠÐ¿Ð¾Ð²ÑĭÑĪÐµÐ½Ð¸Ðµ
ĠÐ´ÑĥÑĪÑĥ
ĠÑģÐ¾Ð¾ÑĢÑĥÐ¶ÐµÐ½Ð¸Ð¹
ĠÐ½Ð°Ð³ÑĢÐµÐ²
ĠÐ¿Ð¾Ð·Ð½Ð°Ð½Ð¸Ñı
ĠÐĴÐ¾Ð·Ð¼Ð¾Ð¶Ð½Ð¾
Ð°Ð»Ð°Ð¼Ð¸
ÑĪÐ°Ñħ
ĠÐ±Ð»Ðµ
ĠÐ¡ÐµÐ³
ÑģÑĥÐ°
ĠÐ·Ð°Ð²Ð¸ÑģÐ¸Ð¼Ð¾ÑģÑĤÑĮ
ĠÑĥÐ¿Ð¾ÑĤÑĢÐµÐ±Ð»Ñı
ĠÑĢÐ°ÑģÑĪÐ¸ÑĢÐµÐ½Ð¸Ñı
ĠÐ¡Ð²ÐµÑĢÐ´Ð»Ð¾Ð²
ÐºÐ¾ÑĢÑĤ
ÑħÐµ
ÐµÐ»ÑĮÐ½Ð¾
Ð¾Ð»ÑĮÐ½ÑĭÐµ
ĠÐłÐ¾Ðº
ÐŁÐŀ
ĠÐ¿Ð¾Ð¿Ð°Ð´
ĠÐ¼ÑĥÐ·ÑĭÐºÑĥ
ĠÐ»ÐµÑģÐ¾Ð²
ĠÐ¿Ð¾Ð´Ð¿Ð¸ÑģÐ°Ð»Ð¸
Ð¾ÑĢÑıÐ´Ð¾Ñĩ
ĠÐºÑĢÐ°ÐµÐ²ÐµÐ´
ĠUniversity
ĠÑģÑĤÐ²
ÑĦÐµÑģÑĤÐ¸
ĠÑģÑĤÑĢ
ĠÑĢÐµÐ¶Ðµ
ÑĢÐµÐ½Ð±ÑĥÑĢÐ³
ĠÐ³ÑĢÐµÑĩÐµÑģÐºÐ¾Ð³Ð¾
ĠJava
ĠÑģÑĥÐ¼Ð¼Ñĥ
ĠÐ¼Ð¾Ð»Ð¾Ð´ÑĭÑħ
ĠÐ³ÑĢÐ°Ð½Ð¸ÑĨÐ°Ñħ
ĠÐºÐ¾Ð¼Ð¸ÑģÑģÐ¸Ñı
ear
Ð¼Ð¼
ĠÑģÑĦÐµÑĢ
ÑģÐºÑĢÐ¸Ð¿
Ð»Ð°Ð´Ðµ
ĠÐļÐ¾ÑĪ
ĠÐĵÐ»Ð°Ð²Ð°
ĠÐ¿ÐµÑĢÐµÐ¿Ð¸
ĠÐ¿ÑĢÐ¾Ð¸Ð·Ð²
ÐľÐŀ
ĠÐ´Ð¾Ð»Ð³Ð¾
ĠÐłÑĥÑģÑĮ
ĠÐ±Ð»Ð°Ð³Ð¾Ð´
ĠÐľÐµÐ¶Ð´ÑĥÐ½Ð°ÑĢÐ¾Ð´Ð½Ð¾Ð¹
ĠÐŀÑģÐ¾Ð±ÐµÐ½Ð½Ð¾
ĠÐ´Ð²ÑĥÐºÑĢÐ°ÑĤÐ½ÑĭÐ¹
Ð½ÐµÑĢÐ°
ÑģÑĢÐµÐ´
ĠÐ½Ð°ÐºÐ»Ð¾Ð½
Ð»Ð°Ð¶
ĠÐ¡Ð±Ð¾ÑĢ
Ð°Ð²ÑĪÐµÐµ
ĠÑĢÐµÐ°Ð»ÑĮÐ½Ð¾ÑģÑĤÐ¸
ĠÐĺÐ¾ÑĢÐ´
1930
ĠÑģÐ¾Ð²ÑģÐµÐ¼
ĠÑįÐºÑģ
ĠÐ²ÑĭÑģÐ¾ÑĤÐ°
Ð¸Ð³Ðµ
ĠÑĢÐµÑĪÐµÐ½Ð¸Ñİ
ĠÑĦÐ¾ÑĤÐ¾Ð¼
ĠÐ¼Ð¾Ð»ÐµÐºÑĥÐ»ÑıÑĢ
Ð½Ð°ÑĢÐ¾Ð´
ÐºÐ½ÑĥÑĤ
ĠÐļÐ°ÑĪ
Ð¾ÐºÐ°Ð·
ĠÐľÐ¾Ð´
ĠÐĶÐ¸Ðº
ĠÐŀÑģÐµÑĤÐ¸Ð¸
ĠÑĨÐµÐ»Ð¾ÑģÑĤ
ĠÐĽÑĥÐ½Ñĭ
ĠÐ¿ÑĢÐµÐ¼Ð¸Ñİ
ĠÑĢÐ¾Ð¼Ð°Ð½Ðµ
ĠÐ²Ð°ÑĢÐ¸Ð°Ð½ÑĤÐ°
ÑĪÐ¸ÑĢÑı
ĠÐ¸ÑģÐ¿Ð¾Ð»Ð½ÐµÐ½Ð¸Ñı
ĠÑģÐ¿Ð¸ÑģÐºÐµ
ÐĹÐ¾Ð»Ð¾ÑĤÐ¾Ð¹
ĠÐ´Ð¸ÑģÑĨÐ¸Ð¿Ð»Ð¸Ð½
ĠÐ¡ÑĤÐ°Ð½Ð¸ÑģÐ»Ð°Ð²
Ð½Ð¾ÑĪÐµ
Ð¸Ð¼Ð¾Ð³Ð¾
ĠÐ§Ð»ÐµÐ½
ĠÐµÐ´Ð¸Ð½Ð¾Ð³Ð¾
ĠÑĥÑģÑĤÐ°Ð½Ð¾Ð²Ð¸ÑĤÑĮ
ĠÐ¡Ð°Ð¼ÑĭÐ¹
ĠÑģÐ¾Ð»Ð´
ĠÐºÐ¾Ð»Ð¾Ð½Ð¸Ð¸
ÐķÐ¡ÐļÐŀ
Ġon
ĠÑģÐµÑĢÐ¸Ð¹
ÑĤÐ¸Ð·
ÑĤÐ°ÑĨÐ¸Ñı
Ð²ÐµÑĢÐ¶ÐµÐ½
ĠÐ´ÑĢÑĥÐ³ÑĥÑİ
ĠÑĦÐ¸Ð»Ð¾ÑģÐ¾ÑĦÐ¸Ñı
ĠÑĦÐ¸Ð»ÑĮÐ¼Ñĭ
ĠÐ®Ð¶Ð½Ð°Ñı
ĠÐ¼Ð¾ÑīÐ½Ð¾ÑģÑĤÑĮ
ĠÑħÑĥÐ´Ð¾Ð¶ÐµÑģÑĤÐ²ÐµÐ½Ð½Ð¾Ð¹
ĠÐľÐ°ÑĤÐµÐ¼Ð°ÑĤ
Ð¿Ð°Ð½Ð¸Ñı
ĠÐ³Ð¸
ĠÐļÑĥÐº
Ð¸Ð¹ÑģÐºÐ¸Ñħ
ĠÐ¿Ð¾ÑģÑĤÐ°
ĠÐ¿Ð¾Ð·Ð²Ð¾Ð½
ĠÐ¿ÑĢÐ¸Ð²ÐµÐ»Ð°
ĠÐ±Ð»Ð°Ð³Ð¾Ð¿ÑĢÐ¸ÑıÑĤ
ĠÑĥÑĩÐ°ÑģÑĤÐ¸Ð¸
ction
ĠÐ¿ÑĢÐ¸Ð¾Ð±ÑĢÐµ
ĠÐĳÑĢÐ°Ð·Ð¸Ð»Ð¸Ð¸
ĠÐ´Ð¾ÑģÑĤÐ¾Ð¸Ð½
pl
Ġ{
ÑİÐº
ĠÐ½ÐµÑĢÐ°Ð·
ÐĲÐ¢
ĠÐ¿Ð¾ÑģÑĤÑĥ
ĠÑĥÐ³Ð»Ñı
ĠÐ¼Ð¾Ð½ÐµÑĤÑĭ
ĠÐºÐ¾ÑĩÐµÐ²
ĠÐ¸Ð½ÑģÑĤÑĢÑĥÐ¼ÐµÐ½ÑĤÐ¾Ð²
ĠÐ¾Ð»Ð¸Ð¼Ð¿Ð¸Ð¹ÑģÐºÐ°Ñı
ĠÑįÐºÑģÐ¿Ð»ÑĥÐ°ÑĤÐ°ÑĨÐ¸Ð¸
ĠÐ°Ð²ÑģÑĤÑĢÐ¸Ð¹ÑģÐºÐ¸Ð¹
-,
Ð¸Ð½Ð³Ð°
Ð¾ÑĤÑĢÐ¾Ð¿
Ð°ÑĢÐ´Ð¾Ð²
ĠÑĢÐ°Ð·Ð²Ð¸Ð²Ð°ÐµÑĤÑģÑı
ÑĮÑıÑħ
ĠÑįÐ»ÐµÐºÑĤÑĢÐ¾Ð¿
ĠÑĢÐ¾Ð´Ð¾Ð²
Ġ1888
ĠÑĥÑĤÐ²ÐµÑĢÐ¶Ð´ÑĳÐ½
ĠÐ²Ð½ÐµÑĪÐ½Ð¸Ñħ
Ð½Ð¾ÑģÐ»Ð°Ð²ÑıÐ½
ĠÐ²Ð¾ÑģÑģÑĤÐ°Ð½Ð¾Ð²Ð»ÐµÐ½Ð¸Ñı
ĠÐ¿ÑĢÐµÐ¿Ð°ÑĢÐ°ÑĤÐ¾Ð²
ĠÐ°ÑįÑĢÐ¾Ð¿Ð¾ÑĢÑĤÐ°
ĠÐłÐ°Ð½ÐµÐµ
Ð°ÑĤÐ¸Ñı
ĠÐ¡Ð¾ÑģÑĤÐ°Ð²
Ð°ÑıÐ½
ÑĢÐ°Ð·Ð¸Ð»ÑĮ
ĠÐºÑĥÐ»ÑĮÑĤÑĥÑĢÐ½Ð¾Ð³Ð¾
ĠÐŀÑģÐ½Ð¾Ð²Ð½ÑĭÐ¼Ð¸
ĠÐ°Ð²ÑĤÐ¾Ð´
ime
Ð¿ÑĢÐ¾Ð¸Ð·
ĠÐłÐ°ÑģÐ¿ÑĢÐ¾ÑģÑĤÑĢÐ°Ð½
ĠÐĹÐ°ÐºÐ¾Ð½Ð¾Ð´Ð°ÑĤÐµÐ»ÑĮ
ĠÑĤÐµÑģÐ½Ð¾
ĠÑĢÐµÑĦÐµÑĢÐµÐ½Ð´Ñĥ
ĠÐ£ÐºÐ°Ð·Ð¾Ð¼
ĠÑĤÐ²Ð¾ÑĢÑĩÐµÑģÑĤÐ²Ðµ
yn
Ð°Ð¾
Ð³ÑĥÐ±ÐµÑĢÐ½
ÐµÑĢÐ½Ð¾Ð³Ð¾
ĠÐ¾ÑĤÐ»Ð¾Ð¶
ĠÐĲÑį
ĠÑĨÐµÐ½Ð½Ð¾
1917
ĠÐŁÑĢÐ¾Ð¸Ð·
ĠÑĨÐ°ÑĢÑĳÐ¼
ĠÐ°Ð´Ð¼Ð¸Ð½Ð¸ÑģÑĤÑĢÐ°ÑĤÐ¸Ð²Ð½ÑĭÐ¹
ĠÐ¼ÐµÐ´Ð¸ÑĨÐ¸Ð½Ðµ
ĠÐ¿Ð¾Ð»ÑĮÐ·Ð¾Ð²Ð°ÑĤÐµÐ»ÐµÐ¹
ĠÐ¿ÑĢÐ¸ÑģÑĥÑĤÑģÑĤÐ²Ð¸Ð¸
ÐµÑĢÐ½ÑĭÑħ
Ð¾Ð½Ð¸Ð¹
ĠÐŁÑĢÐ°Ðº
ÑĤÐ¸Ð²Ð¸
ĠÐĵÐŀ
ÑĨÐ¸Ð¾Ð½Ð½ÑĭÐ¼Ð¸
ĠÐ¾Ð±ÑĢÐ°Ð·Ð¾Ð²Ð°Ð½Ð¸Ð¸
ÐŃÐº
ĠÐ¿Ð¾Ð³ÑĢÐµÐ±
ĠÐ¿ÑĢÐ¾Ð´Ð¾Ð»Ð¶Ð¸ÑĤÐµÐ»ÑĮÐ½Ð¾ÑģÑĤÑĮ
ĠÐłÑĥÑģÑģÐºÐ°Ñı
ĠÐ¸Ð³ÑĢÐ°ÑĤÑĮ
ĠÐĴÐ»Ð°Ð´Ð¸Ð²
Ð°ÑĤÑĥÑĢÑĭ
Ġ115
ĠÐ¿Ð¾ÑģÐ¾Ð±
ĠÐ²ÑĢÐµÐ¼ÐµÐ½
ÑĢÐ¾ÑģÐ¸Ð»
ĠÐĲÐ»ÐµÐºÑģÐ°Ð½Ð´ÑĢÐ¸Ð¹
ĠÐ¿ÑĢÐ¸Ð¼ÐµÐ½ÑıÑİÑĤ
ĠÐ½ÐµÐ±Ð¾Ð»ÑĮÑĪÐ¸Ðµ
ĠÑĤÐµÑħÐ½Ð¸ÑĩÐµÑģÐºÐ¸Ñħ
ĠÐ²Ð¸Ð½ÑĤÐ¾Ð²
ĠÐºÐ°Ð»ÐµÐ½Ð´Ð°ÑĢÑĮ
ĠÐ½Ð°Ð³ÑĢÐ°Ð¶Ð´ÑĳÐ½
ĠÑĥÑīÐµÑĢÐ±
ÑĦÑĢÐ°Ð½
ÐłÐŀ
ĠÐ°ÐºÐº
ĠÐ²Ð¾ÐµÐ½Ð½ÑĥÑİ
ĠÐľÐ°ÑĢÐºÐ°
Ð¾ÐµÐ²ÑĢÐ¾Ð¿ÐµÐ¹
Ġ1878
ĠÐĴÐ¾Ð»Ð³
ĠÐ°Ð·Ð¾ÑĤ
ĠÐ¿ÑĢÐµÑģÑĤÐ¾Ð»Ð°
ĠÐ¿Ð¾Ð»ÐºÐ¾Ð²Ð¾Ð´ÐµÑĨ
Ð»ÐµÑĢÐ¾Ð²
ĠÐ³Ð»Ð¸Ð½
Ð¾Ð½Ð¾Ð²Ð°
ĠÐ¡Ð°Ð¹
ÐµÑĩÐµÐ½Ð¸Ðµ
ĠÐºÐ¾Ð»Ð¸ÑĩÐµÑģÑĤÐ²Ðµ
ĠÐ·Ð°ÑħÐ²Ð°ÑĤÑĭ
ĠÐ²Ð¾Ð·Ð²ÑĢÐ°ÑīÐµÐ½Ð¸Ñı
ĠÐŁÐ»Ð°ÑĤÐ¾Ð½Ð°
ĠÐ²ÐµÑĢÐ½ÑĥÑĤÑĮÑģÑı
Ð¼Ð°Ñģ
Ð¼Ð°ÑĪ
Ð»ÐµÐ½Ð½ÑĭÐ¼
ĠSch
Ġ99
ĠÐĲÑĢÑĤÑĥÑĢ
ĠÐ¼Ð½Ð¾Ð³Ð¾Ð»ÐµÑĤ
Ð½ÐµÐ²Ð¾ÑģÑĤÐ¾Ñĩ
ĠÐ²Ð½ÑĥÑĤÑĢÐµÐ½Ð½ÐµÐ³Ð¾
ĠÑģÐµÑĢÐµÐ±
ĠÐĶÐ°Ð²Ð¸Ð´
ĠÐĺÑģÐ¿Ð¾Ð»ÑĮÐ·Ð¾Ð²Ð°Ð½Ð¸Ðµ
Ð¾Ð±ÑĬ
ĠÐ¾ÑĤÐ¼ÐµÐ½Ð¸
ÐµÐ²ÑĢÐ°Ð»ÑĮ
ĠÐºÐ°ÐºÐ¾Ð³Ð¾
ÑĦÐ¾ÑĢÐ¼Ñĭ
ĠÐ½ÐµÐºÐ¾ÑĤÐ¾ÑĢÑĭÐ¼Ð¸
ĠÐ¼Ð¾Ð»Ð¸ÑĤ
ĠÐ³ÐµÑĢÐ¾ÐµÐ²
ĠÐłÑĥÑģÑģÐºÐ¾Ð³Ð¾
ĠÑĤÑĢÑĥÐ´Ñĭ
ĠÐ±ÐµÑĢÐµÐ¼ÐµÐ½
ĠÐ·Ð°ÑħÐ¾ÑĢÐ¾Ð½
ĠÐ¿Ð¾Ð´Ð³Ð¾ÑĤÐ¾Ð²ÐºÐµ
ĠÐ°Ð·Ð¾ÑĤÐ°
ĠÐ´ÐµÑģÑıÑĤÐ¸Ð»ÐµÑĤ
ĠÑģÐµÐ³Ð¼ÐµÐ½ÑĤ
ĠÑģÐ¾Ð¾Ð±ÑīÐµÑģÑĤÐ²Ð°
ĠÐºÐ¾ÑįÑĦÑĦÐ¸ÑĨÐ¸ÐµÐ½ÑĤ
Ð¸ÑģÑı
ĠÑģÐ½Ð¾
ĠÐ¿ÑĢÐ¸Ð¼Ðµ
ĠÐĿÐµÑģÑĤ
ĠÐ²ÑĭÐ³Ð»ÑıÐ´
ĠÐ·Ð°Ð³Ð¾Ð²
ĠÐ¿Ð¾Ð´Ð»ÐµÐ¶
ĠSer
ĠÐ£ÐºÑĢÐ°Ð¸Ð½Ñĥ
ÑıÐ½Ð°Ð¼Ð¸
ĠÑįÐ½ÑĨÐ¸ÐºÐ»Ð¾Ð¿ÐµÐ´Ð¸Ð¸
ÑĢÐ°Ð»Ð¸
ĠÐ³Ð¾ÑĢÐ°Ñħ
ÑĪÐµÐ½Ð¸
Ð»Ð°Ð´Ð°
ĠÐĳÐ°Ð·
ĠÑĢÐ¾Ð¶Ð´
ĠÐºÐ°ÐºÐ¸Ð¼
ĠÐ¸ÑģÑĤÐ¾ÑĢÐ¸ÑĩÐµÑģÐºÐ¸Ð¹
Ð¾ÑħÐ°
ĠÑĤÐµÐ°ÑĤÑĢÐµ
Ġ1863
ĠÑģÐ¾ÑĤÑĢÑĥÐ´Ð½Ð¸ÐºÐ¾Ð²
ĠÑģÑĢÐ°Ð¶ÐµÐ½Ð¸Ð¸
ĠÐĴÐ¿ÑĢÐ¾ÑĩÐµÐ¼
ĠÐ¾Ð±Ð¼ÐµÐ½Ð°
ĠÐ¸Ð·Ð´ÐµÐ»Ð¸Ñı
ÑĩÐ¸ÑĤÐ°ÐµÑĤÑģÑı
ĠÐ¡Ð°ÑĤÑĥÑĢ
Ð¾ÑģÑĤÐ°Ð½Ð¾Ð²
ÐµÑģÑĥÑį
ĠÐ¸Ð·Ð²ÐµÑģÑĤÐ½Ð¾Ð¹
ĠÐ¾Ð±ÑıÐ·Ð°ÑĤÐµÐ»ÑĮÐ½Ð¾
ĠÐ¾Ð±ÑĬÑıÐ²Ð»ÐµÐ½Ð¾
ĠÐ¡Ð¾Ð»Ð¾Ð¼
ĠÐŁÐ°Ð¿Ð°
Ð»ÑĮÐ½ÑĭÐ¼
ĠÐ£ÑģÑĤÑĮ
ĠÐ§ÑĤÐ¾
Ġ63
ĠCD
ÑĢÐ°ÑīÐµÐ½Ð¸Ñı
ĠÐ½Ð°Ð´Ð¿Ð¸ÑģÑĮ
ĠÐ¼Ð¾Ð´ÐµÑĢÐ½Ð¸
ĠÑĥÑĩÐ°ÑģÑĤÐºÐ¸
ĠÐ¡Ð¾Ð±Ð¾ÑĢ
ÑĥÑģÐºÐ°ÐµÑĤÑģÑı
ÐĻÐ¾ÑĢÐºÐµ
ÑĥÑģÑĤÐ¸Ð¼
ĠÑĤÑī
Ð¼Ð°Ð¼Ð¸
ĠÐŁÑĢÐ¸Ð¼Ð¾ÑĢ
ÐĴÐŀ
ĠÑģÐ¾ÑģÑĤÐ°Ð²Ð»ÑıÐ»
ĠÐ¿ÑĤÐ¸ÑĨÑĭ
ĠÐ°ÑģÑģÐ¾ÑĨÐ¸Ð°ÑĨÐ¸Ð¸
ĠÑĪÐ¾ÑģÑģÐµ
ĠÐ®ÐĿÐķÐ¡ÐļÐŀ
SS
Ð²Ð°Ð»Ð°ÑģÑĮ
ĠÑĤÑĢÐ¾
ĠÐĺÑĢÐ°Ð½Ð°
ÑĥÑĩÐµÐ½Ð¸Ðµ
ĠÐ´Ð¾Ð»Ñİ
ĠÑģÐ¾Ð²ÐµÑĢÑĪÐµÐ½
ĠÐ´Ð¸ÑģÑĤÐ°Ð½
ĠÐ¿ÑĢÐµÑĤÐµÐ½Ð´
Ð¼ÑĥÑİ
ĠÐ²ÐµÑĢÐ¸
ĠÐ²ÑĥÐ·Ð¾Ð²
ĠÐĴÐ¸ÑĢ
ĠÐ»Ð¸Ð²
ĠÑĩÐµÐ¼Ñĥ
ĠÐ´Ð°ÑİÑĤ
ÑĥÑģÑĤÑĢÐ¾Ð¹
ĠÐ°ÐºÑĤÐ¸Ð²Ð½Ð¾ÑģÑĤÑĮ
ĠÑĢÐµÐ´Ð°ÐºÑĤÐ¾ÑĢ
ĠÐ¡Ð¾Ð²ÑĢÐµÐ¼ÐµÐ½Ð½ÑĭÐµ
ĠÐ°ÑĥÐ´Ð¸ÑĤ
ĠÐ°Ð½Ð³Ð»Ð¸ÑĩÐ°Ð½
col
ĠÐ´ÐµÑģ
ĠÐļÐĵÐĳ
ĠÐ¾Ð±ÑĬÑıÐ²Ð¸Ð»Ð°
ĠÑĥÐ³Ð»ÐµÐ²
ĠÐºÑĢÐ¸Ð¿
ÑģÑĤÐ¾ÑıÑī
ĠÑĢÐ°ÑģÐ¿Ð¾Ð»Ð¾Ð¶ÐµÐ½Ð¾
ĠÐ¿ÐµÑĢÐµÐ²Ð¾Ð´Ð°
1984
ĠÐ²Ð°ÑĢÐ¸Ð°Ð½ÑĤÑĭ
ĠÐķÐ»Ð¸Ð·Ð°Ð²ÐµÑĤÐ°
ĠÐĲÐ±Ð´ÑĥÐ»
ĠÐ¿ÑģÐµÐ²Ð´Ð¾Ð½Ð¸Ð¼
ĠÐ·Ð°ÑħÐ²Ð°Ñĩ
ÃĹ
Ð¾Ð²ÑĭÐ¼Ð¸
ĠÐļÐ¾Ð±
Ð°Ð²ÑĪÐµÐ¹ÑģÑı
ĠÐľÐ½Ð¾Ð³Ð¾
ĠÐĵÐĶÐł
Ġ1830
ĠÐ¨ÐµÐº
ĠÑģÐ¸Ð¼Ð²Ð¾Ð»Ð¾Ð¼
ĠÑĢÐ°ÑģÑĤÐµÐ½Ð¸Ñı
ĠÐ½Ð¸Ð·ÐºÐ¾Ð¹
ĠÑĢÐ¸Ð¼Ð»Ñı
ĠÐ·Ð½Ð°ÐºÐ¸
ĠÐĺÐ¼Ñı
ĠÐ³Ð¾Ð¼Ð¾ÑģÐµÐºÑģÑĥ
ĠÐ£ÑĩÐ°ÑģÑĤÐ½Ð¸ÐºÐ¸
ĠÅ
ĠÐºÐµÑĢÐ°Ð¼Ð¸
Ð¾Ð»Ð¾Ð³Ð¸ÑĩÐµÑģÐºÐ¸
ĠÐ½Ð°Ð·Ð²Ð°Ð½Ð°
ĠÐ½ÐµÐ¼ÑĨÐµÐ²
ĠÐ¿Ð¾ÑģÐ»ÐµÐ´ÑĥÑİÑīÐ¸Ðµ
ĠÐ½ÐµÐ´Ð°Ð»ÐµÐºÐ¾
ĠÐ¿Ð¾ÑģÑĤÐ¾ÑıÐ½Ð½Ð¾Ð¹
ĠÐºÐ¾ÑģÐ¼Ð¾Ð½Ð°Ð²ÑĤÐ¾Ð²
ĠÐ´ÐµÑĢÐµÐ²Ð¾
Ð²ÑĪÐ°Ñı
ĠÐ½Ð°Ð³ÑĢÐ°Ð´
ĠÐŁÑĢÐµÑģ
ÐµÐ´Ðµ
ĠÐļÐ°ÑģÑĤ
ĠÐ»ÑİÑĤ
ĠÐ³Ð¾ÑĢÐ¾Ð´ÑģÐºÐ°Ñı
ĠÑĩÐµÐ»Ð¾Ð²ÐµÐºÑĥ
ĠÑĤÑĢÐ¸ÑĥÐ¼
ĠÐ²ÐµÐ´ÑĥÑīÐ¸Ñħ
ĠÑģÐ¾Ð¾Ð±ÑīÐ¸Ð»
ĠÑĤÑĥÑĢÐµ
ĠÑĢÐµÐ³Ð¸Ð¾Ð½Ð°Ñħ
ĠÐ»ÑĳÐ³ÐºÐ¸Ñħ
ÑĢÐ°Ñı
ĠÐºÐ¾Ð½ÑģÑĤÑĢÑĥÐºÑĤÐ¾ÑĢ
ĠÐ£ÑĤ
ĠÐ¿Ð¾Ð»Ð¾Ð¶ÐµÐ½Ð¸Ð¸
ĠÐ´Ð°Ð²Ð»ÐµÐ½Ð¸ÐµÐ¼
ĠÑĢÐ°Ð²Ð½Ð¾Ð²Ðµ
?Â»
ĠÐ²Ð¾ÑĢÐ¾ÑĤ
ÑįÑĪ
ĠÑĩÑĥÑĤÑĮ
ĠÐĽÐ¸Ð´
ĠÐ¿Ð¾Ð´ÑĬÑĳÐ¼
ĠÐ°ÐºÑĤÑĥ
ĠÐ¿ÑĢÐµÐ·Ð¸Ð´ÐµÐ½ÑĤÑģÐºÐ¸Ñħ
ĠÐ·Ð°Ð²Ð¾Ð´Ðµ
ĠÑĦÐ¾ÑĢÐ¼Ð¾Ð¹
ĠÑĦÑĥÑĤÐ±Ð¾Ð»Ñĥ
ĠÐºÐ½ÑıÐ¶ÐµÑģÑĤÐ²Ð¾
Ð¶ÑĥÐ°Ð·
ĠÑģÐ¾ÑĩÐµÑĤÐ°Ð½Ð¸Ð¸
ĠÑįÐºÑģÐ¿ÐµÐ´Ð¸ÑĨÐ¸Ñı
ĠÐ£Ð½Ð¸Ð²ÐµÑĢÑģÐ¸ÑĤÐµÑĤ
ĠÐ¿ÑĢÑĥÑģ
ĠÑĤÐ¸ÑĤÑĥ
ĠÐŁÑĢÐ¾ÑģÑĤ
ĠÐ¿Ð°ÑĢÐ¾ÑħÐ¾Ð´
ĠÐ²ÑĭÑģÑĪÐµÐµ
ĠÐ½Ð°Ð·Ð²Ð°ÑĤÑĮ
ĠÐ½Ð°Ð¿ÑĢÐ°Ð²Ð»ÐµÐ½Ð¸Ð¹
ÑĭÐ²Ð°ÑİÑĤÑģÑı
ĠÑģÐ»Ð¾Ð¶Ð½ÑĭÑħ
Ġ1848
ĠÐ¿ÑĢÐ¸ÑĤÐ¾Ðº
ĠÐ¦ÐµÐ·Ð°ÑĢÑı
ĠÐĳÐµÑĢÐ»Ð¸Ð½Ðµ
ĠÂ«Â»
ĠÐļÑĥÑĤ
ĠÐĳÐ¾Ð±
ĠÐ¢ÐŃ
use
ĠÐ¡ÐµÐ²ÐµÑĢÐ½ÑĭÐ¹
ĠÐºÐ¸ÑģÐ»Ð¾ÑĤÐ°
ĠÐ·Ð°ÑħÐ²Ð°ÑĤÐ¸Ð»
Ð±ÑİÑĢÐ¾
ĠÐĿÐµÐºÑĢÐ°ÑģÐ¾Ð²
ĠÐ°Ð½Ð¸Ð¼Ðµ
ÐµÐ½Ñĥ
ĠÐ·Ð»Ð¾
Ð¸Ð»ÐµÐ¼
ĠÐľÐµÐ¹
Ð¾Ð»ÑĮÐ½Ð¾Ð¹
ĠÑħÐ°
ÑĢÐ°Ð¶ÐµÐ½Ð¸Ðµ
Ð¤ÐĲ
ĠÑįÑĤÐ¸Ð¼Ð¸
Ð¸Ð³ÑĢÐ°Ð½
Ð¼ÐµÑĤÐ°Ð»
Ð½Ð¸ÑĩÐµÑģÑĤÐ²Ð¾
ĠÐľÐ°ÑĢÑĪÐ°Ð»
ĠÐĲÐ»ÑĮÑĦÑĢÐµÐ´
ĠÐ¢ÐµÐ°ÑĤÑĢ
ĠÐºÐ¸ÑĢÐ³Ð¸Ð·
ĠÑĦÐ»Ð°Ð³Ð°
ĠÐĽÑĥÐº
ĠÐ®ÑīÐµÐ½ÐºÐ¾
Ð¸ÐºÐ°Ð¼
ĠAs
ĠÐ±ÑĥÐ´Ð´Ð¸Ð¹
ĠÐ¸Ð·Ð´Ð°Ð²
ĠÐ¾ÑĩÐ¸ÑģÑĤ
ĠÑģÐµÐ²ÐµÑĢÐ½ÑĭÑħ
ĠÑĥÐ²ÐµÐ»Ð¸ÑĩÐµÐ½Ð¸Ñı
ĠÐ¿Ð»Ð¾ÑĤÐ½Ð¾ÑģÑĤÐ¸
ĠÐ½Ð°Ð½Ð¾Ñģ
ĠÐ¿ÑĢÑıÐ¼Ð¾ÑĥÐ³Ð¾Ð»ÑĮ
ĠÐŀÐºÑĤÑıÐ±ÑĢÑĮÑģÐºÐ¾Ð¹
ĠÐĴÐĺÐ§
Ð¸ÑĢÐ°Ð½
ĠÐĳÐ¸Ð±Ð»Ð¸Ð¾ÑĤ
ĠÑħÐ°Ð·
Ð°Ð¼Ð¸Ð»ÑĮ
ÑĤÐ¾Ð²ÑĭÑħ
ĠÐ¾Ð·ÑĳÑĢ
ĠÑįÑĦÑĦÐµÐºÑĤÑĭ
ĠÐ¿ÑĢÐ¾Ð´ÑĥÐºÑĤÑĭ
ÐºÐ½Ñĥ
ÐµÐ½ÑĨÐ¸Ñİ
ĠÐ½ÐµÐ»
Ð³Ð¸Ð¹
Ð°ÑĢÑİ
ĠÂ«âĢ¦
ĠÐ·Ð°ÑģÐµÐ»
ĠHe
ĠÑģÐ¸Ð¼Ð²Ð¾Ð»Ñĭ
ĠÐ½ÐµÑģÐºÐ¾Ð»ÑĮÐºÐ¸Ð¼Ð¸
ĠÑģÐ¾ÑĨÐ¸Ð°Ð»
ĠÐ»Ð¸ÑĤÐµÑĢÐ°ÑĤÑĥÑĢÐ½Ð¾Ð³Ð¾
ĠÑĩÐµÐ»Ð¾Ð²ÐµÑĩÐµÑģÐºÐ¾Ð¹
ĠÐ¾ÐºÐ°Ð·ÑĭÐ²Ð°ÐµÑĤ
ĠÐĲÐ·ÐµÑĢÐ±Ð°Ð¹Ð´Ð¶Ð°Ð½Ð°
ĠÑģÑĦÐ¾ÑĢÐ¼ÑĥÐ»Ð¸ÑĢÐ¾Ð²
ãģ
Ð½Ð¸Ñģ
Ð¾ÑģÑĤÐµÐ¿
ĠÐ¶Ð¸Ð»ÑĮ
Ð¾ÑĩÐ°Ð¹
Ġ%;
Ð´Ð¸Ð½Ð³
ĠÐ·Ð½Ð°ÑĩÐµÐ½Ð¸Ð¸
ĠÐ°Ð½Ð³Ð»Ð¾
ĠÑĥÑģÑĤÐ°Ð½Ð¾Ð²Ð»ÐµÐ½Ð¾
ĠÐ¿ÑĢÐ¾ÑģÐ¿ÐµÐºÑĤ
ĠÑĢÐ°ÑģÑĪÐ¸ÑĢÐ¸
ÃŃ
ĠÐ¸ÑģÐºÐ°
ĠÐļÐ¸Ð½Ð¾
ĠÐĲÐºÑĤ
ÐµÐ½ÑĤÐµ
ĠÐ¢Ð¾Ð±
ĠÐ²Ð¸Ð´ÐµÐ»
ÑĤÐ¸ÑĩÐµÑģÐºÑĥÑİ
Ð¸Ð²Ð°ÑİÑīÐ¸Ñħ
ĠÐĿÐ¾Ð²Ð¾Ðµ
ĠÑĪÐºÐ¾Ð»Ð°Ñħ
ĠÐ»ÑİÐ±Ð¾Ðµ
ĠWorld
ĠÑĢÐµÐ»Ð¸Ð³Ð¸Ñı
ĠÑĢÐ°Ð½ÐµÐ½
ĠÐ¾ÑĦÐ¸ÑĨÐ¸Ð°Ð»ÑĮÐ½ÑĭÑħ
Ġ1879
ĠÐ¾Ð³Ð¾Ð½ÑĮ
ĠÐ®Ð¶Ð½Ð¾
ĠÐĳÐµÐ»ÑĮÐ³Ð¸Ð¸
ĠÐ¿ÐµÑĢÐµÐ²Ð¾ÑĢÐ¾ÑĤ
ĠÐŁÑĢÐµÐ¿Ð¾Ð´
ĠÐ¿Ð¸ÑĢ
Ð¿Ñģ
ĠÐºÐ¸ÐµÐ²
Ð½Ð¸Ð³Ð¾Ð²
ĠÑģÑĤÑĢÐ¾Ñı
ile
ĠÑıÐ´ÐµÑĢÐ½Ð¾Ð³Ð¾
ĠÑģÐ»Ð°Ð±Ð¾
ĠÐ½Ð°Ð²Ð¾Ð´
ĠÐ¿ÑĢÐ¸Ð¾ÑĢÐ¸ÑĤ
Ð¸Ð¼Ñĭ
1920
ĠÐºÐ¾Ð»Ð»Ðµ
ĠÐ²ÑĭÑģÐ¾ÐºÐ¸Ðµ
ĠÐ°ÑĤÐ°Ðº
ĠÐ¾ÑĦÐ¸ÑĨÐ¸Ð°Ð»ÑĮÐ½Ð¾Ð¹
Ð²Ð°Ð»Ñı
ĠÐºÐ¾Ð¼Ð¿ÑĮÑİÑĤÐµÑĢÐ¾Ð²
ĠÐ¼ÑĭÑģÐ»ÑĮ
ĠÐ¿ÑĢÐ¾Ð¸ÑģÑħÐ¾Ð´ÑıÑĤ
ĠÐĳÐ°ÑĪÐºÐ¾ÑĢÑĤ
ÑĢÐµÐ²Ð°
ÐµÑĢÐ½Ð°Ñı
ÑĦÐ¸Ð»Ð¾ÑģÐ¾ÑĦ
ĠÐľÐ°Ð¼
ĠÐĳÑĢ
ĠÐ¾Ð±ÑĢÐ°Ð·ÑĥÑİÑĤÑģÑı
ĠÐ·Ð°Ð²ÐµÐ´ÐµÐ½Ð¸Ñı
ĠÑĢÑĥÑģÑģÐºÐ¾
ĠÐŀÐ±Ð»Ð°
ĠÐ´ÐµÑıÑĤÐµÐ»ÑĮÐ½Ð¾ÑģÑĤÑĮÑİ
Ð½Ð¸ÑĩÐµÑģÑĤÐ²Ð°
ĠÐ¿ÑĢÐ¸Ð¼ÐµÐ½ÐµÐ½Ð¸Ð¸
ĠÑģÐ²Ð¾Ð±Ð¾Ð´Ð½Ð¾Ð³Ð¾
ĠÐ´ÑĢÐ¾Ð±
ĠÐ¿ÑĢÐµÐ´Ð¿Ð¾Ð»Ð¾Ð¶Ð¸ÑĤÐµÐ»ÑĮÐ½Ð¾
ĠÑĥÑģÐ¸Ð»Ð¸
ĠÐ§Ð¸ÑģÐ»Ð¾
ĠÐºÐ°ÑĤÐ°ÑģÑĤÑĢÐ¾ÑĦÐ°
ĠÑĢÐ°ÑģÑĤÐ²Ð¾ÑĢÐ°
ĠÐ±ÑĥÐ»
ĠÐĵÑĢÐ¸Ð½
ÑģÐ¾Ð²ÐµÑĤÐ°
ĠÐ¿Ð¾Ð²ÑģÑĤÐ°Ð½
ĠÐĸÑĥ
Ð½Ð¾ÑģÑĤÑıÐ¼
ÑĭÐ²Ð°Ð»Ð¸
1960
ĠÐ¼ÐµÐ»Ð¾Ð´
ĠÐ¿ÑĢÐ¾ÐµÐºÑĤÐ¸ÑĢÐ¾Ð²
ĠÐ¥Ð°Ð±Ð°ÑĢÐ¾Ð²
ÑģÐ±ÐµÑĢÐ³
ÑģÑĤÐ²Ð°Ð¼
ĠÐ¿ÑĢÐ¸ÑģÑı
Ð´Ð°Ð¹
ĠÐ¤Ð¸Ð»Ð°
ĠÑģÐ¿Ð¸Ð½
ÐµÐ³Ð°ÑĤÑĭ
ĠÐ·Ð°Ð¼Ð¾Ðº
ĠÐķÐ²ÑĢÐ¾Ð¿Ñĥ
ĠÐ½Ð°ÑĥÑĩÐ½ÑĭÐ¹
ĠÑĥÑĩÑĳÐ½Ð¾Ð³Ð¾
ĠÐ²Ð°Ð¶Ð½ÐµÐ¹
ĠÐ½Ð¸ÐºÑĤÐ¾
ĠÐ¾Ð±ÑĬÑıÑģÐ½ÑıÐµÑĤÑģÑı
FF
li
ĠÐ½ÑĥÐ»
Ð°ÑĤÑĥÑĢÐ°
ĠÐ±Ð°Ð±
Ð½Ð¸ÑıÑħ
ĠÐ¿Ð¾Ð´ÐºÐ»ÑİÑĩ
ĠÐ¤ÐłÐĵ
ĠÐĲÐ»Ð±
ĠÐ½Ð°Ð¿ÑĢÑıÐ¶ÐµÐ½Ð¸Ñı
ĠÐĴÑıÑĩÐµÑģÐ»Ð°Ð²
ĠÑģÐºÐµÐ¿
Ð¾Ð´ÑĢÑĥÐ¶Ðµ
ĠÐŁÑĢÐ¾Ñģ
ĠÐ¾ÑĤÐ½ÐµÑģ
ÐµÑģÐ¾ÑİÐ·
ĠÐºÐ°Ð¼ÐµÐ½ÑĮ
ĠÐ¸Ð·Ð±Ð¸ÑĢÐ°ÑĤÐµÐ»ÐµÐ¹
ĠÐľÐ¾Ð¸Ñģ
ĠÐļÐµÐ¼ÐµÑĢÐ¾Ð²
ĠÐ°Ð»Ð³ÐµÐ±ÑĢÐ°
ĠÐ¿Ð¾Ð·Ð½Ð°ÐºÐ¾Ð¼Ð¸Ð»ÑģÑı
au
Î»
ĠÐ²Ð²Ð¸Ð´Ñĥ
ĠÑĤÑĥÑĤ
ĠÐ°Ð¼Ð¸Ð½
ÐºÐ°Ð¹
ĠÑģÐºÐ°Ð½Ð´
ĠÐ²Ð¾ÐµÐ½Ð½ÑĭÐ¼
ĠÐ¿Ð¾ÑĩÐ²Ñĭ
ĠÐ±ÑĢÐ°ÐºÐ°
1988
Ġ1868
ĠÐ¿Ð¾Ð²ÑĭÑĪÐµÐ½Ð¸Ñı
ĠÐ³ÑĥÐ±ÐµÑĢÐ½Ð¸Ñı
ĠÑĢÐ°Ð´Ð¸Ð¾Ð°ÐºÑĤÐ¸Ð²
ĠÐ°ÐºÑģÐ¸Ð¾Ð¼
Ð¸Ð½ÑĤÐµÑĢÐµÑģÐ¾Ð²
Ð²ÑĪÐ¸Ðµ
ĠÐ±ÐµÐ»ÑĮ
ĠÑįÑģÑĤÐ¾Ð½
ĠÐ²ÐµÑĢÑĤ
ĠÑģÐ¾Ð²ÑĢÐµÐ¼ÐµÐ½Ð½ÑĭÐ¹
ĠÑĩÑĤÐµÐ½Ð¸Ñı
ĠÐºÐ¾Ð¼Ð°Ð½Ð´Ð¸ÑĢÐ°
ĠÐĵÐ¾ÑĢÐ¾Ð´ÑģÐºÐ¾Ð¹
ĠÐ¿ÑĢÐ¾Ð²ÐµÐ´ÐµÐ½Ð¸Ðµ
ĠÐ»Ð°ÑĤÐ¸Ð½
ÑĪÑĥÑİÑģÑı
ĠÐ·Ð°Ð¼ÐµÑĤÐ½Ð¾
ĠÑĦÐ¸ÑĢÐ¼Ñĭ
ĠÑĥÑĢÐ¾Ð¶Ð°Ð¹
ĠÐ¿ÑĢÐ¾Ð¿Ð¾ÑĢÑĨÐ¸Ð¾Ð½Ð°Ð»ÑĮ
Ð½ÐµÐ½
ĠÐ½Ð°Ð´ÐµÐ»
ĠÐ¡Ð°Ð±
ĠÐłÐµÐ¼
ĠÐ£ÑĢÐ°Ð»ÑĮ
ĠÐ§ÐµÑĢÐ½
ĠÐ¾ÑĢÐ³Ð°Ð½Ð¸Ð·Ð°ÑĨÐ¸Ñİ
ĠÑģÐ¾Ð¾ÑĤÐ²ÐµÑĤÑģÑĤÐ²ÑĥÑİÑīÐ¸Ðµ
ÑĢÐ°Ð·Ð´ÐµÐ»Ñı
ĠÐ²ÑĭÑĪÐµÐ´
ĠÐ±ÑĭÐ²ÑĪÐµÐ¹
ĠÐ¾Ð±Ð½Ð°ÑĢÑĥÐ¶Ð¸Ð»
ĠÐ¿ÑĢÐ¾ÑħÐ¾Ð´Ð¸Ð»Ð¸
ĠÑĢÐµÐ»Ð¸Ð³Ð¸Ð¾Ð·Ð½Ð¾Ð¹
ĠÑĥÑĩÐ¸Ð»Ð¸ÑīÐ°
ĠÑģÑĤÑĢÐ¾ÐºÐ¸
ĠÐĽÐµÐ±ÐµÐ´
ĠÐ¢Ð°Ð´Ð¶Ð¸ÐºÐ¸
ÑĢÐ¸ÑĤÐ°
Ð¾Ð»Ð¾ÑģÐ¾Ð²
ĠÐĴÐ¾Ð»ÑĮÑĦ
ĠÐ¡ÐµÐ»
2018
2017
ÐĺÐ·
ĠÑģÑĤÑĢÐ°Ð½Ð¸ÑĨ
ÐµÑĢÐ¼Ð°Ð½
ĠÐ¾Ð±ÑĢÐ°Ð·Ð¾Ð²Ð°Ð½Ð°
ÐºÐ¾Ð»Ð°
ĠÐºÐ¾Ð½ÑĤÐ°ÐºÑĤ
1938
Ð¿ÑĢÐµÐ¶Ð½ÐµÐ¼Ñĥ
ĠÐ½Ð°Ð»Ð¸
ĠÐ´Ð°ÑĢ
Ð¾ÑģÐ¸ÑģÑĤÐµÐ¼
ĠÑģÐ²ÐµÑĢÐ³
ĠÑĢÐ°Ð·Ð³Ð¾Ð²Ð¾ÑĢ
Ġ57
ÑĥÐ»ÑģÑı
ÐľÐļ
ĠÑĩÐµÑĩÐµÐ½
Ġ68
ĠÑĤÐµÐ¼Ñĥ
ĠÐ¿Ð¾Ð¿Ð°Ð»
ĠÐ¿Ð¾ÑģÐ»ÐµÐ´Ð½Ð¸Ð¼
ĠÐ¼Ð¾Ð½Ð³Ð¾Ð»ÑĮ
ĠÐ²Ð¾Ð¿ÑĢÐ¾ÑģÐ°
ĠÐĽÐ¸ÑĤÐµÑĢÐ°ÑĤÑĥÑĢ
ĠÐ¢ÐµÐ°ÑĤ
ĠÑĨÐ²ÐµÑĤÐ¾Ð²
ĠÐ°ÑĢÐµÑģÑĤÐ¾Ð²Ð°Ð½
ĠÐ¾ÐºÑĢÐµÑģÑĤÐ½Ð¾ÑģÑĤÑıÑħ
BC
ĠÐ»ÐµÑĤÐ°
ĠÐ±Ð¾Ð³Ð¾Ñģ
ĠÐ´ÐµÐ¿Ð°ÑĢÑĤ
Ġ1864
ĠÑģÑĥÐ¼Ð¼Ñĭ
ĠÐ¼Ð¾Ð»ÐµÐºÑĥÐ»Ñĭ
Ð¿Ð¾Ð¿
Ð±Ð¾Ð»ÐµÐµ
ĠÐļÐ»Ð¸Ð½
ĠÐ¿Ð¾Ð»ÐµÐ¹
ĠÐ¾ÑģÐ½Ð¾Ð²Ð°Ð½Ð½ÑĭÐµ
ĠÐ½Ð°ÑģÐ»ÐµÐ´Ð¾Ð²
ĠÐ»ÐµÑĤÐ¾
ĠÑĤÑĢÐµÑĤÐ¸
ĠÐĽÑĥÐ¸
ĠÐ´ÐµÑĢÐµÐ²Ð½Ðµ
ĠÐ³ÑĢÑĥÐ½
ĠÐ¼ÐµÐ»ÐºÐ¸Ñħ
ĠÐŁÑĢÐ¸Ð¼ÐµÑĢÑĭ
Ð²Ð¸Ð½Ñĥ
ĠÐ²ÑģÑĤÑĢÐ¾
ÐµÐ»ÑĮÑĤ
ĠÐĵÐ°Ð¼
ĠÐ¿Ð¾ÑģÐ»Ð°Ð½
ÑĢÑıÐ¼
ĠÑĪÐµÑĢ
ÑĥÐ¼Ð¾Ð²
Ð²Ð¾Ð´Ð°
ĠÐ¿Ð°ÑĢÐºÐ°
one
ĠÐ¡ÐºÐ¾ÑĢ
ĠÐºÐ°ÑĤÐ°Ð»Ð¾Ð³
Ġ1877
ĠÐ¾ÑĤÐºÑĢÑĭÑĤÑĭÐ¼
Ð°Ð»Ð¸ÑģÑĤÑĭ
ĠÑİÐ¶Ð½ÑĭÑħ
ĠÐ¿Ð¾Ð´Ð¾Ð±Ð½ÑĭÐµ
ĠÐ¿ÑĢÐ¾ÑıÐ²Ð»ÐµÐ½Ð¸Ñı
ĠÐ´Ð¶Ð°Ð·
ĠÐļÐ¸ÑĢÐ¸Ð»
ĠÐ¤Ð¸Ð»ÑĮÐ¼Ñĭ
ĠÐ¹
Ð±ÑĭÑĪ
ĠÑĤÐ°ÑĤ
ĠÐ¢Ð¾Ð½
ĠÐĹÐ¸Ð½Ð¾Ð²
Ð²Ð°Ð½Ð³
ĠÐ£ÐºÑĢÐ°Ð¸Ð½ÑģÐºÐ¾Ð¹
ĠÑĢÐ°ÑģÐ¿Ð¾Ð»Ð¾Ð¶ÐµÐ½Ð½ÑĭÐ¹
ĠÐ·Ð°Ð½ÑıÐ»Ð°
1939
ĠÐ¿Ð»ÐµÐ¼ÐµÐ½Ð¸
ĠÐ°Ð»ÑĦÐ°Ð²Ð¸ÑĤÐ°
ĠÑģÑĥÐ±ÑĬÐµÐºÑĤÐ°
ĠÐŁÑĥÑĪÐºÐ¸Ð½
ÑĦÑĥÑĢ
Ð½Ð¸Ð½Ñĭ
ĠÐ¢ÐµÑģ
Ġ67
ĠÐ½Ð¾Ð²Ð¾Ð¼
ĠÐ¡ÑĤÑĢÑĥÐºÑĤ
ĠÐ¿ÑĢÐ¸Ð²ÑĳÐ»
ĠÐ´Ð¾Ð±Ð¸ÑĤÑĮÑģÑı
ĠÐŁÐµÑĢÑĥ
ĠÐ´Ð¾Ð¿Ð¾Ð»Ð½Ð¸ÑĤÐµÐ»ÑĮÐ½ÑĭÐµ
ÑģÐ°Ð»
ĠÐ±Ð»Ð¾ÐºÐ°
Ð¾Ð»ÑĮÑģÐºÐ¾Ð³Ð¾
ĠÐ¾ÑģÐ»Ð¾Ð¶
Ð¾ÑĢÐ¸Ð»
ĠÐ¸Ð¼ÐµÐ»Ð¾
ĠÐ¦ÐµÐ»ÑĮ
2022
ĠÑģÐ»ÑĥÑĩÐ°Ð¸
Ġ1884
Ġby
ĠÑĢÐµÐºÐ¾Ð¼ÐµÐ½Ð´Ð°
Ð°ÑİÑīÐ°Ñı
ÐµÐ½ÑĨÑĭ
Ð°Ð²ÑĪÐ¸Ð¼Ð¸
ĠÐľÐ¸ÑĢÐ¾Ð²
ÑĢÑĭÐ¼
ĠÐ¼ÐµÑĤÑĢÐ¸
Ð¸ÑĤÐ°ÑİÑĤ
ĠÑĥÐ³Ð¾Ð´
ĠÐ²ÐµÐ´ÑĳÑĤÑģÑı
ĠÑģÐ¾ÐµÐ´Ð¸Ð½Ñı
ĠÐ±Ð°Ð·Ð°
ĠÐ²ÑĢÐ°Ð¶Ð´
ĠÑĪÐ²ÐµÐ´ÑģÐºÐ¸Ð¹
ĠÐĺÑĢÐ»Ð°Ð½Ð´Ð¸Ð¸
ĠÐ¾Ð±ÑĢÐ°ÑĤÐ¸Ð»ÑģÑı
ĠÐ¯Ð²Ð»ÑıÐµÑĤÑģÑı
ĠÐľÑİÐ½Ñħ
Ġy
Ð¾Ð»Ð¸Ð½
ÐµÐ»ÐµÑģ
ĠÐ¡Ðĺ
ĠÐļÑĥÑĢÐ³
ĠÐĲÑĦÐ¸Ð½Ñĭ
ĠÐ·Ð°Ð¶
Ð½Ð°ÑĩÐ°Ð»Ðµ
ĠÐ¸Ð·Ð²ÐµÑģÑĤÐ½Ð°Ñı
ĠÐ»Ð¸ÑĤÐµÑĢÐ°ÑĤÑĥ
ĠÐ¾ÐºÐ¾Ð½ÑĩÐ°Ð½Ð¸Ð¸
ĠÐ´Ð°Ð»ÑĮÑĪÐµ
ĠÐ¿Ð¾ÐºÐ°Ð·ÑĭÐ²Ð°ÐµÑĤ
ĠÐºÐ¾Ð½ÐµÑĩÐ½Ð¾Ð¼
ĠÐ¿ÐµÑħÐ¾ÑĤ
ĠIntel
ĠÐ¾ÑģÐ½Ð°Ñī
Ð¾Ð½ÑģÐºÐ¾Ð¹
ÐµÐ»ÑĮÐ½ÑĭÐµ
Ð»ÑĮÐ½Ð¾Ðµ
ĠÐ¿ÑĢÐµÐ´Ð¿Ð¸Ñģ
ÐµÐ·Ð¸Ñı
Ð¸ÑĩÑĮ
ĠÐ¾Ð±ÑĢÐ°Ð·Ð°
2015
ĠÑĢÐ°Ð·Ð»Ð¸ÑĩÐ½ÑĭÐ¼
ĠÑģÐ¾ÑİÐ·Ð½Ð¸ÐºÐ¾Ð²
ĠÑĢÐµÐ°ÐºÑĨÐ¸Ñı
ĠÐºÑĢÐ¸ÑĤÐ¸ÐºÐµ
ĠÑĢÐ°Ð±Ð¾ÑĩÐµÐ¹
ĠÐ¾ÑĦÐ¸ÑĨÐµÑĢ
ĠÐºÐ¾Ð¼Ð¿Ð¾Ð½ÐµÐ½ÑĤÐ¾Ð²
ĠÐ³Ð¸Ð¼Ð½Ð°Ð·Ð¸Ð¸
ĠÐŁÑĢÐµÐ´ÑģÐµÐ´Ð°ÑĤÐµÐ»ÑĮ
ĠÐ¡Ð²ÑıÑīÐµÐ½Ð½Ð¾Ð¹
ÑģÐ¾Ð²ÐµÑĢÑĪÐµÐ½
à¤
ĠÐ¸ÑĢÐ°Ð½
Ð¾Ð»Ñĩ
ĠÐ±Ð¸Ð½
ĠÑįÑģÐ¿ÐµÑĢÐ°Ð½
ĠÑģÑĤÑĢÑĥ
Ð¡ÐĶ
ÐµÑĨÐºÐ¾Ð¹
ĠÑİÐ±
ĠÐ¾Ð±ÑīÐµÐ½Ð¸Ñı
ĠÐ²Ð¾ÑģÐ¿ÑĢÐ¸Ð½Ð¸Ð¼Ð°
ĠÐ¿ÑĢÐµÐ´Ð¿Ð¾Ð»Ð°Ð³Ð°ÐµÑĤ
ĠÑĢÐ°ÑģÑģÐºÐ°Ð·Ð¾Ð²
ĠÐŁÑĥÐ±Ð»Ð¸Ð¹
XX
Ð°ÑģÑĤÑĮ
ÑĪÐ°ÑĦ
ĠÐŁÐ¸ÑģÑĮ
ĠÑģÑĤÐ¾Ð¹
ĠÐľÐµ
ĠÑĥÑĩÐ¸Ð»ÑģÑı
ĠÐ·Ð²ÑĳÐ·
ĠÑģÐ¿Ð¾ÑģÐ¾Ð±Ð½Ñĭ
ĠÑĥÑĩÑĢÐµÐ¶Ð´ÐµÐ½Ð¸Ðµ
ĠÐ¿ÑĢÐ¾Ð³Ð¾Ð»Ð¾ÑģÐ¾Ð²
ĠÐ±ÑĥÐ¼Ð°Ð³Ð¸
ÑįÐ»ÐµÐºÑĤÑĢÐ¸
ĠÐ²ÑĢÐ°ÑīÐµÐ½Ð¸Ñı
ĠÐĴÐ¾ÑĢÐ¾ÑĪ
ĠÑģÐ¾Ð²Ð¾ÐºÑĥÐ¿Ð½Ð¾ÑģÑĤÑĮ
ĠÐ¡ÐµÑĢÐ±Ð¸Ð¸
ĠÐ¡ÐµÐ¹ÑĩÐ°Ñģ
ĠÐ²ÑģÑĤÐ°Ð²
Ð°Ð½ÑģÐ¾Ð²
ĠÐŁÑĢÐ¾Ð²
ĠÐļÐ°ÑĢÐ¸
Ð¾ÑĢÐ¸ÑĤÑĮ
ĠÐ¿Ð¾ÑģÐ²
ĠÐ¿ÐµÑĢÐµÐº
ĠÐ¼ÐµÑĤÑĢÐ°
Ð»Ð¾Ð¼ÐµÑĢÐ°
ĠÐ½ÐµÐ¼ÐµÑĨÐºÐ¸Ðµ
ĠÐºÐ½ÑıÐ·ÐµÐ¼
ĠÑģÐ¾ÑĨÐ¸Ð°Ð»ÑĮÐ½ÑĭÐµ
ĠÑģÑĤÐ¾Ð¸Ð¼Ð¾ÑģÑĤÐ¸
ĠÑģÐ¾Ð·Ð´Ð°Ð²Ð°ÑĤÑĮ
ĠÐ¦Ð·Ð¸Ð½ÑĮ
ĠÑĨÐ¸Ð²Ð¸Ð»Ð¸Ð·Ð°ÑĨÐ¸Ð¸
ĠÐ¿ÐµÑĪ
ÐµÑĢÐ½Ð¾Ð¹
ĠÐŁÐ¸Ð½
ĠÐļÑĥÐ¿
Ð¸Ð¼ÑĭÐ¹
ĠÐ¶Ð°Ð»
ĠÐĽÐµÐ¼
ĠÑįÐºÐ²Ð°ÑĤ
ĠÐ¾ÑģÑĤÐ°Ð»Ð¾ÑģÑĮ
ĠÑģÐ»ÐµÐ´ÑĥÑİÑīÐµÐµ
ĠÑģÐ»ÐµÐ´ÑģÑĤÐ²Ð¸Ðµ
ĠÐ²Ð·ÑıÐ»Ð¸
ĠÐ¾Ð±Ð¾Ð·Ð½Ð°ÑĩÐµÐ½Ð¸Ðµ
ĠÐ¤Ð¸Ð»ÑĮÐ¼
ĠÐ²Ð½Ð¸Ð·
ĠÑģÑĥÑĪ
ĠÑģÑĤÑĭ
ÑĢÐ¾Ð²ÑĭÐµ
ĠÐĳÑĥÑħ
ĠÐĽÑĥÐ³
ĠÐ¾Ð´Ð½Ð¾Ð·Ð½Ð°Ñĩ
ĠÑĪÐ»Ð°
ÑĢÐ¾Ð¼Ñĭ
ĠÑģÐ¾ÑģÑĤÐ°Ð²Ð¸Ð»Ð¾
ĠÐ¼Ð½Ð¾Ð³Ð¸Ð¼Ð¸
ĠÐ¾Ð¿Ð¸ÑģÐ°Ð»
ĠÐĵÐ¾ÑģÑĥÐ´Ð°ÑĢÑģÑĤÐ²ÐµÐ½Ð½Ð°Ñı
ĠÐ±ÑİÑĢÐ¾
ĠÐļÑĢÑĭÐ¼Ð°
Ð¾Ð·Ð½Ð°Ð½Ð¸Ñı
ÑİÑīÐ¸Ð¼Ð¸ÑģÑı
Ð»ÑĳÐ¹
ĠÐ¿ÑĢÐ¾ÑĤÐµÑģÑĤÐ°Ð½ÑĤ
ĠÐ¼Ð¸ÑģÑģÐ¸Ð¾Ð½
ĠÐľÐ°ÑĤÑĮ
Ð¸Ð²ÑĪÐµÐ¹
ĠÐ¸Ð½ÑģÑĤÑĢÑĥÐº
ĠÐ®ÑĢÐ¸Ñı
ĠÐŁÐ¾ÑģÐ¿Ð¾Ð»Ð¸ÑĤ
Ð°ÑģÑĤÐ¾Ð²
ĠÐºÐ°ÑĢÐ±
ĠÐ¿ÑĢÐµÐ¼Ð¸Ð¹
ĠÐŃÐ½Ð³ÐµÐ»ÑĮ
ĠÐ¼ÑĥÐ½Ð¸ÑĨÐ¸Ð¿Ð°Ð»ÑĮÐ½ÑĭÐ¹
ĠÐļÐ°Ð¿Ð¸ÑĤ
ĠÐŁÐ¾ÑģÐ»ÐµÐ´Ð½Ð¸Ðµ
ĠÐ¿Ð¸ÑģÑĮÐ¼ÐµÐ½Ð½Ð¾ÑģÑĤÐ¸
ĠÐºÐ»Ð¸Ð¼Ð°ÑĤÐ°
ĠÐĵÐµÐ¾ÑĢÐ³Ð¸Ñı
ĠÐ§ÐµÑħÐ¸Ð¸
ĠÑįÐ»ÐµÐºÑĤÑĢÐ¾ÑįÐ½ÐµÑĢÐ³Ð¸Ð¸
de
Ġ118
Ð»Ð°Ð¼ÐµÐ½
ĠÑĢÐµÑģÑĤÐ°Ð²
ĠÐ³Ð¾ÑĢÐ¾Ð´ÑģÐºÐ¸Ðµ
Ð¾Ð»Ð¾Ð³Ð°
ĠÑģÐºÐ°Ð»
ĠÐŀÑģÐ½Ð¾Ð²Ð½ÑĭÐ¼
ĠÑģÐ²Ð¾Ð±Ð¾Ð´Ð½Ð¾Ð¹
ĠÑĥÐ²ÐµÐ»Ð¸ÑĩÐ¸Ð²Ð°ÐµÑĤÑģÑı
ĠÐ®Ð¶Ð½Ð¾Ð³Ð¾
ĠÐĺÑĤÐ°Ð»Ð¸Ñİ
ĠÑĥÑĤÐ²ÐµÑĢÐ¶Ð´ÐµÐ½Ð¸Ðµ
ĠÐĿÐ°ÑĨÐ¸Ð¾Ð½Ð°Ð»ÑĮÐ½Ð¾Ð¹
ĠÐ¸Ð½ÑĦÐµÐº
Ð»Ð°Ð¹Ð½
ĠÐ¤ÐµÑĢÐ´Ð¸Ð½
ĠÐºÐ°ÑģÐ°ÐµÑĤÑģÑı
ĠÐ¥Ð¾Ð»Ð¼
ĠÐĶÑįÐ²Ð¸Ð´
ĠÐ±Ð»Ð¸Ð¶Ðµ
ĠÑģÐ¾Ð»ÑĮ
ĠÐľÐ°Ð½Ð´
Ð¸Ð¼ÑĭÐ¼
ĠÐ²ÑĭÐ·Ð¾Ð²
ĠÐĽÐ¸ÑĨ
Ð¸ÑģÑĤÐ¾Ð¼
ĠÐ¿ÑĢÐµÐ¾Ð±Ð»Ð°Ð´
ÐµÑĢÐ¼Ð¾Ð½ÑĤÐ¾Ð²
ĠÐĸÑĥÑĢÐ½Ð°Ð»
ĠÐ½ÐµÐ¼Ð½Ð¾Ð³
ĠÐ½Ð°Ð·ÑĭÐ²Ð°ÐµÐ¼ÑĭÑħ
ĠÐ¶ÐµÐ»ÐµÐ·Ð½ÑĭÑħ
ĠÐ³ÑĢÐ°Ð¶Ð´Ð°Ð½ÑģÐºÐ¾Ð³Ð¾
ĠÐ°ÑĤÐ°ÐºÐ¾Ð²
ĠÐ¾ÑģÐ¾Ð±ÐµÐ½Ð½Ð¾ÑģÑĤÐµÐ¹
Ð½Ð¾ÑģÐ¸ÑĤÑģÑı
ĠÐ²ÑĭÐ¸Ð³ÑĢÐ°Ð»
Ð°ÑİÑīÐµÐ¹
Ð°Ð¼Ð¸Ð½Ð°
ĠÐĳÐ¾ÑĤ
Ð¸ÑħÐ°
ĠÑĢÐ°Ð·Ð½ÑĭÐ¼Ð¸
Ð»Ð¾Ð²Ð¸Ñĩ
ÑĤÐ¾Ð²Ð¾Ð¹
ĠÐ³ÑĢÐ°Ð¶Ð´Ð°Ð½Ð¸Ð½
ĠÑĢÐ°Ð½Ð½ÐµÐ³Ð¾
ĠÐ½Ð¾ÑĢÐ¼Ð°ÑĤÐ¸Ð²
ĠÐ±ÑĭÐ²ÑĪÐ¸Ñħ
ĠÐĵÐ»Ð°Ð²Ð½ÑĭÐ¹
ĠÐľÐ¾Ð½Ð³Ð¾Ð»
ÑĤÐ°ÐºÐ¶Ðµ
ĠÑĢÐ°Ð·ÑĢÐµÑĪÐµÐ½Ð¸Ñı
ĠÐ½Ð°Ð»Ð¾Ð¶
ĠÐ²ÐµÑīÐ¸
ĠÐŁÐ°ÐºÐ¸ÑģÑĤ
ĠÐĴÐ°
ĠÑĥÑĢÐ°Ð½Ð°
ĠÐ¾ÑĤÑĩÐ°ÑģÑĤÐ¸
ĠÐĲÑģ
ĠÐĳÐµÐ¹
ĠÐĽÐµÐ³
Ð¾Ð»Ð¾Ð³Ð¸ÐµÐ¹
Ġ1500
ĠÑĥÐ´ÐµÐ»Ñı
ĠÐ¾ÑĤÐ¿ÑĢÐ°Ð²Ð¸Ð»
ĠÐºÑĢÐµÑģÑĤÑĮ
ĠÐ½Ð°Ð·ÑĭÐ²Ð°Ð»
ĠÐ²Ð°ÑĢÐ¸Ð°Ð½ÑĤÐ¾Ð²
ĠÐ¼ÐµÐ´Ð¸ÑĨÐ¸Ð½ÑģÐºÐ¾Ð¹
ĠÑģÑĥÐ²ÐµÑĢÐµÐ½Ð¸ÑĤ
ÑĥÑģÐ¿
Ð»Ð¸ÑģÑĤ
ÑģÑıÑĤÐ¸
Ð¾ÐºÐ·
ÑģÐ¸Ð»Ð¸ÑģÑĮ
ĠÐ¯Ð²
ÑĢÐ°Ð±Ð¾ÑĤÐºÐ°
ĠÐĲÐ²ÑĤÐ¾Ð¼
ĠÑģÑĩÐ¸ÑĤÐ°Ñı
ĠÐ¿Ð¾ÑģÑĤÑĢÐ¾ÐµÐ½Ð¸Ñı
ĠÑĤÐ¾ÑĢÐ³Ð¾Ð²Ð»Ñı
ĠÐ¼Ð¾ÑīÐ½Ð¾ÑģÑĤÑĮÑİ
ĠÑĢÐ°Ð·Ð¼ÐµÑĢÑĭ
ĠÐ¶Ð¸Ð´Ðº
ĠÐ´Ð¸ÑĢÐµÐºÑĤÐ¾ÑĢÐ°
ĠÑģÑĢÐ°Ð²Ð½Ð¸
Ð¸Ð»Ñĭ
ĠÐ¿Ð¾Ð»Ð¸ÑĨÐµÐ¹
ash
ĠÐ³ÑĢÐ°Ð¶Ð´Ð°Ð½ÑģÐºÐ¸Ñħ
ĠÑģÐ¾ÑĤÐ½Ð¸
1985
ĠÐ½Ð¸Ð·Ð¼ÐµÐ½
ĠÐ¼ÑĥÐ¶ÑĩÐ¸Ð½Ñĭ
ĠÑģÑĬÐµÐ·Ð´Ðµ
ĠÑĥÐ¿Ð¾Ð¼ÑıÐ½ÑĥÑĤ
tp
ĠÐºÐ¾ÑĢÐ¸
ĠÐ´ÑĥÐ¼Ð°
ĠÑĦÐ¾ÑģÑĦ
Ð´Ð°ÑĳÑĤÑģÑı
ĠÐ·Ð°Ð±Ð¾Ð»
ÐµÑĢÐµÐ±ÑĢÑı
ĠÐ£Ð¼ÐµÑĢ
ĠÐ¾ÑģÐ½Ð¾Ð²Ð½Ð°Ñı
ĠÐ¢Ð°ÐºÐ°Ñı
ors
ĠÐ¿ÐµÑĢÐµÐ´Ð°Ð»
ĠÑģÑĤÐ°ÑĢÑĭÑħ
ĠÐ¿ÑĢÐ¾ÑģÐ²ÐµÑĤ
ĠÐ½Ð°ÑĢÑĥÑĪÐµÐ½Ð¸Ðµ
ĠÐĲÐ»ÐµÐºÑģÐµÐµÐ²Ð¸Ñĩ
ĠÑĢÐ°ÑģÑĪÐ¸ÑĢÐµÐ½Ð¸Ðµ
Ð¾Ð¿Ð¾Ð»Ðµ
ÑĮÐµÐ²Ð°
ÐµÐ»Ñĭ
ĠÐ¿ÑĢÐ¾ÐµÐºÑĤÑĭ
ĠÐ¿ÑĢÐµÑģÑģ
ĠÑĩÐ»ÐµÐ½Ð°
ĠÐ¼Ð¸ÑĢÐ¾Ð²Ð°Ñı
ĠÐĿÐµÑģÐºÐ¾Ð»ÑĮÐºÐ¾
ĠÑĩÐ°ÑģÑĭ
ĠÐ²ÑĭÐ²Ð¾Ð´Ñĥ
ĠÐ´Ð¾ÑħÐ¾Ð´Ð¾Ð²
ĠÑįÐ¿Ð¸Ð·Ð¾Ð´
ai
ÑĥÑĤÐ¸
Ð¿Ð°ÑĤÑĢÐ¸
ĠÐºÐ¸ÑĪ
ĠÐ¡ÑĩÐ¸ÑĤÐ°ÐµÑĤÑģÑı
ĠÐŃÑĦÐ¸Ð¾Ð¿
ÐľÐ¾ÑģÐºÐ¾Ð²
Ð¢Ð£
ĠÐºÐ¾ÑģÐ¼
ĠÐ¸Ð³ÑĢÐ°ÑİÑĤ
ĠÐĴÐ¾ÑģÑĤÐ¾ÑĩÐ½Ð¾
ĠÐŃÑĢÐ½
ĠÑģÑĥÑħÐ¾Ð¿ÑĥÑĤ
Ġ(âĦĸ
ox
ÐµÑģÑĤÐµ
ĠÐ²Ð¾Ð¸Ð½Ð¾Ð²
ÐĲÐ±
ĠÐ²Ð¾Ð·ÑĢÐ¾Ñģ
ĠÐ´ÑĢÑĥÐ³Ð°Ñı
ĠÐ¿ÑĢÐ¾Ð²Ð¾Ð´Ð¸ÑĤÑĮ
ĠÐ¿Ð¾Ð´Ð³Ð¾ÑĤÐ¾Ð²ÐºÑĥ
ĠÐ²ÑĭÑĩÐ¸ÑģÐ»ÐµÐ½Ð¸Ñı
ĠÐ·Ð°ÑīÐ¸ÑĤÐµ
ĠÐ½Ð°Ð¼Ð½Ð¾Ð³Ð¾
ĠÐ³Ð¸ÑĤÐ°ÑĢÐ¸ÑģÑĤ
Ð»Ð¾Ð½Ð°
ÐºÐµÐ¹
ĠÑĤÑĥÐ´Ð°
Ð°ÑĢÑģÐºÐ°Ñı
Ð¼Ð¸ÑĢÐ¸
ĠÐĿÐµÑĦ
ĠÐ¢Ð°ÑĢÐ°
ĠÐĹÐĲÐŀ
ĠÐ¡Ð¾Ð¾ÑĤÐ²ÐµÑĤ
ĠÐ¿ÑĢÐ¾Ð¼ÑĭÑĪÐ»ÐµÐ½Ð½Ð¾Ð³Ð¾
ĠÐºÐ¾ÑĢÐ¾Ð»ÐµÐ²Ð°
ĠÐ³Ð¾Ð²Ð¾ÑĢÐ¸ÑĤÑģÑı
ĠÐ¯Ð·ÑĭÐºÐ¸
Ġá¼
Ð´Ð°Ð»
Ġ(-
ĠÐ·Ð¼Ðµ
ĠÐľÐ¾Ð½ÑĤ
Ð¾Ð¶Ð´Ð°ÐµÑĤÑģÑı
ĠÐ¢Ð°ÑĪ
ĠÐ¾Ð¿ÐµÑĢÑĭ
ĠÐ¾Ð¿ÑĥÑģÑĤ
Ð°ÑĤÐµÐ»ÑĮÐ½ÑĥÑİ
ĠÑģÐ¾ÑģÑĤÐ¾ÑıÑĤ
Ð»ÑİÑģ
Ġ59
ĠÐ´ÐµÐ»ÐµÐ½Ð¸Ñı
ĠÐ½Ð°Ð·ÑĭÐ²Ð°ÐµÐ¼Ð°Ñı
Ġ1883
âĢľÂ»
ĠÐ¼ÑĥÐ·ÑĭÐºÐ°Ð»ÑĮÐ½ÑĭÑħ
ĠÑĤÐ¾Ð²Ð°ÑĢÑĭ
ĠÐ¼ÐµÑģÑĤÐ¾ÑĢÐ¾Ð¶Ð´ÐµÐ½Ð¸Ð¹
ĠÐĺÐ·Ð²ÐµÑģÑĤÐ½ÑĭÐµ
ĠÐ¿Ð°ÑĨÐ¸ÐµÐ½ÑĤÐ¾Ð²
ÑĭÑĢ
Ð¾ÑĢÐ¾ÑģÑģÐ¸Ð¹
ĠÐ³Ð¾ÑĢÐ¾Ð¶
ĠÐŁÑĢ
Ð¸Ð´Ð¶
ĠÐºÐ¾Ð½Ð³ÑĢÐµÑģÑģ
ĠÐ¸Ð¼Ð¼Ð¸
ÑĦÐ¸ÐµÐ¹
ĠÑĢÐµÐ·Ð¾Ð½
ĠÑģÐ»Ð¾Ð²Ð¾Ð¼
ĠÐ½ÐµÐ´ÐµÐ»Ñİ
ĠÐĽÑİÐº
Ġ1875
1941
ĠÐĿÐ°ÑĨÐ¸Ð¾Ð½Ð°Ð»ÑĮÐ½Ð¾Ð³Ð¾
ĠÐ¿Ð¾ÑĢÑĤÑĢÐµ
ĠÐ´Ð¾Ð±ÑĭÑĩÐ¸
ĠÐºÑĢÐµÑģÑĤÐ¾Ð½Ð¾Ñģ
ĠÐĴÐ¾Ð¾ÑĢÑĥÐ¶ÑĳÐ½Ð½ÑĭÑħ
ĠÑĢÐ°Ð·Ð³Ð¾Ð²
ĠÐ²Ð¾ÑģÑħÐ¾Ð´
ĠMet
ĠÐļÐ¾Ð¼Ð¸Ñģ
ÑģÑĤÑĢÐ°ÐºÑĤ
ĠÐ¿ÑĢÐ¾Ð¸Ð·Ð²ÐµÐ´ÐµÐ½Ð¸ÑıÑħ
ĠÐ½Ð°ÑģÑĤÐ¾ÑıÑīÐµÐ³Ð¾
ĠÑģÐ¾Ð¾Ð±ÑīÐ°ÐµÑĤ
Ġ1876
ĠÐ¼ÐµÐ´Ð¸ÑĨÐ¸Ð½ÑģÐºÐ¸Ñħ
ĠÑģÑħÐ¾Ð¶
ĠÐ´Ð¸Ð°Ð³Ð½Ð¾ÑģÑĤÐ¸
ĠÐ¾ÑĤÐ²ÐµÑĩ
ĠÐłÐµÐ»Ð¸Ð³Ð¸Ñı
ĠÐĸÐµÐ»ÐµÐ·Ð½Ð¾Ð´Ð¾ÑĢÐ¾Ð¶Ð½ÑĭÐ¹
ĠÐ±Ð°ÑģÐºÐµÑĤÐ±Ð¾Ð»
ĠÂ
ÑİÑģ
ĠÐľÐ»Ð°Ð´
ĠÐ»ÑĭÐ¶
Ð»ÐµÑı
ĠÐ²ÑĢÐµÐ¼ÐµÐ½Ð½Ð¾
ina
ĠÐ¸ÑģÑĤÐ¾ÑĢÐ¸ÑĩÐµÑģÐºÐ¸Ðµ
ict
ĠÐ¶Ð¸Ð²ÑĥÑĤ
ÑģÐ¸Ð¼Ð¼ÐµÑĤ
Ð¾ÑıÑĤÐ½Ð¾
ĠÐ¿ÑĢÐ¾Ð³Ð½Ð¾Ð·
ĠÐłÐ¾Ð¼Ð°Ð½Ð¾Ð²
ĠÐ¾ÑĤÑĢÑıÐ´Ñĭ
ĠÑģÑĥÐ»ÑĤÐ°Ð½
Ð¿Ð¾Ð¼
Ð±Ð¸ÑĢÐ°
ĠÐłÐ°Ð²
ĠÐºÐ¾Ð½Ð³
ÐĴÐľ
ĠÐ¢Ð°ÐºÐ¾Ð¹
ĠÐ²Ð·ÑĢÑĭÐ²Ð°
ĠÑģÐ»ÑĥÐ¶Ð±Ðµ
ĠÐ´Ð¾Ð¿ÑĥÑģÐº
ĠÑģÐ¼ÐµÑģÑĮ
ĠÐ²ÐµÑīÐµÐ¹
ĠÐ¾Ð±ÐµÐ¸Ñħ
ĠÐºÐ¾Ð½ÑĤÐµÐºÑģÑĤÐµ
Ð¼Ð°Ð½Ð´
Ð¾Ð³Ðµ
ĠÑĤÑıÐ³
ĠÐłÐµÐºÐ¸
ĠÐ¾Ð¿ÑĢÐ¾Ð²
ĠÑĢÑĥÐ¼Ñĭ
Ġ66
ÑıÑīÐ¸Ð¼Ð¸
ĠÐ¾Ð¿ÐµÑĢÐ°ÑĤÐ¾ÑĢ
ĠÑģÐ¾ÑģÑĤÐ°Ð²Ð»ÑıÐ»Ð¾
ĠÐ¿Ð°ÑĢÐ»Ð°Ð¼ÐµÐ½ÑĤÑģÐºÐ¸Ñħ
ĠÐ¿ÑĢÐ¸Ð´Ð²Ð¾ÑĢ
ĠÐŁÐµÑĤÐµÑĢÐ±ÑĥÑĢÐ³Ðµ
ĠÐŁÑĢÐ¸Ð½ÑĨÐ¸Ð¿
Ð¾Ð½ÑģÐºÐ¾Ð³Ð¾
ĠÐ¡Ð¾ÐºÑĢÐ°
Ð°Ð²ÑĪÐµÐ³Ð¾ÑģÑı
ĠÐĵÐ°Ð²ÑĢÐ¸
ĠÑıÐ²Ð»ÑıÐ»Ð°ÑģÑĮ
ÑĤÐ¾Ð²ÑĭÐµ
ĠÑģÑĢÐµÐ´Ð½Ðµ
Ġ62
ĠÑģÐ¾Ð²ÐµÑĤÑģÐºÐ¾Ðµ
ĠÐ²Ð¾Ð·Ð¼Ð¾Ð¶Ð½ÑĭÑħ
ĠÐ¼ÐµÑģÑĤÐ¾Ð¸Ð¼
ĠÑĥÑĩÐ°ÑģÑĤÐ½Ð¸ÐºÐ¸
ĠÐ»Ð¸Ð±ÐµÑĢÐ°Ð»ÑĮ
Ġ1871
ĠÐĹÐµÐ»Ð°Ð½Ð´Ð¸Ð¸
ĠÐĽÑİÑĤ
ener
ĠÐĸÐ°Ðº
ĠÑįÐºÐ¾Ð½Ð¾Ð¼Ð¸ÑĩÐµÑģÐºÐ¸Ð¹
ĠÐłÐ¸ÑĩÐ°ÑĢÐ´Ð°
Äģ
ĠÑĥÑģÑĤÑĮÑı
ĠÐĵÐ°Ð»ÑĮ
ĠÐ¤Ð°ÑĢ
ĠÐ½Ð°ÑĩÐ°ÑĤÑĮ
ÐŀÐļ
ĠÐ·Ð°Ð¿ÑĥÑģÐº
ĠÑĤÐµÐ¼Ñĭ
ĠÑįÐ»ÐµÐ¼ÐµÐ½ÑĤÐ°Ð¼Ð¸
ĠÐ¿ÐµÑĢÐµÐ²Ð¾Ð·ÐºÐ¸
ĠÑĥÐ²Ð¸Ð´ÐµÑĤÑĮ
ĠÐ¸Ð»Ð»ÑİÑģÑĤÑĢÐ°
ÐµÑĨÐ¸Ð°Ð»ÑĮ
ĠÐ°ÑĨÐµÑĤ
ĠÐĳÑĢÐ¾Ð½
ÐºÐ¾Ð²Ð¸Ñĩ
ÑĥÑģÑĮ
ĠÐ¸Ð½ÑĤÐµÐ³
ÐĲÐº
Ð°ÑĢÐ°Ð¼Ð¸
ĠÐ¿ÑĢÐ°Ð²Ð¸ÑĤÐµÐ»Ñı
Ġ72
ĠAd
ĠÑģÐ¾ÑģÑĤÐ¾ÑıÐ»
ition
ĠÑĥÑģÐ¿ÐµÑħÐ°
Ð¸ÑĤÐµÐ»Ñİ
Ð¾ÑģÑģ
ĠÑĥÑĤÐ¾Ñĩ
ĠÐ¿ÑĢÐ¸Ð±ÑĢÐµ
ĠÐĶÑĢÑĥ
ÑĥÑģÐ¾Ð¼
ÐļÐ°Ð·
ĠÑĥÑĩÐ¸ÑĤÐµÐ»ÑĮ
ĠÐ²Ð¸Ð´Ð¾Ð¼
ĠSystem
Ð½ÑĥÑĤÐ°
ĠÐ²Ð°Ð¶Ð½ÐµÐ¹ÑĪÐ¸Ñħ
ĠÐ¦ÐµÐ½ÑĤÑĢÐ°Ð»ÑĮÐ½Ð¾Ð³Ð¾
ĠÐ¾ÑĨÐµÐ½ÐºÐµ
ĠÐºÐ°Ð½Ð°Ð´ÑģÐºÐ¸Ð¹
ĠÐĴÐ°ÑĪÐ¸Ð½Ð³ÑĤÐ¾Ð½
ÑĭÐ³
ĠÐ²Ð°ÑģÑģ
Ð°ÑģÑĭ
Ġ1850
ĠÐ¥Ð°
ĠÑģÑĢÐµÐ´Ð½Ð¸Ð¹
ĠÐ¿Ð¾ÑģÑĤÑĢÐ¾Ð¸ÑĤÑĮ
ĠÑģÐ¾Ð¾Ð±ÑīÐµÐ½Ð¸Ð¹
1986
ĠÐ¿Ð¾Ð²ÐµÑĢÑħÐ½Ð¾ÑģÑĤ
ĠÐ¾ÑĤÑģÑĥÑĤÑģÑĤÐ²ÑĥÑİÑĤ
ĠÐĴÑĭÑģÐ¾Ðº
ĠÐ½Ð°ÑģÑĩÐ¸ÑĤÑĭÐ²Ð°Ð»Ð¾ÑģÑĮ
ĠÐĲÐ±ÑħÐ°Ð·Ð¸Ð¸
ĠÐĹÐ°ÑģÐ»ÑĥÐ¶
me
Ð¾Ð·ÐµÐ¼
ĠÐłÐ°Ñħ
ĠÐ³Ð¾ÑĢÐ¾Ð´Ð°Ð¼Ð¸
ÐŁÑĢÐ°Ð·Ð´Ð½Ð¸ÐºÐ¸
ĠÑĢÐ°ÑģÑĪÐ¸ÑĢÑı
ĠÐ¸ÑģÐ¿Ð¾Ð»ÑĮÐ·Ð¾Ð²Ð°Ð»Ð°ÑģÑĮ
ĠÐ´Ð¾ÐºÑĤÑĢÐ¸
ÑĥÐ²ÑģÑĤÐ²
ĠÑģÐ¸Ð»ÑĮÐ½Ð¾Ðµ
1964
ĠÐĹÐ°ÐºÐ°Ð²ÐºÐ°Ð·
ĠÐ²ÑģÐ¿Ð¾Ð¼Ð¸Ð½
ĠÐ²Ð´Ð¾ÑħÐ½Ð¾Ð²
ll
ĠÐģ
ÑıÐº
ĠÐ½Ð°Ð²
Ð»Ð¸ÑĨÐ°
Ð°Ð·ÐµÐ¿
ĠÐŁÑĢÐ¸Ð¼
ĠÐ¨Ð²Ð°ÑĢ
ĠÑģÐµÐ²ÐµÑĢÑĥ
ĠÑģÐ²Ð¾Ð±Ð¾Ð´Ð½Ð¾
1937
ĠÐĳÐ¾ÑĢÐ¸ÑģÐ¾Ð²
ĠÐŁÐ°ÑĢÐ»Ð°Ð¼ÐµÐ½ÑĤ
ĠÐ¸Ð³ÑĢÐ¾ÐºÐ¾Ð²
ĠÐ¿ÑĢÐ¸Ð¾Ð±ÑĢÐµÑĤÐ°
ÐĺÑģÑĤÐ¾ÑĢÐ¸Ñı
ĠÐ²Ð¿Ð¸Ñģ
ĠÐºÐ¸Ð±
ÑĨÐ·Ñĭ
ĠÐ¾Ð´Ð½Ð¾Ð¿
ĠÐ¾Ð±ÑīÐµÐ¿ÑĢÐ¸
ari
ĠÐ¶ÐµÐ»ÐµÐ·Ð½Ð°Ñı
enter
ĠÐ¿ÑĢÐ¾ÑħÐ¾Ð´Ð¸Ð»
ĠÐĹÐ¾Ð»Ð¾ÑĤÐ¾Ð¹
ĠÐ§Ð°ÑĢÐ»ÑĮÐ·
ÐºÐ¾Ð²ÑĭÐ¼
ÑģÑĤÐ²ÐµÐ½Ð½Ð¾Ð¼Ñĥ
ĠÑħÐ»Ð¾ÑĢÐ¸
ĠÐ¥Ð¾Ðº
Ð¾ÑģÐºÑĢÐµÑģ
ĠÐ¿Ð¾ÑģÑĤÑĢÐ¾ÐµÐ½Ð¾
ĠÐ·Ð°Ð¿Ð°Ð´Ð½Ð¾
Ġ1861
ĠÐ²Ð¾Ð·Ð½Ð¸ÐºÐ»Ð¸
ĠÐ¿ÑĢÐ¸Ð½Ð°Ð´Ð»ÐµÐ¶Ð°ÑĤ
ĠÐ·Ð°Ð´Ð°ÑĩÐ°
ĠÐ²Ð¾ÐºÐ·Ð°Ð»
ĠÐ»Ð¸ÐºÐ²Ð¸Ð´Ð°ÑĨÐ¸Ð¸
na
Ð¼ÑĥÐ·
ĠÐ±ÑĥÐ»ÑĮ
Ġ117
ĠÐĿÐ¸Ð³
ĠÐĵÐ¾ÑģÑĥÐ´Ð°ÑĢÑģÑĤÐ²Ð°
1943
ĠÐºÐ¾Ð¼Ð¿Ð¾Ð·Ð¸ÑĨÐ¸Ð¸
ĠÐ¾ÑĤÐ²ÐµÑĤÑģÑĤÐ²ÐµÐ½Ð½Ð¾ÑģÑĤÑĮ
ĠÐľÐ°Ð»Ð¾Ð¹
ĠÑĤÑĢÑĥÐ´Ð½Ð¾
ĠÐ¤Ð¾ÑĢÐ¼
ĠÐ°ÑģÑģÐ¾ÑĨÐ¸Ð¸
ĠÐ½Ð°Ð³ÑĢÐ°Ð´Ñĭ
ĠÑĤÑĭÑģÑıÑĩÐµÐ»ÐµÑĤÐ¸Ñı
ÐµÑĢÑĳÐ´
ÐºÐ¸Ð½Ð¾
ĠÑĪÑĢÐ¸ÑĦ
ĠÐłÐ¾ÑģÑģÐ¸Ð¹ÑģÐºÐ¾Ð³Ð¾
ĠÐ²Ð½ÑĥÑĤÑĢÑĮ
amb
1974
ĠÐ²Ð¾ÑģÐ¿Ð¾Ð»ÑĮÐ·Ð¾Ð²
ĠÐľÑĥÑħÐ°Ð¼Ð¼ÐµÐ´
ĠÐºÐ¾Ð°Ð»Ð¸ÑĨÐ¸Ð¸
ĠÐ¿ÑĢÐµÐ´Ð¼ÐµÑĤÑĭ
ÐºÐ°ÑĢÑĤ
ĠÐ¡Ð¾ÑĢ
ĠÐŁÑģÐ¸Ñħ
Ð¸Ð»Ð»Ð°
ĠÐ¾Ð¿Ð¾ÑĢ
Ð»ÑİÐº
Ð°Ð½Ð¾Ð²Ð¾
ĠÐ²Ð¾Ð·Ð¼Ð¾Ð¶Ð½ÑĭÐ¼
ĠGN
ĠÐ¡ÑĢÐµÐ´Ð½ÐµÐ¹
ĠÐ±ÐµÐ»ÑĭÐ¹
ĠÐ¿ÑĢÐ¸Ð·Ð½Ð°Ð½
Ġ1840
ĠÐºÐ¸ÑĤÐ°Ð¹ÑģÐºÐ¸Ð¹
Ð²ÑĪÐ¸Ð¹ÑģÑı
Ð°Ð²ÑĪÐ°ÑıÑģÑı
Ð¼ÐµÑĢÑĤÐ½Ð¾
AP
out
ÐºÑĢÐ¾Ð¼Ðµ
ÑĥÐ·Ð°
Ð±Ð°Ð½Ð¸
Ð³Ð°ÑĢÐ¸
Ð¾ÑĤÐ¾Ð½
ĠÑĦÐ¸Ð»Ð¾Ñģ
Ð°Ð´Ð¾Ð»Ð³Ð¾
ÑĳÐ½Ð½Ð¾
ĠÐ®Ð»Ð¸
ĠÐ¿ÑĢÐ¾Ð²Ð¾Ð´Ð¸Ð»Ð¸ÑģÑĮ
ĠÐ±ÐµÑģÐ¿Ð¾ÑĢÑıÐ´
Ð²ÐµÑīÐµÐ½Ð¸Ñı
Ð¼Ð°Ð¹Ð¾ÑĢ
ĠÑĩÐµÑĤÐ²ÐµÑĢÑĤÐ¸
In
ĠÐ¿ÑĢÑĥ
ÑĨÐ·
ĠÐĳÑĢÐµÑģÑĤ
ĠÐĽÐ°Ð´
ĠÐĽÑĮÑİ
ÑĥÑĤÐ¾Ð²
ĠÐ¿ÑĢÐ¾Ñħ
Ð½ÑıÐº
ÐłÐ°Ð·
ĠÑĢÐ°Ð±Ð¾ÑĤÐ¾Ð¹
ĠÑĩÐ°ÑģÑĤÐ¾ÑĤÑĭ
ĠÐ¿ÐµÑĢÐ¸ÑĦ
ĠÐĴÐµÐ»Ð¸ÐºÐ°Ñı
ĠÑĦÑĢÐ°Ð½ÑĨÑĥÐ·ÑģÐºÐ¸Ñħ
ĠÑģÐ»ÑĥÐ¶Ð±Ð°
ĠÐĳÐ¾Ð»ÑĮÑĪÐ¾Ðµ
ĠÑħÑĢÐ¸ÑģÑĤÐ¸Ð°Ð½ÑģÐºÐ¾Ð¹
ĠÐ¿ÑĢÐ¾Ð¸ÑģÑħÐ¾Ð¶Ð´ÐµÐ½Ð¸Ð¸
ĠÑıÐ´ÐµÑĢÐ½ÑĭÑħ
ĠÑĢÐµÐºÐ¾Ð½ÑģÑĤÑĢÑĥÐºÑĨÐ¸Ð¸
ÑĩÐµÑĢÐº
Ð¿ÑĢÐ¾ÑĤÐ¸Ð²
ĠÐĵÐ»
ĠÐĳÐµÐº
ĠÐ¿ÑĢÐµÐ´ÑĬ
Ð¸ÑĢÐ¾Ð²Ð°Ð½Ð°
ĠÐ¾Ð±ÑĬÐµÐºÑĤÐ¾Ð¼
Ð¼Ð°ÑĤÐµÐ¼Ð°ÑĤ
ĠÐ½ÐµÐ´ÐµÐ»ÑĮ
ĠÐ¿Ð¾Ð´Ð´ÐµÑĢÐ¶Ð¸Ð²Ð°ÐµÑĤ
ĠÑĢÐ°ÑģÐ¿Ð¾Ð»Ð¾Ð¶ÐµÐ½Ð½ÑĭÑħ
Ġ1865
ĠÐ·Ð°ÐºÐ»ÑİÑĩÑĳÐ½
ĠÐ²Ð²ÐµÐ´ÐµÐ½Ð¸Ðµ
ĠÐ¦ÐµÐ½ÑĤÑĢÐ°Ð»ÑĮÐ½Ð°Ñı
ĠÐ¿Ð»Ð¾Ñħ
ĠÑĤÑıÐ¶ÑĳÐ»ÑĭÑħ
ĠÑģÑĤÐ¾ÑĢÐ¾Ð½Ð°
ĠÑģÑĤÐ°Ð±Ð¸Ð»Ð¸
Ð¿ÑĥÑĢ
ĠÐŀÐºÐµ
ĠÐ¤Ñĥ
ĠÐ¾ÑģÐ½Ð¾Ð²Ð½ÑĭÐ¼Ð¸
ĠÐ¿Ð¾Ð²Ð»Ð¸Ñı
ÐµÐ¶Ð´Ð°
ĠÐ¡ÑĢÐµÐ´Ð½Ð¸Ðµ
ĠÐ¿ÑĢÐ¾ÑģÑĤÐ¾Ð¹
Ð»ÐµÑĩÐµÐ½Ð¸Ñı
ÑĥÐ¹Ð±ÑĭÑĪ
ĠÐĵÑĥÑģÑĤÐ°Ð²
ĠÐ¾ÑĪÐ¸Ð±ÐºÐ¸
ĠÐ²ÑĭÐ½ÑĥÐ¶Ð´ÐµÐ½Ñĭ
ÑģÑĤÑĥÐ´
ĠÐ²Ð°ÑĢÑĮ
ÑİÑĪ
ĠÐ´Ð°Ð»Ð¸
ĠÐ´Ð½ÑĳÐ¼
ĠÑįÑģÑĤÑĢÐ°
ĠÐ¿ÑĢÐ¾Ð¸Ð³ÑĢÐ°
ÑĨÐµÐ²Ð°
ĠÐķÐ²ÑĢÐ°Ð·
ĠÑĢÐ°Ð·ÑĢÐ°Ð±Ð¾ÑĤÐºÐ°
ĠÐ¿Ð¾Ð±ÐµÐ´Ð°
ĠÑĢÐµÑģÐ¿ÑĥÐ±Ð»Ð¸ÐºÐµ
ÑĤÐ¸ÑĢÐ¾Ð²Ð°ÑĤÑĮ
ÑĪÐµÑģÑĤÐ²Ð¸Ðµ
ĠÐ¾ÑĤÐ¼ÐµÑĤÐ¸Ð»
ĠÐµÐ³Ð¸Ð¿ÑĤ
ĠÐ¼ÐµÑĤÐ°Ð±Ð¾Ð»
rat
Ð°ÑĨÐ¸Ð¹
Ð¾ÑģÐ²ÑıÐ·
ĠÐ¿ÑĢÐ¸ÑĢÐ¾ÑģÑĤ
ĠÐ¸Ð·ÑĬ
ĠÐ¿Ð¾Ð´Ð°ÑĢ
Ð»ÐµÐºÐ°
ĠÐ¾ÑĤÐ´ÐµÐ»ÑĮÐ½Ð¾
1987
ĠÐ²ÐµÑĤÐ²
ĠÐľÐµÐ¶Ð´ÑĥÐ½Ð°ÑĢÐ¾Ð´Ð½Ð¾Ð³Ð¾
ĠÐ§ÐµÑĢÐ½Ð¾Ð¼Ð¾ÑĢ
ĠÐºÐ¾Ð»ÑĮÑĨÐ°
ĠÑįÐ¼Ð±
ĠÐ°Ð²ÑĤÐ¾ÑĢÐ¸ÑĤÐµÑĤ
ES
ĠÑĥÐ±Ñĭ
ĠÐĲÐ·Ð¾Ð²
ĠÑģÑĤÐ¾Ð»ÑĮÐºÐ¾
ĠÐ¸Ð·Ð±Ñĭ
ĠÐ·Ð°Ð¸Ð½ÑĤÐµÑĢÐµÑģÐ¾Ð²
Ð¾ÑĩÐ½Ð¸Ðº
ĠÑħÐ°Ð½Ð°
ĠÐ¿ÐµÑĢÐµÐµÑħ
ite
ĠÑĥÑģÑĤÐ°Ð½Ð¾Ð²Ð¸Ð»
ĠÐºÐ¾Ð¾Ð¿ÐµÑĢÐ°
ĠÐ¼ÐµÑĤÐ°Ð»Ð»Ð°
ĠÑģÑĥÐ±ÑĬÐµÐºÑĤÐ¾Ð²
ĠÑģÑĤÐ°Ð´Ð¸Ð¾Ð½
ĠÐŁÑĥÑĤÐ¸Ð½Ð°
ĠÐ·Ð°Ð²ÐµÐ´ÐµÐ½Ð¸Ð¹
ĠÐ´Ð¸Ð°Ð¿Ð°Ð·Ð¾Ð½Ðµ
ĠÐļÐ»Ð°ÑģÑģÐ¸ÑĦÐ¸ÐºÐ°ÑĨÐ¸Ñı
ÐµÑĢÐ¾Ð³Ð»Ð¸
ÑģÐ¾Ð·Ð´
ĠÑģÐµÐ¿
ÑĢÐ¸ÑĨÐ°
ÐµÐ²Ñĥ
ĠÐ»Ð¸ÑĢÐ¸
ĠÐ¿Ð¾ÑģÐ»ÐµÐ²Ð¾
Ð»Ð¾Ð½Ñĭ
ĠÑİÐ³Ð°
Ð¾Ð»Ð¸ÑĨÑĭ
ĠÐ¼ÐµÐ¶Ð´ÑĥÐ½Ð°ÑĢÐ¾Ð´Ð½ÑĭÐµ
ĠÐ½Ð°ÑģÑĩÐ¸ÑĤÑĭÐ²Ð°ÐµÑĤÑģÑı
ĠÐ¿Ð°ÑĢÐ°Ð¼ÐµÑĤÑĢÐ¾Ð²
ĠÑĤÐµÑĢÐ°Ð¿Ð¸Ð¸
EC
oy
ÑĩÐµÑĤ
ĠÐĵÐ²
ĠÐ¼ÐµÑĪ
ĠÐ²ÐµÑĢÐ¾
Ð¢Ð¡
ĠÐ´ÑĢÐµÐ²Ð½ÐµÐ³Ð¾
ĠÐ½ÐµÐ¼ÐµÑĨÐºÐ°Ñı
ĠÐ²ÐºÐ»ÑİÑĩÐµÐ½Ñĭ
ĠÐļÐ½Ð¸Ð³Ð¸
ĠÐ³ÐµÐ¾Ð¼ÐµÑĤÑĢÐ¸Ð¸
cri
ĠÐ½Ð°ÑĪÐµÐ³Ð¾
ĠÑģÑĤÐ°Ð²ÑĪÐ¸Ð¹
Ð¸Ð¼Ð¾Ðµ
ĠÐŀÑģÐ¸
ĠÐ¾ÑģÐ½Ð¾Ð²Ð°Ð½Ð½ÑĭÐ¹
ĠÐ¿Ð¾ÑĩÐ¸ÑĤ
ĠGe
ĠÐºÑĥÐ»ÑĮÑĤÑĥÑĢÐ½ÑĭÑħ
ĠÐ¾Ð±ÑĭÑĩÐ½ÑĭÑħ
ĠÑĩÐµÐ¼Ð¿Ð¸Ð¾Ð½Ð°ÑĤÐµ
ĠÐ±ÐµÐ»ÑĭÑħ
ĠÑĥÐºÐ°Ð·Ð¾Ð¼
ĠÐ±ÑĢÐ¸ÑĤÐ°Ð½ÑģÐºÐ¾Ð¹
ĠÐ¿ÑĢÐ¸ÑħÐ¾Ð´Ð¸Ð»Ð¾ÑģÑĮ
ĠÐºÑĢÑĭÐ¼
ĠÐ´Ð¸ÑĦÑĦÐµÑĢÐµÐ½ÑĨÐ¸
ĠÐĵÑĢÑĥÐ¿Ð¿Ð°
ÐºÐ¼
ÑģÑĤÑĢÐ¸Ñı
ĠÐ²Ð¾Ð»Ð¸
ĠÐ¸Ð±Ð¾
ÑĢÐµÐºÐ¸
ÑĢÐ¸Ð»
ĠÐºÑĥÐ»ÑĮÑĤ
Ð¾Ð½Ð¾ÑģÐ¾Ð²
ĠÐĶÑĥÐ¼Ñĭ
ĠÑģÐ¸Ð¼Ð²Ð¾Ð»Ð¸Ð·
ĠÐ¿Ð¾ÑģÑĤÐ¾ÑıÐ½Ð½Ð¾Ð³Ð¾
ÑĥÑįÑĢ
ĠÐ³ÑĢÐ°Ð½Ð¸ÑĨÐµÐ¹
ĠÐ¡Ð¸Ð¼Ð²Ð¾Ð»
ĠÑĥÑĩÐµÐ½Ð¸ÐºÐ¾Ð²
ĠÐĿÑĮÑİÑĤÐ¾Ð½Ð°
Ð¾Ð¾ÐºÐµ
ĠÐ¿Ð¸Ð¾Ð½
ÑĢÐ°ÑĨÐ¸Ñı
Ð¿Ð¾ÑĤ
ÑĢÐ¸ÐµÐ¹
ĠÐºÑĥÑħ
ÐµÑĢÐºÑĥ
Ð»ÑıÐ»Ð¸ÑģÑĮ
Ð¾Ð·Ð·
ĠÐĽÑĥÑĩ
ĠÐ®Ð»Ð¸Ñı
ĠFre
ĠÑģÑĤÐ°ÑĤÑĮÑİ
ĠÐºÐ¾Ð¼Ð¿Ð¾Ð·Ð¸
ĠÐ¿ÑĢÐ¾ÑĢÐ¾ÐºÐ°
ĠÐĲÐ½ÑĤÐ°ÑĢÐº
ÑĦÐµÐ»ÑĮÐ´
ĠÐ¿ÑĢÐµÐ´Ð¿Ð¾ÑĩÑĤ
ĠÐ¿ÐµÑĢÐµÐ²Ð¾ÑĢÐ¾ÑĤÐ°
ĠÑĦÑĢÐ°ÐºÑĨÐ¸Ð¸
ĠÐĿÐ¸Ð´ÐµÑĢÐ»Ð°Ð½Ð´Ð¾Ð²
://
ÑıÑĤÐ°
ĠÐ¼ÐµÐ·
ĠÐ¼Ð°Ð½Ð´
ĠÐľÐ¾ÑĢÐ¸
ĠÑģÐ¿Ð¾ÐºÐ¾Ð¹
ĠÐ¥ÐµÑĢÑģÐ¾Ð½
ÐļÐ°ÑĢ
ĠÐºÑĢÑĥÐ¿Ð½Ð¾Ð³Ð¾
ĠÐ¼ÑĥÐ·ÐµÐµ
ĠÐ´ÐµÑĢÐµÐ²ÑĮÐµÐ²
1979
1969
ĠÐ¼Ð¾Ð»Ð¾Ð´Ð¾Ð¹
ĠÐ³ÑĥÐ±ÐµÑĢÐ½Ð°ÑĤÐ¾ÑĢÐ°
ÐµÐ½Ð¸Ð½Ð³ÑĢÐ°Ð´
ÑĤÑĭÐµ
ÑĥÐ»Ðµ
ĠÐŁÐ¾Ð»Ñı
Ð¾ÑĩÐ½ÑĭÐ¼
ĠÐ´ÐµÑĦ
ĠÐ·Ð°Ð¿Ð¾Ð»Ð½
ÐĶÐ¡
ĠÑģÑĩÐ¸ÑĤÐ°Ð»Ð¾ÑģÑĮ
ĠÐ²ÐºÐ»ÑİÑĩÑĳÐ½
ĠÑĦÐ¾Ð½ÐµÑĤ
Ð¼Ð¸ÑĤÐ¸Ð²
ĠÐ³Ð¸Ð´ÑĢÐ¾Ðº
ĠÐ½Ð°Ð¿ÑĢÑıÐ¼ÑĥÑİ
ĠÐ¾ÑĪÐ¸Ð±Ð¾Ðº
ĠÐºÐ¾Ð¼Ð¿ÑĮÑİÑĤÐµÑĢÐ½ÑĭÑħ
ĠÑįÐ½ÐµÑĢÐ³Ð¸Ñİ
ĠÐ¸ÑĢÐ»Ð°Ð½Ð´
ĠÐ²ÐµÑĢÑĤÐ¾Ð»ÑĳÑĤ
ÑĩÐ¸ÑģÑĤ
Ð°Ð½Ð°Ð´Ð°
ĠÐ¼ÐµÑģÑĤÐ½Ð¾Ð¹
ĠÐ¿Ð»Ð°Ð½Ð°
ĠÑĢÑĥÑģÑģÐºÐ¸Ð¼Ð¸
Ð»ÐµÐºÑģÐ°Ð½Ð´
ĠÐ¿ÑĢÐ¸Ð½ÐµÑģ
ĠÐ°ÐºÑĤÐ¸Ð²Ð½Ð¾Ðµ
ĠÑĥÐ·Ð½
ĠÐ¿Ð¾Ð»Ð¾ÑģÑĭ
ĠÐ´ÑĢÑĥÐ·ÐµÐ¹
ĠÐ´Ð°ÑĤÑĭ
ĠÐµÑĢÐµ
ĠÐ¤ÑĢÐ°Ð½ÑģÑĥÐ°
Ð¸ÑĢÐ¸Ð½
ĠÐŁÐ¾Ð»ÑĮÑĪÐ°
ĠÑģÐµÑģÑĤÑĢÐ°
ĠÑĦÐ°Ð¹Ð»Ð°
ĠÐ¼ÐµÑĤÑĢÐ¾Ð¿Ð¾Ð»Ð¸ÑĤÐµÐ½Ð°
ĠÑįÐ¼Ð¾ÑĨÐ¸Ð¾Ð½Ð°Ð»ÑĮ
Ð´Ð¸Ð²
ÑĨÐºÐ¾Ð¹
Ð¾Ð¿ÑĢÐµÐ´ÐµÐ»
ĠÐĿÐµÐ¹
Ð¸Ð²Ð°Ð»Ð°
ĠÑħÑĢÐ°Ð½Ð¸
ĠÐºÐ¾ÑĢÑĢÐµ
ĠÐ¸ÑģÑĤÐ¾ÑĢÐ¸ÐºÐ¸
ĠÐ»ÑİÐ±Ð¾Ð¼
ĠÐ¼ÑĥÐ·ÑĭÐºÐµ
ĠÑĤÐ¾ÑĢÐ³Ð¾Ð²ÑĭÐµ
ĠÑħÐ°ÑĢÐ°ÐºÑĤÐµÑĢÐ½Ñĭ
ĠÐ²ÐµÑĤÐ²Ð¸
ĠÑĢÐµÐ°Ð»Ð¸Ð·Ð¾Ð²
ĠÐ¿Ð¾ÑģÑĳÐ»ÐºÐµ
ÑĨÐµÐ½ÑĤÑĢÐ¸
ĠÐ´Ð¾Ð¿Ð¾Ð»Ð½Ð¸ÑĤÐµÐ»ÑĮÐ½ÑĭÑħ
ĠÑģÐ¾Ð²Ð¿Ð°Ð´Ð°ÐµÑĤ
ĠÐ¥ÑĥÐ´Ð¾Ð¶Ðµ
ĠÐ²Ð¾ÐµÐ½Ð½Ð¾ÑģÐ»ÑĥÐ¶Ð°ÑīÐ¸Ñħ
ĠÐ±Ð°ÑĤÐ°
Ð¼Ð¸Ð¹
ĠÐ½ÐµÐ¿Ð¾Ð»
ĠÐĳÑĭÐ²
ĠÑįÐºÑĢÐ°Ð½
ĠÐ·Ð°Ð¿ÑĢÐ¾Ñģ
Ġ69
ĠÑĢÐ°Ð·Ð²Ð¸Ð²Ð°
ĠÑĥÐ¿ÑĢÐ°Ð²Ð»ÐµÐ½Ð¸ÐµÐ¼
Ġ1867
1968
ĠÐľÐµÐ¶Ð´ÑĥÐ½Ð°ÑĢÐ¾Ð´Ð½ÑĭÐµ
ĠÐ´Ð»Ð¸Ð½Ñĥ
ĠÑĢÐµÐ»ÑĮÐµÑĦ
ĠÐŁÐ°ÑĤÑĢÐ¸Ð°ÑĢÑħ
ĠÐ¡ÑĢÐµÐ´Ð½ÐµÐ³Ð¾Ð´
ĠÐ¿Ð½ÐµÐ²
Ð¾Ð²Ð¾Ð¼
Ð¾Ð²ÑĥÑİ
ÑħÐ°ÑĢ
ĠÐ³ÑĢÐ¾Ð±
ĠÐ±ÑĢÐ°Ð·Ð¸Ð»ÑĮ
ĠÐ¸Ð·Ð¾Ð»
ĠÑĦÑįÐ½
ĠÐĵÑĥÐ´
Ð¸Ð·Ð¾ÑĦ
ĠÐ¿Ð¾Ð»Ð°
ĠÑĪÐ¸ÑĦ
ÑĥÐ½ÑĤ
ĠÑĨÐµÐ»ÑĭÐ¹
ĠÐ¸Ð·ÑĥÑĩÐµÐ½Ð¸Ñİ
ĠÐ¸Ð³ÑĢÐ°Ð»
ĠÐ²ÐµÐ»Ð¸ÑĩÐ¸Ð½Ðµ
ĠÐ½Ð°ÑĩÐ°Ð»ÑĮÐ½Ð¸ÐºÐ°
ĠÑĥÐ»ÑĮÑĤÑĢÐ°
ĠÐ²Ð¾Ð²ÑģÐµ
ĠÑģÐ¸Ð½Ð³
ĠÐºÐ¾Ð³Ð¾
ĠÐ¿ÑĢÐ¸Ð»ÐµÐ³Ð°
ĠÑĢÑĥÐºÐ¾Ð¿
ĠÐļÐ¾Ð½Ð³Ð¾
ĠÐºÑĢÑĥÐ³Ð°
ĠÐ¿ÑĢÐ¾Ð³ÑĢÐ°Ð¼Ð¼Ð½Ð¾Ð³Ð¾
ĠÐ½ÐµÐ¹ÑĤÑĢÐ°Ð»ÑĮ
ĠÐ²Ð¾ÐºÐ·Ð°Ð»Ð°
ĠÐ¸Ð½ÑĭÐµ
ĠÐŁÐµÐ½
ĠÐĳÐµÑģÑģ
ĠÑĤÐµÑħÐ½Ð¸ÐºÐ°
Ð¿Ð¾Ð´Ð¾Ð±
row
ĠÑħÐ¸Ð¼Ð¸ÑĩÐµÑģÐºÐ¾Ð³Ð¾
ĠÐºÐ°Ð·Ð°ÐºÐ¾Ð²
ĠÐ¾ÑĦÐ¸ÑĨÐ¸Ð°Ð»ÑĮÐ½ÑĭÐ¹
ĠÐ¾ÑĤÐ´ÐµÐ»Ð°
ĠÐºÐ¾Ð½ÑģÑĥÐ»
Ð¸Ð½Ð°Ð¼Ð¾
ger
Ð´ÑĳÑĤ
ĠÑģÑĥÐ»ÑĮÑĦ
ĠÐ¸ÐºÐ¾Ð½Ñĭ
ĠÐ¼ÐµÐ¼
ĠÑĩÑĥÐ²Ð°ÑĪ
ĠÐ³Ð¾Ð´Ð°Ð¼
ĠÐĽÐ¸Ñħ
ÐŁÐ¾Ð´
Ð¢Ðĺ
edia
ĠÐĽÐµÐ½Ð¸Ð½Ð³ÑĢÐ°Ð´Ð°
ĠÐ¿ÑĢÐµÐ¼ÑĮÐµÑĢÐ°
ĠÑĩÐµÑĢÑĤÐµ
ĠÐ¸ÑģÐ¿Ð¾Ð»Ð½ÐµÐ½Ð¸Ðµ
ĠÐľÐ¸Ð½Ð¸ÑģÑĤÑĢÐ¾Ð²
http
ĠÐ¿ÑĢÐ¸Ð·Ð½Ð°ÐºÐ¸
ĠÐ¿Ð¾ÑģÐ»ÐµÐ´Ð¾Ð²Ð°ÑĤÐµÐ»ÑĮÐ½Ð¾ÑģÑĤÑĮ
ĠÐ¿ÑĢÐ¾Ð·Ð²Ð¸
Ð¼Ð¿Ð¸ÑĢÐ¸
ĠÐĿÐ°Ð¿Ð¾Ð»ÐµÐ¾Ð½Ð°
ĠÐºÐ¸Ð½Ð¾Ð°ÐºÑĤÑĢÐ¸ÑģÐ°
ĠÐ¿ÑĢÐµÐ´Ð¿ÑĢÐ¸Ð½Ð¸Ð¼Ð°ÑĤÐµÐ»ÑĮ
Ð½Ð¾Ð¶ÐµÑģÑĤÐ²Ð¾
ĠÐ¸Ð·Ð±ÐµÐ¶Ð°ÑĤÑĮ
IN
ÑģÐºÑĢÑĭ
ÐµÐ»Ð¸Ðµ
ĠÐ³ÑĢÐµÐ±
ĠÐ°Ð³ÑĢÐ°ÑĢ
ĠÑĩÐµÑĢÐ½
Ð¾Ð·Ð°Ð¿
ĠÑĢÐµÐ¿ÑĢÐµÑģ
ĠÐ¢Ð¸
Ð¡ÐŁ
ĠÐĽÐ°Ð·
ĠCO
ĠÑĥÑģÑĤÐ°Ð½Ð¾Ð²Ð¸Ð»Ð¸
ĠÐ¡Ð°Ð¼Ð°Ñı
ĠÑģÑĤÐ°ÑĢÑĪÐµ
ĠÐ¿Ð°Ð¼ÑıÑĤÐ½Ð¸ÐºÐ°
ĠÐ¼Ð¾ÑĢÐµÐ¿Ð»Ð°Ð²
ĠÑįÐ»ÐµÐºÑĤÑĢÐ¸ÑĩÐµÑģÐºÐ¾Ð³Ð¾
ĠÐľÐ°ÐºÐµÐ´Ð¾Ð½Ð¸Ð¸
ĠÐ´Ð¸Ð·Ð°Ð¹
ĠÐ¾Ð´ÐµÑĢÐ¶Ð°Ð»
ĠÑĢÐ°ÑģÑģÐºÐ°Ð·Ñĭ
ĠÑħÐ°Ð»Ð¸ÑĦ
ĠÐ¿ÑĢÐµÐ»Ð¾Ð¼Ð»ÐµÐ½Ð¸Ñı
MP
ĠÐĴÐ°Ð´
ĠÐ¾Ð±Ð¾ÑģÑĤ
ĠÐ¾ÑģÐ½Ð¾Ð²Ð°Ð½Ð¾
ĠÐ¼Ð¾Ð½ÑĥÐ¼ÐµÐ½ÑĤ
ĠÑĦÐ°ÐºÑĤÑĭ
ĠÐĽÑĥÐºÐ°
ĠÐ´Ð°Ð²Ð½Ð¾
raph
ĠÑıÐ´ÑĢÐ¾
ĠÑģÑĥÐ±Ð±Ð¾ÑĤ
ĠÐĿÐ°ÑĢÐ¾Ð´Ð½Ð¾Ð¹
ĠÑģÐ¾ÑģÐµÐ´Ð½Ð¸Ñħ
que
ĠÐľÐ¸Ð½Ð¸ÑģÑĤÐµÑĢÑģÑĤÐ²Ð¾
ĠÐłÐļÐļÐĲ
ĠÐ´Ð¸Ð½
ĠÐļÑĢÐ°Ð¹
Ð½Ð°ÑĨÐ¸Ð¾Ð½
ĠÐ²Ð¾Ð·Ð¼Ñĥ
ĠÐ¸ÑģÑĤÐ¾ÑĢÐ¸ÐºÐ¾Ð²
ĠÐ¾Ð±ÑĢÐ°Ð·Ð¾Ð²Ð°Ð½Ð¸Ð¹
ĠÑĢÐµÑĪÑĳÑĤ
ĠÑĢÐ¾ÑģÑģÐ¸Ð¹ÑģÐºÐ¸Ðµ
ĠÐ³Ð¾ÑģÑĥÐ´Ð°ÑĢÑģÑĤÐ²ÐµÐ½Ð½ÑĭÐ¼
ĠÑĦÐ¸Ð·Ð¸ÐºÐ°
ĠÐ¾Ð·Ð½Ð°Ð¼
ĠÐ·Ð°Ð½Ð¸Ð¼Ð°ÑĤÑĮÑģÑı
ĠÐ»ÐµÐ²Ð¾Ð¼
ĠÑĥÐ±Ð¸Ð¹ÑģÑĤÐ²Ð¾
ĠÐ³Ð¾Ð»Ð¾ÑģÐ¾Ð²Ð°Ð½Ð¸Ñı
ĠÐļÐ¸ÑĢÐ³Ð¸Ð·Ð¸Ð¸
ĠÑģÑĭÑĢÑĮÑı
ly
Ð²Ð°Ð»Ðµ
Ð¾Ð²ÑģÐºÐ¾Ð³Ð¾
ĠÐ¸ÐµÑĢÐ¾Ð³Ð»Ð¸
Ð¿Ð¸Ñı
ĠÐ¡Ðŀ
ÑĩÐµÑģÑĤÐ¸
ĠÐĽÐµÑĢÐ¼Ð¾Ð½ÑĤÐ¾Ð²
ĠÐ¤Ð¸ÑĪ
ĠÐ°Ð½Ð°ÑĤÐ¾Ð¼
ans
ĠÐºÐ°ÑĩÐµÑģÑĤÐ²Ð¾
ĠÑģÑĥÐ´Ð¾ÑħÐ¾Ð´
ĠÐ¿ÑĢÐ¸Ð²ÑıÐ·
ĠÐ¸Ð·Ð¾Ð±ÑĢÐ°Ð¶ÐµÐ½Ð¸ÐµÐ¼
ĠÐ·Ð¾Ð»Ð¾ÑĤÐ¾Ð¹
ĠÐļÐ¸ÐµÐ²Ð°
ĠÐ¾Ð´ÐµÐ¶Ð´Ñĭ
ĠÐĴÐ½ÑĥÑĤÑĢÐµÐ½
ĠÑĤÐµÑħÐ½Ð¸ÐºÑĥÐ¼
Ð°Ð¶Ð´
Ð°ÑĩÐ¸
Ð°Ð»Ð°ÑĤ
ĠÐ¼Ð¸Ð»Ð¸
ĠÐ±Ð¾Ñİ
ĠÐ§Ð¸ÐºÐ°
Ð¢Ð¾Ð¼
ĠÐ¸ÑģÑĤÐ¾ÑĢÐ¸ÐºÐ°
ĠÐ¢Ð°ÐºÐ¾Ðµ
Ġ160
ĠÐ½Ð°Ð·ÑĭÐ²Ð°ÐµÐ¼Ð¾Ð¹
ĠÐ½Ð°Ð¿ÐµÑĩÐ°ÑĤ
ĠÐŁÑĢÐ¾ÐµÐºÑĤ
ĠÑģÐ¿ÐµÑĨÐ¸Ð°Ð»ÑĮÐ½Ð¾Ð¹
ĠÑģÐ²Ð¸Ð´ÐµÑĤÐµÐ»ÑĮÑģÑĤÐ²ÑĥÐµÑĤ
ĠÐ¾Ð¿ÑĭÑĤÐ°
ĠÐ¾ÑģÑĤÐ°ÑĤÐºÐ¸
ĠÐ¥ÑĥÐ´Ð¾Ð¶
ĠÐ°Ð²ÑĤÐ¾Ð´Ð¾ÑĢÐ¾Ð³
ER
ÑĮÑĳ
ÑĩÐµÐ»Ð¾Ð²
ÑĢÐ¸ÑĢÑĥ
ĠÐŁÐ¾Ð»Ð¾Ð¶
ÑģÑĤÑĮÑİ
Ð¸ÐºÐ»Ð¸Ð½
ĠÐ¿ÐµÑĢÐµÐ¸Ð·
ÐŁÐ¾Ð²
ĠÐ¿Ð»ÑĥÑĤ
Ð»Ð¸Ð½ÑģÐºÐ¸Ð¹
ĠÐŀÑĤÐ´ÐµÐ»ÑĮ
ĠÐºÐ¾Ð¼Ð°Ð½Ð´Ð¾Ð²Ð°Ð½Ð¸Ðµ
Ð¿Ð¾ÑģÐ»ÐµÐ´
ĠÐ¾ÑĤÑģÑĩÑĳÑĤÐ°
Ġ1874
ĠÐ°ÑĢÑħÐ¸ÑĤÐµÐºÑĤÐ¾ÑĢÐ°
ĠÐ¿ÑĢÐ¸ÑĩÐ¸Ð½Ñĭ
ĠÐ¿Ð»Ð¾ÑħÐ¾
ĠÑĢÐ°Ð·Ð¼ÐµÑĢÐ¾Ð²
ĠÐ¼ÑĭÑĪÐ»ÐµÐ½Ð¸Ñı
ĠÐ¤ÑĢÐ¸Ð´ÑĢÐ¸ÑħÐ°
ĠÐłÐ°Ð·Ð²Ð¸ÑĤÐ¸Ðµ
ÐµÑİ
Ð¶Ð½ÑĭÐµ
ĠÐ¼ÐµÐ»ÑĮ
Ð¸Ð½Ð¸Ð¹
Ð¸Ð¼Ð¸ÑĤ
ĠÐĳÐµÑĤ
ĠÐ¿Ð¾Ð´ÑĢÐ°Ð·Ð´ÐµÐ»Ñı
ĠÐ³Ð¾ÑģÑĥÐ´Ð°ÑĢÑģÑĤÐ²ÐµÐ½Ð½Ð°Ñı
ĠÐ¿ÑĢÐ°Ð²Ð¸ÑĤÐµÐ»ÑĮÑģÑĤÐ²Ñĥ
ĠÑĢÐ°ÑģÑģÑĩÐ¸ÑĤÑĭ
ĠÐ¡Ð°Ð¼Ð¾
ĠÑĢÑıÐ´Ñĥ
ĠÐ¿ÑĢÐ¾ÑĦÑģÐ¾
ĠÑħÐ°ÑĢÐ°ÐºÑĤÐµÑĢÐ½Ð¾
ĠÐ±ÑĢÐ¸ÑĤÐ°Ð½ÑģÐºÐ°Ñı
ĠÐ¿ÑĢÐ¸Ð½ÑĨÐ¸Ð¿Ð¾Ð²
ĠÐ±Ð°ÑĢÐ¾ÐºÐºÐ¾
ĠÐ¡ÐµÑĢÐ³ÐµÐµÐ²Ð¸Ñĩ
ĠÐĿÐµÐ·Ð°Ð²Ð¸ÑģÐ¸Ð¼
Ð»Ð°Ð½Ð¸
Ð´Ð½ÐµÐ²
ĠÑģÑĳ
Ð³Ð¾Ð»Ð¾Ð²
Ð¾Ð½Ð¸ÐºÐ¸
ĠÐ±ÑĭÐ²Ð°ÐµÑĤ
ĠÑĢÐµÑĦÐ¾ÑĢÐ¼Ð°
ĠÐ¡ÑĤÐ¾Ð»
ĠÐµÐ´Ð¸Ð½Ð¾Ð¹
ĠÐ¾Ð¿ÑĢÐµÐ´ÐµÐ»ÑĳÐ½Ð½Ð¾Ð³Ð¾
ÐºÐ¾Ð½ÑĤ
ÑĤÐ¸ÑĢÐ¾Ð²Ð°Ð»
act
ĠÑģÑĥÐ¼ÐµÐ»
ĠÑĥÐ¿Ð¾ÑĤÑĢÐµÐ±Ð»ÐµÐ½Ð¸Ñı
ĠÑĤÑĥÑĢÐ½Ð¸ÑĢ
ĠÐ½ÐµÑĢÐ²Ð½Ð¾Ð¹
ĠÐŁÐµÑĤÑĢÐ¾Ð³ÑĢÐ°Ð´
ĠÐ¿Ð¾Ð»ÑĥÐ¿ÑĢÐ¾Ð²Ð¾Ð´
ĠÑĤÑĢÐµÐ²
Ð½Ð¾ÑģÑıÑĤ
ĠÐļÐ¾Ð´
ĠÐļÐ°ÑĤÐ°ÑģÑĤÑĢÐ¾ÑĦÐ°
ĠÐĲÑĢÐ¸
ĠÑĤÐ°ÐºÑĥÑİ
Ð»ÐµÐ·
ÐľÐµÑĤ
ÑĢÐ°ÑĤÐ½Ð°Ñı
ĠÑģÐ¾ÑģÑĤÐ¾ÑıÐ½Ð¸Ð¹
ÑĢÐ¾Ð²Ð°Ð½Ð½ÑĭÐµ
ĠÐ¿ÑĢÐ¾Ð¸Ð·Ð¾ÑĪÐ»Ð¸
ĠÑģÑĨÐµÐ½Ðµ
ĠÐ±Ð°ÑĪÐ½Ð¸
ĠÑĢÐ°Ð·Ð¼ÐµÑĢÐµ
ĠÐ»Ð¸Ð½Ð³Ð²
ĠÐ´ÐµÑĢÐµÐ²Ð°
ĠÐ¾ÑĢÐ±Ð¸ÑĤÑĭ
co
ĠÐ±Ð°ÑĢÐ°Ð±
ĠÐ¡ÑĥÐ¿
ĠÐļÐµÐ½Ð½
ĠÐĲÑģÑģÐ¸
ĠÐĳÐ°Ð´
ĠÐŁÑĢÐ¸ÑĢÐ¾Ð´
Ð·Ð²ÑĥÑĩ
Ð»ÐµÑĤÐ½ÐµÐ³Ð¾
ische
ĠHist
ĠÐ²Ð¾ÑģÑģÑĤÐ°Ð½Ð°Ð²
ĠÐ¿Ð°ÑĢÐ°Ð´
ĠÐ¿Ð¾Ð±ÐµÐ´Ð¸Ð»
Ġ1869
ĠÐ²Ð²ÐµÐ´ÐµÐ½Ð°
ĠÐ²Ð¾ÑģÑģÑĤÐ°Ð½Ð¾Ð²Ð»ÐµÐ½Ð¸Ðµ
ĠÐľÐµÐ´Ð¸ÑĨ
ĠÐ¿ÐµÑĢÐµÐ´Ð°ÑĩÐµ
ĠÐ´Ð²Ð¸Ð³Ð°ÑĤÐµÐ»ÐµÐ¹
ĠÐ²Ð¾ÑģÐ¿ÑĢÐ¸Ð½Ð¸Ð¼
ĠÐ¿ÑĢÐ¸Ð½Ð¸Ð¼Ð°ÑİÑĤ
ĠÐ²ÐµÑĢÑĪÐ¸Ð½Ñĭ
ĠÐ¼ÐµÑĢÐ¾Ð¿ÑĢÐ¸ÑıÑĤÐ¸Ð¹
ĠÐŁÑĢÐµÐ¼ÑĮÐµÑĢ
ĠÐ¥ÑĢÑĥÑīÑĳ
Ð½Ð´
ĠÐ±Ð¸Ð±Ð»ÐµÐ¹
ĠÐ¾Ð±ÑħÐ¾Ð´
ÑģÐ¸Ð»Ð°
ĠÐĺÑģÐ»Ð°Ð½Ð´
ÐŁÐµÑĢÐ²
Ð¾Ð³ÑĢÐ°ÑĦÐ¸Ñİ
ĠÐ´Ð²Ð¾
ĠÐ¿Ð¾Ð»ÑĥÑĩÐ°ÑĤÑĮ
ĠÐ¿Ð»Ð°Ð½Ñĭ
ĠÑĢÐ°Ð·ÑĢÐ°Ð±Ð¾ÑĤÐ°Ð½
ĠÐļÐ¾Ð½ÑģÑĤÐ°Ð½ÑĤÐ¸Ð½Ð¾Ð²
ĠÐĶÐ°Ð¶Ðµ
ĠÐ·Ð°ÐºÐ¾Ð½Ð¾Ð¼ÐµÑĢ
ĠÐĲÑĢÐ¸ÑģÑĤÐ¾ÑĤÐµÐ»Ñı
ĠÐºÐĴ
ĠÐľÐµÑĩ
ĠÑĢÑĥÐºÐ¾Ð²Ð¾Ð´Ð¸ÑĤÐµÐ»ÐµÐ¹
ĠÐļÐ°ÑĦÐµÐ´
ĠÑĢÐ°Ð·ÑĢÐ°Ð±Ð¾ÑĤÐ°Ð»
ĠÑģÐ¾ÐµÐ´Ð¸Ð½ÐµÐ½Ð¸Ðµ
ĠÑĤÑĥÑĢÐ¸ÑģÑĤÐ¾Ð²
ĠÑģÑĥÑīÐµÑģÑĤÐ²Ð¾Ð²Ð°ÑĤÑĮ
ĠÐºÑĢÑĥÐ¿Ð½ÐµÐ¹ÑĪÐ¸Ð¼
ĠÐĽÐ¸Ð³Ð¸
ĠÐ»Ð¸ÑĤÐ¾Ð²ÑģÐºÐ¸Ð¹
ĠÐ¿ÑĮÐµÑģÑĭ
Ð»Ð¸Ð²Ð°ÑİÑĤÑģÑı
ĠÐľÐµÐ»ÑĮ
ĠÐłÐµÐ³
ĠÐ¢Ð°Ð¼Ð±
ĠÐ¥Ð°Ð¼
Ð¾ÑĢÐ°Ð´
ÐĴÑĭ
Ð´ÐµÐ»ÐµÐ½Ð¸Ðµ
ĠÐ²Ð¾Ð·Ð¼Ð¾Ð¶Ð½Ð¾ÑģÑĤÐµÐ¹
ĠÑģÐµÐºÑĥÐ½Ð´
ĠÑĢÐ°Ð½Ð½Ð¸Ðµ
ĠÐ¿ÑĢÐ¾Ð²ÐµÐ´ÐµÐ½Ð°
ĠÐ¾Ð±Ð»Ð°ÑģÑĤÑĮÑİ
ĠÑģÑĥÑīÐµÑģÑĤÐ²Ð¾Ð²Ð°Ð»Ð°
ĠÑĨÐµÐ½ÑĤÑĢÐ°Ð»ÑĮÐ½ÑĭÑħ
ĠÐ°ÑĢÐ°Ð±ÑģÐºÐ¾Ð³Ð¾
ĠÐºÐ°Ð¿Ð¸ÑĤÐ°Ð½
ĠÐ½Ð°ÑģÑĤÑĥÐ¿Ð»ÐµÐ½Ð¸Ñı
ĠÐ¿ÑĢÐµÐ´Ð¼ÐµÑĤÐ¾Ð¼
ĠÑģÐ¿Ð¾ÑĢÑĤÐ¸Ð²Ð½ÑĭÑħ
ĠÑģÐ°Ð¼Ð¸Ð¼
ĠÐ¢Ð¾ÑĢÐ³Ð¾Ð²
ĠÑĢÐµÑĦÐµÑĢÐµÐ½Ð´
ĠÑģÑĥÐ»ÑĤ
ĠOpen
IP
ÑģÐ¾ÑĤ
ĠÐ¡ÑĥÐ²
ĠÑĥÐ¼Ð¸ÑĢÐ°
ĠÐļÐ¾ÑĢÑĤ
ÑģÐ¿Ð¾ÑĢ
ĠCon
ĠÐ¡Ð¼Ð¸ÑĤ
ĠÑĥÐ´Ð¸Ð²
ĠÐľÐ°ÑĢÑĪ
ĠÐ¡Ð¿Ð¾ÑĢ
ĠÑıÐ²Ð½Ð¾
ĠÑģÐ¾ÑħÑĢÐ°Ð½Ð¸ÑĤÑĮ
ĠÐ¾Ð¿ÑĥÐ±Ð»Ð¸ÐºÐ¾Ð²Ð°Ð½
ĠÑĢÐ°Ð·ÑĢÐµÑĪÐµÐ½Ð¸Ðµ
ĠÐŁÑĢÐ¾Ð¼ÑĭÑĪÐ»ÐµÐ½Ð½Ð¾ÑģÑĤÑĮ
ĠÐľÐµÑģÐ¾Ð¿Ð¾ÑĤ
Ð»Ð¾Ðµ
ÑİÑĢÐµ
ĠÑĥÑĪÑĳÐ»
ĠÐĵÑĢÐµÐ½
ĠÑĢÐ°Ð·Ð²ÐµÑĢ
ĠÑĢÐ¾Ð±
ÐµÐ·Ð¸Ñģ
ĠÐ¾ÑģÐ½Ð¾Ð²Ð°Ð½Ð¸Ðµ
ĠÐ¿Ð¾Ð»ÑĥÑĩÐµÐ½Ð¸Ðµ
ĠÐ¾ÑģÑĤÐ°ÑİÑĤÑģÑı
ĠÑĤÐ¾Ð¼Ð°Ñħ
ĠÑģÐ»ÐµÐ´ÑĥÑİÑīÐµÐ³Ð¾
ĠÐ¿ÑĢÐ°ÐºÑĤÐ¸ÐºÐ¸
ĠÐ·Ð°ÐºÐ¾Ð½Ñĥ
ĠÑĢÐµÑģÐ¿ÑĥÐ±Ð»Ð¸Ðº
Ġ1873
1982
ĠÐ¾Ð±ÑĬÑıÐ²Ð»ÐµÐ½
ĠÐ¿Ð¾Ð´Ð¾Ð±Ð½Ð¾
ĠÐĲÐ¼ÑĥÑĢ
ĠÑĢÐ°ÑģÐ¿Ð¾Ð»Ð°Ð³Ð°ÑİÑĤÑģÑı
ĠÐ²Ð¾ÑģÐ¿ÑĢÐ¸ÑıÑĤÐ¸Ñı
ĠÐ¤Ð¸Ð»Ð¸Ð¿Ð¿Ð°
ĠÐ½Ð¸Ð¶Ð½ÐµÐ¹
ĠÑģÑĤÐ°ÑĨÐ¸Ð¾Ð½
ĠÐ¾Ð±Ð¾Ð·Ð½Ð°ÑĩÐ°
ÑĦÐµÑĢÐ°
Ð°Ð²Ð»Ð¾Ð²
ĠÐ¢ÑĥÐ»
ÑĥÑģÑĭ
ana
ank
Ð¼ÐµÑĤÑĢÐ¾Ð²
ĠÐ¾Ð±ÑīÐ¸Ðµ
ĠÐ³ÐµÐ½ÐµÑĢÐ°Ð»ÑĮÐ½ÑĭÐ¹
ĠÑĪÐ¸ÑĢÐ¾ÐºÐ¾Ð¼
ÑģÐ¾ÑĨÐ¸
ĠÐ¿ÑĢÐ¾ÑĩÐ¸Ðµ
ĠÐĿÐ¸Ð¶Ð½Ð¸Ð¹
ĠÐŁÐ¾Ð±ÐµÐ´Ð°
ĠÐĺÐ·Ð´Ð°ÑĤÐµÐ»ÑĮÑģÑĤÐ²Ð¾
ĠÐºÐ°Ð¿Ð¸ÑĤÑĥ
ĠÐ½Ð°Ð¸Ð¼ÐµÐ½Ð¾Ð²Ð°Ð½Ð¸Ðµ
Ð´Ð¸Ñģ
ÑĢÐ°ÑĤÐ¾Ð²
ĠÐºÐ½
Ð¾ÑĢÐ¾Ñģ
Ð¸ÑģÐ»Ð¾Ð²
ĠÐ·Ð°Ð±Ð¾ÑĤ
ĠÑģÐºÐ¾ÑĤÐ°
ĠÐĺÑģÐ¿Ð°Ð½Ð¸Ñı
ĠÐ°ÑģÑĤÐµÑĢÐ¾
ĠÐ¾ÑĤÐºÐ°Ð·Ð°ÑĤÑĮÑģÑı
ĠÐ¿Ð¾Ð»ÑĮÑģÐºÐ¾Ð³Ð¾
ĠÐ´Ð¾ÐºÐ°Ð·Ð°ÑĤÐµÐ»ÑĮÑģÑĤÐ²Ð°
ĠÐ¾Ð²Ð¾Ñī
ĠÐ´ÐµÐ»ÐµÐ³Ð°
ĠÐŀÐ»ÑĮÐ³Ð°
ĠÐºÐ°Ð½ÑĤ
ÐµÑĤÑģÐºÐ¸Ð¹
ĠÐ³ÑĥÐ½
ĠÐ¼ÑĥÐ»ÑĮÑĤ
ĠÐŁÑıÑĤ
ĠÐ»Ð°ÑĤÑĭ
ĠÐ¸Ð·Ð¾Ð±
ĠÐĳÐµÑĢÐ³
ĠÐ¥Ð°Ñģ
ĠÐ¿ÑĢÐ°Ð²Ð´Ð°
Ġ74
ĠÐķÐ²Ð´Ð¾Ðº
ĠÐłÐ¸Ð¼ÑģÐºÐ°Ñı
ĠÐ½Ð°Ð·Ð½Ð°ÑĩÐ¸Ð»
Ġ1872
ĠÐ®Ð¶Ð½ÑĭÐ¹
1975
ĠÐ¶ÐµÐ»ÐµÐ·Ð½Ð¾Ð´Ð¾ÑĢÐ¾Ð¶Ð½Ð¾Ð¹
ĠÐĺÐ»ÑĮÑı
ĠÐĺÐ·Ð²ÐµÑģÑĤÐ½Ð¾
ĠÐ²Ð¸Ð·Ñĥ
ĠÐ¤ÐµÐ²ÑĢÐ°Ð»ÑĮ
ĠÐ®Ð½
ĠÐ®ÐĲÐł
ĠÑĥÑģÑĤÐ°ÑĢÐµÐ²
ĠÐĲÐ²ÑģÑĤÑĢÐ¾
ĠÐ³Ð¾ÑģÑĥÐ´Ð°ÑĢÑģÑĤÐ²Ð°Ð¼Ð¸
ĠÐ¼Ð°Ð»Ð¾Ð¹
1972
ĠÎ±
ĠÐ¿ÑĢÐ¸Ð¾Ð±ÑĢÑĳÐ»
ĠÐ·ÐµÐ¼Ð»ÑıÑħ
ĠÐĶÐµÐ»ÐµÐ³Ð°ÑĤÑĭ
Ð½ÑĥÐ´
ĠÐ¿ÑĪÐµÐ½Ð¸
Ð½Ð¸Ð²
ĠÐĴÐµÐ±
ĠÐĴÐ¦
ÐµÐ²Ð¾Ð´
Ð½Ð¾Ð²ÑĢÐµÐ¼ÐµÐ½
ÑĥÐ±Ð°
ÐļÐ¾Ð»
ĠÐĲÑĢÐº
Ð¸ÑĢÑĥÐµÐ¼ÑĭÑħ
ĠÑĥÑģÐ°Ð´ÑĮ
ĠÐ¤ÑĢÐ°Ð½ÑĨÐ¸ÐµÐ¹
ĠÑĥÑĩÑĳÑĤÐ°
ĠÐ³ÑĢÐµÑĩÐµÑģÐºÐ¾Ð¹
ĠÐºÑĢÐ°ÑģÐ½Ð¾
âĢľÂ».
ĠÐļÐ¾Ð½ÑģÑĤÐ¸ÑĤÑĥÑĨÐ¸Ñı
ĠÑīÐµÐ»
ĠÐĵÑĢÐ°Ð¶Ð´Ð°Ð½ÑģÐºÐ°Ñı
ĠÐ±Ð¸Ð·Ð½ÐµÑģÐ°
ÑĨÐµÑĢ
ÑĨÐµÐ¹
Ð¾ÑĤÐºÑĢÑĭ
ĠÐ¿ÑĢÐ¸Ð¾ÑģÑĤÐ°Ð½Ð¾Ð²
ÐµÐ²Ðµ
ĠÐĽÐµÐ½Ð½
ĠÑħÐ»Ð¾ÑĢ
ĠÑĪÐ¸
ÐŀÑģÐºÐ°ÑĢ
Ð¸ÑĢÐ¾Ð²Ð°Ð½Ð½ÑĭÐµ
ÑĥÑİÑīÑĥÑİ
ĠÐŀÐ´Ð½Ð¾Ð¹
Ð¾ÑģÐ¾Ð±ÐµÐ½Ð½Ð¾
ĠÐ²ÑĭÑģÐ¾ÐºÑĥÑİ
ĠÐ¡ÐµÐ²ÐµÑĢÐ½Ð¾Ð¼
ĠÐ¿Ð¾ÑģÐ»ÐµÐ´Ð¾Ð²Ð°ÑĤÐµÐ»ÑĮÐ½Ð¾
ĠÐ°ÑĤÐ¾Ð¼Ð½Ð¾Ð¹
ĠÐ¾ÑĤÑĢÐ°Ð¶ÐµÐ½Ð¸Ðµ
ÐµÑĢÐ°Ð»ÑĮÐ´
ĠÑģÑĢÐ°Ð¶ÐµÐ½Ð¸Ñı
ĠÐ¾ÐºÐºÑĥÐ¿Ð°ÑĨÐ¸Ð¸
ĠÐ½ÐµÐ´Ð¾ÑģÑĤÐ°ÑĤÐ¾ÑĩÐ½Ð¾
ĠÐĿÐ¸Ð¶ÐµÐ³Ð¾ÑĢÐ¾Ð´ÑģÐºÐ¾Ð¹
ĠÐ²ÑĭÐ¿ÑĥÑģÑĤÐ¸Ð»
ÐµÐµÐ²Ð°
Ð¾ÑĢÑģÐºÐ¸Ð¹
Ð¶Ð½Ð¾Ð¹
ÐºÐ°Ð¿
ĠÑĪÐ»Ð¸
Ð³ÑĢÐ°Ð±
ĠÑĤÐµÑĢÐ¼Ð¸Ð½Ñĭ
ĠÐ¿Ð¾Ð»Ð¸ÑĤÐ¸ÑĩÐµÑģÐºÐ°Ñı
ĠTe
ĠÐ¿Ð¾ÑģÐ²ÑıÑīÑĳÐ½Ð½ÑĭÐ¹
ĠStud
ĠÐ¿Ð°Ð»ÐµÑģÑĤ
ĠÐ²ÑĭÐ´ÐµÐ»ÑıÐµÑĤÑģÑı
ĠÐ½Ð¾Ð¼ÐµÑĢÐ°
ÑıÑīÐ¸ÐµÑģÑı
Ġ#
ÑĥÐ½Ð¸
ÑģÐºÐ¾ÑıÐ·Ñĭ
ĠÐºÑĥÑģÑĤ
Ð°Ð»ÑİÑĤ
ÐµÐ¹ÑģÐºÐ¾Ð¹
ĠÐŁÐŀ
ÑįÑĤÐ¸
ĠÑĩÑĥÐ¶
ĠÐļÐ°Ð¼Ð±
ĠÐ¿ÑĢÐ¸Ð²ÐµÑĢÐ¶ÐµÐ½
ĠÐ¿Ð¾Ð´Ð¿Ð¾Ð»ÑĮ
ĠÐºÐ¾ÑĢÐ¾Ð»Ñİ
Ð°ÑĪÐ¸
ĠÐ¿Ð¾Ð·Ð¸ÑĤÐ¸Ð²
ĠÑĥÐ¿Ð¾ÑĢÑıÐ´Ð¾Ñĩ
ĠÑģÑĤÑĢÐ¾ÐµÐ½Ð¸Ñı
ĠÑģÐ¾Ð²ÑĢÐµÐ¼ÐµÐ½Ð½ÑĭÐ¼
ĠÑģÐ»ÑĥÐ¶Ð°ÑĤ
ĠÑĢÐ°Ð·Ð´ÐµÐ»ÐµÐ½Ð¸Ðµ
ĠÐ·Ð°ÑħÐ²Ð°ÑĤÐ°
Ġ1862
ĠÐĶÐ¼Ð¸ÑĤÑĢÐ¸Ñı
ÑĪÐµÑģÑĤÐ²Ð¸Ñı
ĠYork
ĠÐ¿ÐµÑĢÐµÑģÐµÑĩ
ĠÑģÑĥÐ¿ÑĢÑĥÐ³Ð°
Ð²Ð¾Ñģ
ĠÐ½ÑĥÐ»Ñİ
ĠÐ¸Ð·Ð²ÐµÑģÑĤÐ¸
ĠÐ²ÑĭÐºÑĥÐ¿
ĠÐ¿ÐµÑĢÐµÐ±
Ð°ÑĢÐ¸Ñİ
2019
ÑĤÐ¸ÑĩÐµÑģÐºÐ¾Ð¼
Ġ88
ĠÑģÑĤÐ¾Ð»ÐµÑĤ
ĠÑģÑĤÐ°Ð½ÐµÑĤ
ĠÑĨÐµÐ½ÑĤÑĢÐ°Ð»ÑĮÐ½Ð¾Ð³Ð¾
ĠÐľÐµÐ¶Ð´ÑĥÐ½Ð°ÑĢÐ¾Ð´Ð½Ð°Ñı
ĠÐļÑĥÐ·Ð½Ðµ
Ð²Ð¾Ðµ
ĠÐ¿ÑĥÐ»ÐµÐ¼
ĠÐ½Ð°Ð²Ð¸Ð³Ð°
ĠÐļÑĥÑĩ
ĠÐľÐµÐº
ÐĲÐŁ
Ð¸ÑĤÐ°ÑĨÐ¸Ð¸
ÑģÑĭÐ»Ð°
ĠÐĺÐ½ÑĦÐ¾ÑĢÐ¼Ð°
ĠÐ·Ð°Ð¼ÐµÐ´
ĠÑĢÐ°Ð±Ð¾Ð²
Ð°ÐºÐ¾Ð½ÐµÑĨ
ĠÐ¿ÑĭÑĤÐ°Ð»Ð¸ÑģÑĮ
ĠÑģÐ¸Ð½ÑĤÐµÐ·Ð°
ĠÐ²Ð·ÑĢÐ¾ÑģÐ»ÑĭÑħ
ĠÐłÑĥÐ¼ÑĭÐ½Ð¸Ð¸
ĠÑįÐ»Ð»Ð¸Ð½
yth
ÑĤÐµÐ¼
Ð»ÑĭÐ¼
ÐµÐ½ÑĤÐ¸Ð¹
ĠÑģÐ°
ĠÐ¾ÑĢÐ°
ĠÐ³ÑĥÑģÑĤ
ĠÐĵÐ¸Ð½
ĠÐ¿Ð¾Ð´Ð½Ð¸Ð¼Ð°
ĠÐ¾ÑĢÑĦ
ÐĿÐ¸Ðº
ĠÑĩÐµÑĢÐµÐ´
Ð»ÐµÑĤÐºÐ¸
ĠÐ°Ð½ÑĤÐ¸Ð´Ðµ
ĠÐ¿ÑĥÐ±Ð»Ð¸ÐºÐ¾Ð²
ĠÐ§ÐµÑĢÐ½Ð¸Ð³Ð¾Ð²
ĠÐŁÐ¾Ð¼Ð¿
ĠÑĦÐ°Ð¼Ð¸Ð»Ð¸Ð¸
ĠÑĥÑģÑĤÐ°Ð½Ð°Ð²Ð»Ð¸Ð²
ext
ĠÐ¿Ð¾Ð´ÑĢÐ°Ð·Ð´ÐµÐ»ÐµÐ½Ð¸Ñı
ĠÐ»Ð°Ð±Ð¾ÑĢÐ°ÑĤÐ¾ÑĢÐ¸Ð¸
ĠQu
Ð¼Ð¸ÑĤÐ°
Ð¼Ð¸Ð»Ð¸
ĠÑĥÑģÐ¾Ð²ÐµÑĢÑĪÐµÐ½
ĠÐ¾ÑĤÑĨÐ¾Ð¼
Ð´Ð°ÑĳÑĤ
ĠÐ¢Ð°ÑĨ
ĠÑħÐ¾Ð·Ñı
ÐļÐĳ
ĠÐ³Ð¾ÑģÑĥÐ´Ð°ÑĢÑģÑĤÐ²Ðµ
ĠPl
ĠÐ¾Ð¿ÑĢÐµÐ´ÐµÐ»ÑĳÐ½Ð½ÑĭÐµ
ĠÐ´Ð²Ð¸Ð¶ÐµÐ½Ð¸Ð¹
ĠÐ¿Ð°Ð¿Ñĭ
ĠÐĽÑĮÐ²
ĠÑģÐµÐºÑĢÐµÑĤÐ°ÑĢÑı
ĠÐ²Ð¾Ð·Ð´ÐµÐ¹ÑģÑĤÐ²Ð¸Ðµ
Ð²Ð¸Ð½Ð°
ÑĢÐ°ÑĤÑĭ
Ð¸ÑĤÐµÑĤ
Ġ112
ĠÑģÐ»Ð¾Ð¹
ĠÑģÐ¾Ð·Ð´Ð°Ð»Ð¸
ĠÐ´ÑĢÐµÐ²Ð½Ð¸Ðµ
Ð·Ð¼Ð¾Ð¼
ĠÐ¾Ð¿ÑĥÐ±Ð»Ð¸ÐºÐ¾Ð²Ð°Ð½Ð°
ĠÐ¿ÑĢÐ¸Ð½ÑĨÐ¸Ð¿Ð°
Ġ1859
ĠÑĥÑĩÐ°ÑģÑĤÐ²Ð¾Ð²Ð°ÑĤÑĮ
ĠÐºÐ¾Ð½ÑĨÐµÐ¿ÑĨÐ¸Ñı
ĠÐ°ÑĢÑĤÐµÑĢÐ¸
ĠÐ½ÐµÐ¼ÐµÐ´Ð»ÐµÐ½Ð½Ð¾
ĠÐ¨ÐµÐºÑģÐ¿
se
ĠÐ¼Ð¾Ð·Ð³
Ð¸Ð½Ð³Ð¾Ð²
ĠÐ¿ÑĢÐ¸Ð¼Ñĭ
Ð°Ð´Ð¾Ð²
Ð°Ð¹ÐºÐ°Ð»ÑĮ
Ð¢Ðµ
ĠCo
ĠÐ¿Ð¾ÑģÐ»ÐµÐ´ÑĥÑİÑīÐ¸Ñħ
ĠÑĤÑĢÐ¸Ð±ÑĥÐ½
ĠÐ»Ð¸Ð½Ð¸Ñİ
ĠÐ½Ð°Ð±Ð»ÑİÐ´ÐµÐ½Ð¸Ð¹
Ð¾ÑĢÐµÐ¼Ð°
ĠÐ¿ÑĢÐ¾ÑıÐ²Ð»ÑıÐµÑĤÑģÑı
ĠÐ½ÐµÐ¿ÑĢÐ°Ð²Ð¸Ð»ÑĮ
Ð¾Ñĳ
ÐºÐ³
ÑıÐ»Ð°ÑģÑĮ
ĠÐºÐ¾ÑģÑĤÐ¸
ÑįÑĤÐ¾
ĠÐľÐµÐ¼Ð¾ÑĢÐ¸
Ð¾Ð·Ð²
ĠÐŀÑĢÐµÐ½Ð±ÑĥÑĢÐ³
ĠÐĺÐ±Ð½
ĠÐ¢Ð°ÑĤÑĮ
ĠÐĽÐ°Ð¿
Ð¸ÑģÑĤÑģÐºÐ¾Ð¹
ĠÐ¿ÐµÑĢÐµÑĩÐ¸Ñģ
Ð°ÑĢÐ¸ÑĤ
ĠÐºÐ°Ð¶
ĠÐĶÐ¶Ð¾Ð·ÐµÑĦ
ĠÐ²ÑĭÐ±ÑĢÐ°Ð½
ĠÐ²ÑħÐ¾Ð´Ð¸Ð»
1976
ĠÐ²Ð½ÐµÑĪÐ½ÐµÐ³Ð¾
ĠÐ²Ð²ÐµÐ´ÐµÐ½Ñĭ
ĠÐ¿Ð»Ð°ÑĤÐ¾
ĠÐ¾Ð³ÑĢÐ¾Ð¼Ð½Ð¾Ðµ
ĠÑģÐ°Ð¼Ð¸Ñħ
ĠÐ¼Ð»Ð°Ð´ÑĪÐ¸Ð¹
ĠÐĴÐµÐ½ÐµÑģÑĥÑį
ĠÐķÐ²ÑĢÐ¾Ð¿ÐµÐ¹ÑģÐºÐ¾Ð³Ð¾
ĠÐ¦Ð¸Ð¾Ð»
ĠÐ¤ÐµÐ¾Ð´Ð¾Ñģ
Ð²ÐµÐ»
ÑĮÐµÐ¹
ĠÐºÐ¾ÑĢÐµÐ¹
ĠÐľÐµÐ¶
ĠÐĵÑĢÐ°Ð½Ð¸
Ð³ÑĢÐ°Ð¼
ÐĿÐĲ
ĠÐ¾ÑĢÐ³Ð°Ð½Ð¾Ð¼
Ð¾Ð±ÑĭÑĤ
ĠCor
icht
ĠÐ¼Ð¸ÑĢÐ¾Ð²ÑĭÑħ
Ġ1866
ĠÐ´ÐµÐºÐ»Ð°ÑĢÐ°
ĠÑĢÐ°Ð·Ð¼Ð½Ð¾Ð¶
ĠÐ¼Ð¸ÐºÑĢÐ¾ÑģÐºÐ¾Ð¿
ĠÑĤÐ°Ð±Ð»Ð¸ÑĨÐµ
ĠÐłÐµÐ»Ð¸Ð³Ð¸Ð¾Ð·Ð½ÑĭÐµ
ÑİÐ¼
ĠÐ¡Ð¼Ð¸ÑĢ
ĠÐĿÐ°ÐºÐ¾Ð½ÐµÑĨ
ĠÐµÑİ
ĠÐ²ÑĭÐ½ÐµÑģ
ĠÐ¥Ð°Ðº
Ġ3000
ĠÐ§Ð¸Ð»Ð¸
ĠÐºÐ¾ÑĢÐ¼
ĠÑĦÐ¾ÑĢÐ¼Ð°Ñħ
ĠÐ±ÐµÐ·ÑĢÐ°Ð±Ð¾ÑĤ
ĠÐºÐ¾ÑģÐ¼Ð¸ÑĩÐµÑģÐºÐ¸Ð¹
ĠÑĥÑģÐ¿ÐµÑħÐ¾Ð¼
ĠÑģÑĤÑĢÐµÐ¼Ð»ÐµÐ½Ð¸Ðµ
ĠÐ·Ð°ÑĢÑıÐ´
ÑįÐ»ÐµÐºÑĤÑĢÐ¾Ð½
rans
ĠÐ¡ÐµÐ³Ð¾Ð´Ð½Ñı
Ïĥ
ÑģÑĥÐ´
ĠÐ½Ð°ÑĪÑĳÐ»
ĠÐĵÐ£
Ð¸ÑģÑĤÐ°Ð¼Ð¸
ĠÐ¤ÑĢÐ°
ĠÑģÐºÐ¾Ð¿
ĠApp
ĠÐ°ÐºÑĨÐ¸Ð¸
ĠÐ¿ÑĢÐ¾Ð´Ð¾Ð»Ð¶Ð°Ð»Ð¸
ĠÑģÐ¿ÐµÑĨÐ¸Ð°Ð»ÑĮÐ½Ð¾Ð³Ð¾
Ð¾Ð½Ð°ÑĩÐ°Ð»ÑĮ
ĠÑĢÐµÐ»Ð¸Ð³Ð¸Ð¾Ð·Ð½ÑĭÐµ
ĠÐ²ÐµÑĢÐ¾ÑıÑĤÐ½Ð¾ÑģÑĤÑĮ
ĠÐ¿Ð»Ð¾Ð´Ð¾ÑĢÐ¾Ð´
son
Ð¾ÑĨÐµÐ½
ÐµÑĢÐ³Ð¾
ÑĩÐµÐµ
ĠÐļÑĢÐ°ÑĤ
ĠÐ¤ÑĥÑĤ
ÐµÑĢÐ¸Ðº
ĠÐ½Ð°ÑģÑĭ
ĠÑĤÐµÐ»ÐµÐºÐ¾Ð¼
ÐĽÐŀ
ĠÐµÐ´Ð¸Ð½ÑģÑĤÐ²Ð°
ĠÑģÐµÐºÑĤÐ¾ÑĢÐ°
ĠÐ²ÑĭÐ¿Ð¾Ð»Ð½ÑıÑĤÑĮ
Ð±ÐµÑĢÑĤÐ°
ĠÐĶÑĢÑĥÐ³Ð¾Ð¹
ĠÐĲÐ²Ð³ÑĥÑģÑĤÐ°
ĠÐ¼Ð°ÑģÑģÐ¾Ð¹
ĠÐ°Ð½ÑĤÐ¸ÑĤ
ĠÐĳÐ»Ð°Ð³Ð¾Ð²
cript
Ð»ÐµÐ½Ð¸
ĠÐ´ÐµÑĢ
ĠÐ³Ð°ÑģÑĤ
ÑĦÑİÑĢ
ĠÐļÐµÐ¹
ĠÑģÑĤÐ°ÑĢÐ¸Ð½
ĠÐľÐ°Ð²
ÐºÐ¸Ð¸
ĠÐĶÐ»Ð¸Ð½Ð°
Ð»ÑĮÑı
ĠÐ¨Ð°Ð¼
ĠÐ¢ÐµÐ¾Ð´
ĠÐ°Ð³Ð»Ð¾Ð¼ÐµÑĢÐ°
ĠÐ¾ÑĤÐºÐ°Ð·Ð°Ð»Ð¸ÑģÑĮ
ĠÑĥÐ¿Ð¾ÑĤÑĢÐµÐ±Ð»ÐµÐ½Ð¸Ðµ
ĠÐ´Ð¾Ð±ÑĭÑĩÐ°
ĠÐ¢ÑĢÐ°Ð½Ñģ
ĠÐ¸ÑģÐ¿ÑĭÑĤÐ°Ð½Ð¸Ñı
ĠÐļÐ°Ð»Ð¸Ð½Ð¸Ð½
ĠÐŀÑĢÐ³Ð°Ð½Ð¸Ð·Ð°ÑĨÐ¸Ð¸
ĠÐ´Ð¸ÑĦÑĦÐµÑĢÐµÐ½ÑĨÐ¸Ð°Ð»ÑĮ
ĠÐĶÐ·ÐµÑĢÐ¶
ĠÐŁÑĢÐµÐ´Ð¿Ð¾Ð»Ð°Ð³
ĠÑĦÐ¸Ð»Ð¾ÑģÐ¾
++
ail
ĠÑģÐ»Ð¸Ñı
Ð¿Ð¾Ð³
Ð¿ÑĢÐ¾ÑĤ
ĠÐłÐ¸
ĠÐ·Ð°Ð±Ñĭ
ĠÑħÐ»Ð¾Ð¿
ĠÑĪÑĳÐ»
ĠÐ·Ð°Ð¿Ð°Ð´Ð°
ĠÐ·Ð°Ð¼ÑĭÑģ
Ð°ÑģÑĤÐµÑĢ
ĠÐĿÐ¸ÐºÐ¸ÑĤ
ĠÑĤÐ¾ÑĩÐºÐ¾Ð¹
ĠÐ¸Ð·Ð±Ð°Ð²
ĠÐ²ÐµÐ´ÐµÐ½Ð¸Ñı
lay
ĠÐ±Ð¾ÐµÐ²Ð¾Ð¹
ĠÐĽÑĮÐ²Ð°
ĠÐ±ÑĥÑĢÐ¶ÑĥÐ°Ð·
ĠÑģÑĤÐµÐºÐ»Ð°
ĠÐ½Ð°Ð»Ð¸ÑĩÐ¸
ĠÐĽÑİÐºÑģÐµÐ¼
Ð½ÐµÐ²Ð°
ĠÐºÑĥÐ·
Ð¾Ð½ÑĤÐ°
ÑĪÐ¸Ð½Ð°
ĠÐ·Ð½Ð°Ð»
ĠÐĿÐ°Ñħ
ĠÑĪÐ°ÑĢ
ĠÐ½Ð°Ð·Ð²Ð°Ð½Ñĭ
ĠÑĤÐµÑĢÑĢÐ¸ÑĤÐ¾ÑĢÐ¸ÑıÑħ
ĠÐ¿ÐµÑĢÐµÐ´Ð°ÑĤÑĮ
ĠÐ¼Ð°ÑģÑĪÑĤÐ°
ĠÐ¸Ð·Ð´Ð°ÑĤÐµÐ»ÑĮÑģÑĤÐ²Ð¾
ĠÐ°Ð½Ð³Ð»Ð¸Ð¹ÑģÐºÐ°Ñı
ĠÐ¡ÐºÐ¾ÑĤ
ĠÐ·Ð½Ð°ÑĩÐ¸ÑĤÐµÐ»ÑĮÐ½ÑĭÐ¹
1967
ĠÑģÐ°Ð¼Ð¾ÑĥÐ±Ð¸Ð¹
ĠÑģÑĤÐ¸ÑħÐ¾Ð²
ĠÐ³ÐµÑĢÐ¼Ð°Ð½ÑģÐºÐ¸Ñħ
ĠÑĤÑĢÐ°ÐºÑĤÐ¾Ð²
ĠÐ´Ð¾Ð³Ð¼Ð°ÑĤ
ĠÐŀÐ¿Ð¸ÑģÐ°Ð½Ð¸Ðµ
Ġ>
Ð³Ð°Ð¼Ð¸
Ð½Ð¸Ð¼Ð°ÑĤ
ĠÐĴÐŀ
ĠÐŁÐµÐ»
ĠÐļÐĿ
ĠÐ½ÐµÐ¾ÑĦÐ¸ÑĨÐ¸Ð°Ð»ÑĮ
ĠÑħÐ²Ð°ÑĤ
ĠÑĢÐµÐ½ÑĤ
ĠÑįÐ»ÐµÐºÑĤÑĢÐ¾Ð»
Ð¼Ð°Ð½Ñĥ
ĠHT
Ð¼Ð¾Ð½Ð¸Ñı
ĠÐºÐ½ÑıÐ·ÑĮÑı
ĠÐ½ÐµÑĦÑĤÑĮ
ĠÑģÐµÑĤÐµÐ¹
ĠÐ¿ÑĢÐ¾Ð²Ð¸Ð½ÑĨÐ¸Ð¹
ĠÐ§ÐµÐ¼Ð¿Ð¸Ð¾Ð½
ĠÐľÐµÑģÐ¾Ð¿Ð¾ÑĤÐ°Ð¼Ð¸
ID
ÑĢÐ°Ð½Ð¾
ĠÐ¼ÐµÐ¼Ñĥ
ĠÐĵÐµÐ»ÑĮ
ĠÐ²ÑĭÐ·ÑĭÐ²Ð°
ĠÐĽÐ¸ÑĪÑĮ
ĠÐ¿ÑĢÐ¾ÑĤÐ¾ÑĤÐ¸Ð¿
ĠÑıÐ·ÑĭÐºÑĥ
ĠÐºÐ¾Ð»Ð¾Ðº
ĠÐ³ÑĢÐ°Ð½Ð¸Ñĩ
ĠÐ½Ð¾Ð²Ð¾Ð¼Ñĥ
ĠÐ¿ÐµÑĢÐµÐ´Ð°Ð²
ĠÐĺÐ½ÑĤÐµÑĢÐµ
ĠÐ¿Ð¾Ð½ÑıÑĤÐ¸Ð¹
ĠÑıÐ½Ð²Ð°ÑĢÑĮ
ĠÐ¿ÑĢÐ¾ÑģÑĤÑĭÐµ
ĠÑģÐ»Ð¾Ð¶Ð½ÑĭÐµ
ĠÑģÐ±Ð¾ÑĢÐ½Ð¾Ð¹
ĠÐļÐ°Ð½Ð°Ð´Ðµ
ĠÐ´Ð¸Ð°Ð»ÐµÐºÑĤÐ°
ĠÑįÐ¼Ð¸Ð³ÑĢÐ°Ð½
ĠÐŁÐ¸ÑģÐ°ÑĤÐµÐ»Ð¸
ĠÑĦÐµÐ½Ð¾Ð¼ÐµÐ½
ÑħÐ¾Ð¼
Ð°ÑĢÐ¾
ĠÐ¾Ð±ÑģÐµÑĢÐ²
ÑĤÑĥÐ´Ð°
ĠÐ½Ð°Ð·Ð²Ð°Ð½Ð¸Ð¹
ÐµÑĢÑĤÐ²
ĠÐ½Ð°Ð±Ð»ÑİÐ´Ð°
ĠÑĢÐµÐ°ÐºÑĨÐ¸Ð¹
ĠÑĥÐºÑĢÐµÐ¿Ð»ÐµÐ½Ð¸Ñı
ĠÐºÐ°Ð½Ð´Ð¸Ð´Ð°ÑĤÐ¾Ð²
ĠÐľÐµÑĤÐ¾Ð´
ĠÑĤÐµÐ»ÐµÐ²ÐµÐ´ÑĥÑīÐ°Ñı
ĠÐĵÑĥÐ¼Ð¸Ð»ÑĳÐ²
ÑĢÐµÑģÐ¿Ð¾Ð½Ð´ÐµÐ½ÑĤ
ĠÐ¿ÑĢÐ¾Ð¶Ð¸Ð²Ð°Ð»Ð¾
ĠÐ¢ÑĥÑĢÐºÐ¼ÐµÐ½Ð¸
Ð¾Ð²ÑĮÑı
ÑĪÐµÐ»
ĠÐ¡Ñİ
ÐµÐ¹Ð·Ð°
ĠÐĳÐ°Ð½
Ð¸Ð²ÑĪÐµÐ¹ÑģÑı
ĠÐ¤ÑĥÑĢ
ĠÐ£ÑĩÐµÐ±
Ð°ÑĤÐµÐ»ÑĮÐ½ÑĭÐ¼Ð¸
Ġ1800
ÐŁÐ°
Ð¸Ð²Ð°ÑİÑīÐ¸Ðµ
ĠÐ½ÐµÐºÐ¾ÑĤÐ¾ÑĢÐ¾Ð¹
ĠÑĤÐ¸Ð¿Ñĥ
ĠÐ°Ð½Ð³Ð»Ð¸Ð¹ÑģÐºÐ¾Ð¹
ĠÐ²Ð²ÐµÐ´ÐµÐ½Ð¾
ogle
ĠÐŁÐ¾Ð»Ð¸ÑĤÐ±ÑİÑĢÐ¾
ĠÐŁÐ¾ÑĩÑĳÑĤÐ½ÑĭÐ¹
ĠÐ£ÑĩÑĳ
ĠÐºÐ¾Ð»ÑĮÑĨÐ¾
ĠÐĵÐ°Ð³Ð°ÑĢÐ¸Ð½Ð°
ĠÑģÐ¸Ð½Ð´ÑĢÐ¾Ð¼
ĠÐ²Ð¾ÑĢÐ¾ÑĤÐ°
ĠÑģÑĥÐ½
Ð±ÑĥÐ»
ĠÐ¼Ð¾ÑĤÐ¾ÑĢ
ĠÑĢÐ°Ð·ÑĬ
ÐļÐ½Ð¸
ÑĢÐ°Ð¶ÐµÐ½Ð¸Ñı
ÐĶÐ¾Ð½Ñĥ
Ġ96
ÐµÐ»Ð¸ÐºÐ¾Ð¼
ĠÐ³Ð¾Ð»Ð¾ÑģÐ°
ĠÐ´Ð¾ÑģÑĤÐ¸Ð³Ð»Ð°
ĠÐºÐ°Ð»Ð¸Ñı
ĠÐ½Ð°Ð¿Ð°Ð´ÐµÐ½Ð¸Ñı
ĠÐ¿ÑĢÐ¸Ð½ÑĨÐ¸Ð¿Ñĥ
ĠÐ¿ÑĢÐ¾Ð·Ð°Ð¸Ðº
ĠÑģÐ¸Ð±Ð¸ÑĢ
Ġ116
ĠÐ¿ÑĢÐ¾Ð»ÐµÑĤ
ÑĥÐ¿Ð¾ÑĤÑĢÐµÐ±
ÐļÐ°Ð¼
Ð¸ÑĢÐ¾Ð²Ð°Ð½Ð½Ð¾Ð¹
ĠÐ´ÐµÐ»Ð°ÑİÑĤ
ĠÐ½Ð°ÑħÐ¾Ð´Ð¸Ð»Ð¾ÑģÑĮ
ĠÐ´Ð¾Ð»Ð¶Ð½Ð¾ÑģÑĤ
ĠÐ¸ÑģÑĩÐ¸Ñģ
ĠÐºÐ¾Ð¼Ð¿Ð¾Ð½ÐµÐ½ÑĤ
Ð¤ÑĢÐ°Ð½ÑĨÐ¸Ñı
ology
Ð¼Ð¾Ð·
ĠÑģÑĩÐ°
ĠÐ¾ÑģÐ¿
Ð¾Ð»Ðº
ĠÐĴÑĢÐµÐ¼Ñı
ĠÐ¿Ð¾Ð´Ð¿
Ð½ÐµÐ³
ĠÐ¾ÑģÐ°Ð´Ñĭ
ĠÑĨÐ°ÑĢÐµÐ²
ĠÑĢÑĥÐ´Ñĭ
ĠÑģÐ¾ÑģÑĤÐ¾ÑıÐ»Ð¸ÑģÑĮ
ism
ĠÐĿÐ¾Ð²Ð¾Ðº
ĠÐ°ÑĢÐ¼Ð¸Ð¹
ĠÐ¼Ð°ÑģÑģÐ¾Ð²ÑĭÐµ
ĠÑĢÐ¾ÑģÑĤÐ¾Ð¼
ĠÐ¿Ð¾ÑĢÐ¾Ð´Ñĭ
ĠÐĺÑĢÐ°ÐºÐ°
ke
sh
ĠÑĳÐ¼
ÐµÐ½ÑĤÐ°ÑĨÐ¸Ð¸
ĠÐ¤Ðµ
ĠÑĢÐ¾Ð³
ĠÐ¸ÑİÐ»ÑĮ
ĠÐ¿Ð¾ÑĤÐ¾ÐºÐ°
ĠÐ¿Ð¾ÑĢÐ¾ÑĪ
ĠOr
ĠÑģÐ¾Ð±ÑĭÑĤÐ¸Ðµ
ĠÐ¿Ð¾Ð¿ÑĥÐ»ÑıÑĢÐ½Ð¾ÑģÑĤÐ¸
ĠÐ¾Ð±ÑĬÑıÑģÐ½Ð¸ÑĤÑĮ
ĠÐ¶ÐµÐ»ÐµÐ·Ð½Ð¾Ð´Ð¾ÑĢÐ¾Ð¶Ð½Ð°Ñı
ĠÐ¾ÑĤÐ»Ð¸ÑĩÐ°
ĠÐ¼Ð°ÑĢÑĪÑĢÑĥÑĤÐ¾Ð²
ĠÐ¿ÑĢÐµÐ´Ð¿Ð¾Ð»Ð¾Ð¶ÐµÐ½Ð¸Ðµ
ĠÑģÐ¼ÐµÑĢÑĤÑĮÑİ
ĠÐ¾ÐºÐ¸ÑģÐ»ÐµÐ½Ð¸Ñı
ĠÐ¤ÑĳÐ´Ð¾ÑĢÐ¾Ð²Ð¸Ñĩ
ĠÐ¸Ð¼Ð¿ÐµÑĢÐ°ÑĤÑĢÐ¸ÑĨÑĭ
OH
ÑĢÐ°ÑģÑĤÐ°
ĠÐºÐ¾Ðº
ĠÐ±Ð°ÑĢÑĮ
ĠÐĿÐ°Ð¼
ĠÐĵÐµÐ³
ĠÐĳÑĥÑĢÐ³
ĠÐĶÑĥÐ½Ð°
ĠÐ¿Ð¾Ð´ÑĢÑıÐ´
ĠÐ¿Ð¾Ð»ÑĥÑĩÐ¸Ð²ÑĪÐ¸Ð¹
ĠÐ½Ð°ÑģÐµÐ»ÑĳÐ½Ð½ÑĭÐµ
1981
ĠÐ·Ð½Ð°ÑĤÑĮ
ĠÐ¿Ð¾Ð¿ÑĭÑĤÐºÑĥ
ĠÐĴÐ¾Ð·ÑĢÐ¾Ð¶Ð´ÐµÐ½Ð¸Ñı
ĠÑĤÑĥÑĢÐ½Ð¸ÑĢÐµ
ĠÐ³Ð²Ð°ÑĢÐ´Ð¸Ñı
ĠÐ¿Ð¾ÐºÑĢÐ¾Ð²Ð¸ÑĤÐµÐ»ÑĮ
ÑĢÑĭÑħ
ĠÐ¿Ð¾Ð±Ñĭ
ĠÐ½Ð°ÑģÑĤÐ°
Ð¾ÑĤÐ¾Ð¹
ĠÐ¡Ð¾Ð´ÐµÑĢÐ¶
Ð°ÑĢÐ½ÑĭÐ¼
ĠÐļÐ°Ð½ÑĤ
Ð¾Ð·Ð½Ð°Ñĩ
Ð¼ÐµÑģÑĤÐ¸
ÐłÐ¾ÑģÑģÐ¸Ð¹
ĠÐ¾ÑĢÑĤ
ĠÐ¿Ð»ÑĳÐ½
ĠÑİÑģÑĤÐ¸
Ð¸ÑĢÑĥÑģ
ĠÑĥÐ³ÑĢÐ¾Ð¶
ĠÐłÐµÑģÐ¿ÑĥÐ±Ð»Ð¸ÐºÐ¾Ð¹
ĠÐ±ÐµÐ»Ð¾Ð³Ð¾
ĠÐ¼Ð°ÑģÑģÐ¾Ð²ÑĭÑħ
ĠÑĥÐºÐ°Ð·ÑĭÐ²Ð°ÑİÑĤ
ĠÐ´ÐµÑģÑıÑĤÐºÐ¸
ĠÐºÐ¾Ð½ÑĦÐµÑĢÐµÐ½ÑĨÐ¸Ñı
ĠÐºÐ¸Ð½Ð¾Ð°ÐºÑĤÑĳÑĢ
ÑĢÐµÐ³ÑĥÐ»Ð¸ÑĢÐ¾Ð²
ĠÐĵÐµÐ½Ð½Ð°Ð´Ð¸Ð¹
ein
Ð´ÐµÑĤ
ĠÐ²Ð²ÐµÑĢÑħ
ĠÐ°Ð¹
Ð¸ÑĩÐ½Ð¾ÑģÑĤÑĮ
ÐłÐĺ
Ð´ÐµÐ³
ĠÑģÐ²Ð¾Ð¹ÑģÑĤÐ²Ð¾
ĠÐ¡Ð°Ð¼ÑĭÐµ
ĠÑĢÑĭÐ½Ð¾
ĠÐ¸Ð·Ð¾Ð±ÑĢÐ°Ð¶ÐµÐ½Ð¸Ð¹
ĠÑĢÐ¸Ð¼ÑģÐºÐ¾Ð¹
ĠÐ¸Ð½ÑĤÐµÑĢÐµÑģÑĭ
ĠÐ¿Ð¾ÑģÑĤÐ°Ð²Ð¸Ð»
ĠÑģÐ»Ð°Ð²ÑıÐ½ÑģÐºÐ¸Ñħ
ĠÑıÑĢÐºÐ¾
ĠÐ³Ð»Ð°ÑģÐ½ÑĭÑħ
ĠÐ¼ÐµÑĢÐ¾Ð¿ÑĢÐ¸ÑıÑĤÐ¸Ñı
ĠÐ½Ð¾Ð¼Ð¸Ð½Ð°
Ð³ÑĢÐ°Ð²
ĠÐ½Ð°ÑĪÐ»Ð¸
ĠÐ¿ÑĢÐ¸Ð³Ð¾Ð´
ĠÐľÐ°ÑģÑģÐ°
ĠÐ£ÑĪ
ÑİÑīÐµÐ¼Ñĥ
ĠÐ¿ÑĢÐ¾Ð´ÐµÐ¼Ð¾Ð½
ĠÐ´ÐµÐ¹ÑģÑĤÐ²Ð¾Ð²Ð°ÑĤÑĮ
ĠÐ¾Ð±ÑĢÐ°Ð·Ð¾Ð²Ð°Ð½Ð¸Ñİ
Ð¼Ð°Ð½Ð¾Ð¼
ĠÐ°Ð²Ð³ÑĥÑģÑĤ
ĠÐ¼Ð¾ÑĢÑģÐºÐ¾Ð³Ð¾
Ð¾Ð»Ð¸ÑĨÐ°
ĠÐ¼ÐµÐ½ÑıÐµÑĤÑģÑı
Ð»ÐµÐ¹ÑĤÐµÐ½Ð°Ð½ÑĤ
ĠÐ¿ÑĢÐ¾Ð±Ð»ÐµÐ¼Ñĥ
ĠÑĢÐ¸Ð¼Ð»ÑıÐ½
ĠÑĢÐµÐ³Ð¸Ð¾Ð½Ð°Ð»ÑĮÐ½Ð¾Ð³Ð¾
ĠÐľÐ°Ð¹ÐºÐ»
ĠÑĤÑĥÑĢÐ½Ð¸ÑĢÐ°
ĠÐĽÐ¾Ð¼Ð¾Ð½Ð¾ÑģÐ¾Ð²
ĠÐ¤Ð¸Ð»Ð¾ÑģÐ¾ÑĦÐ¸Ñı
ĠÐ¿ÑĢÐ¾Ð¼ÐµÐ¶ÑĥÑĤ
ĠÐºÐ¾Ð½ÑģÐµÑĢÐ²Ð°ÑĤÐ¸Ð²
ĠÐļÑĳÐ½Ð¸Ð³
ĠÐĶÐ²Ð¾ÑĢÐµÑĨ
ĠÐ¡ÑĤÐ¾ÑĢ
ĠÐŁÐ°ÑģÐº
ĠÐ¿ÑĢÐ¾ÑģÐ»Ð°Ð²
ĠÐĿÐ°ÑĢÑı
ĠÐĳÐ°Ñģ
ĠÐ¿ÐµÑĢÐ²ÑĭÐ¼Ð¸
ÐºÐ°Ð½ÑģÐºÐ¸Ð¹
ÐĶÐ¾Ð½
Ġ71
ĠÐ¿ÑĢÐ¾ÑĤÐ¸Ð²Ð¾Ð²
ĠÐ´ÐµÑĤÑģÐºÐ¸Ñħ
ĠÑĦÑĢÐ°Ð½ÐºÐ¾Ð²
ĠÑįÐºÐ¾Ð½Ð¾Ð¼Ð¸ÐºÐ°
ÑĭÐ²Ð°Ð»Ð¸ÑģÑĮ
ĠÑĢÐ°Ð·Ð´ÐµÐ»ÐµÐ½Ð¸Ñı
ĠÐºÐ¾Ð¼Ð¿ÑĮÑİÑĤÐµÑĢÐ°
ĠÐ·Ð°Ð²Ð¾ÐµÐ²Ð°Ð½Ð¸Ñı
ÑĭÐ»ÐºÐ¸
ĠÑĨÐµÐ¿Ð¸
ĠÑĤÑĥÑĢÐ¸Ð·Ð¼Ð°
ĠÐ¿Ð¾Ð»Ð½Ð¾ÑĨÐµÐ½
ĠÐ¡Ð¾ÑĩÐ¸Ð½
Ð°ÑĢÐºÐ°
ĠÐļÐ»
ĠÑįÐºÑģÐ¿Ð¾ÑĢÑĤÐ°
Ð»Ð°Ð½ÐµÑĤ
ĠÐ²Ð¾Ð»Ð½Ð°
ĠÐ¿Ð¾ÑıÐ²Ð»ÐµÐ½Ð¸ÐµÐ¼
ĠÐºÐ°Ð·Ð½Ð¸
ĠÐ±ÑĢÐ°ÑĥÐ·
ĠÐ»Ð¸ÑĨÐ¾Ð¼
ĠÐ°Ð²Ð¸Ð°ÐºÐ¾Ð¼
Ð¼Ð¸ÑĢÐ°Ð»Ð°
Ð¾Ð¿Ð¾Ð»ÑĥÑĩ
ĠÐ´ÐµÑıÑĤÐµÐ»ÐµÐ¹
ĠÐ¿ÑĢÐµÐ¾Ð±Ð»Ð°Ð´Ð°ÑİÑĤ
ĠÐŁÑĢÐµÐ¿Ð¾Ð´Ð°Ð²
Ð´Ð¾ÑĢ
Ð¶Ð½Ð°Ñı
ĠÐłÐµÐ½
ĠÐĶÐµÐ»ÑĮ
ĠÐ·Ð°Ð³Ð¾Ð²Ð¾ÑĢ
ĠÐ¸Ð¼ÑĥÑīÐµÑģÑĤÐ²Ð°
ÐµÑĩÐµÐ½Ð¸Ñı
ĠÑĦÐ¾ÑĢÑĤÐµ
ĠÐ¯ÑĢ
Ð¸ÐºÐ¸Ð¹
ĠÐ¼Ð¸ÑĢÐ¾Ð²Ð¾Ð·Ð·
1973
ĠÐ¿Ð¾Ð¿ÑĥÐ»ÑıÑĢÐ½ÑĭÑħ
ĠÐ¿Ð¾Ð»ÑĮÐ·Ð¾Ð²Ð°ÑĤÐµÐ»Ñı
ĠÐ¿Ð¾ÐºÐ¸Ð½ÑĥÑĤÑĮ
ĠÑģÑĤÐ¾Ð»ÐºÐ½Ð¾Ð²ÐµÐ½Ð¸Ñı
Ð¶Ð¸Ð²
ĠÐ»Ð¾Ð²
ĠÐĵÐ°Ð²
ĠÐĶÐ¾Ð¼Ð¸Ð½
Ð¸ÑĤÐµÐ»ÑĮÐ½Ð¾ÑģÑĤÑĮÑİ
ĠÑĨÐµÑħ
ĠÐĿÐ°ÑĨÐ¸Ð¹
ĠÑĢÐ°Ð·Ð²ÑĳÑĢ
ĠÐ¿ÐµÑĢÐ¸Ð¾Ð´Ð¾Ð¼
ĠÐ°Ð´Ð¼Ð¸ÑĢÐ°Ð»
ĠÐ¼ÐµÐ´Ð°Ð»Ð¸
ĠÑĨÐ¸Ð»Ð¸Ð½Ð´
ĠÐ²Ð½ÑĥÑĤÑĢÐµÐ½Ð½Ð¸Ðµ
ĠÑģÑĥÐ¼Ð¼Ð°ÑĢ
ĠÐĹÐ´Ð°Ð½Ð¸Ðµ
ĠÐĴÐ¾Ð¹ÑģÐºÐ°
ĠÐ½Ð¸ÐºÐ°ÐºÐ¾Ð³Ð¾
ĠÐ·Ð°ÑĢÑıÐ´Ð°
ĠÐłÐ°Ð±Ð¾ÑĤÐ°
ĠÐ¿Ð°ÑĢÐ°Ð»Ð»ÐµÐ»ÑĮÐ½Ð¾
ĠÐľÐĴÐĶ
ĠÐ®Ð³Ð¾ÑģÐ»Ð°Ð²Ð¸Ð¸
ĠÐ¿Ð¸Ð²
Ð´Ð°Ð´
ĠÑıÑĢÐº
Ð°Ð¹ÑģÐºÐ¸Ð¹
Ð»ÐµÐ¼Ñĭ
Ð¾Ð³ÑĢÐ°ÑĦÐ¸ÑĩÐµÑģÐºÐ¾Ðµ
ĠÐĸÐ¸Ð·Ð½ÑĮ
ĠÐ¿Ð¾ÑĢÑĤÐ°
ĠÐ±ÑĥÐ´ÑĥÑīÐµÐµ
Ġ130
ĠÐ¼ÐµÐ½ÐµÐ´Ð¶
ĠÐļÐ¾Ð»Ð¾Ð¼
ĠÐ½Ð°Ð·Ð½Ð°ÑĩÐµÐ½Ð¸Ðµ
1971
ĠÐ·Ð°Ð´Ð°ÑĩÐµÐ¹
ĠÐ»ÐµÐºÑĨÐ¸Ð¸
ĠÐ¿ÑĢÐ¾Ð²Ð¾Ð·Ð³Ð»Ð°ÑģÐ¸Ð»
ĠÐĲÑĢÐ³ÐµÐ½ÑĤ
ĠÐļÐµÐ½Ð½ÐµÐ´Ð¸
ÑĥÐ½Ðµ
ĠÐ¸ÑģÑĤÐ¸Ð½Ñĭ
Ð¿Ð°Ð½Ð¸Ð¸
ĠÐ´Ð¾Ð·Ñĭ
Ð¾Ð½Ð°Ñģ
ĠÑģÑĤÐ°ÑĢÐ¸
ĠÐ¿ÐµÑĢÐµÐµÑħÐ°Ð»
ÐĲÐĵ
ĠÐ´ÐµÐ»Ñĥ
Ð£ÐºÑĢÐ°
ĠÐĳÐµÐ»Ð³Ð¾ÑĢÐ¾Ð´
1961
ĠÑĦÐµÐ´ÐµÑĢÐ°ÑĨÐ¸Ð¸
ĠÐ²ÑĭÐ´ÐµÐ»ÑıÑİÑĤÑģÑı
ĠÐ¿Ð¾Ð´Ð°Ð²Ð»Ñı
Ð½Ð°ÑĢÑıÐ´Ñĥ
ĠÐ´Ð·ÑįÐ½
Ð¸ÑģÐ¸
ĠÑĦÐµÐ»ÑĮÐ´
ĠÐ¿Ð¾Ð´ÑĬ
ĠÐ¾ÑģÐ¾Ð·Ð½
ĠÐ£ÑģÑĤ
ÐŀÐ¡
Ð³ÑĥÐ°
ĠÑįÐºÑģÐº
ĠÐ¼Ð°ÑģÑģÑĥ
ett
ĠÑģÑĢÐ°Ð²Ð½ÐµÐ½Ð¸Ñı
ĠÐ¿ÑĢÐ°Ð²Ð¾ÑģÐ»Ð°Ð²Ð½ÑĭÑħ
ĠÑĢÐ°Ð·ÑĢÑĥÑĪÐµÐ½Ð¸Ñı
ĠÑĢÐ°ÑģÐ¿ÑĢÐµÐ´ÐµÐ»ÐµÐ½Ð¸Ñı
Ġch
Ð½ÐµÐ´
ÑĪÐµÑĢ
ĠÐ¼ÑĳÑĢÑĤÐ²
ÑĦÐµÐ½
ĠÐ¡Ð¾ÑĤ
ĠÐ£Ð¼
ĠÐķÐ¼Ñĥ
ĠÐ¾Ð±ÑĢÐ°Ð·ÑĨÐ¾Ð²
ĠÐ´Ð°Ð½Ð½Ð¾Ðµ
ĠÐ²Ð¾ÐµÐ½Ð½Ð°Ñı
ĠÐ´ÐµÑĤÑģÐºÐ¸Ð¹
ĠWar
ĠÐ¿ÑĢÐµÐ´ÑģÑĤÐ°Ð²Ð»ÑıÐ»
ĠÑģÑĢÐ¾ÐºÐ°
ÑĤÐµÐ·Ð¸
ĠÑĤÑıÐ¶ÑĳÐ»Ð¾Ð¹
ĠÐ¿Ð¾Ð·Ð¸ÑĨÐ¸Ð¹
ĠÐ¿ÑĢÐ¸Ð·Ð½Ð°ÐºÐ¾Ð²
ĠÐºÐ°Ð´ÑĢÐ¾Ð²
ĠÐ°ÑĤÐ¼Ð¾ÑģÑĦÐµÑĢÐµ
ĠÐ¥ÑĥÐ°Ð½
ĠÐ¾ÑĢÐ³Ð°Ð½Ð¸Ð·Ð¼Ð¾Ð²
ĠÐ¾Ð¿ÑĤÐ¸Ð¼Ð¸
ĠÐ¿ÑĢÐµÐ´ÑĥÐ¿ÑĢÐµÐ¶Ð´
ĠÑĤÐµÐ½Ð·
Ġ114
ĠÐ¾ÑĤÑĢÐ°Ð·
ĠÐ´ÐµÑĦÐ¸ÑĨ
ĠÐ¾ÑģÑĤÐ°Ð»Ð°ÑģÑĮ
ĠÐ³Ð¾ÑģÑĥÐ´Ð°ÑĢÑģÑĤÐ²ÐµÐ½Ð½Ð¾Ð¼
ĠÑģÐ¾Ð¾ÑĤÐ½Ð¾ÑĪ
ĠÑģÐ¸Ð¼ÑĦÐ¾Ð½
unt
ĠÑĥÐ½Ð¸Ð²ÐµÑĢÑģÐ¸ÑĤÐµÑĤÐ¾Ð²
ĠÑĥÐºÑĢÐ°Ð¸Ð½ÑģÐºÐ¾Ð³Ð¾
ĠÐ´ÐµÐ¿ÑĥÑĤÐ°ÑĤÑĭ
ĠÑģÐ¾ÑħÑĢÐ°Ð½Ð¸Ð»Ð¾ÑģÑĮ
ĠÐ¼Ð°ÑĢÑĪÐ°Ð»
ĠÐ¿ÑĢÐ¾Ð¶Ð¸Ð²Ð°ÐµÑĤ
ĠÐ¸Ð½ÑģÑĤÑĢÑĥÐ¼ÐµÐ½ÑĤÑĭ
ĠÐ½Ð°Ð¸Ð¼ÐµÐ½ÑĮ
ĠÑħÑĢÐ¾Ð¼Ð°ÑĤ
ĠÐ¼Ð°ÑĤÑĢÐ¸ÑĨÑĭ
ĠÐĿÐ°ÑĤÐ°Ð»ÑĮÑı
",
ax
Ð»Ð¸ÑĤÑĮ
ÑĢÐ°Ð´Ð¸
ÑĩÐ¾Ðº
ĠÐ¸ÑģÑģ
Ð¾ÑģÑĤÐ°ÑĤ
Ð¸Ð²ÑĪÐµÐ³Ð¾ÑģÑı
ĠÐĶÐ¾Ð³Ð¾Ð²Ð¾ÑĢ
Ġ78
ĠÐ²Ð¾Ð´Ñı
ÑĢÐ¾ÐºÐ°
ĠÐ°ÑĤÑĢÐ¸Ð±
ĠÐ¼Ð¾Ð¼ÐµÐ½ÑĤÑĥ
ĠÑģÑĥÑīÐµÑģÑĤÐ²Ð¾Ð²Ð°Ð»
ĠÐ¿Ð¾Ð½Ð¸Ð¼Ð°Ð½Ð¸Ðµ
ĠÐ¾ÑĤÐ¼ÐµÑĤÐ¸ÑĤÑĮ
ĠÐĹÐ²ÐµÐ·Ð´Ð°
ĠÐĺÑģÑģÐ»ÐµÐ´Ð¾Ð²Ð°Ð½Ð¸Ñı
ĠÐĽÐ¾Ð¼Ð¾Ð½Ð¾Ñģ
ĠÑĦÐ¸ÐºÑģÐ¸ÑĢÐ¾Ð²Ð°Ð½
ĠÐ¼ÑĥÐ»ÑĮÑĤÐ¸Ð¿
ĠÑģÐµÐ³Ð¾Ð´Ð½ÑıÑĪÐ½Ð¸Ð¹
ĠÐĿÐ°ÑĢÑıÐ´Ñĥ
Ð¾ÑĢÐ°Ð½
Ð´ÑĤÐ°
ÐµÐ½Ð¸ÑĢÐ¾Ð²
Ġ113
ĠÐ¾ÑĤÑĤÐµÐ½
ĠÐĵÐ¾Ð»Ð¾Ð²
ĠÑĢÐµÐ¾ÑĢÐ³Ð°Ð½Ð¸
ÑĢÐ°Ð·Ð²
1922
ÐľÐ°Ð»
ĠÑĢÐµÐ·Ð¾Ð»Ñİ
ĠÐ¼ÑĥÐ¶Ðµ
ĠÐ¼Ð¾Ð´ÐµÐ»ÐµÐ¹
ĠÑģÑĤÑĢÐ¾Ð¸ÑĤÐµÐ»ÑĮÐ½ÑĭÑħ
ĠÐ¾ÑĤÐ´ÐµÐ»ÑĮÐ½ÑĭÐ¹
Ð±ÐµÐ¶Ðµ
ĠÐļÐ°Ð·Ð°Ð½Ð¸
ĠÐºÐ°ÑĢÑĤÐ¸Ð½Ð°
ĠÐĺÑģÐ¼Ð°
ĠÐºÐ¾Ð½ÑĤÑĢÐ¾Ð»ÐµÐ¼
ĠÐ¡Ð¾Ð»Ð½ÑĨÐµ
ĠÐ§ÐµÐ»ÑıÐ±Ð¸Ð½
ÐºÐ²Ð°ÑĢÑĤÐ¸
ĠÐ¿Ð»Ñı
ÑĦÐ¸Ð¼
ĠÑĥÑĢ
ÑĥÑĤÐµ
ĠÐ¾Ð´Ð½Ð¸
ĠÐ£ÑģÑĤÐ°Ð²
ÑĥÑĪÐ°
ĠÐ¶Ð¸Ð²ÑĳÑĤ
ÑĮÐµÐ³Ð¾
ĠÐ¸Ð½ÑģÑĤÐ¸ÑĤÑĥÑĤÐµ
ĠÐŁÐ¾ÑĩÑĤÐ¸
ĠÑĤÑĢÐ°Ð½ÑģÐ¿Ð¾ÑĢÑĤÐ½ÑĭÑħ
ĠÐµÐ²ÑĢÐµÐ¹ÑģÐºÐ¾Ð³Ð¾
ĠÐ¼Ð¸ÑĤÑĢÐ¾Ð¿Ð¾Ð»Ð¸ÑĤ
Ð¾ÑĤÐ²Ð¾ÑĢÐ¸ÑĤÐµÐ»ÑĮ
ĠÐĶÐ¾ÐºÑĥÐ¼ÐµÐ½ÑĤ
ĠÐ¡ÑĤÑĢÐ¾Ð¸ÑĤÐµÐ»ÑĮÑģÑĤÐ²Ð¾
ĠÑģÐ½Ð°Ð±Ð¶
ĠÐłÐµÐ¶Ð¸ÑģÑģÑĳÑĢ
ĠÑįÐºÐ·ÐµÐ¼Ð¿Ð»ÑıÑĢÐ¾Ð²
NS
Ð±ÐµÑĤ
ĠÑģÑĤÑĢÑĥÐ½
ĠÐ¿ÐµÑĢÐµÐ¿Ð¸Ñģ
Ð°ÑĢÐ°Ñħ
ĠÐ²ÑĢÐµÐ¼ÐµÐ½Ð½ÑĭÑħ
ĠÐºÐ¾ÑĢÐ¾Ð½
ĠÐ¯Ð»
ÐĶÐ¸Ð½Ð°Ð¼Ð¾
ĠÐ¿Ð¾Ð²ÐµÑģÑĤÑĮ
Ð¿Ð¿Ð°
ĠÐĲÐ»ÑĮÐ±ÐµÑĢÑĤ
ĠÐ±ÑĢÐ¸ÑĤÐ°Ð½ÑģÐºÐ¾Ð³Ð¾
ÑģÑĤÑĢÐ¾Ð¹ÐºÐ°
ĠÐºÐ°ÑĤÐµÐ³Ð¾ÑĢÐ¸Ð¹
ĠÐ»ÐµÐ¶Ð°ÑĤ
ĠÐ°Ð±ÑģÐ¾Ð»ÑİÑĤÐ½Ð¾
ĠÐ¥Ð¾ÑĢÐ²Ð°ÑĤ
ĠÐ´ÑĭÑħÐ°Ð½Ð¸Ñı
ĠÑĦÐ¾ÑĤÐ¾Ð°Ð¿Ð¿Ð°ÑĢÐ°
Ð¿Ð¾Ð»ÐºÐ¾Ð²Ð½Ð¸Ðº
ĠÐ¿ÑĢÐµÐ´Ð²Ð¾Ð´Ð¸ÑĤÐµÐ»ÑĮ
aw
Ð¾ÑĢÐ¶
ÐµÑĢÐ´
ĠÐ¼Ð¾Ð±Ð¸Ð»Ð¸
Ð»ÑıÑĤ
ĠÐ¼Ð°ÑĢÐ¾Ðº
ĠÐ²Ð¿ÐµÑĢÑĳÐ´
ĠRFC
ĠÐºÑĢÐ°ÑģÐ¸Ð²
ÑģÐµÐ´Ð½ÐµÐ²
ĠÑĤÑĢÐ°Ð´Ð¸ÑĨÐ¸Ð¾Ð½Ð½ÑĭÑħ
ĠÐ±Ð»Ð°Ð³Ð¾ÑĢÐ¾Ð´
ĠÐ¿ÑĢÐ¾ÑĪÐ»Ð¾Ð³Ð¾
ĠÐ¿ÑĢÐ¾Ð¿ÑĥÑģÐº
ĠÐľÑĥÐ½Ð¸ÑĨÐ¸Ð¿
ĠÐ½ÐµÐ¸Ð·Ð±ÐµÐ¶
ĠÐ²Ð¸Ð´Ð°Ð¼Ð¸
ĠÐ¿ÑĢÐ¸ÑģÑĥÑĤÑģÑĤÐ²ÑĥÑİÑĤ
ĠÐĲÐ»ÐµÐºÑģÐµÐµÐ²
ÐµÑħÐ½Ð¸ÑĩÐµÑģÐºÐ¸Ð¹
ĠÑģÐµÑĢÐ´ÑĨÐµ
ĠÐ¿Ð¾Ð»ÐºÐ¾Ð²Ð½Ð¸Ðº
ĠÐ²Ð»Ð°ÑģÑĤÑıÐ¼Ð¸
ĠÐ°Ð²ÑģÑĤÑĢÐ°Ð»Ð¸Ð¹
ÑĢÑģÐºÐ¸Ð¹
ĠÐ½Ð°ÑģÑĤÐ°Ð²
ĠÐ¼Ð¾ÑĢÐµÐ¼
ĠÐ±ÑĢÐ¸
Ð¾ÑĤÑĢÐ°Ð½
ĠÐļÐ»Ðµ
ĠÐºÐ¾Ð½Ð²
ĠÑģÐ¾Ð±ÑģÑĤÐ²ÐµÐ½Ð½ÑĭÐ¹
ĠÐ²ÐµÐºÑĥ
ĠÐĺÐ·Ð½Ð°ÑĩÐ°Ð»ÑĮÐ½Ð¾
ĠÑĥÐ³Ð»Ð°
ĠÐ²Ð¾Ð»ÐµÐ¹
ĠÑĤÑĢÐ°Ð´Ð¸ÑĨÐ¸Ñı
ĠÑģÐ´ÐµÐ»Ð°Ð»Ð¸
ĠÐ¿ÑĢÐ¾Ð²ÐµÐ´ÐµÐ½Ð¸Ð¸
ĠÐĳÑĭÐ»Ð°
ĠÑĢÐµÐ³Ð¸Ð¾Ð½Ð°Ð»ÑĮÐ½ÑĭÑħ
ĠÐ¿Ð¾Ð½Ð¸Ð¼Ð°Ð½Ð¸Ñı
ĠÑģÐµÑĢÐ²Ð¸Ñģ
ĠÐ²ÑĭÐ¿ÑĥÑīÐµÐ½
ĠÐĴÐ¸ÑĪÐ½Ñĥ
ĠÐĲÑģÑĤÑĢÐ°Ñħ
res
ÑĹ
ÑıÐ¼Ð°
Ð¼ÑĥÐ´
Ð¼Ð°Ð½Ð¾Ð²
Ð´Ð·Ðµ
ĠÐļÐ»Ð¾Ð´
ÐŁÐ£
ĠÐ·Ð°Ð¿ÑĥÑī
Ġ73
ĠÑĩÐ°ÑģÑĤÐ¾ÑĤÐ°
ĠÐ¿ÑĢÐ¾Ð´Ð¾Ð»Ð¶Ð¸Ð»
ĠÑģÑĤÐ°ÑĢÐ¾Ð³Ð¾
ĠÐ²Ð·Ð°Ð¸Ð¼Ð¾Ð¾ÑĤ
ĠÐµÑģÑĤÐµÑģÑĤÐ²ÐµÐ½Ð½ÑĭÑħ
ĠÑĢÐµÐ´Ð°ÐºÑĨÐ¸Ð¸
ĠÐ¿ÑĢÐ¾ÑĤÐµÑģÑĤÐ°
ĠÐ²Ð¾Ð·Ð´ÑĥÑĪÐ½ÑĭÑħ
ĠÐ¾ÑĢÐ¸ÐµÐ½ÑĤÐ¸ÑĢÐ¾Ð²
ĠÑĥÐ³Ð»ÐµÐ²Ð¾Ð´Ð¾ÑĢÐ¾Ð´
AC
uro
ÑģÑĤÑıÐ¼Ð¸
ĠÐ¿Ð°Ð½Ðº
ĠÑĤÐ¾Ð¶Ð´Ðµ
ÑĨÐ¸Ð°Ð½
Ð¾ÐºÐ¸ÑģÐ»Ð¾ÑĤ
ĠÑĪÑĥÐ¼
ĠÐ£Ð²
ĠÐ¼Ð°ÑĤÐµÑĢÐ¸Ð¸
ĠÐ²Ð¾ÑģÑģÑĤÐ°Ð²
ĠÐ±ÐµÐ»ÑĭÐµ
ĠÐĹÐ°Ð¿Ð°Ð´Ð½Ð¾
ĠÑĥÐ¼ÐµÑĢÐµÐ½Ð½Ð¾
ĠÑģÑĤÑĥÐ´Ð¸Ð¸
ĠÐľÐ°Ð³Ð½Ð¸ÑĤ
ĠÐ¾Ð±Ð¾Ð·Ð½Ð°ÑĩÐ°ÐµÑĤÑģÑı
Ð¾ÑĦÐ¾ÑĢ
ĠÐ¸ÑĥÐ´Ð°
Ð°Ð½ÑĤÐµ
ĠÐ½Ð°ÑĢÑĥÐ¶
ĠÐ¾ÑĤÑĤ
Ð¸Ð»Ñİ
ĠÐĽÐ¾Ðº
ĠÐ¾Ð´Ð½Ð¾ÑĢÐ¾Ð´
ÑģÑĤÑĢÐµÐµ
ĠÑĢÐ¸ÑģÐ¾Ð²
ÐµÐ½Ð´Ð¸Ðº
ĠÐĴÐ¾Ð·Ð½Ð¸Ðº
ĠÐºÐ°Ð½Ð´Ð¸Ð´Ð°ÑĤÐ°
Ð½Ð¾Ð¿ÑĢÐ°Ð²
ĠÐ»ÐµÑĩÐµÐ±
ĠÐ´Ð·Ñİ
ĠÐ¿ÑĢÐ¾ÑģÑĮÐ±Ð¾Ð¹
ĠÐĽÐ¾Ð¼Ð¾Ð½Ð¾ÑģÐ¾Ð²Ð°
Î¼
ÑģÑĤÐµÑĢÐ°
ĠÐ¾ÑĩÐ¸
ĠÐ·Ð°Ð»Ðµ
ĠÑĨÐµÐ»Ð¸ÐºÐ¾Ð¼
ĠÐ£Ð±
ĠÐ¿ÐµÑĢÐµÑģÑĤ
ÑĢÐ¾Ð´ÐµÑĤ
ĠÐ²ÐµÑĢÑģÐ¸Ñİ
ÑıÑĤÐ¸Ð¸
ĠÑįÐ½ÑĤÑĢÐ¾Ð¿
ĠÐ²Ð¾Ð·Ð½Ð¸ÐºÐ»Ð¾
ĠÐ·Ð°Ð½Ð¸Ð¼Ð°Ð»Ð¸ÑģÑĮ
ĠÐºÐ¾ÑģÐ¼Ð¸ÑĩÐµÑģÐºÐ¾Ð¹
ĠÐ±Ð¾ÐµÐ²ÑĭÐµ
ĠÐ¿Ð¾ÑĢÑĤÑĢÐµÑĤ
ĠÐ¾Ð¿Ð¸ÑģÑĭÐ²Ð°ÐµÑĤÑģÑı
ĠInternational
ÑĦÐ¾ÑĢÐ°
Ð¾ÑĤÐ°Ð²
ĠÐĴÐ¸Ð·Ð°Ð½ÑĤÐ¸Ð¹
ĠÐ¡Ð°ÑĤ
ĠÐ¿ÑĢÐµÐ´ÑĪÐµÑģÑĤÐ²
1919
1929
ĠÐķÐ¶ÐµÐ³Ð¾Ð´
ĠÑĢÑĥÐ±ÐµÐ¶Ðµ
ĠÐ§ÐµÐ»Ð¾Ð²ÐµÐº
ÑģÑĤÑĥÐ¿Ð»ÐµÐ½Ð¸Ðµ
ĠÐ¼Ð°ÑĤÑĩÐµ
ĠÑģÐ¾ÑģÑĤÐ¾ÑıÐ»Ð°
ĠÐ¿ÑĢÐ¸Ð¼ÐµÐ½ÑıÑĤÑĮ
ĠÐ°ÑĤÐ°ÐºÐ¸
ame
ĠÐ¿ÑĢÐ¾Ð²ÐµÐ´ÐµÐ½Ñĭ
ĠÑįÐ»ÐµÐºÑĤÑĢÐ¾Ð½Ð½ÑĭÑħ
ĠÐºÐ¾ÑĢÐ¾Ð»ÐµÐ²Ñĭ
ÑĨÐµÐ½ÑĤÑĢ
ĠÐĲÑĢÐ¼ÐµÐ½Ð¸Ñı
Ð²Ð°Ð»ÑĮÐ´
ĠÐĸÑĥÐºÐ¾Ð²ÑģÐºÐ¸Ð¹
ĠÐĹÐ½Ð°Ð¼ÐµÐ½Ð¸
ĠÐĲÐ½Ð°ÑģÑĤÐ°
ĠÐ¿Ð»Ðµ
ĠÐ²Ð¸
ÐµÐ½ÐµÑĨ
ÑħÐ¾ÑĤÑı
ĠÐºÐ»Ð°
ĠÐ¿Ð¾Ð¸ÑģÐºÐ°
Ð¡Ð°Ð¼
Ð¾ÑĢÐ¸ÑģÑĤ
1950
ĠÐ¿ÑĢÐ°Ð²Ð°Ñħ
Ð¾ÑĪÐ»Ð¸
ĠÑįÐ»ÐµÐºÑĤÑĢÐ¾Ð½Ð°
ĠÐ»ÑİÐ±ÑĭÐµ
ĠÑįÐºÐ¾Ð½Ð¾Ð¼Ð¸ÑģÑĤ
ĠÑģÐ¸Ð½ÑĤÐµÑĤ
ĠÑģÐµÐ»ÑĮÑģÐºÐ¾Ðµ
ĠÑĨÐµÑĢÐºÐ¾Ð²ÑĮÑİ
ĠÐºÐ¾ÑĢÐ°Ð±Ð»Ðµ
Ð½Ð¾Ð³Ð»Ð°
ĠÐ¿ÑĢÐ¸Ð½Ð°Ð´Ð»ÐµÐ¶Ð½Ð¾ÑģÑĤÐ¸
ĠÐ³Ð¾Ð»Ð¾Ð²Ð½Ð¾Ð³Ð¾
ĠÐ¿ÑĢÐ¸Ð½Ð¸Ð¼Ð°Ð»Ð¸
ĠÑĥÐ¿Ð¾Ð¼Ð¸Ð½Ð°ÐµÑĤ
ĠÐ¾Ð¶Ð¸Ð´Ð°
ĠÐ²ÑĭÐ¿ÑĥÑīÐµÐ½Ð°
ĠÐ¾Ð±ÑģÐ»ÑĥÐ¶Ð¸Ð²Ð°Ð½Ð¸Ñı
ĠÐľÑĥÑĢÐ¼Ð°Ð½
Ð´Ð·Ð¸
ÐµÐ»Ð¸Ð¸
ĠÑģÑĤÐµÑĢÐµ
ÑģÐ¸ÑĢÑĥ
ĠÐĳÐ»
Ð¸ÑģÑĤÑĭÐµ
ĠÐ§ÐµÑĤ
ĠÐºÐ¾ÑĢÑĢÐµÐº
Ġ61
Ð¢ÑĢÐ¸
ĠÐ¿Ð¾ÐºÐ¾ÑĢ
ĠÑģÑĤÑĢÐ°ÑĤÐµ
Ġ87
ĠÐ·Ð°Ð¼ÐºÐ½ÑĥÑĤ
ĠÑģÑĥÐ´Ñĭ
ĠEr
ĠÐ½Ð°Ð¿Ð¸ÑģÐ°Ð½Ð¸Ñı
ĠÐ°ÑģÑĤÑĢ
ĠÐĿÐ°ÑĨÐ¸Ð¾Ð½Ð°Ð»ÑĮÐ½Ð°Ñı
ĠÐ¿ÑĢÐ¸ÑħÐ¾Ð´Ð°
ĠÐ»Ð°ÑĤÐ¸Ð½ÑģÐºÐ¾Ð³Ð¾
ĠÐ´Ð¾Ð³Ð¾Ð²Ð¾ÑĢÑĥ
ĠÐ¾Ð¿Ð°ÑģÐ½Ð¾ÑģÑĤÐ¸
ĠÐ»Ð¸Ð´ÐµÑĢÐ°
ĠÐ¿Ð¾Ð»ÑĳÑĤÐ¾Ð²
ĠÑģÐ¾ÑĤÑĢÑĥÐ´Ð½Ð¸ÑĩÐµÑģÑĤÐ²Ðµ
Ð¡Ð¿Ð°ÑĢÑĤÐ°Ðº
ka
ual
Ð´ÐµÑĢÐµÐ²
ÑĳÐ½Ð½Ð¾ÑģÑĤÑĮÑİ
ĠÐ¥Ð°Ð»
ĠÐ¿ÑĢÐ°Ð²Ð¸ÑĤÐµÐ»ÐµÐ¼
Ð¾Ð»Ð¾Ð³Ð¸ÑĩÐµÑģÐºÐ¾Ð¼
ĠÐ¨ÐµÐ»
ĠÐ½Ð°ÑģÐµÐºÐ¾Ð¼
ĠÑģÐºÐ°Ð½Ð´Ð¸Ð½Ð°Ð²
ĠÐ¸Ð¼ÐµÑı
ĠÑĤÐµÑħÐ½Ð¸ÐºÐµ
ĠÐ´Ð¾Ð»Ð¸Ð½Ðµ
ĠÑģÐ¸Ð¼Ð¿Ð°ÑĤ
ĠÐ´Ð¾Ð±ÑĢÐ°
ĠÐ²Ð½ÐµÐ·Ð°Ð¿
ĠÐ¾Ð±ÑĬÐµÐ´Ð¸Ð½ÐµÐ½Ñĭ
Ð°ÑīÐ¸ÑĤ
ĠÐºÐ°ÑĤÐ°Ð»Ð¸Ð·
ĠÐºÑĥÑĢÑģÐ°
ĠÐ»ÑĥÑĩÑĪÐ¸Ð¹
ĠÐ²ÑĭÐ¿Ð°Ð´Ð°ÐµÑĤ
ĠÐ¿Ð»Ð°ÑģÑĤ
ÑģÐµÐ¼ÐµÑģÑĤ
ĠÐ´Ð¸Ð°Ð»ÐµÐº
ĠÐ²ÑĭÑģÑĤÐ°Ð²ÐºÐ¸
ĠÐŁÑĢÐ°Ð²Ð¾ÑģÐ»Ð°Ð²Ð¸Ðµ
ĠÑģÐ¾ÑģÑĤÐ¾ÑıÑīÐ¸Ð¹
ĠÑĤÐ°Ð»Ð°Ð½ÑĤ
ĠÐŁÐ¾ÑģÐ¿Ð¾Ð»Ð¸ÑĤÐ¾Ð¹
ÑĢÐµÐ²Ðµ
Ð³Ð°Ð¼
ĠÐľÐ°Ð½Ð¸
ĠÐºÐ°ÐºÐ¾Ðµ
ĠÐ¾Ð´Ð½Ð¾Ð²ÑĢÐµÐ¼ÐµÐ½
ÑĦÐ¾ÑĢÐ¼Ð¸
ĠÐ¯Ð·ÑĭÐº
ĠÐ¡ÑĤÑįÐ½
ĠÐ¾Ð±ÑīÐµÑģÑĤÐ²ÐµÐ½Ð½Ð¾
ĠÑĥÐ¿Ð¾ÑĢ
ÑĢÐ¾ÐºÐ¸
ĠÑģÐ¿Ð¾ÑģÐ¾Ð±ÑģÑĤÐ²ÑĥÐµÑĤ
ĠÐ¿ÑĢÐ¸Ð¼ÐµÐ½ÐµÐ½Ð¸ÐµÐ¼
ĠÐ¿ÑĢÐ¾Ð²Ð¾Ð´Ð¸ÑĤ
ĠÐ¿ÑĢÐ¸Ð·Ð½Ð°Ð½Ð¸Ñı
ĠÐ·Ð°ÑıÐ²Ð»ÐµÐ½Ð¸Ðµ
ĠÐ·Ð½Ð°Ð½Ð¸Ðµ
ĠÐ¿ÑĢÐ¾Ð²Ð¾Ð·Ð³Ð»Ð°
ĠÐ±Ð¾Ð»ÐµÐ·Ð½ÑĮ
ĠÐ°ÑģÑĤÑĢÐ¾Ð½Ð¾Ð¼Ð¸Ð¸
ĠÐ¿ÐµÑĢÐµÐ¼ÐµÐ½Ð½ÑĭÑħ
ĠÐŁÑĥÑģÑĤÑĮ
XVII
ĠÐºÐ°Ð²Ð°Ð»ÐµÑĢÐ¸Ð¹
ĠÐ¿ÑĢÐ¾Ð²ÐµÑĢÐºÐ¸
ĠBeat
ĠÐ¤Ð»Ð°Ð²Ð¸Ð¹
Ð¸Ð°Ð½
ÑĥÐ³Ñĥ
Ð²ÑıÑĤÐ¾Ð¹
ÑģÑĤÐ¾Ñĩ
Ð³ÐµÐ½Ð¾Ð²
Ð½Ð¸Ð»Ð¾ÑģÑĮ
ĠÐŀÑĨÐµÐ½
ĠÑĪÐ¸Ð·Ð¾ÑĦ
ÐŁÐ°ÑĢ
ĠÐ»ÐµÑĤÐ¾Ð¿Ð¸ÑģÐ¸
ĠÐ²Ð¾ÑģÑħ
ĠÑĤÐµÑĢÑĢÐ¸ÑĤÐ¾ÑĢÐ¸ÐµÐ¹
ĠÐķÐ²ÑĢÐ¾Ñģ
Ð¼Ð¾Ð¶ÐµÑĤ
ĠÐ¿Ð¾ÑįÑĤÐ¾Ð²
ĠÐ¾ÑģÐ¾Ð±Ð¾Ðµ
ĠÐ¾ÑģÐ¾Ð±ÑĭÐ¹
ĠÐ¼ÐµÐ´Ð»ÐµÐ½Ð½Ð¾
1962
1965
ĠÐ¶Ð¸Ð²Ð¾ÑĤÐ½ÑĭÐµ
ĠÐ¼Ð°ÑģÑĤÐµÑĢÐ°
ĠÐĲÐ¼ÑĥÐ½Ð´
ĠÐºÐ»Ð°ÑģÑģÑĭ
ĠÐ²Ð¾Ð·Ð³Ð»Ð°Ð²Ð»ÑıÐ»
ĠÐºÐ¾Ð¶Ð¸
ĠÐ½ÐµÐ¿Ð¾Ð´Ð²Ð¸Ð¶
ĠÐ»Ð°Ð½Ð´ÑĪÐ°ÑĦ
ĠÐĴÐ¸ÐºÐ¸Ð¿
ĠÐ¡Ð²Ð¾Ð¹ÑģÑĤÐ²Ð°
ĠÐ±Ð¾Ð³Ð¾ÑģÐ»ÑĥÐ¶
ĠÐ½Ð°ÑģÐ¸
Ġ350
ĠÐ¿ÑĢÐµÐ´ÑģÑĤÐ°Ð²Ð»ÐµÐ½Ð¸Ð¹
ĠÐ¼Ð°ÑĢÑĤ
Ġ900
ĠÑģÐ¾Ð¾ÑĤÐ½Ð¾ÑĪÐµÐ½Ð¸Ðµ
ĠÐ¿ÑĢÐ¸Ð½ÑĥÐ´
ĠÐ´Ð¾Ð»Ð³Ð¾Ð²
Ð´ÐµÐ½Ð±ÑĥÑĢÐ³
ĠÐĲÐ»Ð»Ð°
ĠÐ¿ÑĢÐ¸ÑĢÐ¾Ð´Ð½Ð¾Ð³Ð¾
ĠÑģÐ¾ÑĩÐµÑĤÐ°
ĠOS
ĠÑĩÑĳÑĢÐ½Ð¾Ð¹
ĠÐĲÐ½Ð´ÑĢÐµÐµÐ²Ð¸Ñĩ
ĠÑģÐ¾Ð³Ð»Ð°ÑģÐ¸Ð»ÑģÑı
ĠÐ»Ð°Ð³ÐµÑĢÑĮ
ĠÐĽÑİÐ´Ð²Ð¸Ð³
ĠÐºÐ¸Ð½Ð¾ÑĤÐµÐ°ÑĤ
Ð¾Ð¿Ð¾Ð´Ð¾Ð±
ÑĤÐµÐ¹
Ð²Ð°Ð½Ð°
ĠÐ¿Ð¾Ð»Ð¸Ð³
ĠÑĤÐ°ÐºÑģÐ¸
ĠÑħÐ»Ðµ
ĠÐ·Ð°ÐºÐ°Ð½Ñĩ
ĠÑĢÑĭÐ±Ñĭ
ĠÐ¾ÑĦÐ¸ÑĨÐ¸Ð°Ð»ÑĮÐ½Ð¾Ð³Ð¾
ĠÐ¿Ð»ÐµÐ¼ÐµÐ½
1956
ĠÑĦÑĢÐ¾Ð½ÑĤÐµ
ĠÑĦÐ¾ÑĢÐ¼ÑĥÐ»Ð°
ĠÑģÐ²ÑıÐ·ÑĭÐ²Ð°ÑİÑĤ
ĠÑĢÐ°ÑģÑħÐ¾Ð´Ñĭ
ĠÑħÐ°Ð½ÑģÑĤÐ²Ð°
XVIII
ĠÐ¶Ð¸Ð»Ð¸Ñī
XIX
ĠÐ»Ð¸ÑĤÐµÑĢÐ°ÑĤÑĥÑĢÐ¾Ð²ÐµÐ´
ĠÑİÑģÑĤÐ¸ÑĨÐ¸Ð¸
ĠÐ²Ð¾ÑģÑĤ
ÑĩÑĳÐ²Ð°
ĠÐĶÐµÐ½
ÐĴÐµÐ½Ð³
ĠÑģÑĢÐµÐ´Ð½ÐµÐµ
ĠÐºÐ¾Ð»Ð»ÐµÐ³
ĠÐ´Ð¸ÑĦ
ÐµÑĢÐ³Ð¸Ñı
ĠÐ²Ð¾ÑģÐ¿ÑĢÐ¾Ð¸Ð·Ð²Ð¾Ð´
ĠÐļÐ¾Ð½ÑģÑĤÐ°Ð½
ĠÐĶÐ¶ÐµÐº
ĠÐ¼Ð½Ð¾Ð³Ð¾Ð¾Ð±ÑĢÐ°Ð·
ĠÑĥÑĩÐ°ÑģÑĤÐºÐµ
ĠÐ¾ÑħÐ»Ð°
ĠÐºÐ°ÑĤÐ¾Ð»Ð¸
ĠÐ¿Ð¾ÑĤÑĢÐµÐ±Ð¾Ð²
ĠÐ¼ÐµÐ»ÐºÐ¸Ðµ
ĠÐºÐ¸ÑĤÐ°Ð¹ÑģÐºÐ¾Ð¹
ĠÐ²ÑĭÐ¿Ð¾Ð»Ð½ÑıÐµÑĤÑģÑı
ĠÐ¸Ð·Ð»ÑĥÑĩÐµÐ½Ð¸Ðµ
ĠÑģÐ¾ÑĢÐµÐ²Ð½Ð¾Ð²Ð°Ð½Ð¸Ñı
ĠÐľÐ¾Ð¶Ð½Ð¾
ĠÐ£Ð¿ÑĢÐ°Ð²Ð»ÐµÐ½Ð¸Ðµ
nal
ĠÐ½Ð¾Ð¶
ĠÐ´Ð¾ÑĢ
ĠÐ½Ð°ÑĪ
ÐµÐ¼Ð±
ĠÐ¡Ð¾Ð´ÑĢÑĥÐ¶Ðµ
ĠÐľÐ°Ð·
ĠÐ¤ÐµÑĢÐ½
ÐµÑĢÐ¸Ð°Ð»
ÑģÐµÑı
ĠÐ¥Ð¾Ð´
Ð´Ð¸Ð³
ĠÐŀÐ´Ð½Ð¾
ÑĦÑĦÐµÐºÑĤ
ĠÐ¼ÐµÑĤÐ¾Ð´Ð°Ð¼Ð¸
ĠÐ¿Ð¾ÐºÐ°Ð·Ð°ÑĤÐµÐ»Ð¸
ĠÐ²Ð¾ÑģÑģÑĤÐ°Ð½Ð¾Ð²Ð¸ÑĤÑĮ
ĠÐ·Ð°Ð²ÐµÑĢÑĪÐµÐ½Ð¸Ñı
ĠÑģÑĤÑĥÐ´ÐµÐ½
ĠÐ¿ÑĢÐ°Ð²Ð¸Ð»Ð°Ð¼
ĠÐ´Ð¸ÑĢÐ¸Ð¶Ð°Ð±
ĠÐ±Ð¾Ð»ÑĮÑĪÐµÐ²Ð¸ÐºÐ¾Ð²
ien
iet
ĠÐĳÐ¾Ð´
ÑĥÐ¼Ñĥ
ÑĥÐºÑĢÐ°
ÑģÐ¾Ð²Ð°
ĠÐ¸ÑģÑĤÐ¾ÑĢÐ¸Ð¾Ð³ÑĢÐ°ÑĦÐ¸Ð¸
ĠÑĤÑĢÐ¸Ð±Ñĥ
ĠÐ¸Ð·Ð´Ð°Ð½
ĠÐ±Ð¸Ð¾Ð³ÑĢÐ°ÑĦ
ĠÑģÑĩÑĳÑĤÐ¾Ð¼
ĠÐĵÐ¸ÑĤÐ»ÐµÑĢÐ°
ĠÐłÐµÑĩÐ¸
ĠÐ³Ð¾ÑĢÐ¾Ð¶Ð°Ð½
Ð°Ð½Ð½Ð¾ÑģÑĤÑĮ
ĠÐ±Ð¸Ð»
ĠÐļÐ¸Ð½Ð³
ÐºÐ¾Ð²ÑģÐºÐ°Ñı
ĠÐķÐ½Ð¸
Ð»Ð¾ÑĪ
ÑĪÐµÐ±
ĠÑģÐ¾Ð·Ð´Ð°Ð½Ð½ÑĭÐ¹
ĠÑįÐ»ÐµÐºÑĤÑĢÐ¾Ð²
ĠÐºÑĢÑĥÐ¿Ð½ÑĭÐ¼Ð¸
ĠÑģÐ¾Ð¾ÑĤÐ²ÐµÑĤÑģÑĤÐ²ÑĥÑİÑĤ
ĠÐ¿ÑĢÑıÐ¼Ð¾Ð³Ð¾
ĠÑĥÐ·ÐµÐ»
ĠÐ²Ð½ÐµÑĪÐ½Ðµ
ĠÐ±Ð¾Ð»ÑĮÐ½Ð¸ÑĨÑĭ
ĠÐ³Ð¾Ð»Ð¾Ð²Ñĭ
ĠÐ¿ÑĢÐ¸Ð½ÑıÑĤÑĭ
ĠÑĢÐ°ÑģÑĤÐ²Ð¾ÑĢÐ¸Ð¼
Ð¾ÑĤÐµÐ·Ñĭ
ĠÐ¿Ð¸ÑīÐ¸
ĠÐ·Ð°ÑĢÐµÐ³Ð¸ÑģÑĤÑĢÐ¸ÑĢÐ¾Ð²Ð°Ð½
ĠÐ¼ÐµÐ´Ð°Ð»ÑĮÑİ
ĠÐ¡Ð¾Ð¿
ÐµÐ²Ð°ÐµÑĤ
ĠÐĵÐ¾ÑĢÐ°
ĠÐ¿Ð¾Ð´Ð´
Ġ76
ĠÐ¿ÐµÑĢÐ¸Ð¾Ð´Ñĭ
ĠÐ´Ð¾Ð»Ð¸Ð½Ñĭ
ĠÐ°Ð»Ð»
ĠÐĲÐ´Ð¾Ð»ÑĮÑĦ
ĠÐ½Ð¾ÑģÐ¸Ð»Ð¸
Ð¾Ð¿Ð°ÑģÐ½Ð¾ÑģÑĤÐ¸
ĠÑĢÐ°Ð±Ð¾ÑĩÐ¸Ðµ
ĠÐºÐ¾ÑĢÐ¾Ð»ÐµÐ²ÑģÐºÐ¾Ð¹
ĠÑĢÐ°Ð·Ð±Ð¸Ð»
ĠÐļÑĥÐ±Ð¾Ðº
ĠÐĿÐ¾Ð²Ð³Ð¾ÑĢÐ¾Ð´Ð°
ĠÑħÑĢÐ°Ð¼Ð¾Ð²
ĠÐĿÐ°Ð¿Ð¾Ð»ÐµÐ¾Ð½
ĠÐĳÐ°Ð»ÑĤÐ¸Ð¹ÑģÐºÐ¾Ð³Ð¾
ĠÐ¿ÑĥÐ½ÐºÑĤÐ°
ĠÑĢÐµÐ¹ÑĤÐ¸Ð½Ð³Ðµ
ĠÐ²ÑĭÐ¿ÑĥÑģÑĤÐ¸Ð»Ð°
Ð¿Ð¾Ð±ÑĢÐ°ÑĤÐ¸
Ð°ÑĢÐµÐ¹
ÐºÐ»Ñİ
ÐºÐ°ÑĤÐ¾Ð»
ĠÑĥÑĢÐµÐ³ÑĥÐ»Ð¸ÑĢÐ¾Ð²
ĠÐ¾ÑĤÐºÐ°Ð·ÑĭÐ²
ĠÐ¾ÑĤÐºÑĢÐ¾Ð²
ĠÐ»ÑĥÐ½
ĠÐ²Ð¾Ð·Ð²Ð¾Ð´
ÐļÐ¾Ñģ
ĠÐ´Ð²Ð¾ÑĢÐ°
ĠÐ¿Ð°ÑĢÐºÐµ
Ġ98
ĠÐļÐ¾Ð½ÑĦ
ĠÐĿÐ¾Ð²Ð¾
ĠÐ¿Ð¾ÑĩÐµÐ¼Ñĥ
ĠÐĲÐ²ÑĢÐ°
iter
ĠÐ¾ÐºÑĤÑıÐ±ÑĢÑĮ
ĠÐºÐ¸Ð½Ð¾ÑĦÐµÑģÑĤÐ¸
ĠÐ¾ÑĢÐ³Ð°Ð½Ð¸Ð·Ð°ÑĨÐ¸ÐµÐ¹
ĠÐ¿Ð¾Ð´Ð´ÐµÑĢÐ¶ÐºÐ¾Ð¹
ĠÐ²Ð°Ð¶Ð½ÑĭÐµ
ĠÐ·Ð°Ð²Ð¾Ð´Ð¾Ð²
ĠÐ¿Ð»Ð°ÑģÑĤÐ¸
ĠÑģÑĥÑīÐµÑģÑĤÐ²Ð¾Ð²Ð°Ð½Ð¸Ð¸
ĠÐ°Ð²ÑĤÐ¾Ð¼Ð¾Ð±Ð¸Ð»Ñı
ĠÑĩÑĳÑĢÐ½ÑĭÑħ
ĠÐĶÐ¾ÑģÑĤÐ¾Ð¿ÑĢÐ¸Ð¼ÐµÑĩÐ°ÑĤÐµÐ»ÑĮÐ½Ð¾ÑģÑĤÐ¸
ĠÐĵÐµÑĢÐ°ÐºÐ»
ĠÐľÑįÑĢÐ¸
ĠÑĢÑĥÐ±ÐµÐ¶Ð¾Ð¼
ĠÐ·ÑĢÐ¸ÑĤÐµÐ»ÐµÐ¹
ĠÐ¿ÑĢÐ¾Ð¼ÐµÐ¶ÑĥÑĤÐ¾Ñĩ
ĠÐĵÐ²Ð¸Ð½Ðµ
ÑĮÐ¸Ñħ
ÑħÑĢÐ¸ÑģÑĤÐ¸Ð°Ð½
Ð¿Ð°Ðº
Ð¾ÑĢÐº
Ð¸Ð½ÐºÐ¸
ĠÑĦÐ¾ÐºÑĥÑģ
ĠÐ½ÐµÐ¼ÑĨÑĭ
ĠÑįÐ»ÐµÐºÑĤÑĢÐ¾ÑĤ
ĠÑģÑĥÐ´Ð½Ð¾
ĠÑģÐ¸Ð»ÑĮÐ½ÑĭÐ¼
ÑĦÐ¸ÐºÐ°ÑĨÐ¸Ñİ
ĠÑģÐ¾ÑħÑĢÐ°Ð½ÐµÐ½Ð¸Ðµ
ĠÐ²ÑģÑĤÑĥÐ¿Ð¸Ð»Ð°
ĠÐ¾ÑĤÑģÑĥÑĤÑģÑĤÐ²Ð¸Ð¸
ĠÐ¿Ð°ÑĢÐ»Ð°Ð¼ÐµÐ½ÑĤÐµ
ĠÐŁÐ°ÑĢÐ¸Ð¶Ð°
ĠÐ£ÑĩÑĢÐµÐ´
ĠÐĲÐ´Ð¼Ð¸Ð½Ð¸ÑģÑĤÑĢÐ°ÑĤÐ¸Ð²Ð½Ð¾Ðµ
ĠÑĢÐµÐ¼Ð¾Ð½ÑĤ
Ġed
ĠÐ¡Ðµ
ĠÐ¡ÐµÑĢÐ°
Ð°ÑĢÐ½Ð¾Ðµ
ĠÑĢÐµÐ²
ĠÑĪÐ°ÑĪ
ĠÐ¸Ð½ÑĦÐ¾ÑĢÐ¼Ð°ÑĤ
Ð¿ÑĢÐ¸Ð½
ĠÑģÑĢÐµÐ´Ð½Ð¸Ðµ
ĠÐ¿ÑĢÐµÐ´ÑģÑĤÐ°Ð²Ð»ÐµÐ½Ð¾
ĠÐ¿Ð¾ÐºÐ¾Ð½Ñĩ
ĠÑįÐ½Ð´
ĠÐ¾ÑĩÐºÐ¾Ð²
ĠÑģÑĤÐ¾ÑĢÐ¾Ð½Ð½Ð¸ÐºÐ¸
ĠÑĥÑĤÐ²ÐµÑĢÐ¶Ð´ÐµÐ½Ð¸Ñı
ĠÐ¾ÑĤÐ²ÐµÑĤÑģÑĤÐ²ÐµÐ½Ð½Ð¾ÑģÑĤÐ¸
ÐºÐ»ÑİÑĩÐµÐ½Ð¸Ñı
ĠÐ¶ÐµÐ»ÐµÐ·Ð½Ð¾Ð´Ð¾ÑĢÐ¾Ð¶Ð½ÑĭÑħ
ĠÑĩÐ¸ÑģÑĤÐ¾
ĠÐ²Ð·Ð³Ð»ÑıÐ´Ð¾Ð²
ĠÐĴÐµÑĢÐ°
ĠÐŁÑıÑĤÐ¸
ĠÑĩÑĮÐ¸
Ð¸Ð»ÐµÐ³
ĠÐłÐ¾Ð³
Ð¾ÐµÐ³Ð¾
ĠÑģÐ¾Ð²ÐµÑī
ÐŁÐ¾Ð»
ĠÐ½Ð¾Ð²Ð³Ð¾ÑĢÐ¾Ð´
ĠÑĩÐ°ÑģÑĤÐ½ÑĭÐµ
ĠÑĢÐµÑĪÐµÐ½Ð¾
ÑĥÑģÑĤÐ¸ÑĤÑĮ
ĠÑģÐ¿ÐµÑĨÐ¸Ð°Ð»ÑĮÐ½ÑĭÐ¹
ĠÑĥÐ¼ÐµÐ½ÑĮÑĪÐ°ÐµÑĤÑģÑı
ĠÐŃÐ´Ð²Ð°ÑĢÐ´
ĠÐ¾ÑĢÐ³Ð°Ð½Ð°Ð¼Ð¸
ĠÑĢÑĥÐºÐ¾Ð¿Ð¸ÑģÐ¸
ĠÐŃÐ¹Ð½ÑĪÑĤÐµÐ¹Ð½Ð°
ĠÐ»Ð¾ÑĪÐ°Ð´ÐµÐ¹
ĠÑĦÐ¾ÑĤÐ¾Ð¼Ð¾Ð´ÐµÐ»ÑĮ
ÐºÐµÐ½
Ð°Ð½ÑģÐºÑĥÑİ
ĠÐ¼Ð°Ð¼
ĠÐ¾ÑĤÑĢÑĭÐ²
ĠÐ¿ÑĢÐ¸Ð¼Ð¸ÑĤÐ¸Ð²
ĠÐłÐµÐ¿
Ð°Ð±Ð¸Ð»ÑĮ
ĠÐ¿ÑĢÐµÐ´ÑģÑĤÐ°Ð²Ð¸ÑĤÑĮ
ĠÐ¸ÑģÐºÑĥÑģÑģÑĤÐ²ÐµÐ½Ð½Ð¾Ð³Ð¾
ĠÐ¼ÑĥÐ¶Ð°
ĠÐ¾Ð¿ÑĥÐ±Ð»Ð¸ÐºÐ¾Ð²Ð°Ð½Ñĭ
ĠÐ¼ÑĥÐ½Ð¸ÑĨÐ¸Ð¿Ð°Ð»ÑĮÐ½Ð¾Ðµ
ĠÐ»Ð¾Ð³Ð¸ÐºÐ¸
ĠÐ¿ÐµÑĢÐµÑģÐµÐºÐ°
ĠÐŃÐ´ÑĥÐ°ÑĢÐ´Ð°
ĠÏĦ
ĠÐ¼Ð°Ð³Ð¸ÑģÑĤÑĢÐ°Ð»ÑĮ
ĠÐŁÑĤÐ¾Ð»ÐµÐ¼ÐµÑı
ÑģÐµÐ½Ð°
ÐºÐ°Ð»Ð°
ÑĨÐºÐ°Ñı
ĠÐĴÐ·Ð°Ð¸Ð¼
ĠÑĦÑĢÐ°Ð·
Ð¸ÑģÑĤÑĭÑħ
ĠÑħÑĢÐ¸ÑģÑĤÐ¸
ĠÐºÐ¾ÑĢÑĢÑĥÐ¿
ĠÑİÑĢÐ¸ÑģÑĤ
ĠÐ¾ÑĢÐ³Ð°Ð½Ð¸ÑĩÐµÑģÐºÐ¸Ñħ
ĠÐµÐ´Ð¸Ð½ÑģÑĤÐ²ÐµÐ½Ð½Ð¾Ð¹
ĠÐ¾Ð¿ÐµÑĢÐ°ÑĨÐ¸Ñİ
Ð»Ð°ÑĪÐµÐ½Ð¸Ðµ
Ð°Ð½Ð³Ð»
ĠÐ¿Ð°Ð¼ÑıÑĤÐ½ÑĭÐµ
ĠÑĥÑģÐ»Ð¾Ð²Ð¸ÑıÐ¼
1977
ĠÐ´ÑĢÐ°Ð¼Ñĭ
ĠÐ°Ð¼Ð¼Ð¸
ĠÐ´ÐµÐ¼Ð¾Ð½ÑģÑĤÑĢÐ¸
ĠÐ³Ð²Ð°ÑĢÐ´Ð¸Ð¸
ĠÐĳÐ¾Ð¶Ð¸ÐµÐ¹
ĠÑĦÐ¾ÑĢÑĤÐµÐ¿Ð¸
ĠÐ´ÐµÐ´
ĠÐĴÑįÐ¹
ĠÐŁÐ°Ð´
ĠÐľÑģÑĤ
ĠÐ»ÐµÐ¿
ĠÑĦÐ°Ð»ÑĮ
ĠÐ±ÑĭÑģÑĤÑĢÐµÐµ
ĠÐĺÑĢÐ¸Ð½Ð°
Ð°ÑĤÑĮÐ¸
ĠÐ¥Ð°Ð·
ĠÑĢÐ°ÑģÐ¿ÑĢÐµÐ´ÐµÐ»ÐµÐ½Ð¸Ðµ
ĠÐ´Ð²Ð¾Ðµ
ĠÐ¼Ð¾Ð»Ð¾ÐºÐ°
ĠÐ¾ÑĩÐµÑĢ
ĠÐ¿ÑĢÐ°ÐºÑĤÐ¸ÐºÐ°
ĠÐ¿ÐµÑĢÐµÐ²Ð¾Ð´Ñĭ
ĠÐ¾Ð±Ð¾Ð·Ð½Ð°ÑĩÐ°ÐµÑĤ
ĠÐ·Ð°Ð²Ð¾Ð´Ñĭ
ĠÐĵÐ»Ð°Ð²Ð½ÑĭÐ¼
ĠÑĢÐ°Ð·Ð¼ÐµÑĢÐ¾Ð¼
ĠÐ²ÑģÐ¿ÑĭÑĪ
ĠÐ¢ÑĢÐ¾Ð¸ÑĨ
ĠÐºÐ¾Ð½ÐºÑĥÑĢÑģ
ĠÐĵÐµÐ½ÐµÑĢÐ°Ð»
ĠÐ¤ÑĢÐ°Ð½ÑĨÑĥÐ·ÑģÐºÐ¾Ð¹
ĠÐķÐºÐ°ÑĤÐµÑĢÐ¸Ð½Ð±ÑĥÑĢÐ³
ĠÐ¼Ð°Ð·
ĠÐĳÑĥÐº
ĠÐ¢ÑĮÑİ
ĠÐ¿Ð¾Ð´ÑĢÐ¾ÑģÑĤ
Ð½Ð¾Ð²ÑĭÑħ
ĠÐ¤Ð¾Ð¼
ĠÐ¿Ð¾ÑģÐ¾Ð»
ĠÐ¿Ð¾ÑģÐ»ÐµÐ´Ð½ÑıÑı
ĠÐĳÐ¾Ð³Ð´
1957
ĠÐ²Ð¾Ð·Ð²ÑĢÐ°ÑīÐµÐ½Ð¸Ð¸
ĠÐľÑĥÐ·ÑĭÐº
ĠÐ´Ð²Ð¸Ð³Ð°ÑĤÐµÐ»ÑĮ
ĠÐ¿ÑĢÐ¾Ð²Ð¾Ð·Ð³Ð»Ð°ÑĪÐµÐ½Ð°
ĠÐĴÑģÐµÐ²Ð¾Ð»Ð¾Ð´
ĠÐ²ÐµÐ³
ĠÐ¾ÑĦÐ¸Ñģ
Ð¾ÑģÑĤÐ°
ĠÑĦÐ°Ð½
ĠÐĿÐ¾Ñı
ĠÐĶÐ°Ð½Ð½ÑĭÐµ
Ð¡Ðŀ
ĠÐ¾ÑģÐ²ÑıÑī
ĠÑģÐ»ÑĭÑĪ
Ð»Ð¾Ð²Ð¾Ð¹
ĠÐ·Ð°Ð¼ÐºÐ°
ĠÐ¿Ð¾ÑģÑĤÑĢÐ¾Ð¸Ð»
1963
ĠÐºÑĥÐ»ÑĮÑĤÑĥÑĢÑĥ
ĠÐ¿Ð¾ÑıÑģÐ°
ÑĪÑĤÐ°Ð´ÑĤ
ĠÐ½Ð°Ð¹Ð´ÐµÐ½Ñĭ
ĠÐ²ÑĢÐ°Ð¶Ð´ÐµÐ±
ĠÐĳÐ»Ð°Ð³Ð¾Ð²ÐµÑī
ÑĢÐ¾Ð¶Ð´ÐµÐ½Ð¸Ðµ
ÑĤÐ¸Ð¿
ĠÐļÑĥÐ»ÑĮÑĤÑĥÑĢ
ĠÐĿÐĺÐĺ
ÑĥÐ¼ÑĥÐ»Ñı
ĠÑıÐ·ÑĭÐºÐ°Ð¼Ð¸
ĠÐŁÐ¾ÑħÐ¾Ð´
ĠÐ²Ð¸Ð´ÐµÑĤÑĮ
ĠÐ¡ÑĤÐ¾Ð»Ñĭ
ĠÐ½Ð°Ð·Ð²Ð°Ð»Ð¸
ark
ĠÐ¿Ð¸ÑģÐµÐ¼
ĠÐ²Ð»Ð°Ð´Ðµ
ĠÐ´ÐµÑĤÑģÐºÐ°Ñı
ĠÑĢÐ°Ð²Ð½Ð¸Ð½Ñĭ
ĠÐĵÐµÑĢÐ¼Ð°Ð½Ð¸Ñİ
ÑĭÐ²Ð°ÑĤÑĮÑģÑı
ĠÑĢÐ¾Ð¼Ð°Ð½Ð¾Ð²
ĠÐ½Ð°Ð·ÑĭÐ²Ð°Ð»ÑģÑı
ĠÐ³ÑĢÐ°ÑĦÐ¸Ðº
Ġ1858
ĠÐ°ÑĢÐ°Ð±ÑģÐºÐ¸Ñħ
ĠÐľÐ°ÑĢÐºÑģÐ°
ĠÐ¶Ð°Ð½ÑĢ
ĠÐŁÐ°Ð¼ÑıÑĤÐ½Ð¸ÐºÐ¸
ĠÐ²ÐµÑĩÐµÑĢ
ĠÐ£Ð½Ð¸Ð²ÐµÑĢÑģÐ¸ÑĤÐµÑĤÐ°
ĠÐºÐ¾Ð½ÑĦÐ¸Ð³Ñĥ
ĠÑįÑģÐ¿ÐµÑĢÐ°Ð½ÑĤÐ¾
Ð²Ð°ÑĢÑĮ
Ð¾Ð²Ñĭ
ÑĢÑĥÐº
ĠÐĵÐ¸
ĠÐ´Ð¾ÑģÐºÐ°
Ð´ÐµÐ»Ð°
ĠÐ¸ÑģÑĤÐ¾ÑĢÐ¸ÑĩÐµÑģÐºÐ¸
ĠÐ²Ð¾Ð´Ð½ÑĭÑħ
ĠÐ¾Ð¿ÑĢÐµÐ´ÐµÐ»ÐµÐ½Ð¸Ñİ
ĠÑĥÑĤÐ²ÐµÑĢÐ´
ĠÑĥÑĩÐ°ÑģÑĤÐºÐ¾Ð²
ĠÑĢÐ°Ð·ÑĢÐ°Ð±Ð¾ÑĤÐºÑĥ
ĠÐĹÐ°Ð¿Ð¾ÑĢÐ¾Ð¶
ĠÐĲÐ»ÑĮÑĦÐ¾Ð½
ĠÐ³ÑĢÐµÐºÐ¾Ð²
ĠÐŀÐºÑģ
ĠÐ´ÐµÐ²ÑıÑĤÐ¸
ĠÐĶÑĢÐµÐ²Ð½ÐµÐ³Ð¾
ĠÐ¿ÑĢÐ¸Ð´ÑĥÐ¼
ĠÐŁÐ°Ð²Ð»Ð¾Ð²Ð¸Ñĩ
ĠGoogle
ĠÐ¢Ð°ÑĤÑĮÑıÐ½Ð°
300
ĠÐ½Ð°ÑĪÐ¸
Ð¸Ð´ÐµÐ½Ð¸Ðµ
ÐłÐ¤
ĠÐ¾Ð±ÑĬÑĳÐ¼Ðµ
ĠÐ¡ÑĤÐ°ÑĤ
Ġ84
Ð¸ÑĢÑĥÑı
ĠÐ¾ÑģÐ¾Ð±Ð¾Ð³Ð¾
ĠÑģÑĩÐ¸ÑĤÐ°Ð»ÑģÑı
Ð§ÑĳÑĢ
ĠÐ¿ÑĢÐ¸Ð¼ÐµÑĢÐ¾Ð¼
1946
ĠÐ¾ÑĤÐ²ÐµÑĤÐ¸Ð»
Ð¾ÑĢÐ´Ð¸Ð½Ð°
ĠÐ½Ð°Ð·ÑĭÐ²Ð°ÑĤÑĮÑģÑı
ĠÐ°Ð¿Ð¿Ð°ÑĢÐ°ÑĤÐ¾Ð²
ĠÑıÐ´ÐµÑĢÐ½Ð¾Ð¹
ĠÐ²Ð·Ð³Ð»ÑıÐ´
ĠÑģÐ¾Ð³Ð»Ð°ÑģÐ¸Ñı
ĠÑģÐµÐ»ÑĮÑģÐºÐ¾ÑħÐ¾Ð·ÑıÐ¹ÑģÑĤÐ²ÐµÐ½Ð½ÑĭÑħ
ĠÐ³Ð»Ð°Ð³Ð¾Ð»Ð°
ĠÑĤÑıÐ¶Ðµ
ĠÑıÑģÐ½Ð¾
ÑĥÐ¶ÐµÐ±
ĠÐ¸ÑģÐºÐ¾Ð¿Ð°ÐµÐ¼ÑĭÑħ
ĠÐºÐ»Ð°Ð²Ð¸ÑĪ
ÐµÑĢÑģÐºÐ¾Ð³Ð¾
ĠÐ¡Ð¿Ð¸
ÑĥÐ´Ð¸
ĠÐ¿ÑĢÐ¾ÑĦÐ¸Ð»Ð°Ðº
ÐĲÐľ
ĠÐ´ÐµÑĪ
ÐĶÐ¾Ð¼
Ġ81
ĠÐĲÑĢÐºÐ°
ĠÐ¼Ð¸Ð³ÑĢÐ°
ĠÑĦÑĢÐ°Ð½ÑĨÑĥÐ·ÑģÐºÐ¾Ð¼
ĠÐ±Ð¸Ð¾ÑħÐ¸Ð¼Ð¸
Ġ1844
ĠÐ¿Ð¾Ð¿ÑĭÑĤÐ°Ð»ÑģÑı
ĠÐ±ÑĥÐºÐ²Ð°
ĠÐĶÐµÐ¼ÐµÑĤ
ĠÐºÐ¾Ð½ÑĨÐµÐ½ÑĤÑĢÐ°ÑĨÐ¸Ñı
ĠÐĳÐ¸Ð±Ð»Ð¸Ð¾Ð³ÑĢÐ°ÑĦÐ¸Ñı
ĠÐ¿ÑĢÐ¾Ð´Ð°Ð¶Ð¸
ĠÐºÑĢÐ¸ÑĤÐµÑĢÐ¸
ĠÐ³Ð¸Ð³Ð°Ð½ÑĤ
ÐµÐ¶Ðµ
Ð¾Ð»Ð¸ÑĤÐ°
ĠÐ¼Ð°Ð²
ĠÐ±Ð°Ð¹
ĠÐĴÐ¾ÑģÐºÑĢÐµÑģ
ÐµÐ»ÑĮÐ½Ð¾Ð³Ð¾
ĠÑįÐ¼Ð¿Ð¸ÑĢÐ¸
Ð¡Ð°Ð½
ĠÑģÐºÐ²ÐµÑĢ
ĠÐ»ÐµÑĤÐ¾Ð¿Ð¸Ñģ
ĠMan
ĠÑĥÐ³Ð¾Ð»ÑĮ
ĠÐºÐ°Ð½Ð°Ð»Ð¾Ð²
ĠÐŁÐ¾Ð´Ð´ÐµÑĢÐ¶
ĠÐłÑĥÑģÑģÐºÐ¾
ĠÑĤÐ¾ÑĢÐ³Ð¾Ð²Ð»Ðµ
ĠÑģÐ¾ÑĤÐµÐ½
ĠÐļÐ°Ð»ÑĥÐ¶
ĠÑģÐºÑĥÐ»ÑĮÐ¿ÑĤÑĥÑĢ
ĠÐ»ÑĳÐ³ÐºÐ¾Ð¹
ĠÐ¾ÑĢÑĥÐ´Ð¸Ð¹
ĠÐĶÐ¸Ð¾Ð½Ð¸Ñģ
SO
ĠÑĢÐ¾Ð²
Ð´Ð°ÑĢ
Ð±ÐµÑĢÐ¸
Ð°ÑĤÐ¾Ð¹
Ð¸Ð½Ðº
Ð¾ÑģÐ½Ð°Ð±
Ð»Ð°Ñĩ
ĠÑįÐ»Ð»Ð¸
Ð°Ð»ÑĮÑģÐºÐ¸Ð¹
ĠÑĢÐ°Ð·ÑĢÑĭÐ²
Ð¸Ð´Ð½ÑĭÐµ
ĠÐ¤ÑĢÐ¸
ÐļÐ°
ĠÐ¿Ð°ÑĢÑĥÑģ
ĠÐ¿ÑĢÐ¾Ð´Ð°Ð²
ĠÐĲÐ»ÐµÐºÑģÐ°Ð½Ð´ÑĢÐ¾Ð¼
ĠÑĢÐ°Ð½Ð½ÐµÐ¹
ĠÐ°Ð±ÑģÑĤÑĢÐ°ÐºÑĤ
ĠÐ¿ÑĢÐ¸Ð·Ð½Ð°ÑĤÑĮ
ĠÐºÑĥÑĢÑĦÑİÑĢ
ÑĩÐ¸ÐºÐ¾Ð¼
ĠÐĿÐ°ÑĨÐ¸Ð¾Ð½Ð°Ð»ÑĮÐ½ÑĭÐµ
ĠÐ¿ÑĢÐ¸ÑĩÐ¸Ð½Ð°Ð¼
ĠÐ¸Ð´ÑĥÑĤ
Ð¾Ð½Ð¸Ð¼Ñĭ
ĠÑģÐ¾Ð±ÑģÑĤÐ²ÐµÐ½Ð½ÑĥÑİ
Ã¼r
ĠÑģÐ¸Ð³Ð½Ð°Ð»Ð°
ÐŃÐ»ÐµÐºÑĤÑĢÐ¾Ð½Ð¸ÐºÐ°
cy
der
Ð¾ÑģÐ¾Ð±Ñĭ
ĠÐĽÐ¾ÑĤ
Ð¸Ð¹ÑģÐºÐ¸Ðµ
1923
ĠÑģÐ¾Ð±ÑĢÐ°Ð½
ĠPer
ĠÑģÑĭÑĢÑĮ
ĠÐ½Ð°Ð¿ÑĢÐ°Ð²Ð¸Ð»
ĠÐ¼Ð¾Ð´ÐµÑĢ
ĠÐ¿ÑĢÐ¾Ð´Ð¾Ð»Ð¶Ð°ÐµÑĤÑģÑı
ase
ĠÐĲÐ±ÑĢÐ°Ð¼
Ð»ÐµÑĢÐ¾Ð¼
1983
1978
ĠÐºÑĢÐ¸ÑĤÐ¸ÐºÑĥ
ĠÑĢÐµÐ°Ð»Ð¸Ð·Ð°ÑĨÐ¸Ñı
ĠÐ¼Ð°ÑģÑģÐ¾Ð²Ð¾Ð³Ð¾
ĠÐ²ÑĭÐ·Ð²Ð°ÑĤÑĮ
ĠÐ³Ð¾Ð»Ð¾Ð²Ñĥ
ĠÐļÐ¸ÐµÐ²ÑģÐºÐ¾Ð¹
ĠÐ¸ÑģÐ¿Ð¾Ð»Ð½ÐµÐ½Ð¸Ð¸
ĠÑģÐ¾ÐºÑĢÐ°ÑīÐµÐ½Ð¸Ðµ
ĠÑģÐ¿ÑĥÑĤÐ½Ð¸ÐºÐ°
ĠÑģÐ¾Ð³Ð»Ð°ÑģÐ½ÑĭÑħ
ĠÐºÐ°ÑĤÐ¾Ð»Ð¸ÑĩÐµÑģÐºÐ¾Ð¹
ĠÑįÐºÑģÐ¿Ð»ÑĥÐ°ÑĤ
ĠÐ»Ð°Ð³ÐµÑĢÑı
ĠÑģÑĤÐ°Ð½Ð´Ð°ÑĢÑĤÐ°
ÐĹÐ¾Ð»Ð¾ÑĤÐ°Ñı
ĠÐĵÐŀÐ¡Ð¢
ĠBeatles
form
Îº
ĠÐ¿ÑĥÐ»ÑĮ
Ð¶ÐµÐ½ÐµÑĢÐ°
ĠÐ½Ð°ÑĢÐµÑĩ
ĠÐĳÐ°ÑĢÑĤ
Ð¸Ð·Ð¼Ñĥ
Ð°ÑĤÐµÐ»ÑĮÐ½Ð¾Ð¼
ĠÐ¦Ð²ÐµÑĤ
ĠÐĲÑĢÑģ
ale
ĠÐĺÐ½Ð³ÑĥÑĪ
ĠÐ¾ÑģÐ¾Ð±Ð¾Ð¹
ĠÑĦÐ¸Ð»Ð¾ÑģÐ¾ÑĦÐ°
ĠÐ¼Ð°ÑĤÐµÐ¼Ð°ÑĤÐ¸ÐºÐµ
ĠÐ¾Ð±Ð½Ð°ÑĢÑĥÐ¶ÐµÐ½Ð¾
ĠÐĺÐ½Ð´Ð¸Ñı
1958
ĠÐ»Ð¾Ð³Ð°ÑĢÐ¸ÑĦ
ĠÐ¶ÐµÐ»ÐµÐ·Ð½Ð¾Ð´Ð¾ÑĢÐ¾Ð¶Ð½Ð¾Ð³Ð¾
ĠÐŁÐ¾Ð±ÐµÐ´
ĠÐ´ÐµÐ¼Ð¾ÐºÑĢÐ°ÑĤÐ¸Ð¸
ĠÑĢÐ°ÑģÑģÑĤÑĢÐ¾Ð¹ÑģÑĤÐ²Ð°
!Â».
120
ÐµÐ½ÑģÐºÐ¾Ð¼
Ð³ÑĢÑĥÐ·
ÐµÑĢÑĮÑİ
ĠÐĲÑĢÐ°
ĠÑĦÐµÐ½
ĠÐĵÐ¸Ð»
ÐµÐ»ÑıÐ¼
ĠÐºÐ¾ÑĢÐ¾Ð½Ð°
ÑĥÐºÐ¾Ð¼
ĠÐ¿ÑĢÐµÐ´ÑģÑĤÐ°Ð²Ð¸Ð»
Ð¾ÑħÐ¾Ð²
ĠÐ´Ð¾Ð¼Ð¾Ð¹
Ġ140
ĠÑĤÑĢÐ¸Ð´ÑĨ
ĠÑĢÑĥÐºÐ¾Ð²Ð¾Ð´Ð¸Ð»
ĠÑģÐ²Ð¾Ð±Ð¾Ð´Ð½ÑĭÑħ
ĠÐ»Ð¸Ð±ÐµÑĢÐ°
ĠÐ»Ð¸ÑĩÐ½Ð¾Ð¹
ÑįÐºÑģÐ¿
ĠÐ¿Ð¾ÐºÐ°Ð·ÑĭÐ²Ð°ÑİÑĤ
ĠÐ¾Ð²Ð»Ð°Ð´
ĠÐ¤Ð¸Ð·Ð¸ÐºÐ¾
ĠÐºÐ¾Ð¼Ð¿Ð¾Ð½ÐµÐ½ÑĤÑĭ
ĠÐķÐ²Ð³ÐµÐ½Ð¸Ñı
ĠÐ¾ÑĤÑĢÐ°ÑģÐ»ÑĮ
ĠÐĹÐ¸Ð¼Ð¾Ð¹
ĠÐĹÐµÐ²ÑģÐ°
Ð¶Ð°Ð½
ÑĤÐ¸Ð½Ð¾
ĠÐ¾Ð±ÑģÑĤÑĢÐµ
ĠÐ»Ð°Ð´
ĠÐ²Ð¾Ð¹Ð½Ð¾Ð¹
ĠÐ¿Ð¾Ð»ÑĥÑĩÐ°ÐµÑĤÑģÑı
ĠÐ¡ÑĤÐ°Ð½Ð´Ð°ÑĢÑĤ
ĠÑĢÐ°ÑģÑĩÑĳÑĤÐ°
ĠÑģÐ¾ÑģÑĤÐ¾ÑıÐ²
ĠÐ¾Ð±ÑīÑĥÑİ
ĠÐºÐ°Ð¼Ð½Ñı
ĠÐ¡ÐºÐ°Ð½Ð´Ð¸Ð½Ð°Ð²
ĠÐ¿ÑĢÐ¾Ð²Ð¾Ð´Ð¸Ð»
ĠÐ¾ÑģÑĤÐ°Ð²Ð°Ð»Ð¸ÑģÑĮ
ĠÐ±ÑĢÐ°ÑĤÐ¾Ð¼
ations
ĠÐ²Ð¾Ð·Ð²ÑĢÐ°ÑīÐ°ÐµÑĤÑģÑı
ĠÐ¿ÑĢÐ¾Ð¸ÑģÑħÐ¾Ð´Ð¸Ð»Ð¾
Ð»ÑĳÐº
ĠÑģÐ¾ÑĤÑĢÑĥÐ´Ð½Ð¸ÑĩÐµÑģÑĤÐ²Ð¾
ĠÐ¿ÑĢÐµÑĤÐµÐ½Ð·
ĠÐ¸Ð¼Ð¿ÐµÑĢÐ¸ÐµÐ¹
ĠÑģÐ²ÐµÐ´ÐµÐ½Ð¸Ð¹
ĠÐ¿ÑĢÐ¾Ð´ÐµÐ¼Ð¾Ð½ÑģÑĤÑĢÐ¸ÑĢÐ¾Ð²
TS
Ð»Ð²
Ð¿Ð¾ÑĢÑĤ
ÑĢÐ¸ÑģÐ¾Ð²
ĠÐĴÐ¾Ð»Ð¶
ĠÑģÑĤÐ¾ÑıÐ½
ĠÐĶÐ°Ð½Ð½ÑĭÐ¹
ĠÑģÐ¿Ð¾ÑģÐ¾Ð±Ñĭ
Ð·Ð°ÑĨÐ¸ÐµÐ¹
ÐŁÑĢÐµ
ÐĴÐ¡
ĠÐ¡ÑĤÐ°ÑĤÑĮÑı
ĠÑıÐ½ÑĤ
ĠÐ´Ð¾ÐºÐ°
ĠÐ³ÑĢÐµÑĩÐµÑģÐºÐ¸Ð¹
ĠÑĦÐ¾ÑĢÐ¼ÑĥÐ»Ñĭ
ĠÑģÐ¾ÑħÑĢÐ°Ð½ÑıÐµÑĤÑģÑı
ĠÐĹÐ°Ð¿Ð°Ð´Ðµ
ĠÐ´Ð¾ÐºÑĥÐ¼ÐµÐ½ÑĤÐ°Ñħ
ĠÐĽÐµÐ½Ð¸Ð½Ð³ÑĢÐ°Ð´Ðµ
ĠÐ½Ð°ÑģÐ»ÐµÐ´Ð¸Ðµ
ĠÑĤÐ°Ð±Ð»Ð¸ÑĨÑĭ
ĠÐ¸ÑģÑģÐ»ÐµÐ´
Ð»ÐµÑĤÐ°
ĠÑĩÐ¸Ð½
ĠÐ¢Ð¾ÑĤ
ÑĤÐ°ÑĨÐ¸Ñİ
ÑĢÐ°Ð½Ð¶
ĠÐ¿Ð¾Ð²ÐµÐ»
ÑĥÑĪÐµÐ½Ð¸Ðµ
ĠÐ¸Ð¼ÐµÑİÑīÐ¸Ð¹
ĠÐ´ÐµÐ¹ÑģÑĤÐ²ÑĥÑİÑīÐ¸Ñħ
ĠÐ¶ÐµÐ»Ð°Ð½Ð¸Ðµ
ĠÐķÐ²ÑĢÐ¾Ð¿Ð°
ĠÑĤÑĢÐµÑħ
ĠÐĴÑģÐµÑģÐ¾ÑİÐ·
ĠÐ¾ÑģÑĤÐ°Ð²Ð°ÑĤÑĮÑģÑı
ĠÐ¢ÐµÐ¼Ð¿ÐµÑĢÐ°
ĠÑħÑĥÐ´Ð¾Ð¶ÐµÑģÑĤÐ²ÐµÐ½Ð½ÑĭÑħ
Ġ1831
ĠÐŀÑģÑĤÑĢÐ¾Ð²Ð°
ĠÑģÑĥÐ±ÑĬÐµÐºÑĤÐ¸Ð²
ĠÐ¿Ð¾Ð´ÑĢÐ¾Ð±Ð½Ð¾
ĠÐľÐµÑħÐ°Ð½Ð¸
ĠÐļÐĿÐĶÐł
ĠÐ²ÑıÐ·
ĠÐ¾Ð»Ð¸
Ð»Ð°ÑģÑĤÐ¸
Ð¼Ð¸Ð»Ð»Ð¸
ĠÐ¿ÑĢÐ¸ÐºÑĢÑĭ
Ð°Ð¼ÐµÐ½ÑĤÐ°
ĠÐĶÐ¸Ð¼Ð¸ÑĤ
ĠÐ¢Ð±Ð¸Ð»Ð¸
ÐµÑģÐ¾Ð¼
Ð³Ð°ÐµÑĤ
ĠÐ¿Ð¾Ð»ÑĥÑĩÐ°Ð»Ð¸
ĠÐ®Ð»Ð¸Ð¹
Ð³Ð¾Ð²Ð¾Ð¹
ĠÐ¿Ð¾Ð¿ÐµÑĢÐµ
ĠÑĢÐµÑĪÐ¸Ð»Ð¸
ĠÐĿÐ¾Ð²ÑĭÐµ
ĠÑĥÐ³Ð»ÑĥÐ±
ĠÑĥÑģÑĤÐ°Ð½Ð¾Ð²Ð»ÐµÐ½Ð¸Ñı
ÑĢÐµÑģÑģÐ¸Ð¸
ĠÑģÑħÐµÐ¼Ñĭ
ÑĩÐ°ÑģÑĤÐ»Ð¸Ð²
ĠÐ±Ð¾Ð»ÐµÐ·Ð½ÐµÐ¹
ĠÐĲÑħÐ¼Ð°ÑĤ
Ð»ÑĳÐ²Ð°
ĠÐ¼Ð¾ÑģÐºÐ¾Ð²ÑģÐºÐ¾Ð³Ð¾
ĠÐŁÑĢÐ¸Ð¼ÐµÑĢÐ½Ð¾
ĠÐ¼Ð¸ÐºÑĢÐ¾ÑĢÐ°Ð¹
ĠÐ¾Ð±ÑĭÑĩÐ°
Ð¼ÑĥÐ·ÑĭÐºÐ°Ð½
ĠÐĿÐļÐĴÐĶ
ÑĦÑĢÐ°Ð½ÑĨÑĥÐ·
ĠÐĺÐ½ÑĤÐµÑĢÐµÑģ
ÐºÐ¾ÑģÑĤÑĮÑİ
ĠÐľÐ¾Ñģ
Ð³Ð¾ÑĨÐµÐ½
ÑĢÐ¾Ð¿Ð°Ð²Ð»Ð¾Ð²
ÐĵÐ°Ð·
ĠFran
ĠÑĢÐ°ÑģÑģÑĥÐ¶Ð´
Ġpro
ĠUT
ĠÐ¾ÑĢÑĥÐ¶Ð¸ÐµÐ¼
ĠÐ¡Ð¾Ð²ÑĢÐµÐ¼ÐµÐ½Ð½Ð°Ñı
ĠÐŁÐ¾Ð²Ð¾Ð»Ð¶
ĠÑĢÑĥÐºÐ¾Ð¿Ð¸Ñģ
ĠÐ¡Ð¾Ð·Ð´Ð°Ð½Ð¸Ðµ
ĠÐµÐ´Ð²Ð°
ĠÐĳÐ¾Ð³Ð¾ÑĢÐ¾Ð´Ð¸ÑĨÑĭ
MS
Ð²Ð¸Ñĩ
ÑĭÑģÐº
Ð¾Ð±ÑħÐ¾Ð´Ð¸Ð¼
ÑĢÐµÐ´ÐµÐ»Ñı
ĠÐĳÐµÑģ
Ð¸ÑĩÐ½Ð¾Ðµ
ĠÐ°Ð½Ð°Ð»Ð¾Ð³Ð¾Ð²
ĠÑįÐºÑĢÐ°Ð½Ð¸
ĠÐ·Ð°Ð¿ÑĥÑģÐºÐ°
Ġ105
Ð¸Ð³ÑĢ
ĠÑĢÐ¸Ñģ
ĠÐ¿ÑĢÐ¸Ð½ÑıÑĤÐ¸Ðµ
ĠÑģÐ¾Ð´ÐµÑĢÐ¶Ð°Ð½Ð¸ÐµÐ¼
ĠÐºÐ¾Ð¼Ð°Ð½Ð´Ñĥ
ĠÐ¾ÑĦÐ¸ÑĨÐ¸Ð°Ð»ÑĮÐ½Ð¾Ðµ
ĠÐ±Ð¸Ð¾Ð³ÑĢÐ°ÑĦÐ¸Ð¸
ĠÐ½Ð¾ÑģÐ¸ÑĤÐµÐ»ÐµÐ¹
ĠÐ»Ð¸ÑĤÐµÑĢÐ°ÑĤÑĥÑĢÐ½ÑĭÑħ
ĠÑĢÐ°Ð·Ð´ÑĢÐ°Ð¶
ĠÐ°ÑĢÐ¼ÑıÐ½ÑģÐºÐ¾Ð³Ð¾
Ð±Ð¾Ð»ÑĮÐ½ÑĭÐ¹
ĠÐĿÐ¾Ð²Ð³Ð¾ÑĢÐ¾Ð´Ðµ
ĠÐ²ÑĭÑģÐ¾ÑĤÑĥ
ĠÐķÐ»Ð¸Ð·Ð°Ð²ÐµÑĤÑĭ
ĠÐ¢ÑĢÐµÑĤÑĮÑı
ÑĢÐµÑģÐ°
ĠÐ¡ÐµÑĢÐ¸Ñı
ĠÐľÐ¾ÑĨ
ĠÐ¿ÐµÑĢÐµÐºÑĢÑĭ
ĠÐ¨Ð¸
Ġ101
ĠÑģÐµÐºÑĤÐ¾ÑĢ
ĠÐ²ÐµÑĩÐµ
ĠÐ¡Ð¿ÐµÑĨÐ¸Ð°Ð»ÑĮ
ĠÐ¿ÑĢÐµÐºÑĢÐ°ÑĤ
ĠÐ¿Ð»Ð°ÑĤÐµÐ¶
ĠÐ´Ð¾ÑģÑĤÐ¸Ð³Ð½ÑĥÑĤ
ĠÐ¸Ð½ÑģÑĤÐ¸ÑĤÑĥÑĤÐ¾Ð²
ĠÑģÐ¸ÑĤÑĥÐ°ÑĨÐ¸Ñİ
ĠÑģÑĥÑīÐ½Ð¾ÑģÑĤÐ¸
oz
Ð°ÑĢÑģÐºÐ¸Ñħ
ĠÐ¿ÑĢÐ¸ÑħÐ¾Ð´Ð¸ÑĤ
ĠÑĦÐ°Ð·Ñĭ
ĠÐ¤ÐµÐ»Ð¸Ðº
ĠÐĹÐ°Ð´
ĠÐ¾Ð±ÑĢÐ°Ð·ÑĥÑı
ĠÑģÐ¾Ð²ÐµÑĤÑģÐºÐ¾
Ġ77
ĠÐ¿Ð¾Ð»Ð¸ÑĤÐ¸ÑĩÐµÑģÐºÑĥÑİ
ata
ĠÐ·Ð²Ð¾Ð½
ĠDV
ĠÐ¸Ð³ÑĢÑĥ
ĠÑĢÐ°Ð²Ð½Ð¾Ð¼ÐµÑĢ
ĠEm
ĠÐºÐ¾ÑģÐ²
ĠÑĨÐµÐ»ÑĭÑħ
ĠÐºÑĢÐ°ÑģÐ½ÑĭÐ¹
ĠÑĦÐµÐ´ÐµÑĢÐ°Ð»ÑĮÐ½ÑĭÑħ
ĠÐ»Ð¸Ð´ÐµÑĢÐ¾Ð¼
ĠÑģÐ¾Ð¿ÑĢÐ¾Ð²Ð¾Ð¶Ð´Ð°
ĠÑģÑĢÐµÐ´Ð½ÐµÐ²ÐµÐºÐ¾Ð²Ð¾Ð¹
ĠComm
ÐĴÐ¾ÑģÑĤÐ¾ÑĩÐ½Ð¾Ð¹
ĠÐļÐ¾Ð¼Ð¸ÑĤÐµÑĤ
ĠÑįÑģÑģÐµ
ĠÐ½Ð°ÑĨÐ¸ÑģÑĤÑģÐºÐ¾Ð¹
ĠÑģÑĨÐµÐ½Ñĭ
ĠÐ·Ð²ÑĳÐ·Ð´Ñĭ
ĠÑĢÐµÑĦÐµÑĢÐµÐ½Ð´ÑĥÐ¼
ĠÐ¾ÑĩÐ°
ĠÐ½Ð°ÑĨÐ¸Ð¸
ÑĦÐ¸Ð¸
ĠÐŀÐ»
ÐµÑĢÐµÑĤ
ĠÑĨÐµÐ½Ð½Ð¾ÑģÑĤÐ¸
Ð·Ð°Ñī
Ð»Ð¾Ð²ÑĭÑħ
ĠÐ¯Ð¼
ĠÐ¯Ð½Ñĥ
ĠÐ¿Ð¾Ð²ÑģÐµÐ´Ð½ÐµÐ²
ÐĵÐµÑĢÐ¼
Ð½Ð¾ÑģÑĤÐ¾ÑĢÐ¾Ð½
Ð°ÑĥÑįÑĢ
ĠÑģÑĢÐ¾ÐºÐ¾Ð¼
Ð½Ð°Ð´ÑĨÐ°ÑĤÐ¸
ĠÐĵÑĢÐ¸Ð³Ð¾ÑĢÐ¸Ñı
ĠÐ±ÑĢÐ°ÑĤÑĮÑı
ĠÐ¼Ð°ÑĢÐºÑģÐ¸
ĠÑĢÐµÐ³Ð¸ÑģÑĤÑĢÐ°ÑĨÐ¸Ð¸
ĠÐļÐ¾ÑĢÐ½ÐµÐ»Ð¸Ð¹
Ð¿ÑĥÑģÑĤÑı
ĠÑħÐ¸ÑĢÑĥÑĢÐ³
ĠÐ¡ÑĥÐ²Ð¾ÑĢÐ¾Ð²
ĠÐ°Ð½ÑĤÐ¸Ð´ÐµÐ¿ÑĢÐµÑģÑģ
TV
ÑģÑĳ
Ð³ÐµÑĢÐ¼
ĠÐ´Ð»
ĠÐ´ÐµÐ·
ĠÐ±Ð°Ð¹ÑĤ
ÑģÐ¿ÐµÐºÑĤ
ĠÐĺÐ³ÑĢÐ°
ĠÑĢÐ°Ð·Ð±Ð¸ÑĤ
ĠÑģÐ»ÑĥÐ¶ÐµÐ±
ĠÑĪÑĥÑĤ
ĠÐ±Ð¾Ð»ÑĮÑĪÐµÐµ
ĠÐ¤ÑĢÐ°Ð½ÑĨÐ¸Ñİ
ĠÑģÐ¿Ð¾ÑģÐ¾Ð±Ð¾Ð²
ĠNet
ĠÐ·Ð½Ð°ÑĩÐ¸ÑĤÐµÐ»ÑĮÐ½Ð°Ñı
ĠÐĽÐµÐ¾Ð½Ð°ÑĢÐ´Ð¾
ĠÐ³Ð°Ð»ÐµÑĢÐµ
Ð³ÑĢÑĥÐ¿Ð¿Ð°
ĠÑĢÐ°Ð·Ð²Ð¸Ð²Ð°ÑĤÑĮÑģÑı
ĠÑģÐ¾Ð´ÐµÑĢÐ¶Ð°ÑīÐ¸Ðµ
ĠÐŁÐµÑĤÑĢÐ¾Ð³ÑĢÐ°
ĠÐĲÑģÑģÐ°Ð¼Ð±Ð»Ðµ
ĠÐ¡Ð¾Ð»Ð¾Ð²ÑĮÑĳÐ²
Ð³ÐµÐ¹
ĠÐĴÐ°Ð¹
Ð¸Ð¹ÑģÐºÐ¾Ð¼
ÑĢÐ°Ð·Ð²ÐµÐ´
ĠÐ¾Ð´Ð½Ð¾Ðº
ÐŁÐµÑģ
ĠÐºÐ¾Ð¼Ð¿ÐµÐ½ÑģÐ°
ÑĥÑģÑĤÐ¾Ð¹ÑĩÐ¸Ð²
ĠÐ²ÑĭÑģÑĤÑĥÐ¿Ð°ÑİÑĤ
ĠÐ¾ÑģÑĤÐ°Ð²Ð°Ð»Ð°ÑģÑĮ
ĠÑĤÐ°Ð¼Ð¾Ð¶
ĠÑĥÑĩÐµÐ±Ð½ÑĭÐµ
ode
ĠÐºÐ¾Ð½ÑģÑĤÑĢÑĥÐºÑĨÐ¸Ð¹
ĠÑĤÑİÑĢÐµÐ¼
ĠÑĦÐ¸Ð»Ð¾Ð»Ð¾Ð³
ÑĩÐµÑĢÐºÐ¸
ĠÐ½ÐµÐ´Ð°Ð²Ð½Ð¾
ĠÐĺÐ½Ð´Ð¾Ð½ÐµÐ·Ð¸Ð¸
ÑĢÐµÐ½Ð¸Ð¸
Ð¾Ð´Ð¸Ð½
ĠÑĩÐµÑĢÐ²
ĠÐ¿Ð¾ÐµÐ·Ð´Ð¾Ð²
Ð½ÑıÐµÑĤÑģÑı
1925
ĠÐĹÐ°Ð»
ĠÑĥÑĩÐ°ÑģÑĤÐ²ÑĥÐµÑĤ
ise
ĠÐ¾Ð¿ÐµÑĢÐ°ÑĨÐ¸Ð¾Ð½Ð½Ð¾Ð¹
ĠÑģÑĤÐ°ÑĢÑĪÐµÐ³Ð¾
ĠÑĥÑĤÐ²ÐµÑĢÐ´Ð¸Ð»
ĠÑĨÐµÐ»Ð¾Ðµ
ĠÐ¿ÐµÑģÐ½Ñİ
ĠÐ²ÐµÐ»Ð¸ÑĩÐ°Ð¹
ĠÐ¿ÑĢÐ¾ÑĦÐµÑģÑģÐ¸Ð¾Ð½Ð°Ð»ÑĮÐ½Ð¾Ð³Ð¾
ĠÑįÑĦÑĦÐµÐºÑĤÐ¸Ð²Ð½Ð¾ÑģÑĤÐ¸
ĠÐĲÐ´Ð¼Ð¸Ð½Ð¸ÑģÑĤÑĢÐ°ÑĤÐ¸Ð²Ð½ÑĭÐ¹
ĠÑĨÐµÐ½Ð½Ð¾ÑģÑĤÐµÐ¹
Ð»Ð¾Ð½Ð¾Ð²
ĠÑģÐ½Ð°
Ð±Ð°Ð´
ÐµÑĢÑģÐºÐ°Ñı
ĠÐ³Ð»Ð°Ð´
ĠÐ³ÑĢÑĥÐ´
ĠÐĲÐ³Ð°
ĠÑĦÐ°ÑĢÐ°
ĠÐ¿ÑĢÐµÑĢ
ĠÐ¿ÑĢÐ°Ð²Ð¾Ð¹
ĠÐŁÑĢÐ¸Ð½Ñı
ĠÐ®Ð¿
ĠÑģÐ¿Ð¾ÑģÐ¾Ð±ÐµÐ½
ĠÐ¿ÑĢÐ¸Ð¼ÐµÐ½ÑıÑĤÑĮÑģÑı
ĠÑħÐ¾ÑĢÐ¾
ĠÐ²ÐµÐ»Ð¸ÑĩÐ¸Ð½
ĠÐļÑĢÐ¸ÑĤÐ¸ÐºÐ°
ĠÐ¼Ð¾ÑĤÐ¸Ð²Ð°Ð¼
ĠÐľÐµÐ½Ð´ÐµÐ»ÐµÐµÐ²
ĠÐ¿Ð¾ÑĤÐµÑĢÐ¿ÐµÐ»
Ð¿ÑĢÐ¾Ð²Ð¾Ð´
Ð¿ÐµÐ½Ð´Ð¸Ðº
Ð°Ð»Ñĳ
ĠÐ·Ð¾Ð½Ñĥ
ĠÐ¿ÑĢÐ¾ÑĢÑĭ
ĠÐ²ÑĭÐ¹ÑĤÐ¸
ĠÐ³Ð¾ÑĢÐ¾Ð´ÑģÐºÐ¾Ðµ
ĠÑģÐ¾Ð²Ð¼ÐµÑģÑĤÐ¸Ð¼
ĠÐ¿ÐµÑĢÐµÐ´Ð°Ð½Ñĭ
ÐĽÑĥÑĩ
ĠÑģÑĤÑĢÐ¾ÐµÐ½Ð¸Ðµ
ĠÐ°Ð½ÑĤÐ¸ÑĩÐ½Ð¾Ð¹
ĠÐ½Ð°ÑĨÐ¸Ð¾Ð½Ð°Ð»ÑĮÐ½ÑĭÐµ
ĠÐ¿Ð¾Ð·Ð´Ð½ÐµÐ¹
ĠÐ·Ð°Ð´Ð°ÑĩÑĥ
ĠÐ¿Ð¾Ð¿ÑĥÐ»ÑıÑĢÐ½ÑĭÐ¼
ĠÐļÐ°Ð¼ÑĩÐ°ÑĤ
ĠÑģÑĤÐ°ÑĤÑĥÑģÐ¾Ð¼
ĠÐłÐ¾Ð±ÐµÑĢ
ĠÐ°Ð²ÑĤÐ¾Ð½Ð¾Ð¼Ð½Ð¾Ð³Ð¾
ĠÑħÑĢÐ°Ð¼Ñĭ
ĠÐĿÐµÐ¼ÐµÑĨ
ĠÐ°ÑĢÑĤÐ¸Ð»Ð»ÐµÑĢÐ¸Ð¸
ĠÐĴÑĢÐµÐ¼ÐµÐ½Ð½Ð¾Ð³Ð¾
Ð¸Ð²ÑĪÐ°ÑıÑģÑı
ĠÐ·ÐµÐ¼Ð»ÐµÑĤÑĢÑıÑģÐµÐ½Ð¸Ðµ
ĠÐ½ÑĥÐºÐ»Ðµ
ĠÐĹÐ°ÑģÐ»ÑĥÐ¶ÐµÐ½Ð½ÑĭÐ¹
her
iel
ĠÑģÑģÑĭÐ»ÐºÐ¸
ĠÐ¡Ð¿ÑĥÑģÑĤÑı
ĠÐ´ÑĢÑĥÐ³Ð¾Ð¼Ñĥ
ĠÐ¿Ð»Ð°Ð½Ð¾Ð²
ĠÐ³Ð»Ð°Ð²Ð½ÑĭÐµ
ĠÐ±ÑĥÐ´ÑĤÐ¾
ĠÑģÑĭÐ½Ñĥ
ĠÐ¼ÐµÐ´Ð²ÐµÐ´
ĠÐ´Ð²Ð¸Ð¶ÐµÐ½Ð¸ÐµÐ¼
ĠÑģÐµÐ»ÑĮÑģÐ¾Ð²ÐµÑĤ
ĠÑĤÐµÐ¾ÑĢÐ¸Ð¹
ĠÐ¾ÑĤÐ¿ÑĢÐ°Ð²Ð»ÐµÐ½
ĠÐ·Ð°Ð±Ð°ÑģÑĤÐ¾Ð²
ĠÑĥÐ¿Ð¾ÑĤÑĢÐµÐ±Ð»ÑıÐµÑĤÑģÑı
Ð»ÐµÐ±ÐµÐ¹
ĠÐ¿ÐµÑĩÐµÐ½Ð¸
ĠÐ²ÑĭÐ¿Ð¾Ð»Ð½ÑıÐµÑĤ
ĠÐ¿Ð¾ÑĤÐµÐ½ÑĨÐ¸Ð°Ð»
ĠÐµÐ¿Ð°ÑĢÑħÐ¸Ð¸
ĠÐºÐ°Ð·Ð½ÑĳÐ½
ĠÐ¿ÑĢÐ¾ÑĤÐµÐºÐ°ÐµÑĤ
ÑĩÐ¾
ĠÑģÐ¸Ð½Ð°
ÑİÐ·Ð¾Ð²
ÐµÑĤÑĢÐ°Ð¶
ĠÐŁÐ¾Ð»Ð¾
ĠÑĢÐ°ÑģÐ¾Ð²
ĠÐĿÐ°Ðº
Ð¸ÑģÑĤÐ¾Ð¹
ĠÐ¾Ð¿Ð»Ð°ÑĤÑĭ
ĠÐ¨Ð²ÐµÐ´
ÑıÐ½Ñĥ
ĠBer
ĠÐĳÐµÐ»Ð¾Ð³Ð¾
ĠÑĤÑĢÐ°Ð´Ð¸ÑĨÐ¸Ð¾Ð½Ð½Ð¾Ð¹
ĠÐ²ÑĭÑħÐ¾Ð´Ðµ
ĠÐ¢ÐµÐ¾ÑĢÐµÐ¼Ð°
ĠÐºÑĢÐ¾Ð²ÑĮ
ĠÐ²ÑĭÐ¿Ð¾Ð»Ð½ÐµÐ½Ð¸Ðµ
ĠÐ°Ð¼ÑĦ
ĠÐŀÐ¿ÑĢÐµÐ´ÐµÐ»ÐµÐ½Ð¸Ðµ
ĠÑĢÐ°ÑģÑħÐ¾Ð´Ð¾Ð²
ĠÐ¼Ð¾Ð½Ð°ÑĢÑħÐ¸Ð¸
Ġhttp
Ð°ÑİÑīÐµÐµ
Ð°ÑİÑīÐ¸Ð¼
Ð½ÑģÐºÐ¾Ð¹
ĠÐ½Ð°ÑĳÐ¼
ĠÐĴÐ¾ÑĤ
ĠÐĴÑıÑĤ
ĠÐŁÐµÐ´
ĠÐĵÑĢÐ¾Ð´
ĠÐ²ÑĭÑģÑĤÑĢÐµ
1921
Ð°Ð½Ð´Ñĭ
ÐĲÐļ
ĠÐ¥ÑĢÐ¾Ð½
ĠÐŁÑĢÐ¸Ð´
ĠÑĢÐ¾Ð´Ð¸ÑĤÐµÐ»ÐµÐ¹
ĠÑģÐ¾Ð²ÑĢÐµÐ¼ÐµÐ½Ð½Ð¸ÐºÐ¾Ð²
ĠÐľÐ°ÑĢÐ³Ð°ÑĢÐ¸
ĠÐºÑĥÐ»ÑĮÑĤÑĥÑĢÐ½Ð¾Ð¹
ĠÐ¿ÑĢÐµÐ´Ð¿ÑĢÐ¸Ð½Ð¸Ð¼Ð°ÑĤ
ĠÐ¿ÑĢÐ¸ÑĢÐ¾Ð´Ñĥ
ĠÐ¿ÑģÐ¸ÑħÐ¸Ð°ÑĤ
ĠÐ´ÐµÐ¹ÑģÑĤÐ²Ð¸ÑıÑħ
1936
ĠÐ²Ð¾Ð¾ÑĢÑĥÐ¶ÑĳÐ½Ð½ÑĭÐµ
ĠÑģÐ¿ÐµÐºÑĤÑĢÐ°
ĠÐ¼Ð¾ÑĤÐ¾ÑĨÐ¸
ĠÐĴÐ¼ÐµÑģÑĤÐ¾
ĠÐ¢Ð°Ð¸Ð»
Î¬
ÐºÐ¾Ð´
ÐµÐ½ÐºÐ¾Ð²
ĠÐ³ÐµÐºÑĤ
ĠÐĴÑģÑĤÑĢÐµ
ĠÑĥÑģÐº
ĠÑĥÐ²Ð¾Ð»
ĠÐļÑĥÐ½
ĠÐĽÐ°Ð³
ĠÑĢÐ°Ð·ÑĢÑıÐ´
ĠÐ¥ÐµÐ»ÑĮ
ÑģÑĭÐ¿
ĠÐ²Ð¾ÑģÑħÐ¾Ð´Ð¸ÑĤ
ĠÐĲÑĢÐ½
ÑĥÑīÐ¸Ð¼Ð¸
ĠÐ¿Ð¾Ð»Ð¸ÑĤÐ¸ÑĩÐµÑģÐºÐ¸Ð¼
ĠÐ´ÐµÐºÐ°Ð±ÑĢÑĮ
ĠÐ¿Ð¾Ð½ÑıÑĤ
ĠÐ¾ÑĤÐ»Ð¸ÑĩÐ¸Ñı
ĠÐ¾Ð±ÑĬÑıÐ²Ð¸Ð»Ð¸
ĠÐ·Ð°Ð´ÑĥÐ¼
ĠÐ´Ð²Ð¾ÑĢÑĨÐµ
ĠÐĵÐ°Ð»ÐµÑĢÐµÑı
ĠÐ±Ð°ÑĪÐ½Ñı
ĠÐ¸Ð·Ð³Ð¾ÑĤÐ°Ð²
ĠÐļÐ°Ð²ÐºÐ°Ð·Ðµ
ĠÐºÑĢÐµÐ¹Ñģ
ner
ÑħÐ°Ð±
ĠÐ¾Ð·Ð²ÑĥÑĩ
ÐµÑĢÐ¼Ð¸Ð½
ĠÐ½Ð°Ð¿Ð¾Ð»
ĠÐĴÐ»Ð¸ÑıÐ½Ð¸Ðµ
ĠÐ·Ð»Ð°
ĠÐ·ÑĢÐ¸ÑĤÐµÐ»ÑĮ
ĠÐĳÐ¸Ð±
ĠÐĳÑĢÐ°Ð¹
ĠÐ¿Ð¾Ð»Ð¸ÐºÐ»Ð¸Ð½
ÐĲÑĤ
ĠÑıÐ²Ð»ÑıÐ»Ð¾ÑģÑĮ
ĠÑĩÐ°ÑģÑĤÑıÐ¼Ð¸
ĠÐ½Ð°ÑħÐ¾Ð´Ð¸ÑĤÑĮÑģÑı
ĠÐ·ÐµÐ¼Ð»ÑĳÐ¹
ĠÐ¿ÑĢÐ¾ÑĨÐµÐ½ÑĤÐ¾Ð²
ĠÑģÐµÐ½ÑĤÑıÐ±ÑĢÑĮ
ĠÑĤÐ¾ÑĩÐ½Ð¾ÑģÑĤÑĮÑİ
ĠÐ½ÐµÐ¼ÐµÑĨÐºÐ¾Ð¼
ĠÑįÐ»ÐµÐ¼ÐµÐ½ÑĤÐ¾Ð¼
ĠÐ¸ÑģÐ»Ð°Ð¼Ð°
ĠÐ±Ð»Ð°Ð³Ð¾ÑĤÐ²Ð¾ÑĢÐ¸ÑĤÐµÐ»ÑĮ
ĠÐ»Ð¸ÑĨÐµ
ĠÐ¼ÑĥÐ¶ÑģÐºÐ¾Ð³Ð¾
ĠÐ¼ÐµÐ½ÑĮÑĪÐ¸Ð½
ĠÐ¿ÑĢÐ¸Ð±Ð»Ð¸
ĠÐºÐ»Ð¸ÐµÐ½ÑĤ
ĠÐ¿ÑĢÐ¾ÑĤÑıÐ¶ÑĳÐ½Ð½Ð¾ÑģÑĤÑĮ
ĠÐĴÐ¾Ð·Ð²
ĠÐ½Ð°Ð»Ð¸ÑĩÐ¸Ñı
ĠÐĺÑģÐ»Ð°Ð¼
ĠÐ¤Ð¸Ð·Ð¸ÑĩÐµÑģÐºÐ¸Ðµ
ĠÑģÐ¿Ð¸ÑģÐºÐ°
ĠÐ¢ÑĮÑİÑĢÐ¸Ð½
PL
Ð²Ð¾Ð±
Ð°Ð½ÑģÐºÐ¾Ð¼Ñĥ
ĠÐĳÑĢÐµÐ¶
1924
ĠÐ¥Ð¾ÑģÐµ
Ð°ÑĪÐ²Ð¸Ð»Ð¸
ĠAt
att
ĠÐĺÐ·Ð±ÑĢÐ°Ð½
ĠÐ¿Ð¾ÑįÑĤÑĭ
ĠÐ°Ð¿ÑĢÐµÐ»ÑĮ
ĠÐ·Ð°Ð½ÑıÑĤÐ¸Ñı
ĠÐ²ÑĭÑĪÐ»Ð¾
ÐºÐ°Ð·ÑĭÐ²Ð°ÐµÑĤÑģÑı
Ġ1856
Ġ1857
ĠÐºÐ¾Ð»Ð»ÐµÐºÑĨÐ¸Ð¸
ĠÐºÐ¾Ð»ÐµÐ±Ð°Ð½Ð¸Ð¹
ĠÐºÐ¸Ð»Ð¾Ð¼ÐµÑĤÑĢÐ°Ñħ
ĠÐĴÐ¸Ð»ÑĮÐ³ÐµÐ»ÑĮÐ¼Ð°
ĠÐĲÑģÑģÐ¾ÑĨÐ¸
span
ĠÐ¡Ð¾Ð»Ð½ÐµÑĩÐ½Ð¾Ð¹
ĠÐ¿Ð¾ÑģÐ²ÑıÑĤÐ¸
Î¯
Ð¼ÐµÐ»
ĠÐºÑĢÑĥ
ÑĨÐ¾Ð²Ð°
ĠÐ³ÐµÐ¼
ĠÐ¼Ð¸Ð»
ÑĳÑĤÑĥ
Ð¸Ð²Ð°Ð»Ð°ÑģÑĮ
ĠÑĢÐµÑĨÐµÐ½
ĠÑģÐ²Ð°Ð´ÑĮ
ĠÐ¿ÑĢÐ¾Ð²ÐµÐ»Ð¸
ÐĵÐ¾Ð»
ĠÑģÐ»ÐµÐ´ÑģÑĤÐ²Ð¸ÐµÐ¼
ĠÐ¾Ð±ÑīÐ¸Ð½Ð°
ĠÐ¤ÑĢÐ°Ð½ÐºÐ¾
ĠÐ¾ÑĤÐ´ÐµÐ»Ñı
ÑĢÐ¾Ð²Ð°Ð½Ð½ÑĭÐ¹
ĠÐ¼Ð¾Ð´ÑĥÐ»Ñı
ĠÑģÑĤÐ°ÑĢÐ¾Ð¹
ĠÑħÐ¸Ð¼Ð¸ÑĩÐµÑģÐºÐ¸Ðµ
1942
1966
Ð¸ÑģÐºÑĥÑģ
ĠÑĪÑĤÐ°ÑĤÐµ
ĠÐ¿ÑĢÐµÐ´Ð¾ÑģÑĤÐ°Ð²Ð»Ñı
ĠÐ¿ÐµÑĢÐµÐ´Ð°ÑĩÐ°
ĠÐ²ÑĭÐ²Ð¾Ð´Ð°
ĠÐ¡Ð¾Ð±ÑĢÐ°Ð½Ð¸Ðµ
ĠÑģÐµÐºÑĢÐµÑĤÐ°ÑĢÑĳÐ¼
ĠÐĲÐ³ÑĢÐ¸
ĠÑģÐ¼ÐµÐ½Ñĥ
ĠÐĳÑĢÐ°ÑĥÐ½
aj
Ð°ÑİÑīÐµÐ³Ð¾
ĠÑģÐ´ÐµÑĢÐ¶
Ð¸ÑĤÐ¾
ĠÐ±Ð°Ðº
ĠÑĢÐ°ÑĤÐ¸
ĠÐ½ÐµÐ±Ð°
ĠÐ¸Ð·Ð¾Ð»Ñı
ĠÐłÐ¾Ð½
ĠÐ¢ÐµÐ²
ÐµÑĢÐ¸Ð½Ð°
ĠÑģÐ¾Ð±ÑģÑĤÐ²ÐµÐ½Ð½ÑĭÐ¼
ÑĥÐ»ÐµÐ¹
ĠÐ¸Ð·Ð²ÐµÑģÑĤÐ½ÑĭÐ¼Ð¸
Ð½Ð¸ÑĨÐºÐ¸Ð¹
ĠÐ¿Ð¾Ð´Ð´ÐµÑĢÐ¶Ð¸Ð²Ð°
ome
ĠÐ½ÐµÐ²Ñĭ
ĠÑĤÑıÐ¶ÐµÐ»
ĠÑģÐ²Ð¸Ð´ÐµÑĤÐµÐ»ÑĮÑģÑĤÐ²Ð°
ĠÐłÐ¾Ð±ÐµÑĢÑĤÐ°
ĠÐ¿ÑĢÐµÐ¿Ð°ÑĢÐ°ÑĤ
ĠÐ·Ð°Ð¿ÑĢÐµÑīÐµÐ½Ð¾
ĠÐ¿Ð°ÑĢÐ°Ð¼ÐµÑĤÑĢÑĭ
ĠÐ°ÑĢÐ³ÐµÐ½ÑĤ
ĠÐ½Ð¾ÑĩÑĮÑİ
ĠÑĩÑĥÐ´ÐµÑģ
ĠÐ±ÑĥÑħÐ³Ð°Ð»
ĠÐ²Ð¾ÑģÐºÑĢÐµÑģÐµÐ½ÑĮÐµ
ĠÐ´ÐµÐ»Ð¾Ð²
ÑĪÐµÐ»ÑĮ
ĠÐļÐµÐ½
ÐµÐ²Ñĭ
Ð¾Ð»ÑĮÑģÐºÐ¾Ð¹
ĠÐĳÐ°Ð»ÑĮ
ĠÐĽÐ¾
ĠÐ£Ð¼ÐµÑĢÑĪÐ¸Ðµ
ĠÐ±Ð¾Ð»ÑĮÑĪÐ¸Ð¼Ð¸
ĠÑĥÑĩÐ¸ÑĤÐµÐ»Ñı
ĠÐ¿Ð¾Ð²ÑģÐµÐ¼ÐµÑģÑĤ
Ð¾Ð±ÑĭÑĩÐ½Ð¾
ÑĪÐ¸Ð¹ÑģÑı
ĠWeb
ĠÑĦÐ¸Ð»Ð¾ÑģÐ¾ÑĦÑģÐºÐ¸Ñħ
ĠÑĤÑĢÐ°Ð´Ð¸ÑĨÐ¸Ð¹
ĠÐ¾Ð³Ð½Ðµ
Ð¼ÐµÑģÑĤÐ½Ð¾
ĠÐ»ÑĥÑĩÑĪÐ¸Ð¼
ĠÐ¾Ð¿ÑĢÐµÐ´ÐµÐ»ÑıÑİÑĤ
ÑĥÐ³Ð¾Ð»ÑĮÐ½Ð¸Ðº
ĠÐ´ÑĥÑħÐ¾Ð²Ð½Ð¾Ð¹
ĠÐ¡ÑĤÐ°ÑĢÑĪÐ¸Ð¹
ĠÐĽÐ¸Ð²Ð¸Ð¸
ĠÐ¶Ð¸Ð»ÑĭÑħ
ÑĤÐµÑĢÑĢÐ¸ÑĤÐ¾ÑĢÐ¸Ð°Ð»ÑĮÐ½Ð¾Ðµ
ĠÐ½Ð¾ÑĩÐ¸
ĠÐ¼Ð¸Ð½Ð¸ÑģÑĤÐµÑĢÑģÑĤÐ²Ð°
ĠÐ²Ð¿ÐµÑĩÐ°ÑĤÐ»ÐµÐ½Ð¸Ðµ
ĠÐĵÐ¾ÑĢÑĮÐºÐ¾Ð³Ð¾
ÑħÐ¾Ð¶
Ð°ÑĤÐ¸Ð»ÐµÑĤ
ĠÐĴÐµÑĩ
ĠÐłÐĿÐļ
ĠÑĢÐ°Ð·Ð²Ð¾Ð´
ĠÑģÐ¾Ð¾Ð±ÑĢÐ°Ð¶
ÑĥÐ½Ð´Ð°
ÐłÐ£
ĠÐ´Ð²Ð¸Ð½
ÑĤÑĭÑģÑıÑĩ
Ġ86
ĠRec
ĠÐ¼Ð¾ÑĢÑİ
ĠÐ¿ÑĢÐ¾Ð¼ÑĭÑĪÐ»ÐµÐ½Ð½Ð¾Ð¹
amp
Ð½Ð¾Ð³Ð¾ÑĢ
ĠÐ¿ÑĢÐµÐ´ÑģÑĤÐ°Ð²Ð»ÑıÐ»Ð¸
ĠÐ¿ÑĢÐ¾Ð¸Ð·Ð¾ÑĪÐµÐ´
ĠÐ¿ÐµÑĢÐµÑħÐ¾Ð´Ðµ
ĠÑĤÑĢÐµÑĤÑĮÐµ
ĠÐ´ÐµÐ²ÑıÑĤÑĮ
ĠÐ¿Ð¾ÑĤÐµÑĢÑıÐ»
ĠÐ³Ð¸Ð¿Ð¾ÑĤÐµÐ·Ð°
ĠÑĦÐ°Ð½ÑĤÐ°ÑģÑĤÐ¸ÐºÐ¸
ĠÐ¸Ð½ÑĦÑĢÐ°ÑģÑĤÑĢÑĥÐºÑĤÑĥÑĢÑĭ
ĠÐ²ÑģÐ¿Ð¾Ð¼Ð¸Ð½Ð°Ð»
Ð¼ÑĥÐ·ÐµÐ¹
ler
Ð·Ð¸Ñİ
ĠÐºÐ°ÑĤÐµÐ³Ð¾ÑĢÐ¸Ñı
Ð°Ð»Ð°Ñħ
Ð°ÑĤÐ°Ð¼Ð¸
ĠÐĺÐµÐ³Ð¾Ð²
ĠÐ·Ð°ÑĢÐ°Ð½ÐµÐµ
ĠÑģÑĢÐµÐ´ÑģÑĤÐ²Ð¾Ð¼
ĠGro
ĠÑĥÑģÐ»Ð¾Ð²Ð¸Ð¸
ĠÐ¡Ð°Ð¼ÑĭÐ¼
ĠÐ°Ð½Ð³Ð»Ð¸Ð¹ÑģÐºÐ¸Ð¼
ĠÑĥÐºÐ°Ð·Ð°Ð½Ð¸Ñı
ĠÐ¸Ð½Ð´ÑĥÐº
ĠÐ²Ð»Ð°Ð´ÐµÐ½Ð¸Ð¹
ĠÐĳÐ¾Ð»Ð¸Ð²
ĠÑģÐ±Ð¾ÑĢÐ°
ĠÐ·Ð°ÐºÐ¾Ð½Ð¾Ð´Ð°ÑĤÐµÐ»ÑĮÑģÑĤÐ²Ð°
ĠÐļÐ¾ÑģÑĤÐ°
ĠÐ²Ð¾ÑģÑĤÐ¾ÐºÑĥ
ĠÐ°Ð²ÑĤÐ¾ÑĢÐ¸ÑĤ
Ïħ
ÐµÑĤÐ¸ÐºÐ¸
ÑĦÑĢÐ¸
ĠÐ¡ÑĥÐ±
ĠÐļÑĥÐ¹Ð±ÑĭÑĪ
ĠÐ¢ÑĥÑĢÐ¸
Ð°Ð½Ð´Ðµ
ĠÑģÑĥÑīÐµÑģÑĤÐ²ÑĥÑİÑīÐ¸Ñħ
ĠÑĢÐµÑĪÐ¸ÑĤÑĮ
ĠÐ¿ÑĢÐ¸Ð²Ð¸Ð»ÐµÐ³
ĠÐ¸Ð·Ð¼ÐµÐ½ÑıÐµÑĤÑģÑı
ĠÐ¸Ð´ÐµÐ¾Ð»Ð¾Ð³Ð¸Ð¸
ĠÐ³Ð¾ÑĢÑıÑĩ
ÑĢÐ¾Ð·Ð°Ð²Ð¾Ð´
ĠÐ½ÐµÐ±Ð¾Ð»ÑĮÑĪÐ¾Ðµ
ĠÐľÐ°Ð»Ð°Ð¹
ĠÑģÐ¾ÑħÑĢÐ°Ð½Ð¸Ð»Ð°ÑģÑĮ
ĠÑĤÐ¾Ð¿Ð»Ð¸Ð²
ĠÑĤÐ°Ð½ÑĨÐµÐ²
ĠÑıÐ¿Ð¾Ð½ÑģÐºÐ¾Ð¹
ĠÐ¢ÑĢÑĥÐ´Ð¾Ð²
ĠÐµÐ´Ð¸Ð½Ð¸ÑĨÑĥ
ĠÐ°Ð²ÑĤÐ¾Ð¼Ð¾Ð±Ð¸Ð»ÑĮÐ½ÑĭÑħ
ĠÐļÐ»Ð°Ð²Ð´Ð¸Ð¹
ÐµÑĢÑģÐºÐ¾Ð¹
1912
ĠÐ£ÑįÐ»ÑĮ
ÐŁÐŁ
ĠÐŁÑĢÐ¸Ð±Ð°Ð»
Ð¸ÑĢÐ¾Ð²Ð°Ð»Ð°
ÑģÑĤÐ¸ÑĩÐµÑģÐºÐ¾Ðµ
ĠÑģÐµÐ¼ÐµÐ¹ÑģÑĤÐ²
ĠÐ¿Ð¾Ð½ÑıÑĤÑĮ
ĠHer
ĠÐ´Ð¾Ð±ÑĢÐ¾Ð´ÐµÑĤ
ĠÐłÐ°Ð·Ð»Ð¸Ñĩ
rad
ĠÐ¿Ð¾Ð¿ÑĥÐ»ÑıÑĢÐ½Ð¾Ð¹
ĠÐ²Ð¾ÑģÐ¿Ð°Ð»
Ð¾ÐºÐ¸Ð¾
ĠÑĥÐ¿Ð¾Ð¼Ð¸Ð½Ð°Ð½Ð¸Ñı
ÐºÐ°ÑĢÑĤÐ½Ð¸
Ð·Ð¼Ñĥ
Ð°Ð»Ð¸Ð½Ð°
Ð°ÑĢÐ½Ð¾
Ð°ÑĢÐ½Ð¾ÑģÑĤÑĮ
ÐµÐ¹Ñģ
Ð¾ÑģÑĤÑĥÐ¿
ĠÐŃÑģ
1913
ĠÐ²Ð¾Ð¸Ð½
Ð²ÐµÐ´Ð¾Ð¼
Ġ97
ĠÐ¿Ð¾Ð½Ð¸Ð¶
ĠÑįÐºÐ¾Ð½Ð¾Ð¼Ð¸ÑĩÐµÑģÐºÐ¸Ðµ
ĠÑĦÐ¸Ð·Ð¸ÑĩÐµÑģÐºÐ¾Ð³Ð¾
ĠÐ½ÐµÐ±Ð»Ð°Ð³
ĠÑģÐ½Ð¸Ð¶ÐµÐ½Ð¸Ñı
ĠÐ±ÐµÐ·Ð¾Ð¿Ð°ÑģÐ½Ð¾ÑģÑĤÑĮ
ĠÑįÐºÑģÐ¿ÐµÑĢÐ¸Ð¼ÐµÐ½ÑĤÐ¾Ð²
ĠÐ¶Ð°Ð½ÑĢÐµ
ĠÐ¢ÑĢÑĥÐ±
ĠÐ²Ð²Ð¾Ð´Ð°
ĠÐ·Ð°Ð¼ÐµÑģÑĤÐ¸ÑĤÐµÐ»ÐµÐ¼
ĠÐ¿ÑĥÑĤÐµÑĪÐµÑģÑĤÐ²Ð¸Ðµ
ĠÑģÑĬÑĳÐ¼ÐºÐ¸
ĠÐ¸Ð·Ð¾ÑĤÐ¾Ð¿Ð¾Ð²
ĠÐ²ÐµÐ»Ð¾ÑģÐ¸Ð¿ÐµÐ´
"|
ĠÐºÐ°ÑģÐ°
ĠÑĤÐ¸Ñħ
ĠÐ¿ÑĢÐ¸Ð³Ð¾Ð²
1914
ĠÐ¼ÐµÑģÑĤÐ°Ð¼Ð¸
ĠÑĢÑĥÑģÑģÐºÐ¾Ðµ
ĠÐļÐ¾Ð½ÐµÑĨ
ĠÐ¸Ð·Ð´Ð°Ð½Ð¸Ð¹
ĠÐŀÑģÐ½Ð¾Ð²Ð°Ð½
Ð°ÑīÐ¸Ð¹
ĠÑĪÐ¸ÑĢÐ¾ÐºÐ¸Ð¹
ĠÐ¾ÑĤÐºÑĢÑĭÑĤÑĭÑħ
ĠÐ»ÐµÐ³ÐµÐ½Ð´Ð°
ĠÐ¼ÐµÑħÐ°Ð½Ð¸Ð·Ð¼Ð°
ĠÐ±Ð°Ð»ÐµÑĤ
ĠÐļÐ»Ð¸Ð¼ÐµÐ½ÑĤ
ĠÐŀÐ±ÑĬÑĳÐ¼
ĠÐĵÐ°ÑĢÑĢÐ¸
ĠÐ°Ð¿Ð¾ÑģÑĤÐ¾Ð»Ð°
ĠÑĤÑĢÐ°Ð½Ð·Ð¸ÑģÑĤ
ĠÐĺÑģÐºÑĥÑģÑģÑĤÐ²Ð¾
ÑĢÐ°ÑĤÐ¸Ð²
ĠÐŁÐµÐ½Ð·
ÐµÐºÐ¾Ð²
ĠÐ¿ÑĢÐ¸ÑĪÐ»Ð°
Ð¾ÐµÐ·
ĠÑĨÐµÐ½Ñĭ
ĠÐ¿ÑĢÐµÑĦ
ÑĢÐ¾Ð´ÑĥÐºÑĤ
ĠÐ²ÑģÐµÐ¾Ð±
ĠÑģÑĢÐµÐ´Ñĥ
ĠÐ¿Ð¾ÐºÐ¾Ð¹
ĠÑĢÐ°ÑģÑģÐºÐ°Ð·ÑĭÐ²
ĠÐ¿Ð¾Ð¼Ð¾ÑĩÑĮ
ĠÐļÐ¾Ð¼Ð¸
ĠÐŁÐµÑĢÑģÐ¸Ð´
ĠÐĹÐµÐ¼Ð»Ñİ
ĠÐ¼ÑĥÐ¶ÑģÐºÐ¾Ð¹
ĠÑģÐ²ÑıÑĤÐ¸ÑĤÐµÐ»Ñı
ĠÐ¿ÑĢÐ¸ÑģÐ¾ÐµÐ´Ð¸Ð½ÐµÐ½Ð¸Ñı
ĠÐ»ÐµÑĩÐµÐ½Ð¸Ðµ
ĠÑĢÑĭÐ±Ð¾Ð»Ð¾Ð²
ĠÐ·Ð´Ð¾ÑĢÐ¾Ð²ÑĮÐµ
ĠÐ±Ð¾Ð¼Ð±
ĠÐ¿ÐµÑĢÐµÑģÐµÑĩÐµÐ½Ð¸Ñı
ĠÐ¿ÑĥÑĤÐµÑĪÐµÑģÑĤÐ²Ð¸Ñı
ĠÐ½Ð°ÐºÐ°Ð·Ð°Ð½Ð¸Ñı
ĠÐľÐ¾Ð»Ð´Ð°Ð²Ð¸Ð¸
Ġalign
ĠÐ§ÐµÑħÐ¾ÑģÐ»Ð¾Ð²Ð°ÐºÐ¸Ð¸
ĠÐĴÐ¦ÐĺÐļ
ĠÐŁÑĢÐµÐ¿Ð¾Ð´Ð°Ð²Ð°ÑĤÐµÐ»Ð¸
ĠÐ²Ð¸Ðº
ĠÑģÐµÑģÑģÐ¸Ð¸
Ð¿ÐµÐ´
ĠÐ¿ÑĢÐ¸ÑģÐ»
ĠÐ¿ÑĢÐ¸ÐµÐ·Ð¶
ĠÐłÐ¾ÑĤ
ÐłÐµ
ÐłÐļ
ÐĿÐ¡
alt
ĠÐ´Ð¾ÑģÑĤÐ¸ÑĩÑĮ
ĠÐ¿Ð¾Ð´Ð´ÐµÑĢÐ¶Ð¸Ð²Ð°ÑĤÑĮ
ĠÐºÐ°Ð¶Ð´Ð¾Ðµ
ĠÑĤÐµÐºÑģÑĤÐµ
urg
ĠÐ¾ÐºÐ°Ð·Ð°Ð»Ð¸
ĠÐ²Ð¾ÐºÐ°Ð»Ð¸ÑģÑĤ
ĠÐĲÑĢÑħÐµ
ĠÎ²
ĠÐŃÐ¹Ð·ÐµÐ½
ĠÐ¾ÑĤÑĢÐ°Ð¶Ð°ÐµÑĤ
ĠÐ¿Ð¾Ð´ÑħÐ¾Ð´Ð°
ĠÑģÐµÐ·Ð¾Ð½Ðµ
Ð¢ÐłÐļ
ĠÐĿÐ¾Ð²Ð¾ÐºÑĥÐ·
Ð½ÑĳÑģ
Ð°Ð½ÑģÐºÐ¸Ð¼Ð¸
ĠÐ¡ÐµÐ±
ĠÐŁÐ¸Ðº
ĠÑĩÑĢÐµÐ·
ĠÐĵÑĥÐ¼
ĠÐŀÐ¡
ĠÐ¢Ð°Ð³Ð°Ð½
ĠÑĢÐ²
ĠÐ¾Ð¿ÑĢÐµÐ´ÐµÐ»ÑĳÐ½Ð½ÑĭÐ¹
ĠÐ·Ð°ÑĤÐ¾Ð¿
ĠÐ²Ð¾Ð»Ð¾Ðº
ĠÐ¿Ð¾ÑıÐ²Ð»ÐµÐ½Ð¸Ñİ
ĠÐĽÑİÐ´Ð¸
ĠÐ¸Ð³ÑĢÐ°Ð»Ð¸
ĠÐ¼Ð°ÑĤÐµÐ¼Ð°ÑĤÐ¸ÑĩÐµÑģÐºÐ¾Ð¹
Ð±Ð¸Ð½Ð°ÑĤ
1935
ĠÐ¼Ð°ÑģÑĤÐµÑĢÐ¾Ð²
ĠÐ¼ÐµÐ´Ð¸ÑĨÐ¸Ð½ÑģÐºÐ¸Ð¹
ĠÑĢÐµÐ¹ÑĤÐ¸Ð½
ĠÐ¸ÑģÐ¿ÑĭÑĤÐ°Ð½Ð¸Ð¹
ĠÑĢÐµÐºÐ¾Ð¼ÐµÐ½Ð´Ñĥ
ĠÐ²ÑĥÐ»ÐºÐ°Ð½Ð¸
ĠÐ¢Ð²ÐµÑĢÑģÐºÐ¾Ð¹
ĠÐ¾Ð¿ÑĢÐ°Ð²Ð´
ĠÐĵÐ¾ÑĢÐ±Ð°ÑĩÑĳÐ²
ĠÐ®Ð¿Ð¸ÑĤÐµÑĢÐ°
".
Ð¾Ð¸Ð·
Ð¾ÐºÑģÐ¸Ð´
ÐºÐ¸Ñı
ĠÑĦÐ°Ñĥ
ĠÐ¿Ð¾Ð¾Ñī
ÑĥÑĩÐ°ÑģÑĤ
ÑĢÐ¾Ñħ
ĠÐºÐ¾Ð¼Ð¼ÑĥÐ½
ĠÐ¨Ð¿
ĠÐ²ÑģÐ°Ð´
ĠRad
ĠÐ¿ÑĢÐ¸ÑģÐ²Ð°
ĠÐ´ÑĢÐµÐ²ÐµÑģ
ĠÐ½Ð¾ÑģÑıÑĤ
ĠÐļÐ¸ÐµÐ²ÑģÐºÐ¾Ð³Ð¾
ĠÐ¸ÑģÑħÐ¾Ð´Ð½Ð¾Ð³Ð¾
ĠÐ´Ð¸Ð°Ð»ÐµÐºÑĤÐ¾Ð²
ĠÐºÐ½Ð¸Ð³Ð°Ñħ
ĠÐºÐ¾Ð½ÑģÑĤÐ¸ÑĤÑĥÑĨÐ¸Ñı
ĠÐ½ÐµÐ¿ÑĢÐ¸ÑıÑĤ
ĠÐ´Ð¸Ð²Ð¸Ð·Ð¸Ñı
ĠÐ°ÑĢÑħÐµÐ¾Ð»Ð¾Ð³
ĠÑģÐ²ÑıÑīÐµÐ½Ð½Ð¾Ð¼ÑĥÑĩÐµÐ½Ð¸ÐºÐ°
ĠÐĵÑĳÑĤÐµ
ĠÐºÑĢÐµÑģÑĤÑĮÑıÐ½Ðµ
ĠÐ¡Ð¾ÑĩÐ¸Ð½ÐµÐ½Ð¸Ñı
ÑģÐµÐ½ÑĤ
Ð·Ð°Ð²
Ð»Ð¸ÐµÐ¹
ÑĤÐ¸Ð·Ð¼Ð°
ĠÐļÑĭ
ĠÐ»Ð°
ĠÑģÐ¾Ð°Ð²ÑĤÐ¾ÑĢ
ĠÑıÐ²Ð»ÑıÑıÑģÑĮ
ĠÐ¡ÑĤÑĢÑĥÐ³
ĠÐ¿ÑĢÐ¾ÑĤÐ¸Ð²Ð¾Ð´ÐµÐ¹ÑģÑĤÐ²
ĠÐ·Ð½Ð°ÑĩÐµÐ½Ð¸ÐµÐ¼
ĠÐ½Ð°ÑħÐ¾Ð´ÑıÑīÐ¸ÑħÑģÑı
ĠÐ½ÐµÐ¼Ð°Ð»Ð¾
ĠÐ²ÐºÑĥÑģ
ĠÐŁÐµÑĤÑĢÐ¾Ð¿Ð°Ð²Ð»Ð¾Ð²
ĠÑįÐ»ÐµÐ¼ÐµÐ½ÑĤÐ°ÑĢÐ½ÑĭÑħ
ĠÐ±Ð¾Ð»ÑĮÑĪÐ¸Ð½ÑģÑĤÐ²Ð¾Ð¼
Ð¶ÐµÐ½ÐµÐ´ÐµÐ»ÑĮ
ings
ĠÐ¿ÑĢÑıÐ¼ÑĭÑħ
ĠÐľÐ¾ÑĢÐ¾Ð·Ð¾Ð²
ĠÐĺÐ¼Ð¿ÐµÑĢÐ¸Ð¸
ĠÐ¡ÑĤÑĢÑĥÐºÑĤÑĥÑĢÐ°
rist
ÑĩÐµÐ¼
Ð¿ÑĢÐ¾Ð¼ÑĭÑĪÐ»ÐµÐ½
ĠÐºÐ¾ÑĦÐµ
Ð»Ð°Ð´Ð¸
ĠÐĴÑĭÑĪ
ÑĤÐ¸ÑģÑĤÐ¾Ð²
ĠÐĽÑı
ĠÐºÐ¾Ð¼ÐµÐ´Ð¸Ð¸
ÑĦÐ¸ÐºÐ¸
Ð¼ÑĥÐ½Ð¸ÐºÐ°
ĠÐ½Ð¾Ð²ÐµÐ¹
ĠÐ³ÑĢÑĥÐ¿Ð¿Ð°Ð¼Ð¸
ĠÐļÐ¾Ð½ÑĤ
ĠÑĥÐ³Ð»ÐµÐº
ĠÐ¿ÑĢÐ¾Ð´Ð¾Ð»Ð¶ÐµÐ½Ð¸Ðµ
ĠÐľÐ°ÐºÐºÐ°ÑĢÑĤÐ½Ð¸
ĠÐ´Ð¾Ð¿ÑĥÑģÑĤÐ¸Ð¼
ĠÑģÐ¸Ð»ÑĮÐ½ÑĭÐµ
ĠÐ¸ÑģÑĤÐ¾ÑĩÐ½Ð¸ÐºÐ°Ð¼
ĠÑĢÐµÐ°ÐºÑĨÐ¸Ñİ
ĠÐ¾ÑĩÐµÑĢÐµÐ´Ð½Ð¾Ð¹
Ġ1849
Ð°Ð»Ð¸ÑģÑĤÐ¸ÑĩÐµÑģÐºÐ¾Ð¹
ĠÐºÐ¾Ð¼Ð¿Ð¾Ð·Ð¸ÑĤÐ¾ÑĢÐ°
ĠÐ¾ÐºÐµÐ°Ð½Ðµ
ĠÑĩÑĥÐ²ÑģÑĤÐ²Ð¾
ĠÐ°ÑģÑģÐ°Ð¼Ð±Ð»Ðµ
ĠÐ¼Ð°Ð³Ð½Ð¸ÑĤÐ½Ð¾Ð³Ð¾
ĠÑĤÑĢÐ°ÐºÑĤÐ°ÑĤ
ĠÐ¾ÑĤÐ¼ÐµÑĩÐ°ÑİÑĤ
ĠÐ³Ð¾Ð¼Ðµ
ĠÐ´ÐµÑıÑĤÐµÐ»Ð¸
ĠÐ°Ð´ÑĢÐµÑģÑĥ
ĠÐĲÐ¿Ð¾Ð»Ð»Ð¾Ð½
ĠÐºÑĢÐ¸Ð¿ÑĤ
Ð¾ÑĢÑĤÐ¸
ĠÐ´ÑĢÐ°Ðº
Ð¸Ð½ÑĤÐµÑĢ
ÐµÐ¼Ð¸Ð¸
ĠÑĢÐ°ÑĨÐ¸Ð¾Ð½
ĠÐĳÑĥÑį
ĠÐ¾Ð´Ð½Ð¸Ñħ
ĠÐ¾ÑģÐ½Ð¾Ð²Ð°Ð½Ð½Ð°Ñı
ĠÐ½Ð°ÑģÐµÐ»Ñı
ĠÐĿÐ¾Ð²Ð¾ÑĢÐ¾ÑģÑģÐ¸Ð¹
ĠÐ¿Ð¾Ð³ÑĢÑĥÐ¶
ĠÑĥÐ²ÐµÐ»Ð¸ÑĩÐ¸ÑĤÑĮ
ĠÐĲÐ½Ð³Ð»Ð¸Ð¹
ÑģÑĤÐ°Ð½ÑĨÐ¸Ð¸
ĠÑħÐ¾ÑĢÐ²Ð°ÑĤ
ĠÐ¿Ð¾ÑĤÑĢÐµÐ±Ð»ÐµÐ½Ð¸Ñı
1952
ĠÐŁÐ°ÑĢÑĤÐ¸Ñı
ĠÑĤÐµÑħÐ½Ð¸ÑĩÐµÑģÐºÐ¾Ð³Ð¾
Ð¼Ð¾Ð½Ð°Ð²ÑĤ
ĠÐ¾Ð±ÑĬÑĳÐ¼Ñĥ
ĠÐ´Ð¾ÑħÐ¾Ð´Ñĭ
ĠÐ²Ð½ÑĳÑģ
ĠÐ¿ÑĢÐµÐºÑĢÐ°ÑīÐµÐ½Ð¸Ð¸
ĠÐ³Ð¸Ð¿Ð¾ÑĤÐµÐ·
ĠÐ¿Ð¾Ð»ÐµÐ·Ð½ÑĭÑħ
ĠÑģÐ¾Ð»Ð½ÑĨÐ°
ĠÐ¿ÑĥÑĤÐµÑĪÐµÑģÑĤÐ²ÐµÐ½Ð½Ð¸Ðº
ze
ÑģÐ¾Ð±
ÑİÐ½ÑĮ
ĠÑħÐ¸ÑĤ
ĠÑĪÐµÐ¹
ĠÐ²Ð¾Ð¸Ð½ÑģÐºÐ¾Ð¹
ĠÐ¦Ð°ÑĢÐ¸
Ð¸ÑĤÐµÑĢÐ°ÑĤÑĥÑĢ
ĠÑģÐµÐ¼Ð¸Ð½Ð°
ĠÐ¿ÑĢÐ¸Ð½ÑıÐ»Ð¾
ĠÑĥÑģÐ»Ð¾Ð²Ð½Ð¾
[...]
